{
  "version": "1.0",
  "truncation": null,
  "padding": null,
  "added_tokens": [
    {
      "id": 0,
      "content": "<pad>",
      "single_word": false,
      "lstrip": false,
      "rstrip": false,
      "normalized": false,
      "special": true
    },
    {
      "id": 1,
      "content": "<mask>",
      "single_word": false,
      "lstrip": false,
      "rstrip": false,
      "normalized": false,
      "special": true
    },
    {
      "id": 2,
      "content": "<unk>",
      "single_word": false,
      "lstrip": false,
      "rstrip": false,
      "normalized": false,
      "special": true
    },
    {
      "id": 3,
      "content": "<bos>",
      "single_word": false,
      "lstrip": false,
      "rstrip": false,
      "normalized": false,
      "special": true
    },
    {
      "id": 4,
      "content": "<eos>",
      "single_word": false,
      "lstrip": false,
      "rstrip": false,
      "normalized": false,
      "special": true
    }
  ],
  "normalizer": null,
  "pre_tokenizer": {
    "type": "ByteLevel",
    "add_prefix_space": true,
    "trim_offsets": true,
    "use_regex": true
  },
  "post_processor": {
    "type": "ByteLevel",
    "add_prefix_space": true,
    "trim_offsets": false,
    "use_regex": true
  },
  "decoder": null,
  "model": {
    "type": "BPE",
    "dropout": null,
    "unk_token": "<unk>",
    "continuing_subword_prefix": null,
    "end_of_word_suffix": null,
    "fuse_unk": false,
    "byte_fallback": false,
    "ignore_merges": false,
    "vocab": {
      "<pad>": 0,
      "<mask>": 1,
      "<unk>": 2,
      "<bos>": 3,
      "<eos>": 4,
      " ": 5,
      "!": 6,
      "\"": 7,
      "#": 8,
      "$": 9,
      "%": 10,
      "&": 11,
      "'": 12,
      "(": 13,
      ")": 14,
      "+": 15,
      ",": 16,
      "-": 17,
      ".": 18,
      "/": 19,
      "0": 20,
      "1": 21,
      "2": 22,
      "3": 23,
      "4": 24,
      "5": 25,
      "6": 26,
      "7": 27,
      "8": 28,
      "9": 29,
      ":": 30,
      ";": 31,
      "<": 32,
      ">": 33,
      "?": 34,
      "]": 35,
      "`": 36,
      "a": 37,
      "b": 38,
      "c": 39,
      "d": 40,
      "e": 41,
      "f": 42,
      "g": 43,
      "h": 44,
      "i": 45,
      "j": 46,
      "k": 47,
      "l": 48,
      "m": 49,
      "n": 50,
      "o": 51,
      "p": 52,
      "q": 53,
      "r": 54,
      "s": 55,
      "t": 56,
      "u": 57,
      "v": 58,
      "w": 59,
      "x": 60,
      "y": 61,
      "z": 62,
      "|": 63,
      "~": 64,
      "¡": 65,
      "¢": 66,
      "£": 67,
      "¤": 68,
      "¦": 69,
      "§": 70,
      "¨": 71,
      "©": 72,
      "±": 73,
      "²": 74,
      "³": 75,
      "¶": 76,
      "¸": 77,
      "¹": 78,
      "º": 79,
      "¼": 80,
      "¾": 81,
      "Ã": 82,
      "Ä": 83,
      "Å": 84,
      "È": 85,
      "É": 86,
      "Ì": 87,
      "â": 88,
      "Ġ": 89,
      "Ģ": 90,
      "Ĥ": 91,
      "ĥ": 92,
      "ĩ": 93,
      "į": 94,
      "ĵ": 95,
      "Ĺ": 96,
      "Ļ": 97,
      "Ł": 98,
      "ł": 99,
      "Ń": 100,
      "Ġa": 101,
      "er": 102,
      "Ġi": 103,
      "an": 104,
      "Ġt": 105,
      "Ġs": 106,
      "at": 107,
      "on": 108,
      "Ġc": 109,
      "he": 110,
      "ar": 111,
      "Ġb": 112,
      "ed": 113,
      "Ġo": 114,
      "Ġm": 115,
      "it": 116,
      "Ġp": 117,
      "es": 118,
      "Ġthe": 119,
      "un": 120,
      "en": 121,
      "in": 122,
      "ic": 123,
      "or": 124,
      "Ġw": 125,
      "Ġin": 126,
      "al": 127,
      "Ġl": 128,
      "as": 129,
      "is": 130,
      "Ġof": 131,
      "Ġis": 132,
      "Ġan": 133,
      "re": 134,
      "Ġd": 135,
      "Ġf": 136,
      "Ġal": 137,
      "ro": 138,
      "Ġg": 139,
      "ion": 140,
      "Ġand": 141,
      "Ġco": 142,
      "Ġ1": 143,
      "Ġst": 144,
      "am": 145,
      "il": 146,
      "Ġn": 147,
      "Ġh": 148,
      "us": 149,
      "ad": 150,
      "th": 151,
      "Ġun": 152,
      "el": 153,
      "ac": 154,
      "ir": 155,
      "oc": 156,
      "00": 157,
      "tr": 158,
      "ation": 159,
      "ia": 160,
      "Ġstat": 161,
      "ited": 162,
      "Ġcoun": 163,
      "ol": 164,
      "Ġunited": 165,
      "ur": 166,
      "ing": 167,
      "Ġwh": 168,
      "Ġstates": 169,
      "and": 170,
      "Ġwas": 171,
      "ent": 172,
      "Ġj": 173,
      "ers": 174,
      "ay": 175,
      "ag": 176,
      "art": 177,
      "iv": 178,
      "Ġk": 179,
      "ity": 180,
      "em": 181,
      "Ġ(": 182,
      "Ġas": 183,
      "Ġr": 184,
      "Ġle": 185,
      "et": 186,
      "ch": 187,
      "ated": 188,
      "ig": 189,
      "ub": 190,
      "Ġpl": 191,
      "Ġe": 192,
      "try": 193,
      "ian": 194,
      "Ġv": 195,
      "le": 196,
      "Ġre": 197,
      "por": 198,
      "Ġte": 199,
      "id": 200,
      "Ġar": 201,
      "Ġair": 202,
      "Ġam": 203,
      "ter": 204,
      "Ġab": 205,
      "Ġloc": 206,
      "Ġ19": 207,
      "Ġ2": 208,
      "ab": 209,
      "um": 210,
      "Ġro": 211,
      "port": 212,
      "om": 213,
      "ot": 214,
      "Ġcountry": 215,
      "ce": 216,
      "ace": 217,
      "Ġlead": 218,
      "Ġne": 219,
      "ber": 220,
      "Ġpart": 221,
      "ich": 222,
      "ak": 223,
      "Ġleader": 224,
      "Ġch": 225,
      "ip": 226,
      "ap": 227,
      "orn": 228,
      "ish": 229,
      "ty": 230,
      "Ġit": 231,
      "ra": 232,
      "Ġat": 233,
      "ican": 234,
      "eng": 235,
      "ang": 236,
      "up": 237,
      "Ġgro": 238,
      "Ġmus": 239,
      "Ġby": 240,
      "Ġhas": 241,
      "ov": 242,
      "Ġsp": 243,
      "Ġmusic": 244,
      "Ġcounty": 245,
      "Ġind": 246,
      "ut": 247,
      "Ġairport": 248,
      "ton": 249,
      "Ġad": 250,
      "ul": 251,
      "Ġnew": 252,
      "Ġamer": 253,
      "all": 254,
      "Ġfor": 255,
      "ell": 256,
      "Ġcity": 257,
      "Ġcl": 258,
      "age": 259,
      "Ġor": 260,
      "Ġare": 261,
      "io": 262,
      "os": 263,
      "und": 264,
      "ist": 265,
      "oci": 266,
      "ational": 267,
      "Ġde": 268,
      "Ġplace": 269,
      "red": 270,
      "Ġamerican": 271,
      "ow": 272,
      "qu": 273,
      "Ġwhich": 274,
      "Ġbir": 275,
      "ain": 276,
      "ill": 277,
      "angu": 278,
      "Ġlangu": 279,
      "Ġfo": 280,
      "Ġse": 281,
      "Ġlanguage": 282,
      "st": 283,
      "ere": 284,
      "Ġtex": 285,
      "Ġbirth": 286,
      "Ġeng": 287,
      "ant": 288,
      "Ġclub": 289,
      "ess": 290,
      "Ġcom": 291,
      "ct": 292,
      "Ġtexas": 293,
      "ital": 294,
      "Ġass": 295,
      "Ġman": 296,
      "Ġlocation": 297,
      "rom": 298,
      "ey": 299,
      "Ġhe": 300,
      "nic": 301,
      "Ġeth": 302,
      "ivers": 303,
      "ud": 304,
      "Ġgroup": 305,
      "est": 306,
      "Ġon": 307,
      "ive": 308,
      "ran": 309,
      "Ġethnic": 310,
      "ard": 311,
      "Ġunivers": 312,
      "ate": 313,
      "Ġaar": 314,
      "ary": 315,
      "Ġper": 316,
      "op": 317,
      "Ġfrom": 318,
      "land": 319,
      "Ġy": 320,
      "Ġpr": 321,
      "Ġbe": 322,
      "Ġuniversity": 323,
      "tern": 324,
      "ociated": 325,
      "av": 326,
      "000": 327,
      "Ġdi": 328,
      "Ġ3": 329,
      "Ġlocated": 330,
      "ie": 331,
      "Ġaf": 332,
      "ns": 333,
      "ine": 334,
      "Ġreg": 335,
      "Ġwhere": 336,
      "Ġcap": 337,
      "Ġamericans": 338,
      "Ġap": 339,
      "per": 340,
      "Ġser": 341,
      "im": 342,
      "Ġborn": 343,
      "ib": 344,
      "Ġ10": 345,
      "Ġto": 346,
      "etr": 347,
      "Ġalan": 348,
      "Ġale": 349,
      "Ġplay": 350,
      "Ġbu": 351,
      "ack": 352,
      "Ġregion": 353,
      "Ġgen": 354,
      "way": 355,
      "etres": 356,
      "Ġband": 357,
      "Ġbl": 358,
      "ass": 359,
      "og": 360,
      "ith": 361,
      "Ġac": 362,
      "Ġcapital": 363,
      "Ġwith": 364,
      "Ġak": 365,
      "ient": 366,
      "ite": 367,
      "isc": 368,
      "redient": 369,
      "gredient": 370,
      "Ġingredient": 371,
      "ma": 372,
      "if": 373,
      "lo": 374,
      "iana": 375,
      "ico": 376,
      "are": 377,
      "Ġgenre": 378,
      "man": 379,
      "Ġcon": 380,
      "sis": 381,
      "Ġmem": 382,
      "01": 383,
      "ilom": 384,
      "Ġmat": 385,
      "end": 386,
      "Ġintern": 387,
      "Ġinternational": 388,
      "ah": 389,
      "Ġbat": 390,
      "ington": 391,
      "Ġcal": 392,
      "Ġanders": 393,
      "umber": 394,
      "ice": 395,
      "ative": 396,
      "ck": 397,
      "Ġits": 398,
      "Ġalf": 399,
      "lish": 400,
      "ork": 401,
      "Ġmad": 402,
      "Ġsc": 403,
      "igin": 404,
      "63": 405,
      "der": 406,
      "Ġorigin": 407,
      "ner": 408,
      "Ġnational": 409,
      "Ġmon": 410,
      "Ġjo": 411,
      "Ġserv": 412,
      "ong": 413,
      "Ġtur": 414,
      "Ġart": 415,
      "Ġrun": 416,
      "Ġdate": 417,
      "Ġmar": 418,
      "ame": 419,
      "Ġnumber": 420,
      "Ġaaron": 421,
      "lin": 422,
      "Ġ11": 423,
      "Ġrunway": 424,
      "org": 425,
      "ipp": 426,
      "ok": 427,
      "Ġ200": 428,
      "ou": 429,
      "ust": 430,
      "rew": 431,
      "igh": 432,
      "nol": 433,
      "hed": 434,
      "Ġindiana": 435,
      "any": 436,
      "Ġfound": 437,
      "Ġbak": 438,
      "Ġtran": 439,
      "ones": 440,
      "Ġcomp": 441,
      "od": 442,
      "so": 443,
      "iforn": 444,
      "Ġcaliforn": 445,
      "yl": 446,
      "Ġ5": 447,
      "Ġcalifornia": 448,
      "'s": 449,
      "Ġwash": 450,
      "ond": 451,
      "ord": 452,
      "Ġme": 453,
      "Ġgre": 454,
      "pe": 455,
      "ena": 456,
      "Ġenglish": 457,
      "Ġassociated": 458,
      "ue": 459,
      "Ġmusical": 460,
      "Ġwashington": 461,
      "ham": 462,
      "ri": 463,
      "ire": 464,
      "Ġmanag": 465,
      "Ġwho": 466,
      "ks": 467,
      "Ġrock": 468,
      "ama": 469,
      "Ġmart": 470,
      "Ġtech": 471,
      "bert": 472,
      "ore": 473,
      "Ġground": 474,
      "Ġfc": 475,
      "Ġsu": 476,
      "Ġadam": 477,
      "Ġge": 478,
      "Ġalb": 479,
      "zz": 480,
      "iam": 481,
      "ument": 482,
      "Ġth": 483,
      "ly": 484,
      "Ġoper": 485,
      "Ġatl": 486,
      "Ġname": 487,
      "Ġartist": 488,
      "Ġaleks": 489,
      "Ġla": 490,
      "over": 491,
      "Ġgeorg": 492,
      "ett": 493,
      "vel": 494,
      "ff": 495,
      "ge": 496,
      "Ġleng": 497,
      "Ġsing": 498,
      "Ġbac": 499,
      "Ġ4": 500,
      "Ġbacon": 501,
      "Ġital": 502,
      "ark": 503,
      "nolog": 504,
      "Ġtechnolog": 505,
      "Ġpub": 506,
      "Ġlength": 507,
      "ara": 508,
      "tle": 509,
      "Ġengine": 510,
      "Ġph": 511,
      "Ġant": 512,
      "ute": 513,
      "ons": 514,
      "Ġoff": 515,
      "Ġbr": 516,
      "Ġall": 517,
      "Ġjoh": 518,
      "Ġpen": 519,
      "ik": 520,
      "cord": 521,
      "enc": 522,
      "ath": 523,
      "Ġdisc": 524,
      "cc": 525,
      "ball": 526,
      "Ġsch": 527,
      "iation": 528,
      "0000": 529,
      "Ġrecord": 530,
      "Ġcol": 531,
      "ilometres": 532,
      "otball": 533,
      "Ġpro": 534,
      "Ġwill": 535,
      "Ġag": 536,
      "ous": 537,
      "Ġel": 538,
      "Ġii": 539,
      "hus": 540,
      "Ġchar": 541,
      "ris": 542,
      "och": 543,
      "ool": 544,
      "co": 545,
      "ug": 546,
      "ished": 547,
      "Ġden": 548,
      "Ġarch": 549,
      "ign": 550,
      "Ġwilliam": 551,
      "adem": 552,
      "Ġyork": 553,
      "Ġalbert": 554,
      "Ġaleksand": 555,
      "stit": 556,
      "stitute": 557,
      "te": 558,
      "Ġinstitute": 559,
      "Ġparty": 560,
      "Ġsh": 561,
      "Ġjers": 562,
      "Ġjersey": 563,
      "Ġmartin": 564,
      "associated": 565,
      "Ġu": 566,
      "Ġmonument": 567,
      "Ġinc": 568,
      "Ġstate": 569,
      "Ġdeath": 570,
      "Ġalfred": 571,
      "Ġaid": 572,
      "Ġbattle": 573,
      "esid": 574,
      "lic": 575,
      "ica": 576,
      "dr": 577,
      "Ġcan": 578,
      "Ġarea": 579,
      "quare": 580,
      "enn": 581,
      "Ġach": 582,
      "arya": 583,
      "Ġacharya": 584,
      "son": 585,
      "Ġaarhus": 586,
      "Ġinf": 587,
      "Ġbuil": 588,
      "ne": 589,
      "Ġwhite": 590,
      "Ġabd": 591,
      "Ġabdul": 592,
      "iz": 593,
      "Ġatlant": 594,
      "van": 595,
      "Ġspain": 596,
      "Ã¡": 597,
      "Ġmain": 598,
      "Ġplays": 599,
      "ues": 600,
      "Ġitaly": 601,
      "Ġblues": 602,
      "Ġ199": 603,
      "Ġmed": 604,
      "de": 605,
      "Ġafr": 606,
      "ank": 607,
      "Ġwar": 608,
      "Ġturk": 609,
      "Ġandrew": 610,
      "ison": 611,
      "Ġrom": 612,
      "Ġmanager": 613,
      "Ġty": 614,
      "ove": 615,
      "ollo": 616,
      "Ġtechnology": 617,
      "Ġapollo": 618,
      "Ġmember": 619,
      "ast": 620,
      "Ġabove": 621,
      "Ġphil": 622,
      "ear": 623,
      "ines": 624,
      "ays": 625,
      "bur": 626,
      "Ġbo": 627,
      "ura": 628,
      "lished": 629,
      "Ġshe": 630,
      "Ġserved": 631,
      "uf": 632,
      "Ġus": 633,
      "ustin": 634,
      "Ġdish": 635,
      "Ġoffice": 636,
      "Ġindia": 637,
      "urn": 638,
      "Ġyear": 639,
      "pl": 640,
      "Ġsa": 641,
      "Ġmis": 642,
      "Ġking": 643,
      "Ġmend": 644,
      "Ġphilipp": 645,
      "Ġcre": 646,
      "Ġpe": 647,
      "Ġ201": 648,
      "Ġspok": 649,
      "Ġalex": 650,
      "ight": 651,
      "Ġgr": 652,
      "Ġsol": 653,
      "Ġhous": 654,
      "Ġfran": 655,
      "Ġone": 656,
      "Ġspoken": 657,
      "Ġalso": 658,
      "Ġ0": 659,
      "Ġz": 660,
      "Ġlaun": 661,
      "que": 662,
      "erland": 663,
      "Ġep": 664,
      "Ġmater": 665,
      "Ġoperat": 666,
      "Ġaustin": 667,
      "esident": 668,
      "oy": 669,
      "Ġder": 670,
      "Ġepoch": 671,
      "Ġteam": 672,
      "Ġmex": 673,
      "Ġ195": 674,
      "Ġer": 675,
      "ence": 676,
      "fo": 677,
      "Ġsea": 678,
      "Ġgeorgia": 679,
      "onn": 680,
      "Ġ8": 681,
      "Ġpop": 682,
      "Ġpresident": 683,
      "eem": 684,
      "Ġtit": 685,
      "Ġakeem": 686,
      "outh": 687,
      "Ġbar": 688,
      "ros": 689,
      "vil": 690,
      "ial": 691,
      "Ġsci": 692,
      "Ġ12": 693,
      "Ġ6": 694,
      "ague": 695,
      "Ġschool": 696,
      "Ġmexico": 697,
      "Ġaston": 698,
      "amp": 699,
      "Ġlevel": 700,
      "tain": 701,
      "Ġdem": 702,
      "Ġtrans": 703,
      "Ġell": 704,
      "64": 705,
      "pard": 706,
      "Ġshepard": 707,
      "Ġbean": 708,
      "drin": 709,
      "Ġindones": 710,
      "Ġpar": 711,
      "rid": 712,
      "acter": 713,
      "Ġcharacter": 714,
      "ais": 715,
      "Ġmet": 716,
      "Ġafrican": 717,
      "Ġlar": 718,
      "07": 719,
      "jo": 720,
      "Ġfootball": 721,
      "Ġdied": 722,
      "iot": 723,
      "Ġmal": 724,
      "Ġelliot": 725,
      "Ġsee": 726,
      "634": 727,
      "Ġaldrin": 728,
      "ick": 729,
      "Ġplayed": 730,
      "act": 731,
      "Ġ18": 732,
      "Ġcomm": 733,
      "Ġsw": 734,
      "Ġanderson": 735,
      "Ġmedia": 736,
      "se": 737,
      "Ġcar": 738,
      "emb": 739,
      "gan": 740,
      "Ġalma": 741,
      "Ġay": 742,
      "Ġact": 743,
      "Ġang": 744,
      "dom": 745,
      "Ġkingdom": 746,
      "âĢ": 747,
      "antry": 748,
      "Ġinfantry": 749,
      "ome": 750,
      "ding": 751,
      "Ġtype": 752,
      "Ġrib": 753,
      "Ġregional": 754,
      "Ġcompany": 755,
      "Ġgu": 756,
      "ile": 757,
      "own": 758,
      "Ġ198": 759,
      "Ġalv": 760,
      "Ġbuzz": 761,
      "ja": 762,
      "âĢĵ": 763,
      "ment": 764,
      "ft": 765,
      "Ġleague": 766,
      "Ġ1634": 767,
      "fil": 768,
      "Ġkilometres": 769,
      "arth": 770,
      "Ġforce": 771,
      "burg": 772,
      "Ġspace": 773,
      "Ġlong": 774,
      "Ġfl": 775,
      "Ġ25": 776,
      "Ġnas": 777,
      "Ġindonesia": 778,
      "Ġmendris": 779,
      "icoff": 780,
      "uce": 781,
      "Ġribicoff": 782,
      "Ġmendrisio": 783,
      "Ġaw": 784,
      "ai": 785,
      "Ġcur": 786,
      "Ġpil": 787,
      "Ġpilot": 788,
      "Ġest": 789,
      "Ġnative": 790,
      "Ġrep": 791,
      "iod": 792,
      "Ġperiod": 793,
      "ics": 794,
      "Ġav": 795,
      "Ġaz": 796,
      "Ġmadrid": 797,
      "Ġtitle": 798,
      "ure": 799,
      "ach": 800,
      "ene": 801,
      "uth": 802,
      "Ġpre": 803,
      "Ġsand": 804,
      "Ġsauce": 805,
      "Ġjones": 806,
      "Ġblack": 807,
      "Ġsoci": 808,
      "aj": 809,
      "Ġpol": 810,
      "eo": 811,
      "ev": 812,
      "Ġsquare": 813,
      "Ġphilippines": 814,
      "Ġorb": 815,
      "ont": 816,
      "sh": 817,
      "Ġnasa": 818,
      "15": 819,
      "Ġhall": 820,
      "Ġmary": 821,
      "arian": 822,
      "Ġsinger": 823,
      "Ġsocial": 824,
      "ott": 825,
      "Ġmalays": 826,
      "onsin": 827,
      "isconsin": 828,
      "ose": 829,
      "Ġwisconsin": 830,
      "ella": 831,
      "Ġjohn": 832,
      "Ġorbital": 833,
      "ae": 834,
      "mark": 835,
      "Ġroman": 836,
      "nsyl": 837,
      "Ġpennsyl": 838,
      "vania": 839,
      "Ġpennsylvania": 840,
      "Ġher": 841,
      "Ġlaunch": 842,
      "Ġah": 843,
      "ondon": 844,
      "Ġram": 845,
      "Ġbrit": 846,
      "Ġbus": 847,
      "Ġlondon": 848,
      "Ġhis": 849,
      "essor": 850,
      "ave": 851,
      "Ġ7": 852,
      "Ġasian": 853,
      "Ġadd": 854,
      "Ġrecords": 855,
      "Ġabra": 856,
      "Ġabraham": 857,
      "hy": 858,
      "Ġhouse": 859,
      "ator": 860,
      "Ġaffil": 861,
      "ins": 862,
      "Ġacc": 863,
      "Ġadams": 864,
      "Ġdiscover": 865,
      "Ġpeop": 866,
      "res": 867,
      "eded": 868,
      "Ġapo": 869,
      "Ġapoap": 870,
      "Ġdes": 871,
      "Ġapoapsis": 872,
      "ina": 873,
      "Ġpeople": 874,
      "uthor": 875,
      "Ġturner": 876,
      "hip": 877,
      "Ġauthor": 878,
      "una": 879,
      "Ġnationality": 880,
      "Ġhy": 881,
      "Ã©": 882,
      "iness": 883,
      "thm": 884,
      "hythm": 885,
      "Ġrhythm": 886,
      "oll": 887,
      "Ġdenmark": 888,
      "raz": 889,
      "Ġmah": 890,
      "ict": 891,
      "Ġ14": 892,
      "Ġbusiness": 893,
      "Ġtow": 894,
      "Ġtowns": 895,
      "Ġtownship": 896,
      "Ġcurr": 897,
      "Ġsy": 898,
      "Ġmil": 899,
      "orm": 900,
      "ablished": 901,
      "bers": 902,
      "hio": 903,
      "abel": 904,
      "Ġohio": 905,
      "ase": 906,
      "Ġow": 907,
      "ita": 908,
      "ufact": 909,
      "istr": 910,
      "Ġmembers": 911,
      "onnell": 912,
      "Ġestablished": 913,
      "60": 914,
      "Ġmanufact": 915,
      "Ġoperating": 916,
      "gest": 917,
      "itect": 918,
      "Ġahm": 919,
      "Ġver": 920,
      "erp": 921,
      "Ġmich": 922,
      "ville": 923,
      "Ġwil": 924,
      "Ġmanufactur": 925,
      "ales": 926,
      "10": 927,
      "bre": 928,
      "Ġmetres": 929,
      "sipp": 930,
      "sissipp": 931,
      "Ġmississipp": 932,
      "Ġmississippi": 933,
      "ans": 934,
      "Ġ192": 935,
      "Ġarchitect": 936,
      "Ġorgan": 937,
      "istic": 938,
      "ron": 939,
      "ago": 940,
      "igan": 941,
      "Ġlargest": 942,
      "Ġsucc": 943,
      "Ġpublic": 944,
      "Ġstud": 945,
      "str": 946,
      "Ġ103": 947,
      "Ġassemb": 948,
      "ences": 949,
      "ola": 950,
      "ademia": 951,
      "Ġaccademia": 952,
      "Ġback": 953,
      "uss": 954,
      "Ġsciences": 955,
      "Ġsport": 956,
      "Ġacadem": 957,
      "Ġta": 958,
      "Ġsuccessor": 959,
      "Ġstyl": 960,
      "Ġve": 961,
      "Ġpopul": 962,
      "psis": 963,
      "iapsis": 964,
      "Ġperiapsis": 965,
      "Ġwhose": 966,
      "shire": 967,
      "Ġled": 968,
      "Ġdan": 969,
      "Ġrel": 970,
      "rosa": 971,
      "ollow": 972,
      "Ġakita": 973,
      "ikov": 974,
      "itett": 975,
      "Ġarchitett": 976,
      "Ġarchitettura": 977,
      "Ġ193": 978,
      "Ġspe": 979,
      "Ġstylistic": 980,
      "Ġber": 981,
      "Ġgma": 982,
      "Ġgree": 983,
      "hem": 984,
      "Ġflo": 985,
      "Ġatlantic": 986,
      "Ġtrane": 987,
      "Ġdr": 988,
      "04": 989,
      "Ġmichigan": 990,
      "Ġmin": 991,
      "11": 992,
      "Ġsolo": 993,
      "Ġhop": 994,
      "ames": 995,
      "Ġnor": 996,
      "Ġthat": 997,
      "Ġtransport": 998,
      "Ġban": 999,
      "otal": 1000,
      "Ġgroups": 1001,
      "Ġvar": 1002,
      "ander": 1003,
      "Ġtotal": 1004,
      "Ġ17": 1005,
      "97": 1006,
      "mar": 1007,
      "Ã¼": 1008,
      "Ġex": 1009,
      "Ġalbany": 1010,
      "18": 1011,
      "Ġalp": 1012,
      "Ġmalaysia": 1013,
      "Ġger": 1014,
      "Ġspan": 1015,
      "eral": 1016,
      "well": 1017,
      "istan": 1018,
      "Ġakron": 1019,
      "aw": 1020,
      "Ġstart": 1021,
      "Ġaltern": 1022,
      "'d": 1023,
      "Ġalison": 1024,
      "Ġabil": 1025,
      "sion": 1026,
      "Ġabilene": 1027,
      "itar": 1028,
      "iet": 1029,
      "Ġalternative": 1030,
      "Ġaleksandr": 1031,
      "Ġful": 1032,
      "92": 1033,
      "ta": 1034,
      "Ġciv": 1035,
      "Ġkn": 1036,
      "Ġcanad": 1037,
      "Ġcivil": 1038,
      "Ġabel": 1039,
      "form": 1040,
      "ering": 1041,
      "hens": 1042,
      "Ġfin": 1043,
      "Ġalco": 1044,
      "urnal": 1045,
      "Ġvariation": 1046,
      "Ġcam": 1047,
      "Ġsec": 1048,
      "gon": 1049,
      "uro": 1050,
      "uay": 1051,
      "Ġsri": 1052,
      "rem": 1053,
      "Ġeuro": 1054,
      "Ġsub": 1055,
      "bo": 1056,
      "Ġsum": 1057,
      "Ġelev": 1058,
      "Ġorganis": 1059,
      "Ġrepres": 1060,
      "Ġray": 1061,
      "Ġorganisation": 1062,
      "Ġrepresent": 1063,
      "more": 1064,
      "Ġrayel": 1065,
      "Ġgover": 1066,
      "12": 1067,
      "pore": 1068,
      "Ġform": 1069,
      "Ġtaib": 1070,
      "les": 1071,
      "aid": 1072,
      "Ġlabel": 1073,
      "apore": 1074,
      "Ġsingapore": 1075,
      "Ġsandw": 1076,
      "Ġrelated": 1077,
      "Ġangola": 1078,
      "rist": 1079,
      "ert": 1080,
      "Ġarian": 1081,
      "Ġatlanta": 1082,
      "Ġmahm": 1083,
      "ka": 1084,
      "Ġvir": 1085,
      "ister": 1086,
      "ym": 1087,
      "bai": 1088,
      "du": 1089,
      "Ġos": 1090,
      "therland": 1091,
      "Ġdec": 1092,
      "Ġperform": 1093,
      "Ġgovern": 1094,
      "Ġacademic": 1095,
      "Ġana": 1096,
      "udi": 1097,
      "Ġmadison": 1098,
      "Ġgerman": 1099,
      "Ġaus": 1100,
      "Ġbh": 1101,
      "Ġwork": 1102,
      "ect": 1103,
      "rb": 1104,
      "ried": 1105,
      "Ġmetal": 1106,
      "Ġpal": 1107,
      "Ġcomes": 1108,
      "55": 1109,
      "Ġmahmud": 1110,
      "igned": 1111,
      "03": 1112,
      "Ġsouth": 1113,
      "cas": 1114,
      "Ġwat": 1115,
      "born": 1116,
      "ember": 1117,
      "ny": 1118,
      "Ġmass": 1119,
      "ilomet": 1120,
      "ster": 1121,
      "Ġgreece": 1122,
      "Ġsandwich": 1123,
      "rbq": 1124,
      "ives": 1125,
      "mit": 1126,
      "untain": 1127,
      "Ġfrance": 1128,
      "Ġprodu": 1129,
      "Ġelevation": 1130,
      "Ġfountain": 1131,
      "Ġcreator": 1132,
      "13": 1133,
      "Ġathens": 1134,
      "Ġbaku": 1135,
      "ants": 1136,
      "com": 1137,
      "ato": 1138,
      "Ġbel": 1139,
      "therlands": 1140,
      "Ġnorth": 1141,
      "fer": 1142,
      "ares": 1143,
      "aka": 1144,
      "Ġdel": 1145,
      "Ġpais": 1146,
      "Ġchrist": 1147,
      "Ġpaisa": 1148,
      "Ġcat": 1149,
      "itz": 1150,
      "Ġstudent": 1151,
      "Ġ\"": 1152,
      "Ġjul": 1153,
      "ef": 1154,
      "jas": 1155,
      "Ġ2006": 1156,
      "Ġaub": 1157,
      "Ġhip": 1158,
      "Ġauburn": 1159,
      "ry": 1160,
      "marcas": 1161,
      "permarcas": 1162,
      "Ġhypermarcas": 1163,
      "ld": 1164,
      "Ġmill": 1165,
      "Ġalab": 1166,
      "jan": 1167,
      "min": 1168,
      "Ġalabama": 1169,
      "ings": 1170,
      "ewell": 1171,
      "uqu": 1172,
      "erque": 1173,
      "Ġalbuqu": 1174,
      "Ġalbuquerque": 1175,
      "kilometres": 1176,
      "Ġju": 1177,
      "Ġbakewell": 1178,
      "yet": 1179,
      "Ġlank": 1180,
      "nect": 1181,
      "Ġpenyet": 1182,
      "Ġ2014": 1183,
      "ÃŃ": 1184,
      "Ġjames": 1185,
      "Ġret": 1186,
      "Ġkm": 1187,
      "raft": 1188,
      "Ġbeef": 1189,
      "Ġbion": 1190,
      "Ġbionico": 1191,
      "Ã¡n": 1192,
      "Ġcommander": 1193,
      "Ġfel": 1194,
      "Ġayam": 1195,
      "ies": 1196,
      "Ġ196": 1197,
      "Ġwhile": 1198,
      "inc": 1199,
      "Ġknown": 1200,
      "Ġlou": 1201,
      "Ġformer": 1202,
      "Ġspanish": 1203,
      "itzerland": 1204,
      "lud": 1205,
      "Ġconnect": 1206,
      "Ġbur": 1207,
      "base": 1208,
      "heim": 1209,
      "essert": 1210,
      "Ġanaheim": 1211,
      "Ġdessert": 1212,
      "rit": 1213,
      "uis": 1214,
      "ador": 1215,
      "Ġcolle": 1216,
      "aceae": 1217,
      "Ġadol": 1218,
      "imetres": 1219,
      "Ġcollege": 1220,
      "ier": 1221,
      "iated": 1222,
      "Ġantares": 1223,
      "za": 1224,
      "Ġinclud": 1225,
      "Ġcall": 1226,
      "Ġ2009": 1227,
      "99": 1228,
      "Ġengland": 1229,
      "Ġfounded": 1230,
      "68": 1231,
      "aya": 1232,
      "05": 1233,
      "Ġso": 1234,
      "Ġturkey": 1235,
      "Ġpow": 1236,
      "Ġatt": 1237,
      "Ġcanada": 1238,
      "adu": 1239,
      "ova": 1240,
      "quart": 1241,
      "Ġcalled": 1242,
      "bl": 1243,
      "yr": 1244,
      "Ġfr": 1245,
      "Ġmade": 1246,
      "Ġbanan": 1247,
      "Ġswitzerland": 1248,
      "nes": 1249,
      "88": 1250,
      "Ġromania": 1251,
      "ason": 1252,
      "ference": 1253,
      "ilometre": 1254,
      "Ġfloor": 1255,
      "Ġyears": 1256,
      "Ġaustr": 1257,
      "Ġfus": 1258,
      "ered": 1259,
      "Ġ15": 1260,
      "Ġwer": 1261,
      "Ġash": 1262,
      "Ġlanka": 1263,
      "Ġkar": 1264,
      "Ġfusion": 1265,
      "Ġob": 1266,
      "Ġpo": 1267,
      "Ġactive": 1268,
      "Ġlouis": 1269,
      "ade": 1270,
      "Ġbin": 1271,
      "ignit": 1272,
      "Ġbinignit": 1273,
      "ency": 1274,
      "dam": 1275,
      "gre": 1276,
      "Ġjohns": 1277,
      "Ġhar": 1278,
      "gro": 1279,
      "ociation": 1280,
      "Ġ1963": 1281,
      "Ġassembly": 1282,
      "Ġosborn": 1283,
      "anco": 1284,
      "Ġosborne": 1285,
      "con": 1286,
      "arajas": 1287,
      "Ġgl": 1288,
      "Ġadolfo": 1289,
      "eja": 1290,
      "Ġajo": 1291,
      "Ġunder": 1292,
      "Ġbandeja": 1293,
      "bor": 1294,
      "ical": 1295,
      "Ġpak": 1296,
      "ime": 1297,
      "Ġsyst": 1298,
      "Ġur": 1299,
      "Ġbod": 1300,
      "Ġahmet": 1301,
      "Ġsite": 1302,
      "ira": 1303,
      "mus": 1304,
      "erbai": 1305,
      "Ġarr": 1306,
      "Ġgreat": 1307,
      "Ġship": 1308,
      "erbaijan": 1309,
      "Ġromeo": 1310,
      "barajas": 1311,
      "Ġtenn": 1312,
      "eton": 1313,
      "icut": 1314,
      "Ġassociation": 1315,
      "ero": 1316,
      "Ġgarth": 1317,
      "Ġconnecticut": 1318,
      "Ġaward": 1319,
      "Ġappl": 1320,
      "Ġingredients": 1321,
      "Ġoperated": 1322,
      "osc": 1323,
      "Ġappleton": 1324,
      "Ġderiv": 1325,
      "Ġbuilding": 1326,
      "Ġhel": 1327,
      "Ġalfa": 1328,
      "Ġturkish": 1329,
      "Ġmanufacturer": 1330,
      "Ġbackgro": 1331,
      "Ġbackground": 1332,
      "Ġcris": 1333,
      "Ġbav": 1334,
      "Ġcrisis": 1335,
      "Ġbavarian": 1336,
      "ec": 1337,
      "square": 1338,
      "Ġrs": 1339,
      "Ġchin": 1340,
      "osion": 1341,
      "Ġcompl": 1342,
      "plosion": 1343,
      "Ġexplosion": 1344,
      "ired": 1345,
      "Ġpopulation": 1346,
      "Ġcrew": 1347,
      "Ġocc": 1348,
      "Ġwatson": 1349,
      "bell": 1350,
      "hab": 1351,
      "aba": 1352,
      "Ġbritain": 1353,
      "Ġmc": 1354,
      "17": 1355,
      "aul": 1356,
      "Ġbaked": 1357,
      "Ġore": 1358,
      "bal": 1359,
      "Ġes": 1360,
      "unk": 1361,
      "09": 1362,
      "Ġamc": 1363,
      "Ġdisco": 1364,
      "Ġpakistan": 1365,
      "ten": 1366,
      "rez": 1367,
      "Ġcomplet": 1368,
      "23": 1369,
      "atives": 1370,
      "Ġcra": 1371,
      "Ġcraig": 1372,
      "Ġazerbaijan": 1373,
      "Ġoccup": 1374,
      "ino": 1375,
      "Ġil": 1376,
      "Ġcent": 1377,
      "ions": 1378,
      "Ġverm": 1379,
      "Ġtransportation": 1380,
      "football": 1381,
      "Ġariane": 1382,
      "Ã³": 1383,
      "orial": 1384,
      "Ġdistr": 1385,
      "Ġjav": 1386,
      "Ġ16": 1387,
      "Ġni": 1388,
      "Ġ1955": 1389,
      "ench": 1390,
      "habit": 1391,
      "Ã³n": 1392,
      "Ġice": 1393,
      "77": 1394,
      "az": 1395,
      "Ġhun": 1396,
      "Ġpot": 1397,
      "Ġfried": 1398,
      "Ġagnes": 1399,
      "Ġoregon": 1400,
      "ves": 1401,
      "Ġpark": 1402,
      "Ġpublished": 1403,
      "iy": 1404,
      "Ġ9": 1405,
      "int": 1406,
      "Ġmission": 1407,
      "Ġnetherlands": 1408,
      "sity": 1409,
      "Ġmosc": 1410,
      "Ġpud": 1411,
      "Ġdensity": 1412,
      "Ġmoscow": 1413,
      "Ġpudding": 1414,
      "Ġlos": 1415,
      "blanco": 1416,
      "Ġajoblanco": 1417,
      "rie": 1418,
      "ake": 1419,
      "Ġhome": 1420,
      "Ġacta": 1421,
      "Ġbro": 1422,
      "Ġ164": 1423,
      "Ġspeed": 1424,
      "ĠsuÃ¡": 1425,
      "ĠsuÃ¡rez": 1426,
      "Ġmemorial": 1427,
      "Ġcle": 1428,
      "isa": 1429,
      "Ġkh": 1430,
      "odge": 1431,
      "veland": 1432,
      "Ġcleveland": 1433,
      "icago": 1434,
      "Ġchicago": 1435,
      "comics": 1436,
      "Ġoccupation": 1437,
      "ium": 1438,
      "onym": 1439,
      "Ġ1000": 1440,
      "Ġdemonym": 1441,
      "Ġdodge": 1442,
      "Ġmay": 1443,
      "aska": 1444,
      "Ġsystem": 1445,
      "aluna": 1446,
      "Ġaidaluna": 1447,
      "Ġrepresentatives": 1448,
      "Ġbody": 1449,
      "Ġchinab": 1450,
      "Ġchinabank": 1451,
      "ased": 1452,
      "Ġmathem": 1453,
      "habitants": 1454,
      "Ġmathemat": 1455,
      "footballer": 1456,
      "Ġdav": 1457,
      "Ġstudents": 1458,
      "Ġindian": 1459,
      "Ġsar": 1460,
      "heel": 1461,
      "Ġchristian": 1462,
      "Ġcurrency": 1463,
      "Ġairbase": 1464,
      "erson": 1465,
      "Ġjenn": 1466,
      "Ġaddis": 1467,
      "Ġjuan": 1468,
      "Ġjennings": 1469,
      "Ġabarth": 1470,
      "Ġababa": 1471,
      "uguay": 1472,
      "Ġdistrict": 1473,
      "Ġtest": 1474,
      "Ġstar": 1475,
      "Ġ2000": 1476,
      "ceeded": 1477,
      "Ġem": 1478,
      "ates": 1479,
      "iel": 1480,
      "Ġut": 1481,
      "Ġmo": 1482,
      "ages": 1483,
      "Ġserie": 1484,
      "89": 1485,
      "Ġsam": 1486,
      "esh": 1487,
      "Ġalaska": 1488,
      "azz": 1489,
      "Ġuruguay": 1490,
      "Ġwrit": 1491,
      "cceeded": 1492,
      "Ġly": 1493,
      "Ġflight": 1494,
      "Ġasad": 1495,
      "Ġdiscoverer": 1496,
      "Äį": 1497,
      "Ġed": 1498,
      "Ġteisa": 1499,
      "Ġsucceeded": 1500,
      "ovaÄį": 1501,
      "Ġteisaire": 1502,
      "gun": 1503,
      "Ġproduct": 1504,
      "cl": 1505,
      "gh": 1506,
      "31": 1507,
      "ingham": 1508,
      "nikov": 1509,
      "Ġgor": 1510,
      "Ġjazz": 1511,
      "udnikov": 1512,
      "Ġprudnikov": 1513,
      "Ġbuilder": 1514,
      "Ġalpena": 1515,
      "Ġvis": 1516,
      "Ġvermont": 1517,
      "ois": 1518,
      "Ġhollow": 1519,
      "Ġholloway": 1520,
      "21": 1521,
      "brev": 1522,
      "Ġthere": 1523,
      "Ġfull": 1524,
      "angal": 1525,
      "Ġbangal": 1526,
      "gr": 1527,
      "Ġaffiliation": 1528,
      "33": 1529,
      "ugh": 1530,
      "Ġalberto": 1531,
      "Ġbangalore": 1532,
      "var": 1533,
      "Ġserves": 1534,
      "gin": 1535,
      "Ġx": 1536,
      "enue": 1537,
      "Ġpublish": 1538,
      "Ġeurope": 1539,
      "bach": 1540,
      "Ġgorbach": 1541,
      "),": 1542,
      "Ġpos": 1543,
      "Ġrebell": 1544,
      "Ġalexand": 1545,
      "Ġsab": 1546,
      "Ġwal": 1547,
      "Ġalfons": 1548,
      "Ġmean": 1549,
      "Ġrebellion": 1550,
      "Ġsabin": 1551,
      "ĠkovaÄį": 1552,
      "Ġminister": 1553,
      "Ġ197": 1554,
      "Ġatlas": 1555,
      "Ġderivative": 1556,
      "eter": 1557,
      "Ġacura": 1558,
      "Ġconference": 1559,
      "Ġcoup": 1560,
      "iva": 1561,
      "Ġdep": 1562,
      "16": 1563,
      "cio": 1564,
      "by": 1565,
      "ona": 1566,
      "idge": 1567,
      "Ġcalcio": 1568,
      "ginia": 1569,
      "Ġmusician": 1570,
      "Ġvirginia": 1571,
      "Ġmatador": 1572,
      "Ġbut": 1573,
      "Ġklin": 1574,
      "Ġklink": 1575,
      "Ġwest": 1576,
      "Ġaless": 1577,
      "Ġservice": 1578,
      "Ġengineering": 1579,
      "27": 1580,
      "gent": 1581,
      "Ġalvah": 1582,
      "Ġretired": 1583,
      "Ġseason": 1584,
      "adh": 1585,
      "illar": 1586,
      "Ġpoaceae": 1587,
      "Ġayers": 1588,
      "quarter": 1589,
      "Ġobama": 1590,
      "tar": 1591,
      "Ġbarack": 1592,
      "sid": 1593,
      "olis": 1594,
      "aff": 1595,
      "£o": 1596,
      "Ã£o": 1597,
      "Ġamar": 1598,
      "qbal": 1599,
      "Ġiqbal": 1600,
      "Ġallama": 1601,
      "Ġteow": 1602,
      "Ġflin": 1603,
      "Ġkway": 1604,
      "Ġchie": 1605,
      "Ġflint": 1606,
      "Ġwritten": 1607,
      "illa": 1608,
      "Ġeric": 1609,
      "Ġowner": 1610,
      "Ġpublisher": 1611,
      "Ġaja": 1612,
      "Ġajax": 1613,
      "cap": 1614,
      "Ġalfredo": 1615,
      "Ġzitar": 1616,
      "Ġaffiliated": 1617,
      "Ġjohnson": 1618,
      "Ġeuropean": 1619,
      "Ġarm": 1620,
      "Ġzitarrosa": 1621,
      "Ġstre": 1622,
      "Ġhot": 1623,
      "Ġridge": 1624,
      "Ġaleksandra": 1625,
      "linois": 1626,
      "Ġbuilt": 1627,
      "Ġillinois": 1628,
      "Ġstreet": 1629,
      "ph": 1630,
      "Ġallen": 1631,
      "Ġprov": 1632,
      "Ġsportiva": 1633,
      "Ġdiscovered": 1634,
      "atr": 1635,
      "Ġkey": 1636,
      "Ġabner": 1637,
      "ajj": 1638,
      "Ġire": 1639,
      "anu": 1640,
      "Ġcaterp": 1641,
      "ajji": 1642,
      "Ġireland": 1643,
      "ky": 1644,
      "agnol": 1645,
      "Ġromagnol": 1646,
      "Ġcaterpillar": 1647,
      "02": 1648,
      "Ã¤": 1649,
      "Ġwor": 1650,
      "Ġvel": 1651,
      "000000": 1652,
      "Ġromagnoli": 1653,
      "mir": 1654,
      "pen": 1655,
      "Ġafc": 1656,
      "bn": 1657,
      "eal": 1658,
      "Ġlib": 1659,
      "Ġzeal": 1660,
      "Ġzealand": 1661,
      "rest": 1662,
      "Ġforrest": 1663,
      "ock": 1664,
      "Ġdeer": 1665,
      "Ġoriginates": 1666,
      "yle": 1667,
      "Ġstyle": 1668,
      "43": 1669,
      "nat": 1670,
      "Ġkarnat": 1671,
      "Ġalessio": 1672,
      "cat": 1673,
      "Ġkarnataka": 1674,
      "Ġmartyr": 1675,
      "Ġmartyrs": 1676,
      "Ġcab": 1677,
      "Ġisbn": 1678,
      "Ġasilom": 1679,
      "allero": 1680,
      "Ġcaballero": 1681,
      "Ġasilomar": 1682,
      "sburg": 1683,
      "Ġstaff": 1684,
      "Ġroma": 1685,
      "Ġprime": 1686,
      "ek": 1687,
      "Ġthey": 1688,
      "Ġleg": 1689,
      "ched": 1690,
      "Ġargent": 1691,
      "Ġfigh": 1692,
      "Ġatat": 1693,
      "Ġfighter": 1694,
      "aade": 1695,
      "Ġbaade": 1696,
      "Ġ250": 1697,
      "pool": 1698,
      "ley": 1699,
      "Ġsummit": 1700,
      "Ġwheel": 1701,
      "Ġcour": 1702,
      "Ġeg": 1703,
      "Ġ23": 1704,
      "led": 1705,
      "Ġmid": 1706,
      "ens": 1707,
      "Ġblackpool": 1708,
      "Ġmaryland": 1709,
      "mp": 1710,
      "Ġnegre": 1711,
      "29": 1712,
      "Ġvers": 1713,
      "Ġabbrev": 1714,
      "ceded": 1715,
      "Ġaidast": 1716,
      "Ã¶": 1717,
      "Ġaudi": 1718,
      "apan": 1719,
      "Ġtechnological": 1720,
      "vesvar": 1721,
      "Ġvisvesvar": 1722,
      "Ġaidastella": 1723,
      "Ġvisvesvaraya": 1724,
      "Ġway": 1725,
      "choy": 1726,
      "Ġbatchoy": 1727,
      "werp": 1728,
      "Ġantwerp": 1729,
      "Ġinstr": 1730,
      "Ġagra": 1731,
      "Ġinstrument": 1732,
      "ature": 1733,
      "Ġroad": 1734,
      "Ġpreceded": 1735,
      "Ġwalter": 1736,
      "nrbq": 1737,
      "Ġtheir": 1738,
      "37": 1739,
      "Ġincome": 1740,
      "Ġbritish": 1741,
      "catraz": 1742,
      "Ġversus": 1743,
      "ney": 1744,
      "Ġnet": 1745,
      "Ġegg": 1746,
      "26": 1747,
      "illo": 1748,
      "Ġalbenn": 1749,
      "Ġalbennie": 1750,
      "ipe": 1751,
      "Ġsv": 1752,
      "Ġras": 1753,
      "tegun": 1754,
      "Ġandrews": 1755,
      "Ġgradu": 1756,
      "Ġertegun": 1757,
      "Ġasam": 1758,
      "Ġdesigned": 1759,
      "Ġtw": 1760,
      "rock": 1761,
      "oga": 1762,
      "rocket": 1763,
      "Ġalcatraz": 1764,
      "Ġvan": 1765,
      "gor": 1766,
      "Ġlev": 1767,
      "Ġfelipe": 1768,
      "Ġlibr": 1769,
      "14": 1770,
      "Ġcode": 1771,
      "rd": 1772,
      "aman": 1773,
      "Ġrome": 1774,
      "Ġbananaman": 1775,
      "Ġsel": 1776,
      "Ġorder": 1777,
      "ected": 1778,
      "Ġselected": 1779,
      ").": 1780,
      "ocity": 1781,
      "Ġescap": 1782,
      "Ġvelocity": 1783,
      "Ġescape": 1784,
      "rk": 1785,
      "Ã¼rk": 1786,
      "edas": 1787,
      "Ġpedas": 1788,
      "Ġdub": 1789,
      "lx": 1790,
      "Ġtlx": 1791,
      "ocr": 1792,
      "Ġdemocr": 1793,
      "Ġjava": 1794,
      "Ġdublin": 1795,
      "Ġleaders": 1796,
      "Ġderby": 1797,
      "Ġderbyshire": 1798,
      "Ġbella": 1799,
      "Ġkant": 1800,
      "alli": 1801,
      "aa": 1802,
      "Ġandra": 1803,
      "Ġhead": 1804,
      "Ġauthority": 1805,
      "Ġworked": 1806,
      "inese": 1807,
      "Ġspaceport": 1808,
      "Ġaustria": 1809,
      "06": 1810,
      "che": 1811,
      "Ġstatus": 1812,
      "Ġsan": 1813,
      "razil": 1814,
      "iad": 1815,
      "esse": 1816,
      "Ġgeorgiad": 1817,
      "Ġbook": 1818,
      "Ġbhajji": 1819,
      "Ġgeorgiadis": 1820,
      "Ġol": 1821,
      "Ġbig": 1822,
      "Ġevil": 1823,
      "Ġchick": 1824,
      "Ġcreated": 1825,
      "Ġhouston": 1826,
      "arians": 1827,
      "ught": 1828,
      "Ġlibrarians": 1829,
      "Ġchicken": 1830,
      "cer": 1831,
      "ini": 1832,
      "Ġ100": 1833,
      "Ġfought": 1834,
      "Ġcurrent": 1835,
      "igner": 1836,
      "journal": 1837,
      "Ġitalian": 1838,
      "19": 1839,
      "sn": 1840,
      "tt": 1841,
      "agen": 1842,
      "onis": 1843,
      "Ġadonis": 1844,
      "abat": 1845,
      "Ġpress": 1846,
      "Ġawh": 1847,
      "Ġcharl": 1848,
      "rad": 1849,
      "Ġpost": 1850,
      "Ġhamp": 1851,
      "Ġhampshire": 1852,
      "ense": 1853,
      "wak": 1854,
      "Ġtom": 1855,
      "Ġbrazil": 1856,
      "Ġplant": 1857,
      "Ġsen": 1858,
      "Ġmanaged": 1859,
      "ize": 1860,
      "Ġjuly": 1861,
      "Ġrow": 1862,
      "Ġmarch": 1863,
      "zmir": 1864,
      "Ġcontr": 1865,
      "Ġcolmore": 1866,
      "Ġarmy": 1867,
      "ata": 1868,
      "Ġstad": 1869,
      "Ġchinese": 1870,
      "Ġindus": 1871,
      "Ġdag": 1872,
      "Ġ107": 1873,
      "Ġdagg": 1874,
      "Ġluna": 1875,
      "Ġissn": 1876,
      "craft": 1877,
      "anc": 1878,
      "Ġalder": 1879,
      "akar": 1880,
      "Ġfoundation": 1881,
      "Ġalderney": 1882,
      "264": 1883,
      "Ġvol": 1884,
      "hagen": 1885,
      "ahra": 1886,
      "Ġcourse": 1887,
      "united": 1888,
      "Ġcopen": 1889,
      "Ġcopenhagen": 1890,
      "eum": 1891,
      "mill": 1892,
      "acy": 1893,
      "00000": 1894,
      "Ġaircraft": 1895,
      "Ġgrounds": 1896,
      "col": 1897,
      "onso": 1898,
      "Ġalaa": 1899,
      "Ġdecember": 1900,
      "Ġ27": 1901,
      "ontol": 1902,
      "Ġhotel": 1903,
      "Ġham": 1904,
      "Ġcr": 1905,
      "Ġkong": 1906,
      "Ġsecond": 1907,
      "Ġmiller": 1908,
      "Ġhong": 1909,
      "Ġhigh": 1910,
      "Ġarap": 1911,
      "Ġown": 1912,
      "bi": 1913,
      "Ġworld": 1914,
      "Ġindustry": 1915,
      "gabat": 1916,
      "iche": 1917,
      "Ġloy": 1918,
      "Ġdancer": 1919,
      "Ġashgabat": 1920,
      "Ġloyal": 1921,
      "Ġarem": 1922,
      "af": 1923,
      "mingham": 1924,
      "Ġbirmingham": 1925,
      "Ġoly": 1926,
      "Ġgas": 1927,
      "Ġadmin": 1928,
      "Ġamarillo": 1929,
      "Ġolymp": 1930,
      "Ġemp": 1931,
      "eet": 1932,
      "Ġday": 1933,
      "Ġjapan": 1934,
      "Ġabub": 1935,
      "Ġyouth": 1936,
      "Ġmars": 1937,
      "Ġoperator": 1938,
      "ussia": 1939,
      "24": 1940,
      "lington": 1941,
      "ann": 1942,
      "akes": 1943,
      "unc": 1944,
      "ort": 1945,
      "Ġcount": 1946,
      "Ġcharlie": 1947,
      "eth": 1948,
      "Ġcorn": 1949,
      "Ġgt": 1950,
      "Ġclass": 1951,
      "Ġbakso": 1952,
      "sterdam": 1953,
      "Ġmag": 1954,
      "Ġabubakar": 1955,
      "sal": 1956,
      "Ġbased": 1957,
      "Ġ101": 1958,
      "ĠcoupÃ©": 1959,
      "Ġsal": 1960,
      "Ġwiz": 1961,
      "Ġwizard": 1962,
      "Ã§": 1963,
      "Ġgermany": 1964,
      "20": 1965,
      "har": 1966,
      "Ġkilometre": 1967,
      "Ġsev": 1968,
      "Ġgraduated": 1969,
      "Ġsara": 1970,
      "Ġgreen": 1971,
      "millimetres": 1972,
      "iciana": 1973,
      "Ġamatr": 1974,
      "quense": 1975,
      "sta": 1976,
      "iraquense": 1977,
      "ĠatatÃ¼rk": 1978,
      "Ġarapiraquense": 1979,
      "Ġamatriciana": 1980,
      "Ġbelg": 1981,
      "onica": 1982,
      "omb": 1983,
      "Ġadare": 1984,
      "Ġscience": 1985,
      "Ġdall": 1986,
      "ivis": 1987,
      "Ġdallas": 1988,
      "Ġpena": 1989,
      "Ġnation": 1990,
      "Ġamsterdam": 1991,
      "Ġjournal": 1992,
      "Ġangel": 1993,
      "Ġwerft": 1994,
      "Ġsenate": 1995,
      "Ġrams": 1996,
      "music": 1997,
      "ange": 1998,
      "Ġasser": 1999,
      "Ġlaunched": 2000,
      "Ġlevy": 2001,
      "aker": 2002,
      "Ġameri": 2003,
      "Ġfrank": 2004,
      "atic": 2005,
      "Ġ20": 2006,
      "abeth": 2007,
      "Ġeliz": 2008,
      "Ġcruis": 2009,
      "Ġelizabeth": 2010,
      "Ìĩ": 2011,
      "Ġcamp": 2012,
      "Ġchamp": 2013,
      "Ġcare": 2014,
      "Ġperson": 2015,
      "Ġneave": 2016,
      "uli": 2017,
      "Ġphilippine": 2018,
      "pt": 2019,
      "Ġaire": 2020,
      "Ġred": 2021,
      "Ġcareer": 2022,
      "Ġairey": 2023,
      "itary": 2024,
      "Ġoriginated": 2025,
      "Ġmilitary": 2026,
      "ane": 2027,
      "Ġsky": 2028,
      "Ġhard": 2029,
      "ide": 2030,
      "Ġmilan": 2031,
      "Ġbay": 2032,
      "unte": 2033,
      "Ġ31": 2034,
      "Ġvolunte": 2035,
      "Ġvolunteer": 2036,
      "dmore": 2037,
      "Ġardmore": 2038,
      "line": 2039,
      "Ġira": 2040,
      "Ġwasp": 2041,
      "Ġagrem": 2042,
      "Ġsevered": 2043,
      "Ġsarawak": 2044,
      "Ġiraq": 2045,
      "aeontol": 2046,
      "Ġsubsid": 2047,
      "Ġpalaeontol": 2048,
      "att": 2049,
      "Ġaids": 2050,
      "mond": 2051,
      "para": 2052,
      "Ġplac": 2053,
      "able": 2054,
      "²s": 2055,
      "Ã²s": 2056,
      "Ġrot": 2057,
      "iction": 2058,
      "ĠarrÃ²s": 2059,
      "Ġsubsidi": 2060,
      "hamb": 2061,
      "Ġ1998": 2062,
      "Ġdaggett": 2063,
      "Ġrobert": 2064,
      "Ġangeles": 2065,
      "Ġ&": 2066,
      "Ġfir": 2067,
      "Ġdivis": 2068,
      "Ġfollow": 2069,
      "Ġscales": 2070,
      "Ġfunk": 2071,
      "Ġfrench": 2072,
      "08": 2073,
      "Ġavenue": 2074,
      "Ġmoore": 2075,
      "sing": 2076,
      "Ġchir": 2077,
      "Ġmuseum": 2078,
      "Ġcla": 2079,
      "loy": 2080,
      "Ġaleksey": 2081,
      "Ġchampions": 2082,
      "Ġend": 2083,
      "ale": 2084,
      "Ġalhamb": 2085,
      "Ġ2005": 2086,
      "breaker": 2087,
      "Ġalhambra": 2088,
      "arena": 2089,
      "Ġchirikov": 2090,
      "bus": 2091,
      "Ġhave": 2092,
      "Ġcamilla": 2093,
      "Ġperforms": 2094,
      "Ġdelta": 2095,
      "hs": 2096,
      "oric": 2097,
      "Ġhist": 2098,
      "urch": 2099,
      "Ġampara": 2100,
      "Ġgreenville": 2101,
      "Ġhistoric": 2102,
      "Ġten": 2103,
      "Ġbaths": 2104,
      "ob": 2105,
      "Ġsi": 2106,
      "Ġafonso": 2107,
      "Ġhelena": 2108,
      "ces": 2109,
      "ement": 2110,
      "bury": 2111,
      "Ġhern": 2112,
      "ese": 2113,
      "ince": 2114,
      "Ġgar": 2115,
      "iaÃ§": 2116,
      "uring": 2117,
      "Ġlee": 2118,
      "Ġverona": 2119,
      "Ġargentina": 2120,
      "iaÃ§Ã£o": 2121,
      "ioch": 2122,
      "Ġantioch": 2123,
      "Ġguiana": 2124,
      "isham": 2125,
      "Ġadisham": 2126,
      "Ġmedal": 2127,
      "Ġ2015": 2128,
      "aware": 2129,
      "Ġdelaware": 2130,
      "Ġsubsidiary": 2131,
      "Ġindie": 2132,
      "tress": 2133,
      "Ġfortress": 2134,
      "Ġgrey": 2135,
      "cil": 2136,
      "Ġlake": 2137,
      "Ġcouncil": 2138,
      "Ġboth": 2139,
      "lu": 2140,
      "Ġabbreviation": 2141,
      "Ġwilder": 2142,
      "Ġbor": 2143,
      "ional": 2144,
      "itas": 2145,
      "Ġwol": 2146,
      "Ġhond": 2147,
      "Ġ29": 2148,
      "Ġaida": 2149,
      "Ġhonda": 2150,
      "Ġcentre": 2151,
      "lant": 2152,
      "atlant": 2153,
      "Ġfer": 2154,
      ".,": 2155,
      "itiy": 2156,
      "Ġlu": 2157,
      "Ġdc": 2158,
      "araitiy": 2159,
      "Ġkharaitiy": 2160,
      "Ġowned": 2161,
      "atlantic": 2162,
      "Ġkharaitiyat": 2163,
      "ood": 2164,
      "28": 2165,
      "Ġace": 2166,
      "Ġrepub": 2167,
      "Ġhunt": 2168,
      "get": 2169,
      "etta": 2170,
      "Ġliv": 2171,
      "akov": 2172,
      "Ġpower": 2173,
      "ĠagremiaÃ§Ã£o": 2174,
      "Ġcate": 2175,
      "ami": 2176,
      "Ġcontain": 2177,
      "Ġabdulsal": 2178,
      "Ġveget": 2179,
      "Ġcategor": 2180,
      "Ġabdulsalami": 2181,
      "41": 2182,
      "Ġfrew": 2183,
      "Ġjr": 2184,
      "Ġattica": 2185,
      "artment": 2186,
      "Ġdepartment": 2187,
      "Ġsur": 2188,
      "icia": 2189,
      "Ġamd": 2190,
      "Ġ1918": 2191,
      "Ġmark": 2192,
      "embrie": 2193,
      "Ġdecembrie": 2194,
      "Ġfirst": 2195,
      "omot": 2196,
      "Ġaug": 2197,
      "Ġdy": 2198,
      "Ġguf": 2199,
      "avad": 2200,
      "Ġemploy": 2201,
      "Ġamdavad": 2202,
      "omotive": 2203,
      "Ġgufa": 2204,
      "liam": 2205,
      "Ġrocket": 2206,
      "Ġparliam": 2207,
      "Ġsurf": 2208,
      "Ġparliament": 2209,
      "Ġpiet": 2210,
      "Ġ600": 2211,
      "Ġpietro": 2212,
      "Ġval": 2213,
      "kins": 2214,
      "Ġbeam": 2215,
      "Ġlat": 2216,
      "Ġadministr": 2217,
      "arem": 2218,
      "Ġ1932": 2219,
      "ail": 2220,
      "ery": 2221,
      "Ġincludes": 2222,
      "Ġmiche": 2223,
      "Ġmanor": 2224,
      "Ġfollowed": 2225,
      "Ġtama": 2226,
      "Ġgur": 2227,
      "Ġ1089": 2228,
      "Ġfinland": 2229,
      "Ġdou": 2230,
      "Ġguruli": 2231,
      "Ġcas": 2232,
      "Ġela": 2233,
      "hn": 2234,
      "Ã±": 2235,
      "Ġprint": 2236,
      "Ġaleksandre": 2237,
      "Ġaugust": 2238,
      "icial": 2239,
      "Ġalmond": 2240,
      "reder": 2241,
      "800": 2242,
      "zahra": 2243,
      "Ġbarbo": 2244,
      "Ġsurface": 2245,
      "73": 2246,
      "pop": 2247,
      "Ġdent": 2248,
      "Ġfreder": 2249,
      "Ġromance": 2250,
      "Ġdemocratic": 2251,
      "Ġbarboza": 2252,
      "new": 2253,
      "singer": 2254,
      "Ġburns": 2255,
      "90": 2256,
      "ips": 2257,
      "Ġocl": 2258,
      "Ġpages": 2259,
      "Ġthis": 2260,
      "Ġfinal": 2261,
      "Ġcruises": 2262,
      "Ġoclc": 2263,
      "Ġhos": 2264,
      "Ġef": 2265,
      "Ġ34": 2266,
      "Ġmarri": 2267,
      "Ġharbor": 2268,
      "Ġmaid": 2269,
      "aston": 2270,
      "Ġspart": 2271,
      "Ġafrica": 2272,
      "Ġguitar": 2273,
      "Ġchiev": 2274,
      "Ġmaiden": 2275,
      "Ġkoc": 2276,
      "Ġmarriott": 2277,
      "ret": 2278,
      "Ġjanu": 2279,
      "Ġglaston": 2280,
      "Ġtennesse": 2281,
      "Ġparker": 2282,
      "Ġjanuary": 2283,
      "Ġglastonbury": 2284,
      "ys": 2285,
      "Ġcosta": 2286,
      "Ġmonoc": 2287,
      "Ġhera": 2288,
      "Ġtennessee": 2289,
      "ke": 2290,
      "Ġ1099": 2291,
      "Ġsecret": 2292,
      "ield": 2293,
      "Ġcornell": 2294,
      "Ġget": 2295,
      "oviet": 2296,
      "Ġorange": 2297,
      "Ġadministrative": 2298,
      "Ġsib": 2299,
      "rol": 2300,
      "ams": 2301,
      "Ġsibal": 2302,
      "Ġaip": 2303,
      "icip": 2304,
      "Ġgroz": 2305,
      "Ã¤r": 2306,
      "Ġfyl": 2307,
      "Ġgran": 2308,
      "Ġgrozny": 2309,
      "Ġfylde": 2310,
      "Ġpaul": 2311,
      "Ġinv": 2312,
      "Ġdales": 2313,
      "accon": 2314,
      "omaccon": 2315,
      "Ġ11264": 2316,
      "udiomaccon": 2317,
      "Ġmathematics": 2318,
      "Ġclaudiomaccon": 2319,
      "Ġclaudiomaccone": 2320,
      "quaid": 2321,
      "dan": 2322,
      "Ġann": 2323,
      "Ġalphar": 2324,
      "Ġcompletion": 2325,
      "Ġalpharetta": 2326,
      "our": 2327,
      "Ġ44": 2328,
      "Ġalvis": 2329,
      "Ġport": 2330,
      "Ġarab": 2331,
      "Ġprovince": 2332,
      "band": 2333,
      "pital": 2334,
      "Ġquarter": 2335,
      "Ġbol": 2336,
      "ipline": 2337,
      "Ġquarterly": 2338,
      "uart": 2339,
      "Ġstuart": 2340,
      "Ġallan": 2341,
      "Ġhospital": 2342,
      "788": 2343,
      "Ġtem": 2344,
      "Ġsigned": 2345,
      "isco": 2346,
      "Ġdiscipline": 2347,
      "22": 2348,
      "field": 2349,
      "iÃ³n": 2350,
      "ilight": 2351,
      "Ġrich": 2352,
      "tysburg": 2353,
      "Ġgovernment": 2354,
      "Ġuttar": 2355,
      "Ġwheeler": 2356,
      "Ġtwilight": 2357,
      "gie": 2358,
      "heast": 2359,
      "Ġwe": 2360,
      "Ġnov": 2361,
      "adesh": 2362,
      "ellor": 2363,
      "Ġpradesh": 2364,
      "Ġparent": 2365,
      "Ġhygie": 2366,
      "Ġgettysburg": 2367,
      "Ġhygiea": 2368,
      "ila": 2369,
      "ables": 2370,
      "Ġvegetables": 2371,
      "Ġq": 2372,
      "Ġjack": 2373,
      "Ġpri": 2374,
      "Ġbegan": 2375,
      "Ġchievo": 2376,
      "Ġvi": 2377,
      "ibut": 2378,
      "Ġbelong": 2379,
      "Ġglen": 2380,
      "Ġtar": 2381,
      "men": 2382,
      "rish": 2383,
      "Ġjway": 2384,
      "Ġjwaydan": 2385,
      "Ġfed": 2386,
      "Ġmorg": 2387,
      "Ġ300": 2388,
      "ogr": 2389,
      "Ġused": 2390,
      "Ġpolish": 2391,
      "Ġaddiction": 2392,
      "Ġmorgan": 2393,
      "ilogr": 2394,
      "Ġnow": 2395,
      "ado": 2396,
      "tone": 2397,
      "Ġjulia": 2398,
      "Ġsamar": 2399,
      "Ġnrbq": 2400,
      "Ġmonte": 2401,
      "Ġphill": 2402,
      "Ġmontev": 2403,
      "hol": 2404,
      "ideo": 2405,
      "Ġcomic": 2406,
      "Ġcompleted": 2407,
      "Ġmontevideo": 2408,
      "bio": 2409,
      "ubbio": 2410,
      "Ġlocomotive": 2411,
      "Ġ39": 2412,
      "Ġ110": 2413,
      "Ġturkmen": 2414,
      "Ġwolf": 2415,
      "eino": 2416,
      "uk": 2417,
      "xeino": 2418,
      "Ġ-": 2419,
      "hen": 2420,
      "Ġlum": 2421,
      "Ġgubbio": 2422,
      "estley": 2423,
      "Ġanthem": 2424,
      "Ġefxeino": 2425,
      "Ġpriestley": 2426,
      "Ġefxeinoup": 2427,
      "75": 2428,
      "91": 2429,
      "Ġcakes": 2430,
      "Ġmun": 2431,
      "Ġent": 2432,
      "Ġsq": 2433,
      "Ġseat": 2434,
      "Ġblt": 2435,
      "Ġcolomb": 2436,
      "cover": 2437,
      "Ġinhabitants": 2438,
      "Ġ1999": 2439,
      "Ġpotter": 2440,
      "Ġhardcover": 2441,
      "ilograms": 2442,
      "Ġarlington": 2443,
      "Ġ1996": 2444,
      "Ġspartak": 2445,
      "Ġsb": 2446,
      "Ġhal": 2447,
      "ped": 2448,
      "Ġbase": 2449,
      "Ġdeb": 2450,
      "we": 2451,
      "ink": 2452,
      "Ġanton": 2453,
      "perature": 2454,
      "Ġ1910": 2455,
      "Ġbarny": 2456,
      "Ġ1923": 2457,
      "Ġpotato": 2458,
      "Ġtemperature": 2459,
      "angra": 2460,
      "Ġsweet": 2461,
      "inhabitants": 2462,
      "Ġfigner": 2463,
      "Ġbhangra": 2464,
      "Ġfigneria": 2465,
      "ger": 2466,
      "els": 2467,
      "agor": 2468,
      "Ġbatagor": 2469,
      "Ġ185": 2470,
      "orno": 2471,
      "Ġfounding": 2472,
      "Ġproper": 2473,
      "Ġmanufactured": 2474,
      "Ġseconds": 2475,
      "air": 2476,
      "Ġresid": 2477,
      "iro": 2478,
      "Ġdaw": 2479,
      "Ġtrance": 2480,
      "ccn": 2481,
      "Ġcampus": 2482,
      "Ġdebut": 2483,
      "Ġdawson": 2484,
      "bs": 2485,
      "Ġoil": 2486,
      "orid": 2487,
      "Ġlccn": 2488,
      "ards": 2489,
      "enos": 2490,
      "Ã¤rt": 2491,
      "Ġcuis": 2492,
      "dez": 2493,
      "Ã¡ndez": 2494,
      "ĠhernÃ¡ndez": 2495,
      "Ġlivorno": 2496,
      "icipal": 2497,
      "Ġcuisine": 2498,
      "au": 2499,
      "dia": 2500,
      "enir": 2501,
      "Ġwere": 2502,
      "tral": 2503,
      "max": 2504,
      "Ġbaymax": 2505,
      "Ġdivision": 2506,
      "umakov": 2507,
      "Ġchumakov": 2508,
      "Ġstadium": 2509,
      "ique": 2510,
      "Ġaenir": 2511,
      "Ġvinc": 2512,
      "Ġassembled": 2513,
      "Ġvincent": 2514,
      "Ġfd": 2515,
      "Ġnav": 2516,
      "0777": 2517,
      "Ġsamaras": 2518,
      "kilometre": 2519,
      "Ġ13": 2520,
      "Ġmadin": 2521,
      "Ġwerder": 2522,
      "Ġphillips": 2523,
      "Ġabrad": 2524,
      "iop": 2525,
      "Ġbooga": 2526,
      "Ġlydia": 2527,
      "Ġabradab": 2528,
      "\".": 2529,
      "Ġbrem": 2530,
      "Ġhes": 2531,
      "Ġethiop": 2532,
      "ault": 2533,
      "ibuting": 2534,
      "Ġboogaard": 2535,
      "Ġbremen": 2536,
      "Ġben": 2537,
      "Ġste": 2538,
      "Ġassault": 2539,
      "Ġpolonica": 2540,
      "Ġpalaeontolog": 2541,
      "Ġrichard": 2542,
      "be": 2543,
      "Ġid": 2544,
      "Ġadvan": 2545,
      "Ġadvances": 2546,
      "fect": 2547,
      "Ġhad": 2548,
      "Ġwithin": 2549,
      "Ġveil": 2550,
      "Ġstarted": 2551,
      "Ġbelgium": 2552,
      "Ġpalaeontologica": 2553,
      "Ġtor": 2554,
      "Ġazal": 2555,
      "nan": 2556,
      "Ġcel": 2557,
      "Ġisland": 2558,
      "thpop": 2559,
      "nthpop": 2560,
      "Ġsynthpop": 2561,
      "600": 2562,
      "med": 2563,
      "berg": 2564,
      "Ġsize": 2565,
      "Ġgany": 2566,
      "Ġasunc": 2567,
      "Ġdimit": 2568,
      "Ġbras": 2569,
      "Ġ1986": 2570,
      "Ġ1036": 2571,
      "Ġsystems": 2572,
      "Ġplaces": 2573,
      "Ġefxeinoupolis": 2574,
      "Ġmunicipal": 2575,
      "Ġproperty": 2576,
      "Ġganymed": 2577,
      "Ġdimitra": 2578,
      "25": 2579,
      "Ġcen": 2580,
      "Ġcontributing": 2581,
      "Ġcontains": 2582,
      "Ġemploye": 2583,
      "bc": 2584,
      "Ġbbc": 2585,
      "Ġmod": 2586,
      "Ġdia": 2587,
      "Ġcentral": 2588,
      "Ġ'": 2589,
      "Ġtart": 2590,
      "Ġfall": 2591,
      "aguay": 2592,
      "Ġ1993": 2593,
      "Ġfranc": 2594,
      "Ġparaguay": 2595,
      "kh": 2596,
      "mis": 2597,
      "Ġcit": 2598,
      "tram": 2599,
      "Ġregister": 2600,
      "Ġbertram": 2601,
      "dor": 2602,
      "Ġkeral": 2603,
      "Ġtransmis": 2604,
      "Ġsocialist": 2605,
      "Ġtenant": 2606,
      "Ġnavy": 2607,
      "Ġkerala": 2608,
      "Ġtransmission": 2609,
      "Ġdbs": 2610,
      "Ġaires": 2611,
      "nical": 2612,
      "icebreaker": 2613,
      "terdam": 2614,
      "Ġbuenos": 2615,
      "Ġbertone": 2616,
      "Ġrotterdam": 2617,
      "Ġethiopia": 2618,
      "83": 2619,
      "Ġjens": 2620,
      "Ġtitans": 2621,
      "ria": 2622,
      "Ġlive": 2623,
      "Ġda": 2624,
      "Ġserg": 2625,
      "Ġantonis": 2626,
      "Ġemployees": 2627,
      "gar": 2628,
      "ertain": 2629,
      "Ġarbor": 2630,
      "Ġ109": 2631,
      "Ġ1962": 2632,
      "Ġentertain": 2633,
      "Ġentertainment": 2634,
      "icitas": 2635,
      "irond": 2636,
      "entif": 2637,
      "Ġadirond": 2638,
      "Ġfelicitas": 2639,
      "Ġbroad": 2640,
      "Ġidentif": 2641,
      "Ġadirondack": 2642,
      "tor": 2643,
      "Ġorigins": 2644,
      "Ġcarl": 2645,
      "6063": 2646,
      "Ġalexandria": 2647,
      "67": 2648,
      "Ġfal": 2649,
      "Ġcook": 2650,
      "Ġ1927": 2651,
      "Ġrepublic": 2652,
      "32": 2653,
      "gen": 2654,
      "oto": 2655,
      "ectr": 2656,
      "410777": 2657,
      "atis": 2658,
      "amil": 2659,
      "apolis": 2660,
      "Ġtir": 2661,
      "Ġ28": 2662,
      "strup": 2663,
      "Ġindianapolis": 2664,
      "Ġbelongs": 2665,
      "Ġtirstrup": 2666,
      "unity": 2667,
      "asmus": 2668,
      "Ġerasmus": 2669,
      "Ġcommunity": 2670,
      "ezz": 2671,
      "iphol": 2672,
      "Ġbeen": 2673,
      "Ġschiphol": 2674,
      "Ġlumezz": 2675,
      "Ġlumezzane": 2676,
      "aus": 2677,
      "anac": 2678,
      "Ġrodr": 2679,
      "Ġspeak": 2680,
      "Ġsaranac": 2681,
      "Ġdo": 2682,
      "Ġfi": 2683,
      "Ġfol": 2684,
      "isting": 2685,
      "Ġfood": 2686,
      "Ġfolk": 2687,
      "Ġim": 2688,
      "Ġpeter": 2689,
      "Ġunion": 2690,
      "ematis": 2691,
      "Ġclematis": 2692,
      "Ġ1101": 2693,
      "Ġidentifier": 2694,
      "old": 2695,
      "abbi": 2696,
      "Ġpopular": 2697,
      "Ġarrabbi": 2698,
      "Ġturkmenistan": 2699,
      "Ġarrabbiata": 2700,
      "46": 2701,
      "ouse": 2702,
      "Ġdaniel": 2703,
      "gress": 2704,
      "uished": 2705,
      "Ġdisting": 2706,
      "Ġdistinguished": 2707,
      "192": 2708,
      "ring": 2709,
      "Ġbill": 2710,
      "Ġrice": 2711,
      "66063": 2712,
      "kma": 2713,
      "Ġces": 2714,
      "Ġcompet": 2715,
      "15788": 2716,
      "Ġcarlos": 2717,
      "kmaar": 2718,
      "Ġcesena": 2719,
      "Ġrut": 2720,
      "Ġ1097": 2721,
      "ike": 2722,
      "Ġhero": 2723,
      "onato": 2724,
      "urs": 2725,
      "Ġkw": 2726,
      "Ġvicia": 2727,
      "6391": 2728,
      "peonato": 2729,
      "ileiro": 2730,
      "Ġ1989": 2731,
      "Ġcampeonato": 2732,
      "Ġbrasileiro": 2733,
      "ez": 2734,
      "khe": 2735,
      "Ġalkmaar": 2736,
      "Ġlockhe": 2737,
      "Ġbob": 2738,
      "Ġlockheed": 2739,
      "Ġpunk": 2740,
      "elv": 2741,
      "Ġchanc": 2742,
      "uez": 2743,
      "Ġcategory": 2744,
      "Ġchancellor": 2745,
      "Ġfrederick": 2746,
      "Ġtere": 2747,
      "ĠhÃ¤rt": 2748,
      "Ġrev": 2749,
      "Ġshivers": 2750,
      "Ġfederal": 2751,
      "Ġterek": 2752,
      "ĠhÃ¤rtel": 2753,
      "Ġbass": 2754,
      "Ġtexans": 2755,
      "Ġbattlefield": 2756,
      "Ġfulton": 2757,
      "66391": 2758,
      "atu": 2759,
      "Ġpad": 2760,
      "Ġasher": 2761,
      "500": 2762,
      "uc": 2763,
      "vio": 2764,
      "Ġcros": 2765,
      "Ġga": 2766,
      "Ġspouse": 2767,
      "Ġcongress": 2768,
      "Ġ170": 2769,
      "Ġeduc": 2770,
      "uct": 2771,
      "ana": 2772,
      "onia": 2773,
      "ash": 2774,
      "ally": 2775,
      "ustÃŃ": 2776,
      "ĠagustÃŃ": 2777,
      "Ġcream": 2778,
      "Ġ1928": 2779,
      "gonal": 2780,
      "Ġdiagonal": 2781,
      "ectric": 2782,
      "ĠagustÃŃn": 2783,
      "abad": 2784,
      "65": 2785,
      "hel": 2786,
      "its": 2787,
      "ilm": 2788,
      "Ġvice": 2789,
      "Ġ21": 2790,
      "Ġacm": 2791,
      "Ġtechnical": 2792,
      "out": 2793,
      "Ġalba": 2794,
      "Ġeducation": 2795,
      "uter": 2796,
      "Ġuk": 2797,
      "Ġtomato": 2798,
      "musician": 2799,
      "ao": 2800,
      "Ġold": 2801,
      "iger": 2802,
      "akis": 2803,
      "une": 2804,
      "alus": 2805,
      "Ġandalus": 2806,
      "Ġmonocacy": 2807,
      "oln": 2808,
      "Ġfloors": 2809,
      "47": 2810,
      "sar": 2811,
      "vap": 2812,
      "atta": 2813,
      "onz": 2814,
      "Ġradh": 2815,
      "akrish": 2816,
      "ahalli": 2817,
      "Ġofficial": 2818,
      "vanahalli": 2819,
      "devanahalli": 2820,
      "Ġgren": 2821,
      "Ġsoldevanahalli": 2822,
      "Ġmayor": 2823,
      "Ġsarvap": 2824,
      "ghatta": 2825,
      "Ġhessar": 2826,
      "Ġradhakrish": 2827,
      "Ġsarvapalli": 2828,
      "Ġhessarghatta": 2829,
      "Ġradhakrishnan": 2830,
      "49": 2831,
      "po": 2832,
      "ids": 2833,
      "ider": 2834,
      "Ġ5600": 2835,
      "Ġgrant": 2836,
      "Ġ1950": 2837,
      "Ġgrenad": 2838,
      "Ġbran": 2839,
      "Ġku": 2840,
      "Ġdiam": 2841,
      "weed": 2842,
      "Ġ560090": 2843,
      "kilograms": 2844,
      "Ġlem": 2845,
      "Ġje": 2846,
      "Ġ1957": 2847,
      "Ġbackup": 2848,
      "wc": 2849,
      "amman": 2850,
      "Ġhor": 2851,
      "emin": 2852,
      "Ġuniversit": 2853,
      "Ġjohann": 2854,
      "Ġschne": 2855,
      "Ġ1994": 2856,
      "ammann": 2857,
      "Ġschneider": 2858,
      "Ġaek": 2859,
      "Ġpet": 2860,
      "Ġgaz": 2861,
      "Ġnwc": 2862,
      "elvins": 2863,
      "Ġandalusia": 2864,
      "Ġgazett": 2865,
      "Ġgrantville": 2866,
      "ĠsÃ©": 2867,
      "Ġstra": 2868,
      "ific": 2869,
      "Ġmaterial": 2870,
      "Ġdoug": 2871,
      "ĠsÃ©rie": 2872,
      "Ġdays": 2873,
      "Ġmalaysian": 2874,
      "Ġbanana": 2875,
      "Ġdiameter": 2876,
      "isl": 2877,
      "Ġconstr": 2878,
      "Ġconstruct": 2879,
      "Ġstation": 2880,
      "Ġarena": 2881,
      "Ġdean": 2882,
      "Ġheal": 2883,
      "Ġvirage": 2884,
      "Ġhungar": 2885,
      "club": 2886,
      "Ġpes": 2887,
      "astern": 2888,
      "Ġhealth": 2889,
      "cast": 2890,
      "Ġsemin": 2891,
      "Ġbrom": 2892,
      "Ġglo": 2893,
      "Ġ1913": 2894,
      "uppo": 2895,
      "Ġmarcol": 2896,
      "Ġ2013": 2897,
      "Ġgruppo": 2898,
      "rys": 2899,
      "Ġsout": 2900,
      "Ġmichele": 2901,
      "Ġbroadcast": 2902,
      "Ġmarcolini": 2903,
      "jab": 2904,
      "edic": 2905,
      "Ġpun": 2906,
      "Ġlah": 2907,
      "Ġdedic": 2908,
      "onnais": 2909,
      "Ġlyonnais": 2910,
      "Ġolympique": 2911,
      "Ġpunjab": 2912,
      "Ġlahore": 2913,
      "bend": 2914,
      "iden": 2915,
      "Ġcape": 2916,
      "Ġalcobend": 2917,
      "Ġfrancisco": 2918,
      "Ġdedicated": 2919,
      "days": 2920,
      "ih": 2921,
      "Ġcust": 2922,
      "acob": 2923,
      "Ġmillimetres": 2924,
      "Ġalcobendas": 2925,
      "Ġmath": 2926,
      "Ġcustom": 2927,
      "Ġlira": 2928,
      "Ġgal": 2929,
      "Ġ108": 2930,
      "Ġwave": 2931,
      "Ġaviation": 2932,
      "Ġinclude": 2933,
      "Ġheadquarter": 2934,
      "Ġaur": 2935,
      "Ġjune": 2936,
      "Ġgeneral": 2937,
      "Ġuses": 2938,
      "Ġtab": 2939,
      "Ġmoy": 2940,
      "Ġguj": 2941,
      "Ġbobina": 2942,
      "Ġmoyine": 2943,
      "ban": 2944,
      "mo": 2945,
      "arat": 2946,
      "Ġdoc": 2947,
      "Ġcod": 2948,
      "Ġlanguages": 2949,
      "Ġ2001": 2950,
      "Ġwilliams": 2951,
      "Ġ1930": 2952,
      "Ġdavid": 2953,
      "Ġgujarat": 2954,
      "Ġdoctor": 2955,
      "Ġbund": 2956,
      "Ġstev": 2957,
      "Ġeastern": 2958,
      "uto": 2959,
      "Ġcatal": 2960,
      "Ġlegisl": 2961,
      "zon": 2962,
      "Ġter": 2963,
      "Ġisid": 2964,
      "ingen": 2965,
      "ula": 2966,
      "iba": 2967,
      "Ġ1969": 2968,
      "Ġcolombian": 2969,
      "Ġbranch": 2970,
      "Ġsoutheast": 2971,
      "Ġisidro": 2972,
      "ho": 2973,
      "Ġbos": 2974,
      "itiba": 2975,
      "uren": 2976,
      "Ġmanu": 2977,
      "Ġbuuren": 2978,
      "ogson": 2979,
      "Ġtyus": 2980,
      "Ġdesign": 2981,
      "Ġmike": 2982,
      "Ġpogson": 2983,
      "Ġfamil": 2984,
      "Ġrah": 2985,
      "Ġarmin": 2986,
      "Ġairlin": 2987,
      "Ġawarded": 2988,
      "Ġcatalonia": 2989,
      "Ġairlines": 2990,
      "ano": 2991,
      "esp": 2992,
      "Ġcurrently": 2993,
      "Ġboston": 2994,
      "Ġfamily": 2995,
      "flic": 2996,
      "mier": 2997,
      "Ġkadh": 2998,
      "Ġassad": 2999,
      "Ġconflic": 3000,
      "Ġgrass": 3001,
      "Ġpremier": 3002,
      "Ġahmad": 3003,
      "Ġkadhim": 3004,
      "Ġconflict": 3005,
      "Ġ$": 3006,
      "Ġque": 3007,
      "Ġduring": 3008,
      "Ġvk": 3009,
      "Ġroy": 3010,
      "Ġ1001": 3011,
      "Ġnovember": 3012,
      "Ġgaussia": 3013,
      "Ġgrasso": 3014,
      "Ġquaid": 3015,
      "Ġtop": 3016,
      "Ġmot": 3017,
      "Ġfench": 3018,
      "ther": 3019,
      "Ġnept": 3020,
      "Ġmanagement": 3021,
      "Ġfenchurch": 3022,
      "Ġneptun": 3023,
      "state": 3024,
      "place": 3025,
      "Ġhamburg": 3026,
      "Ġgarlic": 3027,
      "igator": 3028,
      "Ġrost": 3029,
      "Ġrostock": 3030,
      "Ġen": 3031,
      "ĠperÃ³n": 3032,
      "Ġdrum": 3033,
      "Ġgovernor": 3034,
      "Ã¶ger": 3035,
      "Ġstraight": 3036,
      "ĠstÃ¶ger": 3037,
      "Ġjar": 3038,
      "Ġbirthplace": 3039,
      "Ġderam": 3040,
      "Ġlemon": 3041,
      "aug": 3042,
      "Ġdraft": 3043,
      "Ġdead": 3044,
      "ords": 3045,
      "075": 3046,
      "Ġmalay": 3047,
      "Ġarianesp": 3048,
      "Ġarianespace": 3049,
      "Ġcor": 3050,
      "igbe": 3051,
      "higbe": 3052,
      "las": 3053,
      "Ġmey": 3054,
      "Ġstan": 3055,
      "apÃ¡n": 3056,
      "Ġakhigbe": 3057,
      "Ġ523": 3058,
      "ĠmetapÃ¡n": 3059,
      "Ġswords": 3060,
      "Ã¼ner": 3061,
      "Ġdouglas": 3062,
      "lor": 3063,
      "aylor": 3064,
      "Ġeat": 3065,
      "Ġmeyer": 3066,
      "ien": 3067,
      "pat": 3068,
      "Ġbeng": 3069,
      "ando": 3070,
      "Ġjon": 3071,
      "Ġvand": 3072,
      "Ġ26": 3073,
      "Ġalligator": 3074,
      "colo": 3075,
      "Ġbengo": 3076,
      "rant": 3077,
      "sink": 3078,
      "arol": 3079,
      "enberg": 3080,
      "ctor": 3081,
      "Ġmilk": 3082,
      "Ġwild": 3083,
      "Ġhelsink": 3084,
      "Ġresidence": 3085,
      "19255": 3086,
      "Ġvandenberg": 3087,
      "Ġhelsinki": 3088,
      "mas": 3089,
      "Ġniger": 3090,
      "Ġplack": 3091,
      "Ġ2004": 3092,
      "Ġantio": 3093,
      "Ġbruss": 3094,
      "Ġchief": 3095,
      "Ġbolt": 3096,
      "Ġtarrant": 3097,
      "Ġbrussels": 3098,
      "hatt": 3099,
      "to": 3100,
      "Ġbum": 3101,
      "ocado": 3102,
      "iputer": 3103,
      "quia": 3104,
      "imo": 3105,
      "Ġavocado": 3106,
      "Ġpoland": 3107,
      "Ġrash": 3108,
      "Ġolive": 3109,
      "Ġsecretary": 3110,
      "pedo": 3111,
      "Ġtorpedo": 3112,
      "Ġantioquia": 3113,
      "hattan": 3114,
      "Ġbumiputer": 3115,
      "Ġbumiputera": 3116,
      "Ġsup": 3117,
      "ating": 3118,
      "Ġpu": 3119,
      "Ġparti": 3120,
      "ateurs": 3121,
      "Ġbec": 3122,
      "Ġrepresented": 3123,
      "Ġgoverning": 3124,
      "ĠasunciÃ³n": 3125,
      "vious": 3126,
      "brid": 3127,
      "guez": 3128,
      "Ġsil": 3129,
      "emish": 3130,
      "abour": 3131,
      "Ġflemish": 3132,
      "Ġsports": 3133,
      "ÃŃguez": 3134,
      "ĠrodrÃŃguez": 3135,
      "bridge": 3136,
      "cons": 3137,
      "nam": 3138,
      "soviet": 3139,
      "Ġena": 3140,
      "Ġjoe": 3141,
      "Ġworks": 3142,
      "Ġcasey": 3143,
      "Ġenaire": 3144,
      "Ġjorg": 3145,
      "ends": 3146,
      "Ġprefect": 3147,
      "Ġjorge": 3148,
      "Ġprefecture": 3149,
      "2000": 3150,
      "35": 3151,
      "94": 3152,
      "kry": 3153,
      "Ġpf": 3154,
      "ular": 3155,
      "Ġ1966": 3156,
      "Ġdavis": 3157,
      "Ġdoctoral": 3158,
      "wide": 3159,
      "Ġpork": 3160,
      "ersburg": 3161,
      "igas": 3162,
      "Ġamerigas": 3163,
      "Ġcond": 3164,
      "Ġmeters": 3165,
      "Ġfalcons": 3166,
      "bast": 3167,
      "yes": 3168,
      "ĠâĢĵ": 3169,
      "Ġreyes": 3170,
      "Ġsebast": 3171,
      "Ġnationwide": 3172,
      "Ġpfk": 3173,
      "oza": 3174,
      "sville": 3175,
      "arch": 3176,
      "Ġbre": 3177,
      "urban": 3178,
      "Ġvik": 3179,
      "Ġfort": 3180,
      "Ġmendoza": 3181,
      "ĠpeÃ±": 3182,
      "Ġprevious": 3183,
      "Ġsumat": 3184,
      "sy": 3185,
      "elso": 3186,
      "athan": 3187,
      "Ġmendelso": 3188,
      "Ġsuburban": 3189,
      "Ġsoho": 3190,
      "Ġjonathan": 3191,
      "Ġmendelsohn": 3192,
      "Ġlinc": 3193,
      "Ġlincoln": 3194,
      "nie": 3195,
      "spe": 3196,
      "Ġska": 3197,
      "arest": 3198,
      "Ġlipp": 3199,
      "Ġusa": 3200,
      "otta": 3201,
      "Ġwilkins": 3202,
      "incott": 3203,
      "Ġ17068": 3204,
      "Ġsumatra": 3205,
      "Ġlippincott": 3206,
      "work": 3207,
      "Ġoct": 3208,
      "Ġinaug": 3209,
      "Ġreal": 3210,
      "Ġadded": 3211,
      "Ġinaugur": 3212,
      "Ġjal": 3213,
      "omay": 3214,
      "utes": 3215,
      "Ġheight": 3216,
      "Ġretire": 3217,
      "Ġstars": 3218,
      "Ġnetwork": 3219,
      "Ġsiomay": 3220,
      "Ġmunicipality": 3221,
      "ony": 3222,
      "Ġbiden": 3223,
      "Ġlabour": 3224,
      "Ġdu": 3225,
      "alla": 3226,
      "weeds": 3227,
      "Ġwildweeds": 3228,
      "Ġ45": 3229,
      "Ġ1995": 3230,
      "Ġjeff": 3231,
      "Ġretirement": 3232,
      "pol": 3233,
      "erage": 3234,
      "Ġaverage": 3235,
      "Ġperforming": 3236,
      "Ġattend": 3237,
      "Ġcenter": 3238,
      "Ġplante": 3239,
      "Ġdynam": 3240,
      "speed": 3241,
      "Ġstarring": 3242,
      "Ġsalle": 3243,
      "Ġmotor": 3244,
      "Ġtown": 3245,
      "agle": 3246,
      "Ġchair": 3247,
      "Ġmanche": 3248,
      "Ġblue": 3249,
      "130": 3250,
      "Ġmanchester": 3251,
      "pa": 3252,
      "Ġpia": 3253,
      "zzia": 3254,
      "Ġflow": 3255,
      "Ġalexandra": 3256,
      "Ġyouthclub": 3257,
      "Ġpiazzia": 3258,
      "48": 3259,
      "Ġgo": 3260,
      "Ġnood": 3261,
      "Ġeast": 3262,
      "Ġcarrol": 3263,
      "Ġ737": 3264,
      "Ġlegends": 3265,
      "Ġcarroll": 3266,
      "57": 3267,
      "Ġcumber": 3268,
      "Ġaster": 3269,
      "Ġinform": 3270,
      "Ġlegislature": 3271,
      "Ġcumberland": 3272,
      "ober": 3273,
      "wper": 3274,
      "Ġbal": 3275,
      "Ġfe": 3276,
      "Ġcowper": 3277,
      "Ġroland": 3278,
      "Ġpowys": 3279,
      "Ġoctober": 3280,
      "Ġflowering": 3281,
      "Ġinformation": 3282,
      "rich": 3283,
      "zion": 3284,
      "Ġbers": 3285,
      "ocia": 3286,
      "Ġdef": 3287,
      "Ġmanhattan": 3288,
      "Ġiii": 3289,
      "Ġpesaka": 3290,
      "Ġchairman": 3291,
      "zione": 3292,
      "Ġbersatu": 3293,
      "ociazione": 3294,
      "Ġmanila": 3295,
      "Ġscr": 3296,
      "Ġsold": 3297,
      "Ġsergio": 3298,
      "ture": 3299,
      "west": 3300,
      "ermo": 3301,
      "Ġsim": 3302,
      "alb": 3303,
      "Ġtransact": 3304,
      "Ġpalermo": 3305,
      "gradu": 3306,
      "Ġtransactions": 3307,
      "ced": 3308,
      "kes": 3309,
      "Ġ1974": 3310,
      "graduate": 3311,
      "size": 3312,
      "uell": 3313,
      "acuell": 3314,
      "Ġindonesian": 3315,
      "Ġparacuell": 3316,
      "Ġjarama": 3317,
      "Ġparacuellos": 3318,
      "36": 3319,
      "ler": 3320,
      "Ġ97": 3321,
      "ĠÃŃ": 3322,
      "Ġsign": 3323,
      "Ġ1933": 3324,
      "Ġsuper": 3325,
      "ĠÃŃcolo": 3326,
      "Ġtrad": 3327,
      "Ġsept": 3328,
      "ifican": 3329,
      "Ġcontra": 3330,
      "Ġsix": 3331,
      "Ġmotors": 3332,
      "Ġsignifican": 3333,
      "ied": 3334,
      "etst": 3335,
      "rietst": 3336,
      "netherlands": 3337,
      "deburg": 3338,
      "Ġsolan": 3339,
      "Ġheadquart": 3340,
      "Ġmagdeburg": 3341,
      "Ġarabic": 3342,
      "Ġsignificant": 3343,
      "rietstown": 3344,
      "ilton": 3345,
      "Ġ22": 3346,
      "Ġ1959": 3347,
      "Ġfriedrich": 3348,
      "ii": 3349,
      "ras": 3350,
      "achus": 3351,
      "Ġkill": 3352,
      "lex": 3353,
      "Ġcomplex": 3354,
      "etts": 3355,
      "Ġ700": 3356,
      "Ġmassachus": 3357,
      "Ġharrietstown": 3358,
      "atto": 3359,
      "Ġattended": 3360,
      "Ġsixma": 3361,
      "Ġmassachusetts": 3362,
      "Ġdos": 3363,
      "Ġonce": 3364,
      "Ġscott": 3365,
      "Ġmeans": 3366,
      "Ġflorid": 3367,
      "Ġsour": 3368,
      "Ġflorida": 3369,
      "cup": 3370,
      "Ġtime": 3371,
      "Ġsid": 3372,
      "Ġhum": 3373,
      "elf": 3374,
      "Ġev": 3375,
      "Ġabh": 3376,
      "Ġ47": 3377,
      "Ġtennis": 3378,
      "Ġtennant": 3379,
      "Ġkhor": 3380,
      "Ġdykes": 3381,
      "Ġsidcup": 3382,
      "Ġ88": 3383,
      "shaf": 3384,
      "Ġboris": 3385,
      "Ġhumph": 3386,
      "shafen": 3387,
      "back": 3388,
      "hes": 3389,
      "umai": 3390,
      "Ġmonarch": 3391,
      "odo": 3392,
      "Ġsinging": 3393,
      "Ġelectric": 3394,
      "Ġdesigner": 3395,
      "Ġborman": 3396,
      "Ġtr": 3397,
      "Ġbark": 3398,
      "amateurs": 3399,
      "Ġhilm": 3400,
      "eyin": 3401,
      "00000000": 3402,
      "Ġaleksander": 3403,
      "Ġshumai": 3404,
      "Ġalexander": 3405,
      "Ġ1987": 3406,
      "Ġarchitectur": 3407,
      "Ġhopkins": 3408,
      "Ġtwo": 3409,
      "Ġfriedrichshafen": 3410,
      "Ġhumphrys": 3411,
      "Ġbarkov": 3412,
      "Ġhilmi": 3413,
      "93": 3414,
      "ci": 3415,
      "muss": 3416,
      "Ġtc": 3417,
      "Ġcro": 3418,
      "inco": 3419,
      "ician": 3420,
      "icinco": 3421,
      "rotr": 3422,
      "Ġgang": 3423,
      "Ġnr": 3424,
      "uben": 3425,
      "ceased": 3426,
      "Ġlars": 3427,
      "Ġveint": 3428,
      "Ġrasmuss": 3429,
      "Ġpetrotr": 3430,
      "Ġarchitectural": 3431,
      "Ġveinticinco": 3432,
      "Ġrasmussen": 3433,
      "Ġpetrotrin": 3434,
      "iers": 3435,
      "Ġbotta": 3436,
      "Ġmason": 3437,
      "akur": 3438,
      "Ġmario": 3439,
      "Ġwater": 3440,
      "phal": 3441,
      "439": 3442,
      "Ġferenc": 3443,
      "Ġhalim": 3444,
      "30": 3445,
      "met": 3446,
      "nando": 3447,
      "ĠsÃ£o": 3448,
      "ald": 3449,
      "Ġdol": 3450,
      "Ġran": 3451,
      "ching": 3452,
      "Ġara": 3453,
      "Ġfour": 3454,
      "Ġ55": 3455,
      "Ġthakur": 3456,
      "Ġmayo": 3457,
      "Ġfernando": 3458,
      "Ġlater": 3459,
      "Ġsteuben": 3460,
      "ciere": 3461,
      "Ġcrociere": 3462,
      "3000": 3463,
      "cao": 3464,
      "Ġicao": 3465,
      "itician": 3466,
      "Ġlit": 3467,
      "Ġcov": 3468,
      "Ġdeceased": 3469,
      "Ġ2011": 3470,
      "Ġspani": 3471,
      "Ġmathematica": 3472,
      "Ġkuching": 3473,
      "Ġhungarica": 3474,
      "Ġbecame": 3475,
      "Ġsoldiers": 3476,
      "arm": 3477,
      "Ġmir": 3478,
      "Ġpred": 3479,
      "Ġkl": 3480,
      "oh": 3481,
      "Ġott": 3482,
      "Ġmum": 3483,
      "add": 3484,
      "oman": 3485,
      "Ġchurch": 3486,
      "Ġrutte": 3487,
      "Ġspaniards": 3488,
      "Ġmiri": 3489,
      "Ġottoman": 3490,
      "Ġmumbai": 3491,
      "hais": 3492,
      "anese": 3493,
      "Ġpin": 3494,
      "Ġward": 3495,
      "asan": 3496,
      "use": 3497,
      "Ġdrago": 3498,
      "Ġmassimo": 3499,
      "Ġfru": 3500,
      "Ġinvas": 3501,
      "Ġjackson": 3502,
      "Ġcrosse": 3503,
      "Ġpinhais": 3504,
      "Ġisabel": 3505,
      "league": 3506,
      "Ġblock": 3507,
      "Ġmaran": 3508,
      "Ġsaus": 3509,
      "Ġjavanese": 3510,
      "buster": 3511,
      "Ġrichardson": 3512,
      "Ġrolando": 3513,
      "Ġseptember": 3514,
      "Ġisabelle": 3515,
      "Ġblockbuster": 3516,
      "Ġcake": 3517,
      "Ġhap": 3518,
      "Ġmattar": 3519,
      "754": 3520,
      "Ġinvasion": 3521,
      "Ġmattarella": 3522,
      "ril": 3523,
      "umbus": 3524,
      "Ġassociazione": 3525,
      "roma": 3526,
      "Ġapril": 3527,
      "imer": 3528,
      "Ġ1983": 3529,
      "ecessor": 3530,
      "Ġpaulo": 3531,
      "Ġrahman": 3532,
      "Ġnigerian": 3533,
      "Ġsausage": 3534,
      "Ġmb": 3535,
      "Ġnik": 3536,
      "usuf": 3537,
      "Ġjusuf": 3538,
      "Ġkalla": 3539,
      "alls": 3540,
      "Ġbatt": 3541,
      "iÃ¡n": 3542,
      "Ġjam": 3543,
      "Ġcolumbus": 3544,
      "Ġinvol": 3545,
      "ĠsebastiÃ¡n": 3546,
      "ule": 3547,
      "Ġcroma": 3548,
      "Ġma": 3549,
      "Ġdon": 3550,
      "Ġvf": 3551,
      "Ġcuritiba": 3552,
      "Ġcanadian": 3553,
      "Ġwolfsburg": 3554,
      "Ġfiat": 3555,
      "Ġdynamics": 3556,
      "Ġpredecessor": 3557,
      "ko": 3558,
      "yan": 3559,
      "ÄŁ": 3560,
      "Ġiul": 3561,
      "Ġsoto": 3562,
      "Ġwid": 3563,
      "Ġryan": 3564,
      "Ġreference": 3565,
      "Ġrevenue": 3566,
      "Ġiulia": 3567,
      "sp": 3568,
      "esel": 3569,
      "Ġland": 3570,
      "Ġcocon": 3571,
      "cher": 3572,
      "iga": 3573,
      "film": 3574,
      "Ġinvolv": 3575,
      "Ġcoconut": 3576,
      "Ġ3500": 3577,
      "Ġcompar": 3578,
      "Ġconstruction": 3579,
      "ĠpeÃ±arol": 3580,
      "ve": 3581,
      "Ġdunc": 3582,
      "Ġcoach": 3583,
      "Ġroule": 3584,
      "Ġfootballer": 3585,
      "Ġacademy": 3586,
      "Ġpostgraduate": 3587,
      "Ġbread": 3588,
      "Ġkilled": 3589,
      "Ġcomparable": 3590,
      "Ġduncan": 3591,
      "Ġrouleau": 3592,
      "Ġtel": 3593,
      "Ġmeat": 3594,
      "Ġgermans": 3595,
      "364": 3596,
      "lov": 3597,
      "Ġhiv": 3598,
      "Ġafit": 3599,
      "marine": 3600,
      "Ġsubmarine": 3601,
      "Ġcoden": 3602,
      "qadd": 3603,
      "Ġcand": 3604,
      "Ġmih": 3605,
      "itional": 3606,
      "ung": 3607,
      "Ġ03": 3608,
      "ajlov": 3609,
      "qaddum": 3610,
      "Ġmihajlov": 3611,
      "kara": 3612,
      "ser": 3613,
      "tiy": 3614,
      "tkry": 3615,
      "Ġsat": 3616,
      "Ġotkry": 3617,
      "itor": 3618,
      "inos": 3619,
      "Ġankara": 3620,
      "Ġrup": 3621,
      "Ġbeing": 3622,
      "Ġwheelbase": 3623,
      "Ġtraditional": 3624,
      "tiye": 3625,
      "Ġotkrytiye": 3626,
      "Ġlas": 3627,
      "iver": 3628,
      "averal": 3629,
      "Ġcanaveral": 3630,
      "96": 3631,
      "wood": 3632,
      "Ġcul": 3633,
      "Ġwell": 3634,
      "iven": 3635,
      "Ġrais": 3636,
      "Ġeditor": 3637,
      "Ġklaus": 3638,
      "Ġinvolved": 3639,
      "ple": 3640,
      "Ġmu": 3641,
      "Ġgul": 3642,
      "amed": 3643,
      "Ġnamed": 3644,
      "Ġgulf": 3645,
      "katto": 3646,
      "tik": 3647,
      "Ġsit": 3648,
      "Ġche": 3649,
      "arend": 3650,
      "Ġnarend": 3651,
      "Ġkut": 3652,
      "Ġmarried": 3653,
      "Ġmodi": 3654,
      "Ġviking": 3655,
      "kattoor": 3656,
      "tikkattoor": 3657,
      "Ġnarendra": 3658,
      "Ġkuttikkattoor": 3659,
      "br": 3660,
      "nd": 3661,
      "tu": 3662,
      "Ġsus": 3663,
      "esing": 3664,
      "Ġwick": 3665,
      "Ġjoko": 3666,
      "Ġparis": 3667,
      "remesing": 3668,
      "Ġcastle": 3669,
      "Ġjefferson": 3670,
      "Ġranil": 3671,
      "Ġwidodo": 3672,
      "Ġsusana": 3673,
      "Ġwickremesing": 3674,
      "Ġwickremesinghe": 3675,
      "80": 3676,
      "lop": 3677,
      "Ġcub": 3678,
      "ilar": 3679,
      "abh": 3680,
      "utom": 3681,
      "Ġappe": 3682,
      "Ġbronz": 3683,
      "Ġlarcher": 3684,
      "Ġformerly": 3685,
      "Ġgrenadier": 3686,
      "Ġpreviously": 3687,
      "Ġbronze": 3688,
      "kar": 3689,
      "ll": 3690,
      "Ġmtu": 3691,
      "Ġfav": 3692,
      "Ġgi": 3693,
      "imp": 3694,
      "ibb": 3695,
      "four": 3696,
      "Ġavail": 3697,
      "Ġstadio": 3698,
      "Ġhamilton": 3699,
      "Ġavailable": 3700,
      "tÃ": 3701,
      "Ġpac": 3702,
      "omas": 3703,
      "Ġgrove": 3704,
      "Ġthomas": 3705,
      "92000": 3706,
      "Ġperformer": 3707,
      "Ġcelest": 3708,
      "ĠcittÃ": 3709,
      "serv": 3710,
      "Ġpacific": 3711,
      "ĠcittÃł": 3712,
      "Ġstell": 3713,
      "umar": 3714,
      "Ġleads": 3715,
      "Ġprabh": 3716,
      "endam": 3717,
      "Ġ1981": 3718,
      "Ġparkersburg": 3719,
      "ukumar": 3720,
      "Ġcelestial": 3721,
      "Ġstellendam": 3722,
      "Ġprabhukumar": 3723,
      "416": 3724,
      "ya": 3725,
      "atch": 3726,
      "aster": 3727,
      "Ġster": 3728,
      "Ġleaf": 3729,
      "Ġfranklin": 3730,
      "4165": 3731,
      "44": 3732,
      "Ġsoviet": 3733,
      "ations": 3734,
      "3260": 3735,
      "aum": 3736,
      "Ġtony": 3737,
      "Ġpur": 3738,
      "Ġtyrol": 3739,
      "Ġguards": 3740,
      "Ġ77": 3741,
      "Ġimst": 3742,
      "Ġscrip": 3743,
      "rington": 3744,
      "edabad": 3745,
      "ition": 3746,
      "Ġjose": 3747,
      "Ġ253260": 3748,
      "Ġaccrington": 3749,
      "Ġahmedabad": 3750,
      "Ġbelgaum": 3751,
      "Ġpurple": 3752,
      "100000000": 3753,
      "ford": 3754,
      "wh": 3755,
      "xur": 3756,
      "ind": 3757,
      "Ġstaten": 3758,
      "Ġvalls": 3759,
      "Ġdire": 3760,
      "Ġpowered": 3761,
      "Ġluxur": 3762,
      "Ġmanuel": 3763,
      "ble": 3764,
      "jah": 3765,
      "park": 3766,
      "ujah": 3767,
      "erce": 3768,
      "Ġpan": 3769,
      "Ġgold": 3770,
      "Ġhail": 3771,
      "thers": 3772,
      "Ġkot": 3773,
      "omst": 3774,
      "Ġtoek": 3775,
      "Ġmarble": 3776,
      "Ġcanonica": 3777,
      "Ġcommerce": 3778,
      "Ġsportpark": 3779,
      "Ġgranite": 3780,
      "Ġfallujah": 3781,
      "Ġmbas": 3782,
      "Ġscripture": 3783,
      "Ġluxury": 3784,
      "Ġtoekomst": 3785,
      "bul": 3786,
      "hic": 3787,
      "Ġpat": 3788,
      "Ġruss": 3789,
      "poration": 3790,
      "Ġ1907": 3791,
      "Ġcharles": 3792,
      "Ġcoupe": 3793,
      "Ġweb": 3794,
      "Ġgozon": 3795,
      "Ġsatem": 3796,
      "Ġdirector": 3797,
      "win": 3798,
      "Ġtan": 3799,
      "Ġmer": 3800,
      "alle": 3801,
      "Ġfeet": 3802,
      "Ġamong": 3803,
      "Ġhigher": 3804,
      "Ġlasalle": 3805,
      "524": 3806,
      "zh": 3807,
      "anbul": 3808,
      "Ġpanu": 3809,
      "cci": 3810,
      "izo": 3811,
      "Ġfloating": 3812,
      "Ġauron": 3813,
      "Ġhaput": 3814,
      "Ġpanucci": 3815,
      "Ġod": 3816,
      "enan": 3817,
      "Ġlot": 3818,
      "Ġadenan": 3819,
      "Ġbrook": 3820,
      "Ġabbreviated": 3821,
      "Ġitalians": 3822,
      "Ġcongressional": 3823,
      "Ġhaputale": 3824,
      "iÄ": 3825,
      "oul": 3826,
      "the": 3827,
      "Å¡": 3828,
      "ars": 3829,
      "amin": 3830,
      "charest": 3831,
      "Ġbucharest": 3832,
      "Ġnix": 3833,
      "Ġvalenc": 3834,
      "Ġgranola": 3835,
      "iÄĩ": 3836,
      "mouth": 3837,
      "uated": 3838,
      "Ġioh": 3839,
      "Ġmakis": 3840,
      "Ġnick": 3841,
      "ersham": 3842,
      "iano": 3843,
      "Ġvorid": 3844,
      "Ġaired": 3845,
      "Ġyacob": 3846,
      "Ġartur": 3847,
      "izade": 3848,
      "Ġrasizade": 3849,
      "annis": 3850,
      "Ġsimilar": 3851,
      "Ġhalimah": 3852,
      "Ġfaversham": 3853,
      "Ġiohannis": 3854,
      "Ġvoridis": 3855,
      "dal": 3856,
      "uner": 3857,
      "orf": 3858,
      "oris": 3859,
      "Ġdoris": 3860,
      "utch": 3861,
      "eymouth": 3862,
      "endorf": 3863,
      "Ġmeas": 3864,
      "Ġpenins": 3865,
      "Ġsands": 3866,
      "taqaddum": 3867,
      "Ġcambridge": 3868,
      "Ġbures": 3869,
      "Ġaustral": 3870,
      "Ġolympic": 3871,
      "Ġmagdal": 3872,
      "Ġoldendorf": 3873,
      "Ġeaters": 3874,
      "Ġsituated": 3875,
      "Ġlotus": 3876,
      "Ġpeninsula": 3877,
      "Ġmagdalene": 3878,
      "kin": 3879,
      "par": 3880,
      "pany": 3881,
      "Ġ131": 3882,
      "enton": 3883,
      "Ġrap": 3884,
      "Ġ32": 3885,
      "Ġ08": 3886,
      "company": 3887,
      "Ġburlington": 3888,
      "fore": 3889,
      "yde": 3890,
      "Ġsame": 3891,
      "Ġbank": 3892,
      "Ġgra": 3893,
      "Ġjust": 3894,
      "Ġclyde": 3895,
      "Ġprussia": 3896,
      "Ġmanages": 3897,
      "29075": 3898,
      "Ġgazette": 3899,
      "Ġpall": 3900,
      "Ġfish": 3901,
      "Ġrand": 3902,
      "Ġamkar": 3903,
      "Ġnewport": 3904,
      "Ġperm": 3905,
      "Ġplayer": 3906,
      "ogy": 3907,
      "Ġcold": 3908,
      "Ġvalencian": 3909,
      "tre": 3910,
      "vac": 3911,
      "Ġsamp": 3912,
      "ovac": 3913,
      "Ġmontre": 3914,
      "Ġvehic": 3915,
      "doria": 3916,
      "Ġsampdoria": 3917,
      "Ġmontreal": 3918,
      "82": 3919,
      "sular": 3920,
      "erg": 3921,
      "Ġinsular": 3922,
      "Ġcolo": 3923,
      "Ġhvac": 3924,
      "anda": 3925,
      "Ġbeans": 3926,
      "Ġcooked": 3927,
      "Ġbattles": 3928,
      "via": 3929,
      "itra": 3930,
      "Ġwelf": 3931,
      "elos": 3932,
      "Ġkovac": 3933,
      "Ġinflu": 3934,
      "ajan": 3935,
      "Ġmahajan": 3936,
      "Ġsumitra": 3937,
      "Ġdavuto": 3938,
      "Ġ295": 3939,
      "Ġluanda": 3940,
      "Ġenerg": 3941,
      "ÄŁlu": 3942,
      "Ġwelfare": 3943,
      "ĠdavutoÄŁlu": 3944,
      "Ġenergy": 3945,
      "bank": 3946,
      "kelvins": 3947,
      "name": 3948,
      "Ġweymouth": 3949,
      "ask": 3950,
      "Ġalong": 3951,
      "Ġhumber": 3952,
      "Ġamb": 3953,
      "Ġsandesh": 3954,
      "Ġberlin": 3955,
      "Ġgreek": 3956,
      "Ġrotation": 3957,
      "Ġsuperleague": 3958,
      "Ġsolanales": 3959,
      "Ġheadquarters": 3960,
      "metal": 3961,
      "Ġhumberto": 3962,
      "dy": 3963,
      "kub": 3964,
      "sk": 3965,
      "erty": 3966,
      "Ġsini": 3967,
      "Ġober": 3968,
      "Ġmac": 3969,
      "ached": 3970,
      "Ġrham": 3971,
      "ichar": 3972,
      "Ġchichar": 3973,
      "Ġmany": 3974,
      "Ġya": 3975,
      "Ġ30": 3976,
      "iment": 3977,
      "Ġacademical": 3978,
      "Ġburbank": 3979,
      "Ġmob": 3980,
      "gherty": 3981,
      "helman": 3982,
      "ĠmihajloviÄĩ": 3983,
      "Å¡a": 3984,
      "ĠsiniÅ¡a": 3985,
      "Ġoberhelman": 3986,
      "Ġra": 3987,
      "Ġplym": 3988,
      "Ġarchitecture": 3989,
      "Ġflour": 3990,
      "Ġknight": 3991,
      "ierce": 3992,
      "Ġmcquaid": 3993,
      "Ġreddy": 3994,
      "Ġdougherty": 3995,
      "Ġcompete": 3996,
      "Ġbroadcasted": 3997,
      "Ġplymouth": 3998,
      "62": 3999
    },
    "merges": [
      [
        "Ġ",
        "a"
      ],
      [
        "e",
        "r"
      ],
      [
        "Ġ",
        "i"
      ],
      [
        "a",
        "n"
      ],
      [
        "Ġ",
        "t"
      ],
      [
        "Ġ",
        "s"
      ],
      [
        "a",
        "t"
      ],
      [
        "o",
        "n"
      ],
      [
        "Ġ",
        "c"
      ],
      [
        "h",
        "e"
      ],
      [
        "a",
        "r"
      ],
      [
        "Ġ",
        "b"
      ],
      [
        "e",
        "d"
      ],
      [
        "Ġ",
        "o"
      ],
      [
        "Ġ",
        "m"
      ],
      [
        "i",
        "t"
      ],
      [
        "Ġ",
        "p"
      ],
      [
        "e",
        "s"
      ],
      [
        "Ġt",
        "he"
      ],
      [
        "u",
        "n"
      ],
      [
        "e",
        "n"
      ],
      [
        "i",
        "n"
      ],
      [
        "i",
        "c"
      ],
      [
        "o",
        "r"
      ],
      [
        "Ġ",
        "w"
      ],
      [
        "Ġi",
        "n"
      ],
      [
        "a",
        "l"
      ],
      [
        "Ġ",
        "l"
      ],
      [
        "a",
        "s"
      ],
      [
        "i",
        "s"
      ],
      [
        "Ġo",
        "f"
      ],
      [
        "Ġi",
        "s"
      ],
      [
        "Ġa",
        "n"
      ],
      [
        "r",
        "e"
      ],
      [
        "Ġ",
        "d"
      ],
      [
        "Ġ",
        "f"
      ],
      [
        "Ġa",
        "l"
      ],
      [
        "r",
        "o"
      ],
      [
        "Ġ",
        "g"
      ],
      [
        "i",
        "on"
      ],
      [
        "Ġan",
        "d"
      ],
      [
        "Ġc",
        "o"
      ],
      [
        "Ġ",
        "1"
      ],
      [
        "Ġs",
        "t"
      ],
      [
        "a",
        "m"
      ],
      [
        "i",
        "l"
      ],
      [
        "Ġ",
        "n"
      ],
      [
        "Ġ",
        "h"
      ],
      [
        "u",
        "s"
      ],
      [
        "a",
        "d"
      ],
      [
        "t",
        "h"
      ],
      [
        "Ġ",
        "un"
      ],
      [
        "e",
        "l"
      ],
      [
        "a",
        "c"
      ],
      [
        "i",
        "r"
      ],
      [
        "o",
        "c"
      ],
      [
        "0",
        "0"
      ],
      [
        "t",
        "r"
      ],
      [
        "at",
        "ion"
      ],
      [
        "i",
        "a"
      ],
      [
        "Ġst",
        "at"
      ],
      [
        "it",
        "ed"
      ],
      [
        "Ġco",
        "un"
      ],
      [
        "o",
        "l"
      ],
      [
        "Ġun",
        "ited"
      ],
      [
        "u",
        "r"
      ],
      [
        "in",
        "g"
      ],
      [
        "Ġw",
        "h"
      ],
      [
        "Ġstat",
        "es"
      ],
      [
        "an",
        "d"
      ],
      [
        "Ġw",
        "as"
      ],
      [
        "en",
        "t"
      ],
      [
        "Ġ",
        "j"
      ],
      [
        "er",
        "s"
      ],
      [
        "a",
        "y"
      ],
      [
        "a",
        "g"
      ],
      [
        "ar",
        "t"
      ],
      [
        "i",
        "v"
      ],
      [
        "Ġ",
        "k"
      ],
      [
        "it",
        "y"
      ],
      [
        "e",
        "m"
      ],
      [
        "Ġ",
        "("
      ],
      [
        "Ġa",
        "s"
      ],
      [
        "Ġ",
        "r"
      ],
      [
        "Ġl",
        "e"
      ],
      [
        "e",
        "t"
      ],
      [
        "c",
        "h"
      ],
      [
        "at",
        "ed"
      ],
      [
        "i",
        "g"
      ],
      [
        "u",
        "b"
      ],
      [
        "Ġp",
        "l"
      ],
      [
        "Ġ",
        "e"
      ],
      [
        "tr",
        "y"
      ],
      [
        "i",
        "an"
      ],
      [
        "Ġ",
        "v"
      ],
      [
        "l",
        "e"
      ],
      [
        "Ġ",
        "re"
      ],
      [
        "p",
        "or"
      ],
      [
        "Ġt",
        "e"
      ],
      [
        "i",
        "d"
      ],
      [
        "Ġa",
        "r"
      ],
      [
        "Ġa",
        "ir"
      ],
      [
        "Ġa",
        "m"
      ],
      [
        "t",
        "er"
      ],
      [
        "Ġa",
        "b"
      ],
      [
        "Ġl",
        "oc"
      ],
      [
        "Ġ1",
        "9"
      ],
      [
        "Ġ",
        "2"
      ],
      [
        "a",
        "b"
      ],
      [
        "u",
        "m"
      ],
      [
        "Ġ",
        "ro"
      ],
      [
        "por",
        "t"
      ],
      [
        "o",
        "m"
      ],
      [
        "o",
        "t"
      ],
      [
        "Ġcoun",
        "try"
      ],
      [
        "c",
        "e"
      ],
      [
        "ac",
        "e"
      ],
      [
        "Ġle",
        "ad"
      ],
      [
        "Ġn",
        "e"
      ],
      [
        "b",
        "er"
      ],
      [
        "Ġp",
        "art"
      ],
      [
        "ic",
        "h"
      ],
      [
        "a",
        "k"
      ],
      [
        "Ġlead",
        "er"
      ],
      [
        "Ġc",
        "h"
      ],
      [
        "i",
        "p"
      ],
      [
        "a",
        "p"
      ],
      [
        "or",
        "n"
      ],
      [
        "is",
        "h"
      ],
      [
        "t",
        "y"
      ],
      [
        "Ġi",
        "t"
      ],
      [
        "r",
        "a"
      ],
      [
        "Ġa",
        "t"
      ],
      [
        "ic",
        "an"
      ],
      [
        "en",
        "g"
      ],
      [
        "an",
        "g"
      ],
      [
        "u",
        "p"
      ],
      [
        "Ġg",
        "ro"
      ],
      [
        "Ġm",
        "us"
      ],
      [
        "Ġb",
        "y"
      ],
      [
        "Ġh",
        "as"
      ],
      [
        "o",
        "v"
      ],
      [
        "Ġs",
        "p"
      ],
      [
        "Ġmus",
        "ic"
      ],
      [
        "Ġcoun",
        "ty"
      ],
      [
        "Ġin",
        "d"
      ],
      [
        "u",
        "t"
      ],
      [
        "Ġair",
        "port"
      ],
      [
        "t",
        "on"
      ],
      [
        "Ġa",
        "d"
      ],
      [
        "u",
        "l"
      ],
      [
        "Ġne",
        "w"
      ],
      [
        "Ġam",
        "er"
      ],
      [
        "al",
        "l"
      ],
      [
        "Ġf",
        "or"
      ],
      [
        "el",
        "l"
      ],
      [
        "Ġc",
        "ity"
      ],
      [
        "Ġc",
        "l"
      ],
      [
        "ag",
        "e"
      ],
      [
        "Ġo",
        "r"
      ],
      [
        "Ġa",
        "re"
      ],
      [
        "i",
        "o"
      ],
      [
        "o",
        "s"
      ],
      [
        "un",
        "d"
      ],
      [
        "is",
        "t"
      ],
      [
        "oc",
        "i"
      ],
      [
        "ation",
        "al"
      ],
      [
        "Ġd",
        "e"
      ],
      [
        "Ġpl",
        "ace"
      ],
      [
        "r",
        "ed"
      ],
      [
        "Ġamer",
        "ican"
      ],
      [
        "o",
        "w"
      ],
      [
        "q",
        "u"
      ],
      [
        "Ġwh",
        "ich"
      ],
      [
        "Ġb",
        "ir"
      ],
      [
        "a",
        "in"
      ],
      [
        "il",
        "l"
      ],
      [
        "ang",
        "u"
      ],
      [
        "Ġl",
        "angu"
      ],
      [
        "Ġf",
        "o"
      ],
      [
        "Ġs",
        "e"
      ],
      [
        "Ġlangu",
        "age"
      ],
      [
        "s",
        "t"
      ],
      [
        "er",
        "e"
      ],
      [
        "Ġte",
        "x"
      ],
      [
        "Ġbir",
        "th"
      ],
      [
        "Ġ",
        "eng"
      ],
      [
        "an",
        "t"
      ],
      [
        "Ġcl",
        "ub"
      ],
      [
        "es",
        "s"
      ],
      [
        "Ġco",
        "m"
      ],
      [
        "c",
        "t"
      ],
      [
        "Ġtex",
        "as"
      ],
      [
        "it",
        "al"
      ],
      [
        "Ġas",
        "s"
      ],
      [
        "Ġm",
        "an"
      ],
      [
        "Ġloc",
        "ation"
      ],
      [
        "ro",
        "m"
      ],
      [
        "e",
        "y"
      ],
      [
        "Ġ",
        "he"
      ],
      [
        "n",
        "ic"
      ],
      [
        "Ġe",
        "th"
      ],
      [
        "iv",
        "ers"
      ],
      [
        "u",
        "d"
      ],
      [
        "Ġgro",
        "up"
      ],
      [
        "es",
        "t"
      ],
      [
        "Ġ",
        "on"
      ],
      [
        "iv",
        "e"
      ],
      [
        "r",
        "an"
      ],
      [
        "Ġeth",
        "nic"
      ],
      [
        "ar",
        "d"
      ],
      [
        "Ġun",
        "ivers"
      ],
      [
        "at",
        "e"
      ],
      [
        "Ġa",
        "ar"
      ],
      [
        "ar",
        "y"
      ],
      [
        "Ġp",
        "er"
      ],
      [
        "o",
        "p"
      ],
      [
        "Ġf",
        "rom"
      ],
      [
        "l",
        "and"
      ],
      [
        "Ġ",
        "y"
      ],
      [
        "Ġp",
        "r"
      ],
      [
        "Ġb",
        "e"
      ],
      [
        "Ġunivers",
        "ity"
      ],
      [
        "ter",
        "n"
      ],
      [
        "oci",
        "ated"
      ],
      [
        "a",
        "v"
      ],
      [
        "00",
        "0"
      ],
      [
        "Ġd",
        "i"
      ],
      [
        "Ġ",
        "3"
      ],
      [
        "Ġloc",
        "ated"
      ],
      [
        "i",
        "e"
      ],
      [
        "Ġa",
        "f"
      ],
      [
        "n",
        "s"
      ],
      [
        "in",
        "e"
      ],
      [
        "Ġre",
        "g"
      ],
      [
        "Ġwh",
        "ere"
      ],
      [
        "Ġc",
        "ap"
      ],
      [
        "Ġamerican",
        "s"
      ],
      [
        "Ġa",
        "p"
      ],
      [
        "p",
        "er"
      ],
      [
        "Ġs",
        "er"
      ],
      [
        "i",
        "m"
      ],
      [
        "Ġb",
        "orn"
      ],
      [
        "i",
        "b"
      ],
      [
        "Ġ1",
        "0"
      ],
      [
        "Ġt",
        "o"
      ],
      [
        "e",
        "tr"
      ],
      [
        "Ġal",
        "an"
      ],
      [
        "Ġal",
        "e"
      ],
      [
        "Ġpl",
        "ay"
      ],
      [
        "Ġb",
        "u"
      ],
      [
        "ac",
        "k"
      ],
      [
        "Ġreg",
        "ion"
      ],
      [
        "Ġg",
        "en"
      ],
      [
        "w",
        "ay"
      ],
      [
        "etr",
        "es"
      ],
      [
        "Ġb",
        "and"
      ],
      [
        "Ġb",
        "l"
      ],
      [
        "as",
        "s"
      ],
      [
        "o",
        "g"
      ],
      [
        "it",
        "h"
      ],
      [
        "Ġa",
        "c"
      ],
      [
        "Ġcap",
        "ital"
      ],
      [
        "Ġw",
        "ith"
      ],
      [
        "Ġa",
        "k"
      ],
      [
        "i",
        "ent"
      ],
      [
        "it",
        "e"
      ],
      [
        "is",
        "c"
      ],
      [
        "red",
        "ient"
      ],
      [
        "g",
        "redient"
      ],
      [
        "Ġin",
        "gredient"
      ],
      [
        "m",
        "a"
      ],
      [
        "i",
        "f"
      ],
      [
        "l",
        "o"
      ],
      [
        "ian",
        "a"
      ],
      [
        "ic",
        "o"
      ],
      [
        "ar",
        "e"
      ],
      [
        "Ġgen",
        "re"
      ],
      [
        "m",
        "an"
      ],
      [
        "Ġc",
        "on"
      ],
      [
        "s",
        "is"
      ],
      [
        "Ġm",
        "em"
      ],
      [
        "0",
        "1"
      ],
      [
        "il",
        "om"
      ],
      [
        "Ġm",
        "at"
      ],
      [
        "en",
        "d"
      ],
      [
        "Ġin",
        "tern"
      ],
      [
        "Ġintern",
        "ational"
      ],
      [
        "a",
        "h"
      ],
      [
        "Ġb",
        "at"
      ],
      [
        "ing",
        "ton"
      ],
      [
        "Ġc",
        "al"
      ],
      [
        "Ġand",
        "ers"
      ],
      [
        "um",
        "ber"
      ],
      [
        "ic",
        "e"
      ],
      [
        "at",
        "ive"
      ],
      [
        "c",
        "k"
      ],
      [
        "Ġit",
        "s"
      ],
      [
        "Ġal",
        "f"
      ],
      [
        "l",
        "ish"
      ],
      [
        "or",
        "k"
      ],
      [
        "Ġm",
        "ad"
      ],
      [
        "Ġs",
        "c"
      ],
      [
        "ig",
        "in"
      ],
      [
        "6",
        "3"
      ],
      [
        "d",
        "er"
      ],
      [
        "Ġor",
        "igin"
      ],
      [
        "n",
        "er"
      ],
      [
        "Ġn",
        "ational"
      ],
      [
        "Ġm",
        "on"
      ],
      [
        "Ġj",
        "o"
      ],
      [
        "Ġser",
        "v"
      ],
      [
        "on",
        "g"
      ],
      [
        "Ġt",
        "ur"
      ],
      [
        "Ġar",
        "t"
      ],
      [
        "Ġr",
        "un"
      ],
      [
        "Ġd",
        "ate"
      ],
      [
        "Ġm",
        "ar"
      ],
      [
        "am",
        "e"
      ],
      [
        "Ġn",
        "umber"
      ],
      [
        "Ġaar",
        "on"
      ],
      [
        "l",
        "in"
      ],
      [
        "Ġ1",
        "1"
      ],
      [
        "Ġrun",
        "way"
      ],
      [
        "or",
        "g"
      ],
      [
        "ip",
        "p"
      ],
      [
        "o",
        "k"
      ],
      [
        "Ġ2",
        "00"
      ],
      [
        "o",
        "u"
      ],
      [
        "us",
        "t"
      ],
      [
        "re",
        "w"
      ],
      [
        "ig",
        "h"
      ],
      [
        "n",
        "ol"
      ],
      [
        "he",
        "d"
      ],
      [
        "Ġind",
        "iana"
      ],
      [
        "an",
        "y"
      ],
      [
        "Ġfo",
        "und"
      ],
      [
        "Ġb",
        "ak"
      ],
      [
        "Ġt",
        "ran"
      ],
      [
        "on",
        "es"
      ],
      [
        "Ġcom",
        "p"
      ],
      [
        "o",
        "d"
      ],
      [
        "s",
        "o"
      ],
      [
        "if",
        "orn"
      ],
      [
        "Ġcal",
        "iforn"
      ],
      [
        "y",
        "l"
      ],
      [
        "Ġ",
        "5"
      ],
      [
        "Ġcaliforn",
        "ia"
      ],
      [
        "'",
        "s"
      ],
      [
        "Ġwas",
        "h"
      ],
      [
        "on",
        "d"
      ],
      [
        "or",
        "d"
      ],
      [
        "Ġm",
        "e"
      ],
      [
        "Ġg",
        "re"
      ],
      [
        "p",
        "e"
      ],
      [
        "en",
        "a"
      ],
      [
        "Ġeng",
        "lish"
      ],
      [
        "Ġass",
        "ociated"
      ],
      [
        "u",
        "e"
      ],
      [
        "Ġmusic",
        "al"
      ],
      [
        "Ġwash",
        "ington"
      ],
      [
        "h",
        "am"
      ],
      [
        "r",
        "i"
      ],
      [
        "i",
        "re"
      ],
      [
        "Ġman",
        "ag"
      ],
      [
        "Ġwh",
        "o"
      ],
      [
        "k",
        "s"
      ],
      [
        "Ġro",
        "ck"
      ],
      [
        "am",
        "a"
      ],
      [
        "Ġm",
        "art"
      ],
      [
        "Ġte",
        "ch"
      ],
      [
        "ber",
        "t"
      ],
      [
        "or",
        "e"
      ],
      [
        "Ġgro",
        "und"
      ],
      [
        "Ġf",
        "c"
      ],
      [
        "Ġs",
        "u"
      ],
      [
        "Ġad",
        "am"
      ],
      [
        "Ġg",
        "e"
      ],
      [
        "Ġal",
        "b"
      ],
      [
        "z",
        "z"
      ],
      [
        "i",
        "am"
      ],
      [
        "um",
        "ent"
      ],
      [
        "Ġt",
        "h"
      ],
      [
        "l",
        "y"
      ],
      [
        "Ġo",
        "per"
      ],
      [
        "Ġat",
        "l"
      ],
      [
        "Ġn",
        "ame"
      ],
      [
        "Ġart",
        "ist"
      ],
      [
        "Ġale",
        "ks"
      ],
      [
        "Ġl",
        "a"
      ],
      [
        "ov",
        "er"
      ],
      [
        "Ġge",
        "org"
      ],
      [
        "et",
        "t"
      ],
      [
        "v",
        "el"
      ],
      [
        "f",
        "f"
      ],
      [
        "g",
        "e"
      ],
      [
        "Ġl",
        "eng"
      ],
      [
        "Ġs",
        "ing"
      ],
      [
        "Ġb",
        "ac"
      ],
      [
        "Ġ",
        "4"
      ],
      [
        "Ġbac",
        "on"
      ],
      [
        "Ġit",
        "al"
      ],
      [
        "ar",
        "k"
      ],
      [
        "nol",
        "og"
      ],
      [
        "Ġtech",
        "nolog"
      ],
      [
        "Ġp",
        "ub"
      ],
      [
        "Ġleng",
        "th"
      ],
      [
        "ar",
        "a"
      ],
      [
        "t",
        "le"
      ],
      [
        "Ġeng",
        "ine"
      ],
      [
        "Ġp",
        "h"
      ],
      [
        "Ġan",
        "t"
      ],
      [
        "ut",
        "e"
      ],
      [
        "on",
        "s"
      ],
      [
        "Ġof",
        "f"
      ],
      [
        "Ġb",
        "r"
      ],
      [
        "Ġal",
        "l"
      ],
      [
        "Ġjo",
        "h"
      ],
      [
        "Ġp",
        "en"
      ],
      [
        "i",
        "k"
      ],
      [
        "c",
        "ord"
      ],
      [
        "en",
        "c"
      ],
      [
        "at",
        "h"
      ],
      [
        "Ġd",
        "isc"
      ],
      [
        "c",
        "c"
      ],
      [
        "b",
        "all"
      ],
      [
        "Ġs",
        "ch"
      ],
      [
        "i",
        "ation"
      ],
      [
        "00",
        "00"
      ],
      [
        "Ġre",
        "cord"
      ],
      [
        "Ġco",
        "l"
      ],
      [
        "ilom",
        "etres"
      ],
      [
        "ot",
        "ball"
      ],
      [
        "Ġp",
        "ro"
      ],
      [
        "Ġw",
        "ill"
      ],
      [
        "Ġa",
        "g"
      ],
      [
        "o",
        "us"
      ],
      [
        "Ġ",
        "el"
      ],
      [
        "Ġi",
        "i"
      ],
      [
        "h",
        "us"
      ],
      [
        "Ġch",
        "ar"
      ],
      [
        "r",
        "is"
      ],
      [
        "oc",
        "h"
      ],
      [
        "o",
        "ol"
      ],
      [
        "c",
        "o"
      ],
      [
        "u",
        "g"
      ],
      [
        "is",
        "hed"
      ],
      [
        "Ġd",
        "en"
      ],
      [
        "Ġar",
        "ch"
      ],
      [
        "ig",
        "n"
      ],
      [
        "Ġwill",
        "iam"
      ],
      [
        "ad",
        "em"
      ],
      [
        "Ġy",
        "ork"
      ],
      [
        "Ġal",
        "bert"
      ],
      [
        "Ġaleks",
        "and"
      ],
      [
        "st",
        "it"
      ],
      [
        "stit",
        "ute"
      ],
      [
        "t",
        "e"
      ],
      [
        "Ġin",
        "stitute"
      ],
      [
        "Ġpart",
        "y"
      ],
      [
        "Ġs",
        "h"
      ],
      [
        "Ġj",
        "ers"
      ],
      [
        "Ġjers",
        "ey"
      ],
      [
        "Ġmart",
        "in"
      ],
      [
        "ass",
        "ociated"
      ],
      [
        "Ġ",
        "u"
      ],
      [
        "Ġmon",
        "ument"
      ],
      [
        "Ġin",
        "c"
      ],
      [
        "Ġstat",
        "e"
      ],
      [
        "Ġde",
        "ath"
      ],
      [
        "Ġalf",
        "red"
      ],
      [
        "Ġa",
        "id"
      ],
      [
        "Ġbat",
        "tle"
      ],
      [
        "es",
        "id"
      ],
      [
        "l",
        "ic"
      ],
      [
        "ic",
        "a"
      ],
      [
        "d",
        "r"
      ],
      [
        "Ġc",
        "an"
      ],
      [
        "Ġare",
        "a"
      ],
      [
        "qu",
        "are"
      ],
      [
        "en",
        "n"
      ],
      [
        "Ġa",
        "ch"
      ],
      [
        "ary",
        "a"
      ],
      [
        "Ġach",
        "arya"
      ],
      [
        "s",
        "on"
      ],
      [
        "Ġaar",
        "hus"
      ],
      [
        "Ġin",
        "f"
      ],
      [
        "Ġbu",
        "il"
      ],
      [
        "n",
        "e"
      ],
      [
        "Ġwh",
        "ite"
      ],
      [
        "Ġab",
        "d"
      ],
      [
        "Ġabd",
        "ul"
      ],
      [
        "i",
        "z"
      ],
      [
        "Ġatl",
        "ant"
      ],
      [
        "v",
        "an"
      ],
      [
        "Ġsp",
        "ain"
      ],
      [
        "Ã",
        "¡"
      ],
      [
        "Ġm",
        "ain"
      ],
      [
        "Ġplay",
        "s"
      ],
      [
        "u",
        "es"
      ],
      [
        "Ġital",
        "y"
      ],
      [
        "Ġbl",
        "ues"
      ],
      [
        "Ġ19",
        "9"
      ],
      [
        "Ġm",
        "ed"
      ],
      [
        "d",
        "e"
      ],
      [
        "Ġaf",
        "r"
      ],
      [
        "an",
        "k"
      ],
      [
        "Ġw",
        "ar"
      ],
      [
        "Ġtur",
        "k"
      ],
      [
        "Ġand",
        "rew"
      ],
      [
        "is",
        "on"
      ],
      [
        "Ġro",
        "m"
      ],
      [
        "Ġmanag",
        "er"
      ],
      [
        "Ġt",
        "y"
      ],
      [
        "ov",
        "e"
      ],
      [
        "ol",
        "lo"
      ],
      [
        "Ġtechnolog",
        "y"
      ],
      [
        "Ġap",
        "ollo"
      ],
      [
        "Ġmem",
        "ber"
      ],
      [
        "as",
        "t"
      ],
      [
        "Ġab",
        "ove"
      ],
      [
        "Ġph",
        "il"
      ],
      [
        "e",
        "ar"
      ],
      [
        "in",
        "es"
      ],
      [
        "ay",
        "s"
      ],
      [
        "b",
        "ur"
      ],
      [
        "Ġb",
        "o"
      ],
      [
        "ur",
        "a"
      ],
      [
        "l",
        "ished"
      ],
      [
        "Ġs",
        "he"
      ],
      [
        "Ġserv",
        "ed"
      ],
      [
        "u",
        "f"
      ],
      [
        "Ġ",
        "us"
      ],
      [
        "ust",
        "in"
      ],
      [
        "Ġd",
        "ish"
      ],
      [
        "Ġoff",
        "ice"
      ],
      [
        "Ġind",
        "ia"
      ],
      [
        "ur",
        "n"
      ],
      [
        "Ġy",
        "ear"
      ],
      [
        "p",
        "l"
      ],
      [
        "Ġs",
        "a"
      ],
      [
        "Ġm",
        "is"
      ],
      [
        "Ġk",
        "ing"
      ],
      [
        "Ġm",
        "end"
      ],
      [
        "Ġphil",
        "ipp"
      ],
      [
        "Ġc",
        "re"
      ],
      [
        "Ġp",
        "e"
      ],
      [
        "Ġ2",
        "01"
      ],
      [
        "Ġsp",
        "ok"
      ],
      [
        "Ġale",
        "x"
      ],
      [
        "igh",
        "t"
      ],
      [
        "Ġg",
        "r"
      ],
      [
        "Ġs",
        "ol"
      ],
      [
        "Ġh",
        "ous"
      ],
      [
        "Ġf",
        "ran"
      ],
      [
        "Ġon",
        "e"
      ],
      [
        "Ġspok",
        "en"
      ],
      [
        "Ġal",
        "so"
      ],
      [
        "Ġ",
        "0"
      ],
      [
        "Ġ",
        "z"
      ],
      [
        "Ġla",
        "un"
      ],
      [
        "qu",
        "e"
      ],
      [
        "er",
        "land"
      ],
      [
        "Ġe",
        "p"
      ],
      [
        "Ġmat",
        "er"
      ],
      [
        "Ġoper",
        "at"
      ],
      [
        "Ġa",
        "ustin"
      ],
      [
        "esid",
        "ent"
      ],
      [
        "o",
        "y"
      ],
      [
        "Ġd",
        "er"
      ],
      [
        "Ġep",
        "och"
      ],
      [
        "Ġte",
        "am"
      ],
      [
        "Ġme",
        "x"
      ],
      [
        "Ġ19",
        "5"
      ],
      [
        "Ġ",
        "er"
      ],
      [
        "en",
        "ce"
      ],
      [
        "f",
        "o"
      ],
      [
        "Ġse",
        "a"
      ],
      [
        "Ġgeorg",
        "ia"
      ],
      [
        "on",
        "n"
      ],
      [
        "Ġ",
        "8"
      ],
      [
        "Ġp",
        "op"
      ],
      [
        "Ġpr",
        "esident"
      ],
      [
        "e",
        "em"
      ],
      [
        "Ġt",
        "it"
      ],
      [
        "Ġak",
        "eem"
      ],
      [
        "ou",
        "th"
      ],
      [
        "Ġb",
        "ar"
      ],
      [
        "ro",
        "s"
      ],
      [
        "v",
        "il"
      ],
      [
        "i",
        "al"
      ],
      [
        "Ġsc",
        "i"
      ],
      [
        "Ġ1",
        "2"
      ],
      [
        "Ġ",
        "6"
      ],
      [
        "ag",
        "ue"
      ],
      [
        "Ġsch",
        "ool"
      ],
      [
        "Ġmex",
        "ico"
      ],
      [
        "Ġas",
        "ton"
      ],
      [
        "am",
        "p"
      ],
      [
        "Ġle",
        "vel"
      ],
      [
        "t",
        "ain"
      ],
      [
        "Ġd",
        "em"
      ],
      [
        "Ġtran",
        "s"
      ],
      [
        "Ġ",
        "ell"
      ],
      [
        "6",
        "4"
      ],
      [
        "p",
        "ard"
      ],
      [
        "Ġshe",
        "pard"
      ],
      [
        "Ġbe",
        "an"
      ],
      [
        "dr",
        "in"
      ],
      [
        "Ġind",
        "ones"
      ],
      [
        "Ġp",
        "ar"
      ],
      [
        "r",
        "id"
      ],
      [
        "ac",
        "ter"
      ],
      [
        "Ġchar",
        "acter"
      ],
      [
        "a",
        "is"
      ],
      [
        "Ġm",
        "et"
      ],
      [
        "Ġafr",
        "ican"
      ],
      [
        "Ġl",
        "ar"
      ],
      [
        "0",
        "7"
      ],
      [
        "j",
        "o"
      ],
      [
        "Ġfo",
        "otball"
      ],
      [
        "Ġdi",
        "ed"
      ],
      [
        "i",
        "ot"
      ],
      [
        "Ġm",
        "al"
      ],
      [
        "Ġell",
        "iot"
      ],
      [
        "Ġse",
        "e"
      ],
      [
        "63",
        "4"
      ],
      [
        "Ġal",
        "drin"
      ],
      [
        "ic",
        "k"
      ],
      [
        "Ġplay",
        "ed"
      ],
      [
        "ac",
        "t"
      ],
      [
        "Ġ1",
        "8"
      ],
      [
        "Ġcom",
        "m"
      ],
      [
        "Ġs",
        "w"
      ],
      [
        "Ġanders",
        "on"
      ],
      [
        "Ġmed",
        "ia"
      ],
      [
        "s",
        "e"
      ],
      [
        "Ġc",
        "ar"
      ],
      [
        "em",
        "b"
      ],
      [
        "g",
        "an"
      ],
      [
        "Ġal",
        "ma"
      ],
      [
        "Ġa",
        "y"
      ],
      [
        "Ġa",
        "ct"
      ],
      [
        "Ġan",
        "g"
      ],
      [
        "d",
        "om"
      ],
      [
        "Ġking",
        "dom"
      ],
      [
        "â",
        "Ģ"
      ],
      [
        "an",
        "try"
      ],
      [
        "Ġinf",
        "antry"
      ],
      [
        "om",
        "e"
      ],
      [
        "d",
        "ing"
      ],
      [
        "Ġty",
        "pe"
      ],
      [
        "Ġr",
        "ib"
      ],
      [
        "Ġregion",
        "al"
      ],
      [
        "Ġcomp",
        "any"
      ],
      [
        "Ġg",
        "u"
      ],
      [
        "il",
        "e"
      ],
      [
        "ow",
        "n"
      ],
      [
        "Ġ19",
        "8"
      ],
      [
        "Ġal",
        "v"
      ],
      [
        "Ġbu",
        "zz"
      ],
      [
        "j",
        "a"
      ],
      [
        "âĢ",
        "ĵ"
      ],
      [
        "m",
        "ent"
      ],
      [
        "f",
        "t"
      ],
      [
        "Ġle",
        "ague"
      ],
      [
        "Ġ1",
        "634"
      ],
      [
        "f",
        "il"
      ],
      [
        "Ġk",
        "ilometres"
      ],
      [
        "ar",
        "th"
      ],
      [
        "Ġfor",
        "ce"
      ],
      [
        "bur",
        "g"
      ],
      [
        "Ġsp",
        "ace"
      ],
      [
        "Ġl",
        "ong"
      ],
      [
        "Ġf",
        "l"
      ],
      [
        "Ġ2",
        "5"
      ],
      [
        "Ġn",
        "as"
      ],
      [
        "Ġindones",
        "ia"
      ],
      [
        "Ġmend",
        "ris"
      ],
      [
        "ico",
        "ff"
      ],
      [
        "u",
        "ce"
      ],
      [
        "Ġrib",
        "icoff"
      ],
      [
        "Ġmendris",
        "io"
      ],
      [
        "Ġa",
        "w"
      ],
      [
        "a",
        "i"
      ],
      [
        "Ġc",
        "ur"
      ],
      [
        "Ġp",
        "il"
      ],
      [
        "Ġpil",
        "ot"
      ],
      [
        "Ġ",
        "est"
      ],
      [
        "Ġn",
        "ative"
      ],
      [
        "Ġre",
        "p"
      ],
      [
        "io",
        "d"
      ],
      [
        "Ġper",
        "iod"
      ],
      [
        "ic",
        "s"
      ],
      [
        "Ġa",
        "v"
      ],
      [
        "Ġa",
        "z"
      ],
      [
        "Ġmad",
        "rid"
      ],
      [
        "Ġtit",
        "le"
      ],
      [
        "u",
        "re"
      ],
      [
        "ac",
        "h"
      ],
      [
        "en",
        "e"
      ],
      [
        "u",
        "th"
      ],
      [
        "Ġp",
        "re"
      ],
      [
        "Ġs",
        "and"
      ],
      [
        "Ġsa",
        "uce"
      ],
      [
        "Ġj",
        "ones"
      ],
      [
        "Ġbl",
        "ack"
      ],
      [
        "Ġs",
        "oci"
      ],
      [
        "a",
        "j"
      ],
      [
        "Ġp",
        "ol"
      ],
      [
        "e",
        "o"
      ],
      [
        "e",
        "v"
      ],
      [
        "Ġs",
        "quare"
      ],
      [
        "Ġphilipp",
        "ines"
      ],
      [
        "Ġor",
        "b"
      ],
      [
        "on",
        "t"
      ],
      [
        "s",
        "h"
      ],
      [
        "Ġnas",
        "a"
      ],
      [
        "1",
        "5"
      ],
      [
        "Ġh",
        "all"
      ],
      [
        "Ġm",
        "ary"
      ],
      [
        "ar",
        "ian"
      ],
      [
        "Ġsing",
        "er"
      ],
      [
        "Ġsoci",
        "al"
      ],
      [
        "ot",
        "t"
      ],
      [
        "Ġmal",
        "ays"
      ],
      [
        "ons",
        "in"
      ],
      [
        "isc",
        "onsin"
      ],
      [
        "os",
        "e"
      ],
      [
        "Ġw",
        "isconsin"
      ],
      [
        "ell",
        "a"
      ],
      [
        "Ġjoh",
        "n"
      ],
      [
        "Ġorb",
        "ital"
      ],
      [
        "a",
        "e"
      ],
      [
        "m",
        "ark"
      ],
      [
        "Ġro",
        "man"
      ],
      [
        "ns",
        "yl"
      ],
      [
        "Ġpen",
        "nsyl"
      ],
      [
        "van",
        "ia"
      ],
      [
        "Ġpennsyl",
        "vania"
      ],
      [
        "Ġh",
        "er"
      ],
      [
        "Ġlaun",
        "ch"
      ],
      [
        "Ġa",
        "h"
      ],
      [
        "ond",
        "on"
      ],
      [
        "Ġr",
        "am"
      ],
      [
        "Ġbr",
        "it"
      ],
      [
        "Ġb",
        "us"
      ],
      [
        "Ġl",
        "ondon"
      ],
      [
        "Ġh",
        "is"
      ],
      [
        "ess",
        "or"
      ],
      [
        "av",
        "e"
      ],
      [
        "Ġ",
        "7"
      ],
      [
        "Ġas",
        "ian"
      ],
      [
        "Ġad",
        "d"
      ],
      [
        "Ġrecord",
        "s"
      ],
      [
        "Ġab",
        "ra"
      ],
      [
        "Ġabra",
        "ham"
      ],
      [
        "h",
        "y"
      ],
      [
        "Ġhous",
        "e"
      ],
      [
        "at",
        "or"
      ],
      [
        "Ġaf",
        "fil"
      ],
      [
        "in",
        "s"
      ],
      [
        "Ġac",
        "c"
      ],
      [
        "Ġadam",
        "s"
      ],
      [
        "Ġdisc",
        "over"
      ],
      [
        "Ġpe",
        "op"
      ],
      [
        "r",
        "es"
      ],
      [
        "ed",
        "ed"
      ],
      [
        "Ġap",
        "o"
      ],
      [
        "Ġapo",
        "ap"
      ],
      [
        "Ġd",
        "es"
      ],
      [
        "Ġapoap",
        "sis"
      ],
      [
        "in",
        "a"
      ],
      [
        "Ġpeop",
        "le"
      ],
      [
        "uth",
        "or"
      ],
      [
        "Ġtur",
        "ner"
      ],
      [
        "h",
        "ip"
      ],
      [
        "Ġa",
        "uthor"
      ],
      [
        "un",
        "a"
      ],
      [
        "Ġnational",
        "ity"
      ],
      [
        "Ġh",
        "y"
      ],
      [
        "Ã",
        "©"
      ],
      [
        "in",
        "ess"
      ],
      [
        "th",
        "m"
      ],
      [
        "hy",
        "thm"
      ],
      [
        "Ġr",
        "hythm"
      ],
      [
        "ol",
        "l"
      ],
      [
        "Ġden",
        "mark"
      ],
      [
        "ra",
        "z"
      ],
      [
        "Ġm",
        "ah"
      ],
      [
        "ic",
        "t"
      ],
      [
        "Ġ1",
        "4"
      ],
      [
        "Ġbus",
        "iness"
      ],
      [
        "Ġt",
        "ow"
      ],
      [
        "Ġtow",
        "ns"
      ],
      [
        "Ġtowns",
        "hip"
      ],
      [
        "Ġcur",
        "r"
      ],
      [
        "Ġs",
        "y"
      ],
      [
        "Ġm",
        "il"
      ],
      [
        "or",
        "m"
      ],
      [
        "ab",
        "lished"
      ],
      [
        "b",
        "ers"
      ],
      [
        "h",
        "io"
      ],
      [
        "ab",
        "el"
      ],
      [
        "Ġo",
        "hio"
      ],
      [
        "as",
        "e"
      ],
      [
        "Ġo",
        "w"
      ],
      [
        "it",
        "a"
      ],
      [
        "uf",
        "act"
      ],
      [
        "is",
        "tr"
      ],
      [
        "Ġmem",
        "bers"
      ],
      [
        "onn",
        "ell"
      ],
      [
        "Ġest",
        "ablished"
      ],
      [
        "6",
        "0"
      ],
      [
        "Ġman",
        "ufact"
      ],
      [
        "Ġoperat",
        "ing"
      ],
      [
        "g",
        "est"
      ],
      [
        "ite",
        "ct"
      ],
      [
        "Ġah",
        "m"
      ],
      [
        "Ġv",
        "er"
      ],
      [
        "er",
        "p"
      ],
      [
        "Ġm",
        "ich"
      ],
      [
        "vil",
        "le"
      ],
      [
        "Ġw",
        "il"
      ],
      [
        "Ġmanufact",
        "ur"
      ],
      [
        "al",
        "es"
      ],
      [
        "1",
        "0"
      ],
      [
        "b",
        "re"
      ],
      [
        "Ġm",
        "etres"
      ],
      [
        "s",
        "ipp"
      ],
      [
        "sis",
        "sipp"
      ],
      [
        "Ġmis",
        "sissipp"
      ],
      [
        "Ġmississipp",
        "i"
      ],
      [
        "an",
        "s"
      ],
      [
        "Ġ19",
        "2"
      ],
      [
        "Ġarch",
        "itect"
      ],
      [
        "Ġor",
        "gan"
      ],
      [
        "ist",
        "ic"
      ],
      [
        "r",
        "on"
      ],
      [
        "ag",
        "o"
      ],
      [
        "ig",
        "an"
      ],
      [
        "Ġlar",
        "gest"
      ],
      [
        "Ġsu",
        "cc"
      ],
      [
        "Ġpub",
        "lic"
      ],
      [
        "Ġst",
        "ud"
      ],
      [
        "s",
        "tr"
      ],
      [
        "Ġ10",
        "3"
      ],
      [
        "Ġass",
        "emb"
      ],
      [
        "enc",
        "es"
      ],
      [
        "ol",
        "a"
      ],
      [
        "adem",
        "ia"
      ],
      [
        "Ġacc",
        "ademia"
      ],
      [
        "Ġb",
        "ack"
      ],
      [
        "us",
        "s"
      ],
      [
        "Ġsci",
        "ences"
      ],
      [
        "Ġs",
        "port"
      ],
      [
        "Ġac",
        "adem"
      ],
      [
        "Ġt",
        "a"
      ],
      [
        "Ġsucc",
        "essor"
      ],
      [
        "Ġst",
        "yl"
      ],
      [
        "Ġv",
        "e"
      ],
      [
        "Ġpop",
        "ul"
      ],
      [
        "p",
        "sis"
      ],
      [
        "ia",
        "psis"
      ],
      [
        "Ġper",
        "iapsis"
      ],
      [
        "Ġwh",
        "ose"
      ],
      [
        "sh",
        "ire"
      ],
      [
        "Ġl",
        "ed"
      ],
      [
        "Ġd",
        "an"
      ],
      [
        "Ġre",
        "l"
      ],
      [
        "ros",
        "a"
      ],
      [
        "oll",
        "ow"
      ],
      [
        "Ġak",
        "ita"
      ],
      [
        "ik",
        "ov"
      ],
      [
        "it",
        "ett"
      ],
      [
        "Ġarch",
        "itett"
      ],
      [
        "Ġarchitett",
        "ura"
      ],
      [
        "Ġ19",
        "3"
      ],
      [
        "Ġsp",
        "e"
      ],
      [
        "Ġstyl",
        "istic"
      ],
      [
        "Ġb",
        "er"
      ],
      [
        "Ġg",
        "ma"
      ],
      [
        "Ġgre",
        "e"
      ],
      [
        "he",
        "m"
      ],
      [
        "Ġf",
        "lo"
      ],
      [
        "Ġatlant",
        "ic"
      ],
      [
        "Ġtran",
        "e"
      ],
      [
        "Ġd",
        "r"
      ],
      [
        "0",
        "4"
      ],
      [
        "Ġmich",
        "igan"
      ],
      [
        "Ġm",
        "in"
      ],
      [
        "1",
        "1"
      ],
      [
        "Ġsol",
        "o"
      ],
      [
        "Ġh",
        "op"
      ],
      [
        "am",
        "es"
      ],
      [
        "Ġn",
        "or"
      ],
      [
        "Ġth",
        "at"
      ],
      [
        "Ġtrans",
        "port"
      ],
      [
        "Ġb",
        "an"
      ],
      [
        "ot",
        "al"
      ],
      [
        "Ġgroup",
        "s"
      ],
      [
        "Ġv",
        "ar"
      ],
      [
        "and",
        "er"
      ],
      [
        "Ġt",
        "otal"
      ],
      [
        "Ġ1",
        "7"
      ],
      [
        "9",
        "7"
      ],
      [
        "m",
        "ar"
      ],
      [
        "Ã",
        "¼"
      ],
      [
        "Ġe",
        "x"
      ],
      [
        "Ġalb",
        "any"
      ],
      [
        "1",
        "8"
      ],
      [
        "Ġal",
        "p"
      ],
      [
        "Ġmalays",
        "ia"
      ],
      [
        "Ġg",
        "er"
      ],
      [
        "Ġsp",
        "an"
      ],
      [
        "er",
        "al"
      ],
      [
        "w",
        "ell"
      ],
      [
        "ist",
        "an"
      ],
      [
        "Ġak",
        "ron"
      ],
      [
        "a",
        "w"
      ],
      [
        "Ġst",
        "art"
      ],
      [
        "Ġal",
        "tern"
      ],
      [
        "'",
        "d"
      ],
      [
        "Ġal",
        "ison"
      ],
      [
        "Ġab",
        "il"
      ],
      [
        "s",
        "ion"
      ],
      [
        "Ġabil",
        "ene"
      ],
      [
        "it",
        "ar"
      ],
      [
        "i",
        "et"
      ],
      [
        "Ġaltern",
        "ative"
      ],
      [
        "Ġaleksand",
        "r"
      ],
      [
        "Ġf",
        "ul"
      ],
      [
        "9",
        "2"
      ],
      [
        "t",
        "a"
      ],
      [
        "Ġc",
        "iv"
      ],
      [
        "Ġk",
        "n"
      ],
      [
        "Ġcan",
        "ad"
      ],
      [
        "Ġciv",
        "il"
      ],
      [
        "Ġab",
        "el"
      ],
      [
        "f",
        "orm"
      ],
      [
        "er",
        "ing"
      ],
      [
        "he",
        "ns"
      ],
      [
        "Ġf",
        "in"
      ],
      [
        "Ġal",
        "co"
      ],
      [
        "urn",
        "al"
      ],
      [
        "Ġvar",
        "iation"
      ],
      [
        "Ġc",
        "am"
      ],
      [
        "Ġse",
        "c"
      ],
      [
        "g",
        "on"
      ],
      [
        "u",
        "ro"
      ],
      [
        "u",
        "ay"
      ],
      [
        "Ġs",
        "ri"
      ],
      [
        "re",
        "m"
      ],
      [
        "Ġe",
        "uro"
      ],
      [
        "Ġs",
        "ub"
      ],
      [
        "b",
        "o"
      ],
      [
        "Ġs",
        "um"
      ],
      [
        "Ġel",
        "ev"
      ],
      [
        "Ġorgan",
        "is"
      ],
      [
        "Ġrep",
        "res"
      ],
      [
        "Ġr",
        "ay"
      ],
      [
        "Ġorganis",
        "ation"
      ],
      [
        "Ġrepres",
        "ent"
      ],
      [
        "m",
        "ore"
      ],
      [
        "Ġray",
        "el"
      ],
      [
        "Ġg",
        "over"
      ],
      [
        "1",
        "2"
      ],
      [
        "por",
        "e"
      ],
      [
        "Ġfor",
        "m"
      ],
      [
        "Ġta",
        "ib"
      ],
      [
        "l",
        "es"
      ],
      [
        "a",
        "id"
      ],
      [
        "Ġl",
        "abel"
      ],
      [
        "a",
        "pore"
      ],
      [
        "Ġsing",
        "apore"
      ],
      [
        "Ġsand",
        "w"
      ],
      [
        "Ġrel",
        "ated"
      ],
      [
        "Ġang",
        "ola"
      ],
      [
        "r",
        "ist"
      ],
      [
        "er",
        "t"
      ],
      [
        "Ġar",
        "ian"
      ],
      [
        "Ġatlant",
        "a"
      ],
      [
        "Ġmah",
        "m"
      ],
      [
        "k",
        "a"
      ],
      [
        "Ġv",
        "ir"
      ],
      [
        "is",
        "ter"
      ],
      [
        "y",
        "m"
      ],
      [
        "b",
        "ai"
      ],
      [
        "d",
        "u"
      ],
      [
        "Ġo",
        "s"
      ],
      [
        "th",
        "erland"
      ],
      [
        "Ġde",
        "c"
      ],
      [
        "Ġper",
        "form"
      ],
      [
        "Ġgover",
        "n"
      ],
      [
        "Ġacadem",
        "ic"
      ],
      [
        "Ġan",
        "a"
      ],
      [
        "ud",
        "i"
      ],
      [
        "Ġmad",
        "ison"
      ],
      [
        "Ġger",
        "man"
      ],
      [
        "Ġa",
        "us"
      ],
      [
        "Ġb",
        "h"
      ],
      [
        "Ġw",
        "ork"
      ],
      [
        "e",
        "ct"
      ],
      [
        "r",
        "b"
      ],
      [
        "ri",
        "ed"
      ],
      [
        "Ġmet",
        "al"
      ],
      [
        "Ġp",
        "al"
      ],
      [
        "Ġcom",
        "es"
      ],
      [
        "5",
        "5"
      ],
      [
        "Ġmahm",
        "ud"
      ],
      [
        "ign",
        "ed"
      ],
      [
        "0",
        "3"
      ],
      [
        "Ġs",
        "outh"
      ],
      [
        "c",
        "as"
      ],
      [
        "Ġw",
        "at"
      ],
      [
        "b",
        "orn"
      ],
      [
        "em",
        "ber"
      ],
      [
        "n",
        "y"
      ],
      [
        "Ġm",
        "ass"
      ],
      [
        "ilom",
        "et"
      ],
      [
        "s",
        "ter"
      ],
      [
        "Ġgree",
        "ce"
      ],
      [
        "Ġsandw",
        "ich"
      ],
      [
        "rb",
        "q"
      ],
      [
        "iv",
        "es"
      ],
      [
        "m",
        "it"
      ],
      [
        "un",
        "tain"
      ],
      [
        "Ġfran",
        "ce"
      ],
      [
        "Ġpro",
        "du"
      ],
      [
        "Ġelev",
        "ation"
      ],
      [
        "Ġfo",
        "untain"
      ],
      [
        "Ġcre",
        "ator"
      ],
      [
        "1",
        "3"
      ],
      [
        "Ġat",
        "hens"
      ],
      [
        "Ġbak",
        "u"
      ],
      [
        "ant",
        "s"
      ],
      [
        "c",
        "om"
      ],
      [
        "at",
        "o"
      ],
      [
        "Ġb",
        "el"
      ],
      [
        "therland",
        "s"
      ],
      [
        "Ġnor",
        "th"
      ],
      [
        "f",
        "er"
      ],
      [
        "ar",
        "es"
      ],
      [
        "ak",
        "a"
      ],
      [
        "Ġd",
        "el"
      ],
      [
        "Ġp",
        "ais"
      ],
      [
        "Ġch",
        "rist"
      ],
      [
        "Ġpais",
        "a"
      ],
      [
        "Ġc",
        "at"
      ],
      [
        "it",
        "z"
      ],
      [
        "Ġstud",
        "ent"
      ],
      [
        "Ġ",
        "\""
      ],
      [
        "Ġj",
        "ul"
      ],
      [
        "e",
        "f"
      ],
      [
        "j",
        "as"
      ],
      [
        "Ġ200",
        "6"
      ],
      [
        "Ġa",
        "ub"
      ],
      [
        "Ġh",
        "ip"
      ],
      [
        "Ġaub",
        "urn"
      ],
      [
        "r",
        "y"
      ],
      [
        "mar",
        "cas"
      ],
      [
        "per",
        "marcas"
      ],
      [
        "Ġhy",
        "permarcas"
      ],
      [
        "l",
        "d"
      ],
      [
        "Ġm",
        "ill"
      ],
      [
        "Ġal",
        "ab"
      ],
      [
        "j",
        "an"
      ],
      [
        "m",
        "in"
      ],
      [
        "Ġalab",
        "ama"
      ],
      [
        "ing",
        "s"
      ],
      [
        "e",
        "well"
      ],
      [
        "u",
        "qu"
      ],
      [
        "er",
        "que"
      ],
      [
        "Ġalb",
        "uqu"
      ],
      [
        "Ġalbuqu",
        "erque"
      ],
      [
        "k",
        "ilometres"
      ],
      [
        "Ġj",
        "u"
      ],
      [
        "Ġbak",
        "ewell"
      ],
      [
        "y",
        "et"
      ],
      [
        "Ġl",
        "ank"
      ],
      [
        "ne",
        "ct"
      ],
      [
        "Ġpen",
        "yet"
      ],
      [
        "Ġ201",
        "4"
      ],
      [
        "Ã",
        "Ń"
      ],
      [
        "Ġj",
        "ames"
      ],
      [
        "Ġre",
        "t"
      ],
      [
        "Ġk",
        "m"
      ],
      [
        "ra",
        "ft"
      ],
      [
        "Ġbe",
        "ef"
      ],
      [
        "Ġb",
        "ion"
      ],
      [
        "Ġbion",
        "ico"
      ],
      [
        "Ã¡",
        "n"
      ],
      [
        "Ġcomm",
        "ander"
      ],
      [
        "Ġf",
        "el"
      ],
      [
        "Ġay",
        "am"
      ],
      [
        "i",
        "es"
      ],
      [
        "Ġ19",
        "6"
      ],
      [
        "Ġwh",
        "ile"
      ],
      [
        "in",
        "c"
      ],
      [
        "Ġkn",
        "own"
      ],
      [
        "Ġl",
        "ou"
      ],
      [
        "Ġform",
        "er"
      ],
      [
        "Ġspan",
        "ish"
      ],
      [
        "itz",
        "erland"
      ],
      [
        "l",
        "ud"
      ],
      [
        "Ġcon",
        "nect"
      ],
      [
        "Ġb",
        "ur"
      ],
      [
        "b",
        "ase"
      ],
      [
        "he",
        "im"
      ],
      [
        "ess",
        "ert"
      ],
      [
        "Ġana",
        "heim"
      ],
      [
        "Ġd",
        "essert"
      ],
      [
        "r",
        "it"
      ],
      [
        "u",
        "is"
      ],
      [
        "ad",
        "or"
      ],
      [
        "Ġcol",
        "le"
      ],
      [
        "ace",
        "ae"
      ],
      [
        "Ġad",
        "ol"
      ],
      [
        "im",
        "etres"
      ],
      [
        "Ġcolle",
        "ge"
      ],
      [
        "i",
        "er"
      ],
      [
        "i",
        "ated"
      ],
      [
        "Ġant",
        "ares"
      ],
      [
        "z",
        "a"
      ],
      [
        "Ġinc",
        "lud"
      ],
      [
        "Ġc",
        "all"
      ],
      [
        "Ġ200",
        "9"
      ],
      [
        "9",
        "9"
      ],
      [
        "Ġeng",
        "land"
      ],
      [
        "Ġfound",
        "ed"
      ],
      [
        "6",
        "8"
      ],
      [
        "ay",
        "a"
      ],
      [
        "0",
        "5"
      ],
      [
        "Ġs",
        "o"
      ],
      [
        "Ġturk",
        "ey"
      ],
      [
        "Ġp",
        "ow"
      ],
      [
        "Ġat",
        "t"
      ],
      [
        "Ġcanad",
        "a"
      ],
      [
        "ad",
        "u"
      ],
      [
        "ov",
        "a"
      ],
      [
        "qu",
        "art"
      ],
      [
        "Ġcall",
        "ed"
      ],
      [
        "b",
        "l"
      ],
      [
        "y",
        "r"
      ],
      [
        "Ġf",
        "r"
      ],
      [
        "Ġmad",
        "e"
      ],
      [
        "Ġban",
        "an"
      ],
      [
        "Ġsw",
        "itzerland"
      ],
      [
        "n",
        "es"
      ],
      [
        "8",
        "8"
      ],
      [
        "Ġroman",
        "ia"
      ],
      [
        "as",
        "on"
      ],
      [
        "fer",
        "ence"
      ],
      [
        "ilomet",
        "re"
      ],
      [
        "Ġflo",
        "or"
      ],
      [
        "Ġyear",
        "s"
      ],
      [
        "Ġaus",
        "tr"
      ],
      [
        "Ġf",
        "us"
      ],
      [
        "er",
        "ed"
      ],
      [
        "Ġ1",
        "5"
      ],
      [
        "Ġw",
        "er"
      ],
      [
        "Ġas",
        "h"
      ],
      [
        "Ġlank",
        "a"
      ],
      [
        "Ġk",
        "ar"
      ],
      [
        "Ġfus",
        "ion"
      ],
      [
        "Ġo",
        "b"
      ],
      [
        "Ġp",
        "o"
      ],
      [
        "Ġact",
        "ive"
      ],
      [
        "Ġlou",
        "is"
      ],
      [
        "ad",
        "e"
      ],
      [
        "Ġb",
        "in"
      ],
      [
        "ign",
        "it"
      ],
      [
        "Ġbin",
        "ignit"
      ],
      [
        "enc",
        "y"
      ],
      [
        "d",
        "am"
      ],
      [
        "g",
        "re"
      ],
      [
        "Ġjoh",
        "ns"
      ],
      [
        "Ġh",
        "ar"
      ],
      [
        "g",
        "ro"
      ],
      [
        "oci",
        "ation"
      ],
      [
        "Ġ19",
        "63"
      ],
      [
        "Ġassemb",
        "ly"
      ],
      [
        "Ġos",
        "born"
      ],
      [
        "an",
        "co"
      ],
      [
        "Ġosborn",
        "e"
      ],
      [
        "c",
        "on"
      ],
      [
        "ara",
        "jas"
      ],
      [
        "Ġg",
        "l"
      ],
      [
        "Ġadol",
        "fo"
      ],
      [
        "e",
        "ja"
      ],
      [
        "Ġa",
        "jo"
      ],
      [
        "Ġun",
        "der"
      ],
      [
        "Ġband",
        "eja"
      ],
      [
        "b",
        "or"
      ],
      [
        "ic",
        "al"
      ],
      [
        "Ġp",
        "ak"
      ],
      [
        "im",
        "e"
      ],
      [
        "Ġsy",
        "st"
      ],
      [
        "Ġ",
        "ur"
      ],
      [
        "Ġb",
        "od"
      ],
      [
        "Ġahm",
        "et"
      ],
      [
        "Ġs",
        "ite"
      ],
      [
        "ir",
        "a"
      ],
      [
        "m",
        "us"
      ],
      [
        "er",
        "bai"
      ],
      [
        "Ġar",
        "r"
      ],
      [
        "Ġgre",
        "at"
      ],
      [
        "Ġsh",
        "ip"
      ],
      [
        "erbai",
        "jan"
      ],
      [
        "Ġrom",
        "eo"
      ],
      [
        "b",
        "arajas"
      ],
      [
        "Ġt",
        "enn"
      ],
      [
        "et",
        "on"
      ],
      [
        "ic",
        "ut"
      ],
      [
        "Ġass",
        "ociation"
      ],
      [
        "er",
        "o"
      ],
      [
        "Ġg",
        "arth"
      ],
      [
        "Ġconnect",
        "icut"
      ],
      [
        "Ġaw",
        "ard"
      ],
      [
        "Ġap",
        "pl"
      ],
      [
        "Ġingredient",
        "s"
      ],
      [
        "Ġoper",
        "ated"
      ],
      [
        "os",
        "c"
      ],
      [
        "Ġappl",
        "eton"
      ],
      [
        "Ġder",
        "iv"
      ],
      [
        "Ġbuil",
        "ding"
      ],
      [
        "Ġhe",
        "l"
      ],
      [
        "Ġalf",
        "a"
      ],
      [
        "Ġturk",
        "ish"
      ],
      [
        "Ġmanufactur",
        "er"
      ],
      [
        "Ġback",
        "gro"
      ],
      [
        "Ġbackgro",
        "und"
      ],
      [
        "Ġc",
        "ris"
      ],
      [
        "Ġb",
        "av"
      ],
      [
        "Ġcris",
        "is"
      ],
      [
        "Ġbav",
        "arian"
      ],
      [
        "e",
        "c"
      ],
      [
        "s",
        "quare"
      ],
      [
        "Ġr",
        "s"
      ],
      [
        "Ġch",
        "in"
      ],
      [
        "os",
        "ion"
      ],
      [
        "Ġcomp",
        "l"
      ],
      [
        "pl",
        "osion"
      ],
      [
        "Ġex",
        "plosion"
      ],
      [
        "ir",
        "ed"
      ],
      [
        "Ġpopul",
        "ation"
      ],
      [
        "Ġc",
        "rew"
      ],
      [
        "Ġo",
        "cc"
      ],
      [
        "Ġwat",
        "son"
      ],
      [
        "b",
        "ell"
      ],
      [
        "h",
        "ab"
      ],
      [
        "ab",
        "a"
      ],
      [
        "Ġbrit",
        "ain"
      ],
      [
        "Ġm",
        "c"
      ],
      [
        "1",
        "7"
      ],
      [
        "a",
        "ul"
      ],
      [
        "Ġbak",
        "ed"
      ],
      [
        "Ġo",
        "re"
      ],
      [
        "b",
        "al"
      ],
      [
        "Ġ",
        "es"
      ],
      [
        "un",
        "k"
      ],
      [
        "0",
        "9"
      ],
      [
        "Ġam",
        "c"
      ],
      [
        "Ġdisc",
        "o"
      ],
      [
        "Ġpak",
        "istan"
      ],
      [
        "t",
        "en"
      ],
      [
        "re",
        "z"
      ],
      [
        "Ġcompl",
        "et"
      ],
      [
        "2",
        "3"
      ],
      [
        "at",
        "ives"
      ],
      [
        "Ġc",
        "ra"
      ],
      [
        "Ġcra",
        "ig"
      ],
      [
        "Ġaz",
        "erbaijan"
      ],
      [
        "Ġocc",
        "up"
      ],
      [
        "in",
        "o"
      ],
      [
        "Ġi",
        "l"
      ],
      [
        "Ġc",
        "ent"
      ],
      [
        "ion",
        "s"
      ],
      [
        "Ġver",
        "m"
      ],
      [
        "Ġtransport",
        "ation"
      ],
      [
        "fo",
        "otball"
      ],
      [
        "Ġarian",
        "e"
      ],
      [
        "Ã",
        "³"
      ],
      [
        "or",
        "ial"
      ],
      [
        "Ġd",
        "istr"
      ],
      [
        "Ġj",
        "av"
      ],
      [
        "Ġ1",
        "6"
      ],
      [
        "Ġn",
        "i"
      ],
      [
        "Ġ195",
        "5"
      ],
      [
        "en",
        "ch"
      ],
      [
        "hab",
        "it"
      ],
      [
        "Ã³",
        "n"
      ],
      [
        "Ġi",
        "ce"
      ],
      [
        "7",
        "7"
      ],
      [
        "a",
        "z"
      ],
      [
        "Ġh",
        "un"
      ],
      [
        "Ġp",
        "ot"
      ],
      [
        "Ġf",
        "ried"
      ],
      [
        "Ġag",
        "nes"
      ],
      [
        "Ġore",
        "gon"
      ],
      [
        "v",
        "es"
      ],
      [
        "Ġp",
        "ark"
      ],
      [
        "Ġpub",
        "lished"
      ],
      [
        "i",
        "y"
      ],
      [
        "Ġ",
        "9"
      ],
      [
        "in",
        "t"
      ],
      [
        "Ġmis",
        "sion"
      ],
      [
        "Ġne",
        "therlands"
      ],
      [
        "s",
        "ity"
      ],
      [
        "Ġm",
        "osc"
      ],
      [
        "Ġp",
        "ud"
      ],
      [
        "Ġden",
        "sity"
      ],
      [
        "Ġmosc",
        "ow"
      ],
      [
        "Ġpud",
        "ding"
      ],
      [
        "Ġl",
        "os"
      ],
      [
        "bl",
        "anco"
      ],
      [
        "Ġajo",
        "blanco"
      ],
      [
        "r",
        "ie"
      ],
      [
        "ak",
        "e"
      ],
      [
        "Ġh",
        "ome"
      ],
      [
        "Ġact",
        "a"
      ],
      [
        "Ġb",
        "ro"
      ],
      [
        "Ġ1",
        "64"
      ],
      [
        "Ġspe",
        "ed"
      ],
      [
        "Ġsu",
        "Ã¡"
      ],
      [
        "ĠsuÃ¡",
        "rez"
      ],
      [
        "Ġmem",
        "orial"
      ],
      [
        "Ġc",
        "le"
      ],
      [
        "is",
        "a"
      ],
      [
        "Ġk",
        "h"
      ],
      [
        "od",
        "ge"
      ],
      [
        "vel",
        "and"
      ],
      [
        "Ġcle",
        "veland"
      ],
      [
        "ic",
        "ago"
      ],
      [
        "Ġch",
        "icago"
      ],
      [
        "com",
        "ics"
      ],
      [
        "Ġoccup",
        "ation"
      ],
      [
        "i",
        "um"
      ],
      [
        "on",
        "ym"
      ],
      [
        "Ġ1",
        "000"
      ],
      [
        "Ġdem",
        "onym"
      ],
      [
        "Ġd",
        "odge"
      ],
      [
        "Ġm",
        "ay"
      ],
      [
        "as",
        "ka"
      ],
      [
        "Ġsyst",
        "em"
      ],
      [
        "al",
        "una"
      ],
      [
        "Ġaid",
        "aluna"
      ],
      [
        "Ġrepresent",
        "atives"
      ],
      [
        "Ġbod",
        "y"
      ],
      [
        "Ġchin",
        "ab"
      ],
      [
        "Ġchinab",
        "ank"
      ],
      [
        "as",
        "ed"
      ],
      [
        "Ġmat",
        "hem"
      ],
      [
        "habit",
        "ants"
      ],
      [
        "Ġmathem",
        "at"
      ],
      [
        "football",
        "er"
      ],
      [
        "Ġd",
        "av"
      ],
      [
        "Ġstudent",
        "s"
      ],
      [
        "Ġind",
        "ian"
      ],
      [
        "Ġs",
        "ar"
      ],
      [
        "he",
        "el"
      ],
      [
        "Ġchrist",
        "ian"
      ],
      [
        "Ġcurr",
        "ency"
      ],
      [
        "Ġair",
        "base"
      ],
      [
        "ers",
        "on"
      ],
      [
        "Ġj",
        "enn"
      ],
      [
        "Ġadd",
        "is"
      ],
      [
        "Ġju",
        "an"
      ],
      [
        "Ġjenn",
        "ings"
      ],
      [
        "Ġab",
        "arth"
      ],
      [
        "Ġab",
        "aba"
      ],
      [
        "ug",
        "uay"
      ],
      [
        "Ġdistr",
        "ict"
      ],
      [
        "Ġt",
        "est"
      ],
      [
        "Ġst",
        "ar"
      ],
      [
        "Ġ2",
        "000"
      ],
      [
        "ce",
        "eded"
      ],
      [
        "Ġ",
        "em"
      ],
      [
        "at",
        "es"
      ],
      [
        "i",
        "el"
      ],
      [
        "Ġ",
        "ut"
      ],
      [
        "Ġm",
        "o"
      ],
      [
        "ag",
        "es"
      ],
      [
        "Ġser",
        "ie"
      ],
      [
        "8",
        "9"
      ],
      [
        "Ġs",
        "am"
      ],
      [
        "es",
        "h"
      ],
      [
        "Ġal",
        "aska"
      ],
      [
        "a",
        "zz"
      ],
      [
        "Ġur",
        "uguay"
      ],
      [
        "Ġw",
        "rit"
      ],
      [
        "c",
        "ceeded"
      ],
      [
        "Ġl",
        "y"
      ],
      [
        "Ġfl",
        "ight"
      ],
      [
        "Ġas",
        "ad"
      ],
      [
        "Ġdiscover",
        "er"
      ],
      [
        "Ä",
        "į"
      ],
      [
        "Ġ",
        "ed"
      ],
      [
        "Ġte",
        "isa"
      ],
      [
        "Ġsu",
        "cceeded"
      ],
      [
        "ova",
        "Äį"
      ],
      [
        "Ġteisa",
        "ire"
      ],
      [
        "g",
        "un"
      ],
      [
        "Ġprodu",
        "ct"
      ],
      [
        "c",
        "l"
      ],
      [
        "g",
        "h"
      ],
      [
        "3",
        "1"
      ],
      [
        "ing",
        "ham"
      ],
      [
        "n",
        "ikov"
      ],
      [
        "Ġg",
        "or"
      ],
      [
        "Ġj",
        "azz"
      ],
      [
        "ud",
        "nikov"
      ],
      [
        "Ġpr",
        "udnikov"
      ],
      [
        "Ġbuil",
        "der"
      ],
      [
        "Ġalp",
        "ena"
      ],
      [
        "Ġv",
        "is"
      ],
      [
        "Ġverm",
        "ont"
      ],
      [
        "o",
        "is"
      ],
      [
        "Ġh",
        "ollow"
      ],
      [
        "Ġhollow",
        "ay"
      ],
      [
        "2",
        "1"
      ],
      [
        "bre",
        "v"
      ],
      [
        "Ġth",
        "ere"
      ],
      [
        "Ġful",
        "l"
      ],
      [
        "ang",
        "al"
      ],
      [
        "Ġb",
        "angal"
      ],
      [
        "g",
        "r"
      ],
      [
        "Ġaffil",
        "iation"
      ],
      [
        "3",
        "3"
      ],
      [
        "ug",
        "h"
      ],
      [
        "Ġalbert",
        "o"
      ],
      [
        "Ġbangal",
        "ore"
      ],
      [
        "v",
        "ar"
      ],
      [
        "Ġserv",
        "es"
      ],
      [
        "g",
        "in"
      ],
      [
        "Ġ",
        "x"
      ],
      [
        "en",
        "ue"
      ],
      [
        "Ġpub",
        "lish"
      ],
      [
        "Ġeuro",
        "pe"
      ],
      [
        "b",
        "ach"
      ],
      [
        "Ġgor",
        "bach"
      ],
      [
        ")",
        ","
      ],
      [
        "Ġp",
        "os"
      ],
      [
        "Ġre",
        "bell"
      ],
      [
        "Ġalex",
        "and"
      ],
      [
        "Ġs",
        "ab"
      ],
      [
        "Ġw",
        "al"
      ],
      [
        "Ġalf",
        "ons"
      ],
      [
        "Ġme",
        "an"
      ],
      [
        "Ġrebell",
        "ion"
      ],
      [
        "Ġsab",
        "in"
      ],
      [
        "Ġk",
        "ovaÄį"
      ],
      [
        "Ġmin",
        "ister"
      ],
      [
        "Ġ19",
        "7"
      ],
      [
        "Ġatl",
        "as"
      ],
      [
        "Ġderiv",
        "ative"
      ],
      [
        "et",
        "er"
      ],
      [
        "Ġac",
        "ura"
      ],
      [
        "Ġcon",
        "ference"
      ],
      [
        "Ġco",
        "up"
      ],
      [
        "iv",
        "a"
      ],
      [
        "Ġde",
        "p"
      ],
      [
        "1",
        "6"
      ],
      [
        "c",
        "io"
      ],
      [
        "b",
        "y"
      ],
      [
        "on",
        "a"
      ],
      [
        "id",
        "ge"
      ],
      [
        "Ġcal",
        "cio"
      ],
      [
        "gin",
        "ia"
      ],
      [
        "Ġmusic",
        "ian"
      ],
      [
        "Ġvir",
        "ginia"
      ],
      [
        "Ġmat",
        "ador"
      ],
      [
        "Ġb",
        "ut"
      ],
      [
        "Ġk",
        "lin"
      ],
      [
        "Ġklin",
        "k"
      ],
      [
        "Ġw",
        "est"
      ],
      [
        "Ġal",
        "ess"
      ],
      [
        "Ġserv",
        "ice"
      ],
      [
        "Ġengine",
        "ering"
      ],
      [
        "2",
        "7"
      ],
      [
        "g",
        "ent"
      ],
      [
        "Ġalv",
        "ah"
      ],
      [
        "Ġret",
        "ired"
      ],
      [
        "Ġse",
        "ason"
      ],
      [
        "ad",
        "h"
      ],
      [
        "ill",
        "ar"
      ],
      [
        "Ġpo",
        "aceae"
      ],
      [
        "Ġay",
        "ers"
      ],
      [
        "quart",
        "er"
      ],
      [
        "Ġob",
        "ama"
      ],
      [
        "t",
        "ar"
      ],
      [
        "Ġbar",
        "ack"
      ],
      [
        "s",
        "id"
      ],
      [
        "ol",
        "is"
      ],
      [
        "a",
        "ff"
      ],
      [
        "£",
        "o"
      ],
      [
        "Ã",
        "£o"
      ],
      [
        "Ġam",
        "ar"
      ],
      [
        "q",
        "bal"
      ],
      [
        "Ġi",
        "qbal"
      ],
      [
        "Ġall",
        "ama"
      ],
      [
        "Ġte",
        "ow"
      ],
      [
        "Ġf",
        "lin"
      ],
      [
        "Ġk",
        "way"
      ],
      [
        "Ġch",
        "ie"
      ],
      [
        "Ġflin",
        "t"
      ],
      [
        "Ġwrit",
        "ten"
      ],
      [
        "ill",
        "a"
      ],
      [
        "Ġer",
        "ic"
      ],
      [
        "Ġow",
        "ner"
      ],
      [
        "Ġpublish",
        "er"
      ],
      [
        "Ġa",
        "ja"
      ],
      [
        "Ġaja",
        "x"
      ],
      [
        "c",
        "ap"
      ],
      [
        "Ġalfred",
        "o"
      ],
      [
        "Ġz",
        "itar"
      ],
      [
        "Ġaffil",
        "iated"
      ],
      [
        "Ġjohns",
        "on"
      ],
      [
        "Ġeurope",
        "an"
      ],
      [
        "Ġar",
        "m"
      ],
      [
        "Ġzitar",
        "rosa"
      ],
      [
        "Ġst",
        "re"
      ],
      [
        "Ġh",
        "ot"
      ],
      [
        "Ġr",
        "idge"
      ],
      [
        "Ġaleksand",
        "ra"
      ],
      [
        "lin",
        "ois"
      ],
      [
        "Ġbuil",
        "t"
      ],
      [
        "Ġil",
        "linois"
      ],
      [
        "Ġstre",
        "et"
      ],
      [
        "p",
        "h"
      ],
      [
        "Ġall",
        "en"
      ],
      [
        "Ġpro",
        "v"
      ],
      [
        "Ġsport",
        "iva"
      ],
      [
        "Ġdiscover",
        "ed"
      ],
      [
        "at",
        "r"
      ],
      [
        "Ġk",
        "ey"
      ],
      [
        "Ġab",
        "ner"
      ],
      [
        "aj",
        "j"
      ],
      [
        "Ġi",
        "re"
      ],
      [
        "an",
        "u"
      ],
      [
        "Ġcat",
        "erp"
      ],
      [
        "ajj",
        "i"
      ],
      [
        "Ġire",
        "land"
      ],
      [
        "k",
        "y"
      ],
      [
        "ag",
        "nol"
      ],
      [
        "Ġrom",
        "agnol"
      ],
      [
        "Ġcaterp",
        "illar"
      ],
      [
        "0",
        "2"
      ],
      [
        "Ã",
        "¤"
      ],
      [
        "Ġw",
        "or"
      ],
      [
        "Ġv",
        "el"
      ],
      [
        "0000",
        "00"
      ],
      [
        "Ġromagnol",
        "i"
      ],
      [
        "m",
        "ir"
      ],
      [
        "p",
        "en"
      ],
      [
        "Ġaf",
        "c"
      ],
      [
        "b",
        "n"
      ],
      [
        "e",
        "al"
      ],
      [
        "Ġl",
        "ib"
      ],
      [
        "Ġz",
        "eal"
      ],
      [
        "Ġzeal",
        "and"
      ],
      [
        "r",
        "est"
      ],
      [
        "Ġfor",
        "rest"
      ],
      [
        "oc",
        "k"
      ],
      [
        "Ġde",
        "er"
      ],
      [
        "Ġorigin",
        "ates"
      ],
      [
        "y",
        "le"
      ],
      [
        "Ġst",
        "yle"
      ],
      [
        "4",
        "3"
      ],
      [
        "n",
        "at"
      ],
      [
        "Ġkar",
        "nat"
      ],
      [
        "Ġaless",
        "io"
      ],
      [
        "c",
        "at"
      ],
      [
        "Ġkarnat",
        "aka"
      ],
      [
        "Ġmart",
        "yr"
      ],
      [
        "Ġmartyr",
        "s"
      ],
      [
        "Ġc",
        "ab"
      ],
      [
        "Ġis",
        "bn"
      ],
      [
        "Ġas",
        "ilom"
      ],
      [
        "all",
        "ero"
      ],
      [
        "Ġcab",
        "allero"
      ],
      [
        "Ġasilom",
        "ar"
      ],
      [
        "s",
        "burg"
      ],
      [
        "Ġst",
        "aff"
      ],
      [
        "Ġro",
        "ma"
      ],
      [
        "Ġpr",
        "ime"
      ],
      [
        "e",
        "k"
      ],
      [
        "Ġthe",
        "y"
      ],
      [
        "Ġle",
        "g"
      ],
      [
        "c",
        "hed"
      ],
      [
        "Ġar",
        "gent"
      ],
      [
        "Ġf",
        "igh"
      ],
      [
        "Ġat",
        "at"
      ],
      [
        "Ġfigh",
        "ter"
      ],
      [
        "a",
        "ade"
      ],
      [
        "Ġb",
        "aade"
      ],
      [
        "Ġ25",
        "0"
      ],
      [
        "p",
        "ool"
      ],
      [
        "le",
        "y"
      ],
      [
        "Ġsum",
        "mit"
      ],
      [
        "Ġw",
        "heel"
      ],
      [
        "Ġco",
        "ur"
      ],
      [
        "Ġe",
        "g"
      ],
      [
        "Ġ2",
        "3"
      ],
      [
        "l",
        "ed"
      ],
      [
        "Ġm",
        "id"
      ],
      [
        "en",
        "s"
      ],
      [
        "Ġblack",
        "pool"
      ],
      [
        "Ġmary",
        "land"
      ],
      [
        "m",
        "p"
      ],
      [
        "Ġne",
        "gre"
      ],
      [
        "2",
        "9"
      ],
      [
        "Ġv",
        "ers"
      ],
      [
        "Ġab",
        "brev"
      ],
      [
        "c",
        "eded"
      ],
      [
        "Ġaid",
        "ast"
      ],
      [
        "Ã",
        "¶"
      ],
      [
        "Ġa",
        "udi"
      ],
      [
        "ap",
        "an"
      ],
      [
        "Ġtechnolog",
        "ical"
      ],
      [
        "ves",
        "var"
      ],
      [
        "Ġvis",
        "vesvar"
      ],
      [
        "Ġaidast",
        "ella"
      ],
      [
        "Ġvisvesvar",
        "aya"
      ],
      [
        "Ġw",
        "ay"
      ],
      [
        "ch",
        "oy"
      ],
      [
        "Ġbat",
        "choy"
      ],
      [
        "w",
        "erp"
      ],
      [
        "Ġant",
        "werp"
      ],
      [
        "Ġin",
        "str"
      ],
      [
        "Ġag",
        "ra"
      ],
      [
        "Ġinstr",
        "ument"
      ],
      [
        "at",
        "ure"
      ],
      [
        "Ġro",
        "ad"
      ],
      [
        "Ġpre",
        "ceded"
      ],
      [
        "Ġwal",
        "ter"
      ],
      [
        "n",
        "rbq"
      ],
      [
        "Ġthe",
        "ir"
      ],
      [
        "3",
        "7"
      ],
      [
        "Ġinc",
        "ome"
      ],
      [
        "Ġbrit",
        "ish"
      ],
      [
        "cat",
        "raz"
      ],
      [
        "Ġvers",
        "us"
      ],
      [
        "n",
        "ey"
      ],
      [
        "Ġn",
        "et"
      ],
      [
        "Ġeg",
        "g"
      ],
      [
        "2",
        "6"
      ],
      [
        "ill",
        "o"
      ],
      [
        "Ġalb",
        "enn"
      ],
      [
        "Ġalbenn",
        "ie"
      ],
      [
        "ip",
        "e"
      ],
      [
        "Ġs",
        "v"
      ],
      [
        "Ġr",
        "as"
      ],
      [
        "te",
        "gun"
      ],
      [
        "Ġandrew",
        "s"
      ],
      [
        "Ġgr",
        "adu"
      ],
      [
        "Ġer",
        "tegun"
      ],
      [
        "Ġas",
        "am"
      ],
      [
        "Ġdes",
        "igned"
      ],
      [
        "Ġt",
        "w"
      ],
      [
        "ro",
        "ck"
      ],
      [
        "og",
        "a"
      ],
      [
        "rock",
        "et"
      ],
      [
        "Ġal",
        "catraz"
      ],
      [
        "Ġv",
        "an"
      ],
      [
        "g",
        "or"
      ],
      [
        "Ġle",
        "v"
      ],
      [
        "Ġfel",
        "ipe"
      ],
      [
        "Ġlib",
        "r"
      ],
      [
        "1",
        "4"
      ],
      [
        "Ġco",
        "de"
      ],
      [
        "r",
        "d"
      ],
      [
        "am",
        "an"
      ],
      [
        "Ġrom",
        "e"
      ],
      [
        "Ġbanan",
        "aman"
      ],
      [
        "Ġs",
        "el"
      ],
      [
        "Ġor",
        "der"
      ],
      [
        "ect",
        "ed"
      ],
      [
        "Ġsel",
        "ected"
      ],
      [
        ")",
        "."
      ],
      [
        "oc",
        "ity"
      ],
      [
        "Ġes",
        "cap"
      ],
      [
        "Ġvel",
        "ocity"
      ],
      [
        "Ġescap",
        "e"
      ],
      [
        "r",
        "k"
      ],
      [
        "Ã¼",
        "rk"
      ],
      [
        "ed",
        "as"
      ],
      [
        "Ġp",
        "edas"
      ],
      [
        "Ġd",
        "ub"
      ],
      [
        "l",
        "x"
      ],
      [
        "Ġt",
        "lx"
      ],
      [
        "oc",
        "r"
      ],
      [
        "Ġdem",
        "ocr"
      ],
      [
        "Ġjav",
        "a"
      ],
      [
        "Ġdub",
        "lin"
      ],
      [
        "Ġlead",
        "ers"
      ],
      [
        "Ġder",
        "by"
      ],
      [
        "Ġderby",
        "shire"
      ],
      [
        "Ġb",
        "ella"
      ],
      [
        "Ġk",
        "ant"
      ],
      [
        "all",
        "i"
      ],
      [
        "a",
        "a"
      ],
      [
        "Ġand",
        "ra"
      ],
      [
        "Ġhe",
        "ad"
      ],
      [
        "Ġauthor",
        "ity"
      ],
      [
        "Ġwork",
        "ed"
      ],
      [
        "ines",
        "e"
      ],
      [
        "Ġspace",
        "port"
      ],
      [
        "Ġaustr",
        "ia"
      ],
      [
        "0",
        "6"
      ],
      [
        "c",
        "he"
      ],
      [
        "Ġstat",
        "us"
      ],
      [
        "Ġs",
        "an"
      ],
      [
        "raz",
        "il"
      ],
      [
        "i",
        "ad"
      ],
      [
        "ess",
        "e"
      ],
      [
        "Ġgeorg",
        "iad"
      ],
      [
        "Ġbo",
        "ok"
      ],
      [
        "Ġbh",
        "ajji"
      ],
      [
        "Ġgeorgiad",
        "is"
      ],
      [
        "Ġo",
        "l"
      ],
      [
        "Ġb",
        "ig"
      ],
      [
        "Ġe",
        "vil"
      ],
      [
        "Ġch",
        "ick"
      ],
      [
        "Ġcre",
        "ated"
      ],
      [
        "Ġhous",
        "ton"
      ],
      [
        "arian",
        "s"
      ],
      [
        "ugh",
        "t"
      ],
      [
        "Ġlibr",
        "arians"
      ],
      [
        "Ġchick",
        "en"
      ],
      [
        "c",
        "er"
      ],
      [
        "in",
        "i"
      ],
      [
        "Ġ1",
        "00"
      ],
      [
        "Ġfo",
        "ught"
      ],
      [
        "Ġcurr",
        "ent"
      ],
      [
        "ig",
        "ner"
      ],
      [
        "jo",
        "urnal"
      ],
      [
        "Ġital",
        "ian"
      ],
      [
        "1",
        "9"
      ],
      [
        "s",
        "n"
      ],
      [
        "t",
        "t"
      ],
      [
        "ag",
        "en"
      ],
      [
        "on",
        "is"
      ],
      [
        "Ġad",
        "onis"
      ],
      [
        "ab",
        "at"
      ],
      [
        "Ġpr",
        "ess"
      ],
      [
        "Ġaw",
        "h"
      ],
      [
        "Ġchar",
        "l"
      ],
      [
        "r",
        "ad"
      ],
      [
        "Ġpos",
        "t"
      ],
      [
        "Ġh",
        "amp"
      ],
      [
        "Ġhamp",
        "shire"
      ],
      [
        "en",
        "se"
      ],
      [
        "w",
        "ak"
      ],
      [
        "Ġt",
        "om"
      ],
      [
        "Ġb",
        "razil"
      ],
      [
        "Ġpl",
        "ant"
      ],
      [
        "Ġs",
        "en"
      ],
      [
        "Ġmanag",
        "ed"
      ],
      [
        "iz",
        "e"
      ],
      [
        "Ġjul",
        "y"
      ],
      [
        "Ġro",
        "w"
      ],
      [
        "Ġmar",
        "ch"
      ],
      [
        "z",
        "mir"
      ],
      [
        "Ġcon",
        "tr"
      ],
      [
        "Ġcol",
        "more"
      ],
      [
        "Ġarm",
        "y"
      ],
      [
        "at",
        "a"
      ],
      [
        "Ġst",
        "ad"
      ],
      [
        "Ġch",
        "inese"
      ],
      [
        "Ġind",
        "us"
      ],
      [
        "Ġd",
        "ag"
      ],
      [
        "Ġ10",
        "7"
      ],
      [
        "Ġdag",
        "g"
      ],
      [
        "Ġl",
        "una"
      ],
      [
        "Ġis",
        "sn"
      ],
      [
        "c",
        "raft"
      ],
      [
        "an",
        "c"
      ],
      [
        "Ġal",
        "der"
      ],
      [
        "ak",
        "ar"
      ],
      [
        "Ġfound",
        "ation"
      ],
      [
        "Ġalder",
        "ney"
      ],
      [
        "2",
        "64"
      ],
      [
        "Ġv",
        "ol"
      ],
      [
        "h",
        "agen"
      ],
      [
        "ah",
        "ra"
      ],
      [
        "Ġcour",
        "se"
      ],
      [
        "un",
        "ited"
      ],
      [
        "Ġco",
        "pen"
      ],
      [
        "Ġcopen",
        "hagen"
      ],
      [
        "e",
        "um"
      ],
      [
        "m",
        "ill"
      ],
      [
        "ac",
        "y"
      ],
      [
        "00",
        "000"
      ],
      [
        "Ġair",
        "craft"
      ],
      [
        "Ġground",
        "s"
      ],
      [
        "c",
        "ol"
      ],
      [
        "on",
        "so"
      ],
      [
        "Ġal",
        "aa"
      ],
      [
        "Ġdec",
        "ember"
      ],
      [
        "Ġ2",
        "7"
      ],
      [
        "ont",
        "ol"
      ],
      [
        "Ġhot",
        "el"
      ],
      [
        "Ġh",
        "am"
      ],
      [
        "Ġc",
        "r"
      ],
      [
        "Ġk",
        "ong"
      ],
      [
        "Ġsec",
        "ond"
      ],
      [
        "Ġmill",
        "er"
      ],
      [
        "Ġh",
        "ong"
      ],
      [
        "Ġh",
        "igh"
      ],
      [
        "Ġar",
        "ap"
      ],
      [
        "Ġow",
        "n"
      ],
      [
        "b",
        "i"
      ],
      [
        "Ġwor",
        "ld"
      ],
      [
        "Ġindus",
        "try"
      ],
      [
        "g",
        "abat"
      ],
      [
        "ic",
        "he"
      ],
      [
        "Ġl",
        "oy"
      ],
      [
        "Ġdan",
        "cer"
      ],
      [
        "Ġash",
        "gabat"
      ],
      [
        "Ġloy",
        "al"
      ],
      [
        "Ġare",
        "m"
      ],
      [
        "a",
        "f"
      ],
      [
        "m",
        "ingham"
      ],
      [
        "Ġbir",
        "mingham"
      ],
      [
        "Ġo",
        "ly"
      ],
      [
        "Ġg",
        "as"
      ],
      [
        "Ġad",
        "min"
      ],
      [
        "Ġamar",
        "illo"
      ],
      [
        "Ġoly",
        "mp"
      ],
      [
        "Ġem",
        "p"
      ],
      [
        "e",
        "et"
      ],
      [
        "Ġd",
        "ay"
      ],
      [
        "Ġj",
        "apan"
      ],
      [
        "Ġab",
        "ub"
      ],
      [
        "Ġy",
        "outh"
      ],
      [
        "Ġmar",
        "s"
      ],
      [
        "Ġoperat",
        "or"
      ],
      [
        "uss",
        "ia"
      ],
      [
        "2",
        "4"
      ],
      [
        "l",
        "ington"
      ],
      [
        "an",
        "n"
      ],
      [
        "ak",
        "es"
      ],
      [
        "un",
        "c"
      ],
      [
        "or",
        "t"
      ],
      [
        "Ġcoun",
        "t"
      ],
      [
        "Ġcharl",
        "ie"
      ],
      [
        "e",
        "th"
      ],
      [
        "Ġc",
        "orn"
      ],
      [
        "Ġg",
        "t"
      ],
      [
        "Ġcl",
        "ass"
      ],
      [
        "Ġbak",
        "so"
      ],
      [
        "ster",
        "dam"
      ],
      [
        "Ġm",
        "ag"
      ],
      [
        "Ġabub",
        "akar"
      ],
      [
        "s",
        "al"
      ],
      [
        "Ġb",
        "ased"
      ],
      [
        "Ġ10",
        "1"
      ],
      [
        "Ġcoup",
        "Ã©"
      ],
      [
        "Ġs",
        "al"
      ],
      [
        "Ġw",
        "iz"
      ],
      [
        "Ġwiz",
        "ard"
      ],
      [
        "Ã",
        "§"
      ],
      [
        "Ġgerman",
        "y"
      ],
      [
        "2",
        "0"
      ],
      [
        "h",
        "ar"
      ],
      [
        "Ġk",
        "ilometre"
      ],
      [
        "Ġse",
        "v"
      ],
      [
        "Ġgradu",
        "ated"
      ],
      [
        "Ġs",
        "ara"
      ],
      [
        "Ġgre",
        "en"
      ],
      [
        "mill",
        "imetres"
      ],
      [
        "ic",
        "iana"
      ],
      [
        "Ġam",
        "atr"
      ],
      [
        "qu",
        "ense"
      ],
      [
        "st",
        "a"
      ],
      [
        "ira",
        "quense"
      ],
      [
        "Ġatat",
        "Ã¼rk"
      ],
      [
        "Ġarap",
        "iraquense"
      ],
      [
        "Ġamatr",
        "iciana"
      ],
      [
        "Ġbel",
        "g"
      ],
      [
        "on",
        "ica"
      ],
      [
        "om",
        "b"
      ],
      [
        "Ġad",
        "are"
      ],
      [
        "Ġsci",
        "ence"
      ],
      [
        "Ġd",
        "all"
      ],
      [
        "iv",
        "is"
      ],
      [
        "Ġdall",
        "as"
      ],
      [
        "Ġp",
        "ena"
      ],
      [
        "Ġn",
        "ation"
      ],
      [
        "Ġam",
        "sterdam"
      ],
      [
        "Ġjo",
        "urnal"
      ],
      [
        "Ġang",
        "el"
      ],
      [
        "Ġwer",
        "ft"
      ],
      [
        "Ġsen",
        "ate"
      ],
      [
        "Ġram",
        "s"
      ],
      [
        "mus",
        "ic"
      ],
      [
        "ang",
        "e"
      ],
      [
        "Ġass",
        "er"
      ],
      [
        "Ġlaun",
        "ched"
      ],
      [
        "Ġlev",
        "y"
      ],
      [
        "ak",
        "er"
      ],
      [
        "Ġamer",
        "i"
      ],
      [
        "Ġfran",
        "k"
      ],
      [
        "at",
        "ic"
      ],
      [
        "Ġ2",
        "0"
      ],
      [
        "ab",
        "eth"
      ],
      [
        "Ġel",
        "iz"
      ],
      [
        "Ġcr",
        "uis"
      ],
      [
        "Ġeliz",
        "abeth"
      ],
      [
        "Ì",
        "ĩ"
      ],
      [
        "Ġc",
        "amp"
      ],
      [
        "Ġch",
        "amp"
      ],
      [
        "Ġc",
        "are"
      ],
      [
        "Ġp",
        "erson"
      ],
      [
        "Ġne",
        "ave"
      ],
      [
        "ul",
        "i"
      ],
      [
        "Ġphilipp",
        "ine"
      ],
      [
        "p",
        "t"
      ],
      [
        "Ġa",
        "ire"
      ],
      [
        "Ġr",
        "ed"
      ],
      [
        "Ġcare",
        "er"
      ],
      [
        "Ġaire",
        "y"
      ],
      [
        "it",
        "ary"
      ],
      [
        "Ġorigin",
        "ated"
      ],
      [
        "Ġmil",
        "itary"
      ],
      [
        "an",
        "e"
      ],
      [
        "Ġs",
        "ky"
      ],
      [
        "Ġh",
        "ard"
      ],
      [
        "id",
        "e"
      ],
      [
        "Ġmil",
        "an"
      ],
      [
        "Ġb",
        "ay"
      ],
      [
        "un",
        "te"
      ],
      [
        "Ġ3",
        "1"
      ],
      [
        "Ġvol",
        "unte"
      ],
      [
        "Ġvolunte",
        "er"
      ],
      [
        "d",
        "more"
      ],
      [
        "Ġar",
        "dmore"
      ],
      [
        "l",
        "ine"
      ],
      [
        "Ġi",
        "ra"
      ],
      [
        "Ġwas",
        "p"
      ],
      [
        "Ġag",
        "rem"
      ],
      [
        "Ġsev",
        "ered"
      ],
      [
        "Ġsara",
        "wak"
      ],
      [
        "Ġira",
        "q"
      ],
      [
        "ae",
        "ontol"
      ],
      [
        "Ġsub",
        "sid"
      ],
      [
        "Ġpal",
        "aeontol"
      ],
      [
        "at",
        "t"
      ],
      [
        "Ġaid",
        "s"
      ],
      [
        "m",
        "ond"
      ],
      [
        "p",
        "ara"
      ],
      [
        "Ġpl",
        "ac"
      ],
      [
        "ab",
        "le"
      ],
      [
        "²",
        "s"
      ],
      [
        "Ã",
        "²s"
      ],
      [
        "Ġro",
        "t"
      ],
      [
        "ict",
        "ion"
      ],
      [
        "Ġarr",
        "Ã²s"
      ],
      [
        "Ġsubsid",
        "i"
      ],
      [
        "ham",
        "b"
      ],
      [
        "Ġ199",
        "8"
      ],
      [
        "Ġdagg",
        "ett"
      ],
      [
        "Ġro",
        "bert"
      ],
      [
        "Ġangel",
        "es"
      ],
      [
        "Ġ",
        "&"
      ],
      [
        "Ġf",
        "ir"
      ],
      [
        "Ġd",
        "ivis"
      ],
      [
        "Ġf",
        "ollow"
      ],
      [
        "Ġsc",
        "ales"
      ],
      [
        "Ġf",
        "unk"
      ],
      [
        "Ġfr",
        "ench"
      ],
      [
        "0",
        "8"
      ],
      [
        "Ġav",
        "enue"
      ],
      [
        "Ġmo",
        "ore"
      ],
      [
        "s",
        "ing"
      ],
      [
        "Ġch",
        "ir"
      ],
      [
        "Ġmus",
        "eum"
      ],
      [
        "Ġcl",
        "a"
      ],
      [
        "lo",
        "y"
      ],
      [
        "Ġaleks",
        "ey"
      ],
      [
        "Ġchamp",
        "ions"
      ],
      [
        "Ġ",
        "end"
      ],
      [
        "al",
        "e"
      ],
      [
        "Ġal",
        "hamb"
      ],
      [
        "Ġ200",
        "5"
      ],
      [
        "bre",
        "aker"
      ],
      [
        "Ġalhamb",
        "ra"
      ],
      [
        "ar",
        "ena"
      ],
      [
        "Ġchir",
        "ikov"
      ],
      [
        "b",
        "us"
      ],
      [
        "Ġh",
        "ave"
      ],
      [
        "Ġcam",
        "illa"
      ],
      [
        "Ġperform",
        "s"
      ],
      [
        "Ġdel",
        "ta"
      ],
      [
        "h",
        "s"
      ],
      [
        "or",
        "ic"
      ],
      [
        "Ġh",
        "ist"
      ],
      [
        "ur",
        "ch"
      ],
      [
        "Ġam",
        "para"
      ],
      [
        "Ġgreen",
        "ville"
      ],
      [
        "Ġhist",
        "oric"
      ],
      [
        "Ġt",
        "en"
      ],
      [
        "Ġbat",
        "hs"
      ],
      [
        "o",
        "b"
      ],
      [
        "Ġs",
        "i"
      ],
      [
        "Ġaf",
        "onso"
      ],
      [
        "Ġhel",
        "ena"
      ],
      [
        "c",
        "es"
      ],
      [
        "em",
        "ent"
      ],
      [
        "bur",
        "y"
      ],
      [
        "Ġher",
        "n"
      ],
      [
        "es",
        "e"
      ],
      [
        "in",
        "ce"
      ],
      [
        "Ġg",
        "ar"
      ],
      [
        "ia",
        "Ã§"
      ],
      [
        "ur",
        "ing"
      ],
      [
        "Ġle",
        "e"
      ],
      [
        "Ġver",
        "ona"
      ],
      [
        "Ġargent",
        "ina"
      ],
      [
        "iaÃ§",
        "Ã£o"
      ],
      [
        "i",
        "och"
      ],
      [
        "Ġant",
        "ioch"
      ],
      [
        "Ġgu",
        "iana"
      ],
      [
        "ish",
        "am"
      ],
      [
        "Ġad",
        "isham"
      ],
      [
        "Ġmed",
        "al"
      ],
      [
        "Ġ201",
        "5"
      ],
      [
        "aw",
        "are"
      ],
      [
        "Ġdel",
        "aware"
      ],
      [
        "Ġsubsidi",
        "ary"
      ],
      [
        "Ġind",
        "ie"
      ],
      [
        "tr",
        "ess"
      ],
      [
        "Ġfor",
        "tress"
      ],
      [
        "Ġgre",
        "y"
      ],
      [
        "c",
        "il"
      ],
      [
        "Ġl",
        "ake"
      ],
      [
        "Ġcoun",
        "cil"
      ],
      [
        "Ġbo",
        "th"
      ],
      [
        "l",
        "u"
      ],
      [
        "Ġabbrev",
        "iation"
      ],
      [
        "Ġwil",
        "der"
      ],
      [
        "Ġb",
        "or"
      ],
      [
        "ion",
        "al"
      ],
      [
        "it",
        "as"
      ],
      [
        "Ġw",
        "ol"
      ],
      [
        "Ġh",
        "ond"
      ],
      [
        "Ġ2",
        "9"
      ],
      [
        "Ġaid",
        "a"
      ],
      [
        "Ġhond",
        "a"
      ],
      [
        "Ġcent",
        "re"
      ],
      [
        "l",
        "ant"
      ],
      [
        "at",
        "lant"
      ],
      [
        "Ġf",
        "er"
      ],
      [
        ".",
        ","
      ],
      [
        "it",
        "iy"
      ],
      [
        "Ġl",
        "u"
      ],
      [
        "Ġd",
        "c"
      ],
      [
        "ara",
        "itiy"
      ],
      [
        "Ġkh",
        "araitiy"
      ],
      [
        "Ġown",
        "ed"
      ],
      [
        "atlant",
        "ic"
      ],
      [
        "Ġkharaitiy",
        "at"
      ],
      [
        "o",
        "od"
      ],
      [
        "2",
        "8"
      ],
      [
        "Ġa",
        "ce"
      ],
      [
        "Ġrep",
        "ub"
      ],
      [
        "Ġhun",
        "t"
      ],
      [
        "g",
        "et"
      ],
      [
        "ett",
        "a"
      ],
      [
        "Ġl",
        "iv"
      ],
      [
        "ak",
        "ov"
      ],
      [
        "Ġpow",
        "er"
      ],
      [
        "Ġagrem",
        "iaÃ§Ã£o"
      ],
      [
        "Ġc",
        "ate"
      ],
      [
        "am",
        "i"
      ],
      [
        "Ġcon",
        "tain"
      ],
      [
        "Ġabdul",
        "sal"
      ],
      [
        "Ġve",
        "get"
      ],
      [
        "Ġcate",
        "gor"
      ],
      [
        "Ġabdulsal",
        "ami"
      ],
      [
        "4",
        "1"
      ],
      [
        "Ġf",
        "rew"
      ],
      [
        "Ġj",
        "r"
      ],
      [
        "Ġatt",
        "ica"
      ],
      [
        "art",
        "ment"
      ],
      [
        "Ġdep",
        "artment"
      ],
      [
        "Ġs",
        "ur"
      ],
      [
        "ic",
        "ia"
      ],
      [
        "Ġam",
        "d"
      ],
      [
        "Ġ19",
        "18"
      ],
      [
        "Ġmar",
        "k"
      ],
      [
        "emb",
        "rie"
      ],
      [
        "Ġdec",
        "embrie"
      ],
      [
        "Ġfir",
        "st"
      ],
      [
        "om",
        "ot"
      ],
      [
        "Ġa",
        "ug"
      ],
      [
        "Ġd",
        "y"
      ],
      [
        "Ġg",
        "uf"
      ],
      [
        "av",
        "ad"
      ],
      [
        "Ġemp",
        "loy"
      ],
      [
        "Ġamd",
        "avad"
      ],
      [
        "omot",
        "ive"
      ],
      [
        "Ġguf",
        "a"
      ],
      [
        "l",
        "iam"
      ],
      [
        "Ġrock",
        "et"
      ],
      [
        "Ġpar",
        "liam"
      ],
      [
        "Ġsur",
        "f"
      ],
      [
        "Ġparliam",
        "ent"
      ],
      [
        "Ġp",
        "iet"
      ],
      [
        "Ġ6",
        "00"
      ],
      [
        "Ġpiet",
        "ro"
      ],
      [
        "Ġv",
        "al"
      ],
      [
        "k",
        "ins"
      ],
      [
        "Ġbe",
        "am"
      ],
      [
        "Ġl",
        "at"
      ],
      [
        "Ġadmin",
        "istr"
      ],
      [
        "ar",
        "em"
      ],
      [
        "Ġ193",
        "2"
      ],
      [
        "a",
        "il"
      ],
      [
        "er",
        "y"
      ],
      [
        "Ġinclud",
        "es"
      ],
      [
        "Ġm",
        "iche"
      ],
      [
        "Ġman",
        "or"
      ],
      [
        "Ġfollow",
        "ed"
      ],
      [
        "Ġt",
        "ama"
      ],
      [
        "Ġg",
        "ur"
      ],
      [
        "Ġ10",
        "89"
      ],
      [
        "Ġfin",
        "land"
      ],
      [
        "Ġd",
        "ou"
      ],
      [
        "Ġgur",
        "uli"
      ],
      [
        "Ġc",
        "as"
      ],
      [
        "Ġel",
        "a"
      ],
      [
        "h",
        "n"
      ],
      [
        "Ã",
        "±"
      ],
      [
        "Ġpr",
        "int"
      ],
      [
        "Ġaleksand",
        "re"
      ],
      [
        "Ġaug",
        "ust"
      ],
      [
        "ic",
        "ial"
      ],
      [
        "Ġal",
        "mond"
      ],
      [
        "red",
        "er"
      ],
      [
        "8",
        "00"
      ],
      [
        "z",
        "ahra"
      ],
      [
        "Ġbar",
        "bo"
      ],
      [
        "Ġsurf",
        "ace"
      ],
      [
        "7",
        "3"
      ],
      [
        "p",
        "op"
      ],
      [
        "Ġd",
        "ent"
      ],
      [
        "Ġf",
        "reder"
      ],
      [
        "Ġroman",
        "ce"
      ],
      [
        "Ġdemocr",
        "atic"
      ],
      [
        "Ġbarbo",
        "za"
      ],
      [
        "ne",
        "w"
      ],
      [
        "sing",
        "er"
      ],
      [
        "Ġbur",
        "ns"
      ],
      [
        "9",
        "0"
      ],
      [
        "ip",
        "s"
      ],
      [
        "Ġo",
        "cl"
      ],
      [
        "Ġp",
        "ages"
      ],
      [
        "Ġth",
        "is"
      ],
      [
        "Ġfin",
        "al"
      ],
      [
        "Ġcruis",
        "es"
      ],
      [
        "Ġocl",
        "c"
      ],
      [
        "Ġh",
        "os"
      ],
      [
        "Ġe",
        "f"
      ],
      [
        "Ġ3",
        "4"
      ],
      [
        "Ġmar",
        "ri"
      ],
      [
        "Ġhar",
        "bor"
      ],
      [
        "Ġm",
        "aid"
      ],
      [
        "as",
        "ton"
      ],
      [
        "Ġsp",
        "art"
      ],
      [
        "Ġafr",
        "ica"
      ],
      [
        "Ġgu",
        "itar"
      ],
      [
        "Ġchie",
        "v"
      ],
      [
        "Ġmaid",
        "en"
      ],
      [
        "Ġk",
        "oc"
      ],
      [
        "Ġmarri",
        "ott"
      ],
      [
        "re",
        "t"
      ],
      [
        "Ġj",
        "anu"
      ],
      [
        "Ġgl",
        "aston"
      ],
      [
        "Ġtenn",
        "esse"
      ],
      [
        "Ġpark",
        "er"
      ],
      [
        "Ġjanu",
        "ary"
      ],
      [
        "Ġglaston",
        "bury"
      ],
      [
        "y",
        "s"
      ],
      [
        "Ġco",
        "sta"
      ],
      [
        "Ġmon",
        "oc"
      ],
      [
        "Ġher",
        "a"
      ],
      [
        "Ġtennesse",
        "e"
      ],
      [
        "k",
        "e"
      ],
      [
        "Ġ10",
        "99"
      ],
      [
        "Ġsec",
        "ret"
      ],
      [
        "iel",
        "d"
      ],
      [
        "Ġcorn",
        "ell"
      ],
      [
        "Ġg",
        "et"
      ],
      [
        "ov",
        "iet"
      ],
      [
        "Ġor",
        "ange"
      ],
      [
        "Ġadministr",
        "ative"
      ],
      [
        "Ġs",
        "ib"
      ],
      [
        "ro",
        "l"
      ],
      [
        "am",
        "s"
      ],
      [
        "Ġsib",
        "al"
      ],
      [
        "Ġa",
        "ip"
      ],
      [
        "ic",
        "ip"
      ],
      [
        "Ġgro",
        "z"
      ],
      [
        "Ã¤",
        "r"
      ],
      [
        "Ġf",
        "yl"
      ],
      [
        "Ġg",
        "ran"
      ],
      [
        "Ġgroz",
        "ny"
      ],
      [
        "Ġfyl",
        "de"
      ],
      [
        "Ġp",
        "aul"
      ],
      [
        "Ġin",
        "v"
      ],
      [
        "Ġd",
        "ales"
      ],
      [
        "ac",
        "con"
      ],
      [
        "om",
        "accon"
      ],
      [
        "Ġ11",
        "264"
      ],
      [
        "udi",
        "omaccon"
      ],
      [
        "Ġmathemat",
        "ics"
      ],
      [
        "Ġcla",
        "udiomaccon"
      ],
      [
        "Ġclaudiomaccon",
        "e"
      ],
      [
        "qu",
        "aid"
      ],
      [
        "d",
        "an"
      ],
      [
        "Ġan",
        "n"
      ],
      [
        "Ġalp",
        "har"
      ],
      [
        "Ġcomplet",
        "ion"
      ],
      [
        "Ġalphar",
        "etta"
      ],
      [
        "o",
        "ur"
      ],
      [
        "Ġ4",
        "4"
      ],
      [
        "Ġalv",
        "is"
      ],
      [
        "Ġp",
        "ort"
      ],
      [
        "Ġar",
        "ab"
      ],
      [
        "Ġprov",
        "ince"
      ],
      [
        "b",
        "and"
      ],
      [
        "p",
        "ital"
      ],
      [
        "Ġ",
        "quarter"
      ],
      [
        "Ġb",
        "ol"
      ],
      [
        "ip",
        "line"
      ],
      [
        "Ġquarter",
        "ly"
      ],
      [
        "u",
        "art"
      ],
      [
        "Ġst",
        "uart"
      ],
      [
        "Ġall",
        "an"
      ],
      [
        "Ġhos",
        "pital"
      ],
      [
        "7",
        "88"
      ],
      [
        "Ġt",
        "em"
      ],
      [
        "Ġs",
        "igned"
      ],
      [
        "isc",
        "o"
      ],
      [
        "Ġdisc",
        "ipline"
      ],
      [
        "2",
        "2"
      ],
      [
        "f",
        "ield"
      ],
      [
        "i",
        "Ã³n"
      ],
      [
        "il",
        "ight"
      ],
      [
        "Ġr",
        "ich"
      ],
      [
        "ty",
        "sburg"
      ],
      [
        "Ġgovern",
        "ment"
      ],
      [
        "Ġut",
        "tar"
      ],
      [
        "Ġwheel",
        "er"
      ],
      [
        "Ġtw",
        "ilight"
      ],
      [
        "g",
        "ie"
      ],
      [
        "he",
        "ast"
      ],
      [
        "Ġw",
        "e"
      ],
      [
        "Ġn",
        "ov"
      ],
      [
        "ad",
        "esh"
      ],
      [
        "ell",
        "or"
      ],
      [
        "Ġpr",
        "adesh"
      ],
      [
        "Ġpar",
        "ent"
      ],
      [
        "Ġhy",
        "gie"
      ],
      [
        "Ġget",
        "tysburg"
      ],
      [
        "Ġhygie",
        "a"
      ],
      [
        "il",
        "a"
      ],
      [
        "ab",
        "les"
      ],
      [
        "Ġveget",
        "ables"
      ],
      [
        "Ġ",
        "q"
      ],
      [
        "Ġj",
        "ack"
      ],
      [
        "Ġpr",
        "i"
      ],
      [
        "Ġbe",
        "gan"
      ],
      [
        "Ġchiev",
        "o"
      ],
      [
        "Ġv",
        "i"
      ],
      [
        "ib",
        "ut"
      ],
      [
        "Ġbel",
        "ong"
      ],
      [
        "Ġgl",
        "en"
      ],
      [
        "Ġt",
        "ar"
      ],
      [
        "m",
        "en"
      ],
      [
        "r",
        "ish"
      ],
      [
        "Ġj",
        "way"
      ],
      [
        "Ġjway",
        "dan"
      ],
      [
        "Ġf",
        "ed"
      ],
      [
        "Ġm",
        "org"
      ],
      [
        "Ġ3",
        "00"
      ],
      [
        "og",
        "r"
      ],
      [
        "Ġus",
        "ed"
      ],
      [
        "Ġpol",
        "ish"
      ],
      [
        "Ġadd",
        "iction"
      ],
      [
        "Ġmorg",
        "an"
      ],
      [
        "il",
        "ogr"
      ],
      [
        "Ġn",
        "ow"
      ],
      [
        "ad",
        "o"
      ],
      [
        "ton",
        "e"
      ],
      [
        "Ġjul",
        "ia"
      ],
      [
        "Ġsam",
        "ar"
      ],
      [
        "Ġn",
        "rbq"
      ],
      [
        "Ġmon",
        "te"
      ],
      [
        "Ġph",
        "ill"
      ],
      [
        "Ġmonte",
        "v"
      ],
      [
        "h",
        "ol"
      ],
      [
        "id",
        "eo"
      ],
      [
        "Ġcom",
        "ic"
      ],
      [
        "Ġcomplet",
        "ed"
      ],
      [
        "Ġmontev",
        "ideo"
      ],
      [
        "b",
        "io"
      ],
      [
        "ub",
        "bio"
      ],
      [
        "Ġloc",
        "omotive"
      ],
      [
        "Ġ3",
        "9"
      ],
      [
        "Ġ11",
        "0"
      ],
      [
        "Ġturk",
        "men"
      ],
      [
        "Ġwol",
        "f"
      ],
      [
        "e",
        "ino"
      ],
      [
        "u",
        "k"
      ],
      [
        "x",
        "eino"
      ],
      [
        "Ġ",
        "-"
      ],
      [
        "he",
        "n"
      ],
      [
        "Ġl",
        "um"
      ],
      [
        "Ġg",
        "ubbio"
      ],
      [
        "est",
        "ley"
      ],
      [
        "Ġant",
        "hem"
      ],
      [
        "Ġef",
        "xeino"
      ],
      [
        "Ġpri",
        "estley"
      ],
      [
        "Ġefxeino",
        "up"
      ],
      [
        "7",
        "5"
      ],
      [
        "9",
        "1"
      ],
      [
        "Ġc",
        "akes"
      ],
      [
        "Ġm",
        "un"
      ],
      [
        "Ġ",
        "ent"
      ],
      [
        "Ġs",
        "q"
      ],
      [
        "Ġse",
        "at"
      ],
      [
        "Ġbl",
        "t"
      ],
      [
        "Ġcol",
        "omb"
      ],
      [
        "c",
        "over"
      ],
      [
        "Ġin",
        "habitants"
      ],
      [
        "Ġ199",
        "9"
      ],
      [
        "Ġpot",
        "ter"
      ],
      [
        "Ġhard",
        "cover"
      ],
      [
        "ilogr",
        "ams"
      ],
      [
        "Ġar",
        "lington"
      ],
      [
        "Ġ199",
        "6"
      ],
      [
        "Ġspart",
        "ak"
      ],
      [
        "Ġs",
        "b"
      ],
      [
        "Ġh",
        "al"
      ],
      [
        "p",
        "ed"
      ],
      [
        "Ġb",
        "ase"
      ],
      [
        "Ġde",
        "b"
      ],
      [
        "w",
        "e"
      ],
      [
        "in",
        "k"
      ],
      [
        "Ġan",
        "ton"
      ],
      [
        "per",
        "ature"
      ],
      [
        "Ġ19",
        "10"
      ],
      [
        "Ġbar",
        "ny"
      ],
      [
        "Ġ192",
        "3"
      ],
      [
        "Ġpot",
        "ato"
      ],
      [
        "Ġtem",
        "perature"
      ],
      [
        "ang",
        "ra"
      ],
      [
        "Ġsw",
        "eet"
      ],
      [
        "in",
        "habitants"
      ],
      [
        "Ġf",
        "igner"
      ],
      [
        "Ġbh",
        "angra"
      ],
      [
        "Ġfigner",
        "ia"
      ],
      [
        "g",
        "er"
      ],
      [
        "el",
        "s"
      ],
      [
        "ag",
        "or"
      ],
      [
        "Ġbat",
        "agor"
      ],
      [
        "Ġ18",
        "5"
      ],
      [
        "orn",
        "o"
      ],
      [
        "Ġfound",
        "ing"
      ],
      [
        "Ġpro",
        "per"
      ],
      [
        "Ġmanufactur",
        "ed"
      ],
      [
        "Ġsecond",
        "s"
      ],
      [
        "a",
        "ir"
      ],
      [
        "Ġr",
        "esid"
      ],
      [
        "i",
        "ro"
      ],
      [
        "Ġd",
        "aw"
      ],
      [
        "Ġtran",
        "ce"
      ],
      [
        "cc",
        "n"
      ],
      [
        "Ġcamp",
        "us"
      ],
      [
        "Ġdeb",
        "ut"
      ],
      [
        "Ġdaw",
        "son"
      ],
      [
        "b",
        "s"
      ],
      [
        "Ġo",
        "il"
      ],
      [
        "or",
        "id"
      ],
      [
        "Ġl",
        "ccn"
      ],
      [
        "ard",
        "s"
      ],
      [
        "en",
        "os"
      ],
      [
        "Ã¤r",
        "t"
      ],
      [
        "Ġc",
        "uis"
      ],
      [
        "de",
        "z"
      ],
      [
        "Ã¡n",
        "dez"
      ],
      [
        "Ġhern",
        "Ã¡ndez"
      ],
      [
        "Ġliv",
        "orno"
      ],
      [
        "icip",
        "al"
      ],
      [
        "Ġcuis",
        "ine"
      ],
      [
        "a",
        "u"
      ],
      [
        "d",
        "ia"
      ],
      [
        "en",
        "ir"
      ],
      [
        "Ġw",
        "ere"
      ],
      [
        "tr",
        "al"
      ],
      [
        "ma",
        "x"
      ],
      [
        "Ġbay",
        "max"
      ],
      [
        "Ġdivis",
        "ion"
      ],
      [
        "um",
        "akov"
      ],
      [
        "Ġch",
        "umakov"
      ],
      [
        "Ġstad",
        "ium"
      ],
      [
        "i",
        "que"
      ],
      [
        "Ġa",
        "enir"
      ],
      [
        "Ġv",
        "inc"
      ],
      [
        "Ġassemb",
        "led"
      ],
      [
        "Ġvinc",
        "ent"
      ],
      [
        "Ġf",
        "d"
      ],
      [
        "Ġn",
        "av"
      ],
      [
        "07",
        "77"
      ],
      [
        "Ġsamar",
        "as"
      ],
      [
        "k",
        "ilometre"
      ],
      [
        "Ġ1",
        "3"
      ],
      [
        "Ġmad",
        "in"
      ],
      [
        "Ġwer",
        "der"
      ],
      [
        "Ġphill",
        "ips"
      ],
      [
        "Ġab",
        "rad"
      ],
      [
        "io",
        "p"
      ],
      [
        "Ġbo",
        "oga"
      ],
      [
        "Ġly",
        "dia"
      ],
      [
        "Ġabrad",
        "ab"
      ],
      [
        "\"",
        "."
      ],
      [
        "Ġb",
        "rem"
      ],
      [
        "Ġhe",
        "s"
      ],
      [
        "Ġeth",
        "iop"
      ],
      [
        "aul",
        "t"
      ],
      [
        "ibut",
        "ing"
      ],
      [
        "Ġbooga",
        "ard"
      ],
      [
        "Ġbrem",
        "en"
      ],
      [
        "Ġb",
        "en"
      ],
      [
        "Ġst",
        "e"
      ],
      [
        "Ġass",
        "ault"
      ],
      [
        "Ġpol",
        "onica"
      ],
      [
        "Ġpalaeontol",
        "og"
      ],
      [
        "Ġrich",
        "ard"
      ],
      [
        "b",
        "e"
      ],
      [
        "Ġi",
        "d"
      ],
      [
        "Ġad",
        "van"
      ],
      [
        "Ġadvan",
        "ces"
      ],
      [
        "f",
        "ect"
      ],
      [
        "Ġh",
        "ad"
      ],
      [
        "Ġwith",
        "in"
      ],
      [
        "Ġve",
        "il"
      ],
      [
        "Ġstart",
        "ed"
      ],
      [
        "Ġbelg",
        "ium"
      ],
      [
        "Ġpalaeontolog",
        "ica"
      ],
      [
        "Ġt",
        "or"
      ],
      [
        "Ġaz",
        "al"
      ],
      [
        "n",
        "an"
      ],
      [
        "Ġc",
        "el"
      ],
      [
        "Ġis",
        "land"
      ],
      [
        "th",
        "pop"
      ],
      [
        "n",
        "thpop"
      ],
      [
        "Ġsy",
        "nthpop"
      ],
      [
        "6",
        "00"
      ],
      [
        "m",
        "ed"
      ],
      [
        "ber",
        "g"
      ],
      [
        "Ġs",
        "ize"
      ],
      [
        "Ġg",
        "any"
      ],
      [
        "Ġas",
        "unc"
      ],
      [
        "Ġdi",
        "mit"
      ],
      [
        "Ġbr",
        "as"
      ],
      [
        "Ġ198",
        "6"
      ],
      [
        "Ġ103",
        "6"
      ],
      [
        "Ġsystem",
        "s"
      ],
      [
        "Ġplac",
        "es"
      ],
      [
        "Ġefxeinoup",
        "olis"
      ],
      [
        "Ġmun",
        "icipal"
      ],
      [
        "Ġproper",
        "ty"
      ],
      [
        "Ġgany",
        "med"
      ],
      [
        "Ġdimit",
        "ra"
      ],
      [
        "2",
        "5"
      ],
      [
        "Ġc",
        "en"
      ],
      [
        "Ġcontr",
        "ibuting"
      ],
      [
        "Ġcontain",
        "s"
      ],
      [
        "Ġemploy",
        "e"
      ],
      [
        "b",
        "c"
      ],
      [
        "Ġb",
        "bc"
      ],
      [
        "Ġm",
        "od"
      ],
      [
        "Ġd",
        "ia"
      ],
      [
        "Ġcen",
        "tral"
      ],
      [
        "Ġ",
        "'"
      ],
      [
        "Ġt",
        "art"
      ],
      [
        "Ġf",
        "all"
      ],
      [
        "ag",
        "uay"
      ],
      [
        "Ġ199",
        "3"
      ],
      [
        "Ġfran",
        "c"
      ],
      [
        "Ġpar",
        "aguay"
      ],
      [
        "k",
        "h"
      ],
      [
        "m",
        "is"
      ],
      [
        "Ġc",
        "it"
      ],
      [
        "tr",
        "am"
      ],
      [
        "Ġreg",
        "ister"
      ],
      [
        "Ġber",
        "tram"
      ],
      [
        "d",
        "or"
      ],
      [
        "Ġk",
        "eral"
      ],
      [
        "Ġtrans",
        "mis"
      ],
      [
        "Ġsocial",
        "ist"
      ],
      [
        "Ġten",
        "ant"
      ],
      [
        "Ġnav",
        "y"
      ],
      [
        "Ġkeral",
        "a"
      ],
      [
        "Ġtransmis",
        "sion"
      ],
      [
        "Ġd",
        "bs"
      ],
      [
        "Ġair",
        "es"
      ],
      [
        "nic",
        "al"
      ],
      [
        "ice",
        "breaker"
      ],
      [
        "ter",
        "dam"
      ],
      [
        "Ġbu",
        "enos"
      ],
      [
        "Ġber",
        "tone"
      ],
      [
        "Ġrot",
        "terdam"
      ],
      [
        "Ġethiop",
        "ia"
      ],
      [
        "8",
        "3"
      ],
      [
        "Ġj",
        "ens"
      ],
      [
        "Ġtit",
        "ans"
      ],
      [
        "r",
        "ia"
      ],
      [
        "Ġl",
        "ive"
      ],
      [
        "Ġd",
        "a"
      ],
      [
        "Ġser",
        "g"
      ],
      [
        "Ġanton",
        "is"
      ],
      [
        "Ġemploye",
        "es"
      ],
      [
        "g",
        "ar"
      ],
      [
        "er",
        "tain"
      ],
      [
        "Ġar",
        "bor"
      ],
      [
        "Ġ10",
        "9"
      ],
      [
        "Ġ196",
        "2"
      ],
      [
[...]
