{
  "version": "1.0",
  "truncation": null,
  "padding": null,
  "added_tokens": [
    {
      "id": 0,
      "content": "<pad>",
      "single_word": false,
      "lstrip": false,
      "rstrip": false,
      "normalized": false,
      "special": true
    },
    {
      "id": 1,
      "content": "<mask>",
      "single_word": false,
      "lstrip": false,
      "rstrip": false,
      "normalized": false,
      "special": true
    },
    {
      "id": 2,
      "content": "<unk>",
      "single_word": false,
      "lstrip": false,
      "rstrip": false,
      "normalized": false,
      "special": true
    },
    {
      "id": 3,
      "content": "<bos>",
      "single_word": false,
      "lstrip": false,
      "rstrip": false,
      "normalized": false,
      "special": true
    },
    {
      "id": 4,
      "content": "<eos>",
      "single_word": false,
      "lstrip": false,
      "rstrip": false,
      "normalized": false,
      "special": true
    }
  ],
  "normalizer": null,
  "pre_tokenizer": {
    "type": "ByteLevel",
    "add_prefix_space": true,
    "trim_offsets": true,
    "use_regex": true
  },
  "post_processor": {
    "type": "ByteLevel",
    "add_prefix_space": true,
    "trim_offsets": false,
    "use_regex": true
  },
  "decoder": null,
  "model": {
    "type": "BPE",
    "dropout": null,
    "unk_token": "<unk>",
    "continuing_subword_prefix": null,
    "end_of_word_suffix": null,
    "fuse_unk": false,
    "byte_fallback": false,
    "ignore_merges": false,
    "vocab": {
      "<pad>": 0,
      "<mask>": 1,
      "<unk>": 2,
      "<bos>": 3,
      "<eos>": 4,
      "\t": 5,
      " ": 6,
      "!": 7,
      "\"": 8,
      "#": 9,
      "$": 10,
      "%": 11,
      "&": 12,
      "'": 13,
      "(": 14,
      ")": 15,
      "*": 16,
      "+": 17,
      ",": 18,
      "-": 19,
      ".": 20,
      "/": 21,
      "0": 22,
      "1": 23,
      "2": 24,
      "3": 25,
      "4": 26,
      "5": 27,
      "6": 28,
      "7": 29,
      "8": 30,
      "9": 31,
      ":": 32,
      ";": 33,
      "<": 34,
      "=": 35,
      ">": 36,
      "?": 37,
      "@": 38,
      "A": 39,
      "B": 40,
      "C": 41,
      "D": 42,
      "E": 43,
      "F": 44,
      "G": 45,
      "H": 46,
      "I": 47,
      "J": 48,
      "K": 49,
      "L": 50,
      "M": 51,
      "N": 52,
      "O": 53,
      "P": 54,
      "Q": 55,
      "R": 56,
      "S": 57,
      "T": 58,
      "U": 59,
      "V": 60,
      "W": 61,
      "X": 62,
      "Y": 63,
      "Z": 64,
      "[": 65,
      "\\": 66,
      "]": 67,
      "^": 68,
      "_": 69,
      "`": 70,
      "a": 71,
      "b": 72,
      "c": 73,
      "d": 74,
      "e": 75,
      "f": 76,
      "g": 77,
      "h": 78,
      "i": 79,
      "j": 80,
      "k": 81,
      "l": 82,
      "m": 83,
      "n": 84,
      "o": 85,
      "p": 86,
      "q": 87,
      "r": 88,
      "s": 89,
      "t": 90,
      "u": 91,
      "v": 92,
      "w": 93,
      "x": 94,
      "y": 95,
      "z": 96,
      "{": 97,
      "|": 98,
      "}": 99,
      "~": 100,
      "¡": 101,
      "£": 102,
      "¤": 103,
      "¥": 104,
      "¦": 105,
      "¨": 106,
      "©": 107,
      "ª": 108,
      "®": 109,
      "°": 110,
      "²": 111,
      "¶": 112,
      "·": 113,
      "¸": 114,
      "¹": 115,
      "º": 116,
      "»": 117,
      "½": 118,
      "¾": 119,
      "¿": 120,
      "Â": 121,
      "Ã": 122,
      "Ð": 123,
      "Ñ": 124,
      "â": 125,
      "ã": 126,
      "ä": 127,
      "å": 128,
      "æ": 129,
      "ç": 130,
      "è": 131,
      "é": 132,
      "ï": 133,
      "ĉ": 134,
      "Ċ": 135,
      "Ġ": 136,
      "Ģ": 137,
      "ģ": 138,
      "Ĥ": 139,
      "ĥ": 140,
      "ħ": 141,
      "ĩ": 142,
      "ī": 143,
      "ĭ": 144,
      "į": 145,
      "ı": 146,
      "Ĵ": 147,
      "Ķ": 148,
      "ĺ": 149,
      "Ļ": 150,
      "ļ": 151,
      "ľ": 152,
      "ł": 153,
      "ĠĠ": 154,
      "ĠĠĠĠ": 155,
      "or": 156,
      "se": 157,
      "on": 158,
      "in": 159,
      "er": 160,
      "es": 161,
      "ĠĠĠ": 162,
      "at": 163,
      "en": 164,
      "Ġ=": 165,
      "re": 166,
      "mp": 167,
      "ro": 168,
      "Ġi": 169,
      "de": 170,
      "Ġ'": 171,
      "',": 172,
      "ort": 173,
      "an": 174,
      "st": 175,
      "Ġf": 176,
      "ĊĠĠĠ": 177,
      "ion": 178,
      "th": 179,
      "mport": 180,
      "ĊĠĠĠĠ": 181,
      "ar": 182,
      "le": 183,
      "Ġimport": 184,
      "al": 185,
      "as": 186,
      "me": 187,
      "Ġc": 188,
      "):": 189,
      "Ġp": 190,
      "ur": 191,
      "rom": 192,
      "est": 193,
      "it": 194,
      "ge": 195,
      "sel": 196,
      "self": 197,
      "Ġt": 198,
      "Ġ\"": 199,
      "ic": 200,
      "__": 201,
      "def": 202,
      "ĊĠĠĠĠĠĠĠ": 203,
      "ing": 204,
      "ut": 205,
      "ent": 206,
      "il": 207,
      "lo": 208,
      "ac": 209,
      "Ġd": 210,
      "ame": 211,
      "Ġre": 212,
      "pt": 213,
      "Ġs": 214,
      "ser": 215,
      "Ġfrom": 216,
      "ĠA": 217,
      "ad": 218,
      "Ġdef": 219,
      "co": 220,
      "fi": 221,
      "un": 222,
      "ma": 223,
      "()": 224,
      "ers": 225,
      "ri": 226,
      "Ġin": 227,
      "set": 228,
      "ex": 229,
      "ct": 230,
      "Ġa": 231,
      "='": 232,
      "Ġ#": 233,
      "name": 234,
      "Ġo": 235,
      "qu": 236,
      "el": 237,
      "ed": 238,
      "RE": 239,
      "\"\"": 240,
      "ĠB": 241,
      "('": 242,
      "ass": 243,
      "ER": 244,
      "--": 245,
      "\",": 246,
      "')": 247,
      "up": 248,
      "li": 249,
      "Ġself": 250,
      "mo": 251,
      "Ġth": 252,
      "ch": 253,
      "ir": 254,
      "and": 255,
      "ang": 256,
      "Ġ:": 257,
      "ate": 258,
      "ag": 259,
      "age": 260,
      "con": 261,
      "ack": 262,
      "ap": 263,
      "ul": 264,
      "FO": 265,
      "get": 266,
      "ol": 267,
      "ce": 268,
      "Ġr": 269,
      "TER": 270,
      "ĊĠĠĠĠĠĠĠĠ": 271,
      "tur": 272,
      "lass": 273,
      "turn": 274,
      "ath": 275,
      "ĠBE": 276,
      "Ġ::": 277,
      "ĠAF": 278,
      "FORE": 279,
      "ĠBEFORE": 280,
      "ĠAFTER": 281,
      "Ġn": 282,
      "ot": 283,
      "from": 284,
      "Ġb": 285,
      "Ġv": 286,
      "ption": 287,
      "url": 288,
      "ata": 289,
      "Ġreturn": 290,
      "Ġfor": 291,
      "arg": 292,
      "['": 293,
      "Ġw": 294,
      "am": 295,
      "Ġthe": 296,
      "ue": 297,
      "ĠS": 298,
      "id": 299,
      "ation": 300,
      "Ġset": 301,
      "']": 302,
      "is": 303,
      "Ġl": 304,
      "ersion": 305,
      "ect": 306,
      "ment": 307,
      "et": 308,
      "cri": 309,
      "ĠT": 310,
      "ab": 311,
      "int": 312,
      "del": 313,
      "ess": 314,
      "uth": 315,
      "Ġif": 316,
      "all": 317,
      "ase": 318,
      "path": 319,
      "ht": 320,
      "':": 321,
      "py": 322,
      "jang": 323,
      "jango": 324,
      "ĠC": 325,
      "ĠL": 326,
      "Ġ\"\"\"": 327,
      "com": 328,
      "test": 329,
      "ith": 330,
      "ĠP": 331,
      "(\"": 332,
      "ew": 333,
      "ve": 334,
      "fig": 335,
      "ub": 336,
      "ver": 337,
      "ist": 338,
      "us": 339,
      "ke": 340,
      "ĊĊ": 341,
      "ext": 342,
      "pro": 343,
      "orm": 344,
      "Ġto": 345,
      "log": 346,
      "pen": 347,
      "Ġm": 348,
      "requ": 349,
      "thon": 350,
      "model": 351,
      "ĊĊĠĠĠ": 352,
      "\")": 353,
      "icen": 354,
      "ages": 355,
      "Ġclass": 356,
      "Ġas": 357,
      "args": 358,
      "icense": 359,
      "Ġtest": 360,
      "Ġ__": 361,
      "Ġ[": 362,
      "ck": 363,
      "cription": 364,
      "pe": 365,
      "uthor": 366,
      "Ġcon": 367,
      "ĊĠĠĠĠĠĠĠĠĠĠĠ": 368,
      "ter": 369,
      "to": 370,
      "escription": 371,
      "ult": 372,
      "tp": 373,
      "gr": 374,
      "pl": 375,
      "----": 376,
      "Ġurl": 377,
      "ror": 378,
      "Ġst": 379,
      "tr": 380,
      "one": 381,
      "=\"": 382,
      "he": 383,
      "mail": 384,
      "ĠĠĠĠĠĠĠĠ": 385,
      "om": 386,
      "ject": 387,
      "ĠD": 388,
      "user": 389,
      "rue": 390,
      "Ġ-": 391,
      "um": 392,
      "Ġ(": 393,
      "iew": 394,
      "http": 395,
      "te": 396,
      "Ġos": 397,
      "if": 398,
      "ite": 399,
      "ackages": 400,
      "Ġname": 401,
      "Ġauthor": 402,
      "Ġh": 403,
      "form": 404,
      "od": 405,
      "ys": 406,
      "ord": 407,
      "eld": 408,
      "sert": 409,
      "po": 410,
      "//": 411,
      "),": 412,
      "ĠI": 413,
      "Ġ{": 414,
      "data": 415,
      "file": 416,
      "ind": 417,
      "://": 418,
      "ython": 419,
      "ĠM": 420,
      "able": 421,
      "Ġis": 422,
      "ĠN": 423,
      "models": 424,
      "))": 425,
      "Ġ.": 426,
      "ime": 427,
      "Ġversion": 428,
      "import": 429,
      "env": 430,
      "Ġdjango": 431,
      "ore": 432,
      "Ġex": 433,
      "Ġsetup": 434,
      "],": 435,
      "version": 436,
      "ON": 437,
      "Ġg": 438,
      "():": 439,
      "iz": 440,
      "ry": 441,
      "class": 442,
      "ine": 443,
      "do": 444,
      "ĠF": 445,
      "ob": 446,
      "dir": 447,
      "key": 448,
      "Ġ*": 449,
      "Er": 450,
      "rint": 451,
      "ty": 452,
      "Error": 453,
      "lu": 454,
      "==": 455,
      "read": 456,
      "os": 457,
      "ho": 458,
      "util": 459,
      "add": 460,
      "ay": 461,
      "=[": 462,
      "ool": 463,
      "der": 464,
      "email": 465,
      "ile": 466,
      "per": 467,
      "ĠO": 468,
      "main": 469,
      "ire": 470,
      "par": 471,
      "True": 472,
      "ure": 473,
      "ield": 474,
      "ings": 475,
      "act": 476,
      "Ġ2": 477,
      "Ġ==": 478,
      "Ġand": 479,
      "Ġget": 480,
      "ong": 481,
      "cont": 482,
      "Ġnot": 483,
      "esp": 484,
      "ault": 485,
      "Ġ1": 486,
      "ME": 487,
      "js": 488,
      "list": 489,
      "str": 490,
      "'],": 491,
      "ĊĠĠĠĠĠ": 492,
      "Pro": 493,
      "our": 494,
      "ig": 495,
      "Ġe": 496,
      "Ġrequ": 497,
      "mple": 498,
      "cess": 499,
      "ask": 500,
      "load": 501,
      "\"\"\"": 502,
      "val": 503,
      "IT": 504,
      "Ġlog": 505,
      "mpl": 506,
      "em": 507,
      "sion": 508,
      "config": 509,
      "ode": 510,
      "Ġ_": 511,
      "init": 512,
      "Ġof": 513,
      "mand": 514,
      "ial": 515,
      "min": 516,
      "Ġap": 517,
      "Ġwith": 518,
      "ĠR": 519,
      "Ġpro": 520,
      "ĠE": 521,
      "bo": 522,
      "ip": 523,
      "Ġun": 524,
      "app": 525,
      "angu": 526,
      "word": 527,
      "description": 528,
      "anguage": 529,
      "In": 530,
      "Ġdescription": 531,
      "ction": 532,
      "Ġprint": 533,
      "Ġdata": 534,
      "lib": 535,
      "Test": 536,
      "ta": 537,
      "Ġ+": 538,
      "request": 539,
      "Ġ['": 540,
      "SI": 541,
      "Ġinst": 542,
      "ithub": 543,
      "json": 544,
      "ools": 545,
      "tings": 546,
      "art": 547,
      "alse": 548,
      "Ġ@": 549,
      "op": 550,
      "du": 551,
      "github": 552,
      "fil": 553,
      "ires": 554,
      "https": 555,
      "im": 556,
      "Ġsys": 557,
      "AT": 558,
      "00": 559,
      "__(": 560,
      "(),": 561,
      "espon": 562,
      "utils": 563,
      "--------": 564,
      "ses": 565,
      "upt": 566,
      "assert": 567,
      "Ġ%": 568,
      "jo": 569,
      "object": 570,
      "Ġde": 571,
      "ĠU": 572,
      "packages": 573,
      "ork": 574,
      "=['": 575,
      "ĠW": 576,
      "lient": 577,
      "Con": 578,
      "ok": 579,
      "rib": 580,
      "db": 581,
      "uptools": 582,
      "atus": 583,
      "gram": 584,
      "ger": 585,
      "put": 586,
      "end": 587,
      "ĠLicense": 588,
      "ĠPython": 589,
      "eb": 590,
      "IN": 591,
      "oc": 592,
      "Ġpar": 593,
      "Ġpackages": 594,
      "\":": 595,
      "out": 596,
      "view": 597,
      "port": 598,
      "essage": 599,
      "time": 600,
      "ug": 601,
      "ackage": 602,
      "requires": 603,
      "ifi": 604,
      "base": 605,
      "velo": 606,
      "format": 607,
      "fo": 608,
      "Ġval": 609,
      "django": 610,
      "SE": 611,
      "ict": 612,
      "'),": 613,
      "Ġ],": 614,
      "esponse": 615,
      "sh": 616,
      "velop": 617,
      "*-": 618,
      "Ġrequest": 619,
      "ra": 620,
      "ĠNone": 621,
      "Ġ-*-": 622,
      "ator": 623,
      "so": 624,
      "join": 625,
      "cript": 626,
      "Ġinstall": 627,
      "Ġel": 628,
      "ec": 629,
      "##": 630,
      "ler": 631,
      "atch": 632,
      "ĠLanguage": 633,
      "unt": 634,
      "clu": 635,
      "Ġconfig": 636,
      "ging": 637,
      "Ġ0": 638,
      "Field": 639,
      "cept": 640,
      "ST": 641,
      "Ġlong": 642,
      "Ġsetuptools": 643,
      "date": 644,
      "gramm": 645,
      "ms": 646,
      ").": 647,
      "kw": 648,
      "uil": 649,
      "ĠG": 650,
      "ery": 651,
      "Ġlicense": 652,
      "wn": 653,
      "ated": 654,
      "ute": 655,
      "ies": 656,
      "Ġ3": 657,
      ">=": 658,
      "gramming": 659,
      "AD": 660,
      "ument": 661,
      "iron": 662,
      "])": 663,
      "ource": 664,
      "mplate": 665,
      "ud": 666,
      "Ġuser": 667,
      "run": 668,
      "api": 669,
      "EN": 670,
      "Programming": 671,
      "use": 672,
      "Ġpy": 673,
      "cre": 674,
      "ml": 675,
      "Ġ}": 676,
      "Ġco": 677,
      "evelop": 678,
      "esult": 679,
      "ĊĠĠĠĠĠĠĠĠĠĠĠĠĠĠĠĠ": 680,
      "Ġse": 681,
      "og": 682,
      "clude": 683,
      "kwargs": 684,
      "text": 685,
      "Ġopen": 686,
      "pend": 687,
      "''": 688,
      "che": 689,
      "ations": 690,
      "ary": 691,
      "bin": 692,
      "Ġmodels": 693,
      "are": 694,
      "ory": 695,
      "Ġpass": 696,
      "ace": 697,
      "ly": 698,
      "loc": 699,
      "Ġrun": 700,
      "Ġbe": 701,
      "ptions": 702,
      "Ġassert": 703,
      "ommand": 704,
      "vent": 705,
      "und": 706,
      "Ġan": 707,
      "Re": 708,
      "work": 709,
      "Ġor": 710,
      "ded": 711,
      "Ġtry": 712,
      "core": 713,
      "ĠĠĠĠĠĠĠ": 714,
      "Ex": 715,
      "no": 716,
      "setup": 717,
      "Ġon": 718,
      "eng": 719,
      "python": 720,
      "ĠIn": 721,
      "gist": 722,
      "={": 723,
      "None": 724,
      "Ġ)": 725,
      "ĠH": 726,
      "md": 727,
      "ns": 728,
      "Ġmo": 729,
      "READ": 730,
      "process": 731,
      "PI": 732,
      "low": 733,
      "find": 734,
      "ance": 735,
      "ication": 736,
      "type": 737,
      "README": 738,
      "ai": 739,
      "nect": 740,
      "open": 741,
      "ializ": 742,
      "ans": 743,
      "qual": 744,
      "Ġstr": 745,
      "._": 746,
      "rame": 747,
      "ifiers": 748,
      "ved": 749,
      "Ġy": 750,
      "ĠSt": 751,
      "ĠTrue": 752,
      "Ġelse": 753,
      "ib": 754,
      "LE": 755,
      "ice": 756,
      "utf": 757,
      "ten": 758,
      "Ġapp": 759,
      "dex": 760,
      "ant": 761,
      "admin": 762,
      "col": 763,
      "ost": 764,
      "server": 765,
      "code": 766,
      "View": 767,
      "Ġfile": 768,
      "Ġ**": 769,
      "ix": 770,
      "Ġ('": 771,
      "ange": 772,
      "ber": 773,
      "cl": 774,
      "yst": 775,
      "Ġdb": 776,
      "ystem": 777,
      "Ġ]": 778,
      "Ġkey": 779,
      "Ġma": 780,
      "atter": 781,
      "Ġpython": 782,
      "Ġexcept": 783,
      "Ġlogging": 784,
      "(__": 785,
      "ive": 786,
      "ence": 787,
      "ĠTest": 788,
      "cripts": 789,
      "iter": 790,
      "Mo": 791,
      "ename": 792,
      "Ġme": 793,
      "usr": 794,
      "VER": 795,
      "ĊĠ": 796,
      "arch": 797,
      "ĠAp": 798,
      "sa": 799,
      "ick": 800,
      "ity": 801,
      "Ġclassifiers": 802,
      "DE": 803,
      "Ġpath": 804,
      "ĊĠĠĠĠĠĠĠĠĠĠĠĠĠĠĠ": 805,
      "lask": 806,
      "thod": 807,
      "ittest": 808,
      "Ġsub": 809,
      "Case": 810,
      "cs": 811,
      "org": 812,
      "'^": 813,
      "eta": 814,
      "OR": 815,
      "Ġfil": 816,
      "Ġfind": 817,
      "uture": 818,
      "default": 819,
      "entry": 820,
      "auth": 821,
      "ql": 822,
      "uild": 823,
      "dict": 824,
      "vel": 825,
      "inst": 826,
      "andler": 827,
      "False": 828,
      "ard": 829,
      "Ġdefault": 830,
      "conf": 831,
      "rap": 832,
      "attr": 833,
      "Ġdo": 834,
      "lug": 835,
      "ign": 836,
      "pre": 837,
      "error": 838,
      "ype": 839,
      "mit": 840,
      "St": 841,
      "ast": 842,
      "count": 843,
      "UR": 844,
      "Ġte": 845,
      "urr": 846,
      "fix": 847,
      "argv": 848,
      "ĠCon": 849,
      "tests": 850,
      "ener": 851,
      "Ġ#!": 852,
      "man": 853,
      "future": 854,
      "sp": 855,
      "Ġsettings": 856,
      "====": 857,
      "Equal": 858,
      "TT": 859,
      "stat": 860,
      "host": 861,
      "dule": 862,
      "Ġlist": 863,
      "Ġob": 864,
      "parse": 865,
      "AN": 866,
      "ark": 867,
      "query": 868,
      "cket": 869,
      "point": 870,
      "evelopment": 871,
      "Ġinclude": 872,
      ".\"\"\"": 873,
      "yn": 874,
      "html": 875,
      "pec": 876,
      "ci": 877,
      "roup": 878,
      "Ġ#!/": 879,
      "SION": 880,
      "Model": 881,
      "01": 882,
      "for": 883,
      "rst": 884,
      "gister": 885,
      "Ġutf": 886,
      "Ġdist": 887,
      "comp": 888,
      "client": 889,
      "elp": 890,
      "Ġjson": 891,
      "Ġsup": 892,
      "tool": 893,
      "En": 894,
      "git": 895,
      "Ġcod": 896,
      "serv": 897,
      "ĠFalse": 898,
      "assertEqual": 899,
      "\"]": 900,
      "fe": 901,
      "ts": 902,
      "ull": 903,
      "unction": 904,
      "settings": 905,
      "har": 906,
      "irect": 907,
      "ironment": 908,
      "ress": 909,
      "Config": 910,
      "Ġcoding": 911,
      "su": 912,
      "Ġenv": 913,
      "require": 914,
      "ken": 915,
      "itle": 916,
      "iv": 917,
      "())": 918,
      "VERSION": 919,
      "UT": 920,
      "of": 921,
      "package": 922,
      "Ġext": 923,
      "ize": 924,
      "Ġparser": 925,
      "template": 926,
      "contrib": 927,
      "local": 928,
      "line": 929,
      "info": 930,
      "led": 931,
      "nection": 932,
      "..": 933,
      "ail": 934,
      "Ġmain": 935,
      "message": 936,
      "ning": 937,
      "rite": 938,
      "field": 939,
      "da": 940,
      "mis": 941,
      "TestCase": 942,
      "ĠStatus": 943,
      "'.": 944,
      "Ġby": 945,
      "command": 946,
      "----------------": 947,
      "lin": 948,
      "Ġcre": 949,
      "ES": 950,
      "MIT": 951,
      "ps": 952,
      "ĊĊĠĠĠĠĠĠĠ": 953,
      "ments": 954,
      "sions": 955,
      "mon": 956,
      "scripts": 957,
      "Ġ4": 958,
      "ager": 959,
      "Ġview": 960,
      "value": 961,
      "web": 962,
      "Ġro": 963,
      "Ġrai": 964,
      "frame": 965,
      "ann": 966,
      "update": 967,
      "License": 968,
      "().": 969,
      "Ġthat": 970,
      "urls": 971,
      "Ġ{}": 972,
      "udi": 973,
      "ces": 974,
      "sys": 975,
      "Ġ'''": 976,
      "Ġthis": 977,
      "Ġmodel": 978,
      "ates": 979,
      "plit": 980,
      "ength": 981,
      "ree": 982,
      "lat": 983,
      "ĠEx": 984,
      "objects": 985,
      "TI": 986,
      "[\"": 987,
      "Ġz": 988,
      "lect": 989,
      "\"),": 990,
      "views": 991,
      "Ġvalue": 992,
      "urrent": 993,
      "$',": 994,
      "').": 995,
      "argument": 996,
      "heck": 997,
      "valid": 998,
      "res": 999,
      "Ġout": 1000,
      "dirname": 1001,
      "Ġraise": 1002,
      "Development": 1003,
      "Form": 1004,
      "dis": 1005,
      "rc": 1006,
      "ĠK": 1007,
      "ins": 1008,
      "ender": 1009,
      "AL": 1010,
      "fer": 1011,
      "ware": 1012,
      "Ġwh": 1013,
      "ames": 1014,
      "ee": 1015,
      "les": 1016,
      "ww": 1017,
      "mage": 1018,
      "assword": 1019,
      "post": 1020,
      "Ġx": 1021,
      "Ġresponse": 1022,
      "inter": 1023,
      "Ġcont": 1024,
      "session": 1025,
      "igr": 1026,
      "task": 1027,
      "level": 1028,
      "Ġfield": 1029,
      "Ġpackage": 1030,
      "ache": 1031,
      "ia": 1032,
      "Ġall": 1033,
      "ception": 1034,
      "Ġ[]": 1035,
      "ĠRe": 1036,
      "RO": 1037,
      "Ġuse": 1038,
      "ash": 1039,
      "tring": 1040,
      "print": 1041,
      "ust": 1042,
      "Ġal": 1043,
      "TTP": 1044,
      "IC": 1045,
      "ha": 1046,
      "num": 1047,
      "Ġresult": 1048,
      "ĠOSI": 1049,
      "AR": 1050,
      "ating": 1051,
      "try": 1052,
      "check": 1053,
      "SD": 1054,
      "tag": 1055,
      "Ġper": 1056,
      "proved": 1057,
      "Ġmessage": 1058,
      "files": 1059,
      "Ġpre": 1060,
      "ell": 1061,
      "atterns": 1062,
      "append": 1063,
      "'])": 1064,
      "####": 1065,
      "tended": 1066,
      "ĠApproved": 1067,
      "att": 1068,
      "Ġtime": 1069,
      "action": 1070,
      "back": 1071,
      "split": 1072,
      "dev": 1073,
      "Ġread": 1074,
      "ump": 1075,
      "Ġdate": 1076,
      "Ġab": 1077,
      "ams": 1078,
      "Ġhelp": 1079,
      "words": 1080,
      "Intended": 1081,
      "ound": 1082,
      "ill": 1083,
      "ĠThe": 1084,
      "plication": 1085,
      "down": 1086,
      "icode": 1087,
      "ules": 1088,
      "ribut": 1089,
      "Set": 1090,
      "site": 1091,
      "Ġch": 1092,
      "Ġsubprocess": 1093,
      "udience": 1094,
      "Base": 1095,
      "ari": 1096,
      "als": 1097,
      "create": 1098,
      "AC": 1099,
      "},": 1100,
      "ĠAudience": 1101,
      "max": 1102,
      "Ġgo": 1103,
      "sole": 1104,
      "Ġsuper": 1105,
      "~~": 1106,
      "register": 1107,
      "uration": 1108,
      "lection": 1109,
      "([": 1110,
      "Ser": 1111,
      "bug": 1112,
      "ner": 1113,
      "page": 1114,
      "with": 1115,
      "Ġadd": 1116,
      "Ġtr": 1117,
      "map": 1118,
      "Ġtests": 1119,
      "order": 1120,
      ".__": 1121,
      "ef": 1122,
      "rol": 1123,
      "(*": 1124,
      "ep": 1125,
      "ws": 1126,
      "Ġno": 1127,
      "content": 1128,
      "(?": 1129,
      "net": 1130,
      "sub": 1131,
      "tx": 1132,
      "vironment": 1133,
      "status": 1134,
      "ices": 1135,
      "andom": 1136,
      "string": 1137,
      "AS": 1138,
      "Ġ(\"": 1139,
      "Ġcol": 1140,
      "project": 1141,
      "ĠEn": 1142,
      "AB": 1143,
      "DI": 1144,
      "Ġ<": 1145,
      "Ap": 1146,
      "gmail": 1147,
      "Ġu": 1148,
      "Ġentry": 1149,
      "Ġlen": 1150,
      "Ġexp": 1151,
      "mod": 1152,
      "Ġline": 1153,
      "ific": 1154,
      "Ġ},": 1155,
      "sol": 1156,
      "vid": 1157,
      "rig": 1158,
      "aut": 1159,
      "by": 1160,
      "group": 1161,
      "Ġen": 1162,
      "start": 1163,
      "lean": 1164,
      "Ġspec": 1165,
      "'))": 1166,
      "User": 1167,
      "rg": 1168,
      "method": 1169,
      "ĠPro": 1170,
      "'):": 1171,
      "FI": 1172,
      "Log": 1173,
      "sc": 1174,
      "ĠAPI": 1175,
      "Ġform": 1176,
      "chema": 1177,
      "/',": 1178,
      "Data": 1179,
      "bot": 1180,
      "new": 1181,
      "ĠV": 1182,
      "ere": 1183,
      "lock": 1184,
      "Ġsh": 1185,
      "pytest": 1186,
      "instance": 1187,
      "points": 1188,
      "index": 1189,
      "Ġso": 1190,
      "Ġ{'": 1191,
      "Ġmodule": 1192,
      "password": 1193,
      "ues": 1194,
      "Ġargs": 1195,
      "ired": 1196,
      "mplement": 1197,
      "Ġunittest": 1198,
      "Command": 1199,
      "Not": 1200,
      "Ġ5": 1201,
      "Ġnew": 1202,
      "token": 1203,
      "Ad": 1204,
      "ample": 1205,
      "length": 1206,
      "ĠJ": 1207,
      "Ġunder": 1208,
      "URL": 1209,
      "Ġviews": 1210,
      "Ġli": 1211,
      "Ġit": 1212,
      "__,": 1213,
      "TE": 1214,
      "ain": 1215,
      "ave": 1216,
      "AP": 1217,
      "BU": 1218,
      "ID": 1219,
      "mark": 1220,
      "nd": 1221,
      "chem": 1222,
      "tail": 1223,
      "OD": 1224,
      "ĠImport": 1225,
      "Ġstring": 1226,
      "ream": 1227,
      "head": 1228,
      "Handler": 1229,
      "call": 1230,
      "source": 1231,
      "__)": 1232,
      "ĠDjango": 1233,
      "av": 1234,
      "write": 1235,
      "filter": 1236,
      "Ġvalid": 1237,
      "ASE": 1238,
      "Type": 1239,
      "forms": 1240,
      "opic": 1241,
      "BUG": 1242,
      "EC": 1243,
      "serializ": 1244,
      "parser": 1245,
      "\".": 1246,
      "12": 1247,
      "io": 1248,
      "{}": 1249,
      "Ġ!": 1250,
      "enc": 1251,
      "Ġclient": 1252,
      "doc": 1253,
      "ĊĠĠĠĠĠĠĠĠĠĠĠĠĠĠĠĠĠĠĠĠĠĠĠĠ": 1254,
      "ync": 1255,
      "umpy": 1256,
      "author": 1257,
      "pes": 1258,
      "Ġcommand": 1259,
      "uld": 1260,
      "ĠSystem": 1261,
      "Ġ!=": 1262,
      "10": 1263,
      "AME": 1264,
      "rary": 1265,
      "context": 1266,
      "ron": 1267,
      "ĠBase": 1268,
      "play": 1269,
      "ators": 1270,
      "Topic": 1271,
      "ey": 1272,
      "response": 1273,
      "river": 1274,
      "ĠMIT": 1275,
      "Ġunicode": 1276,
      "filename": 1277,
      "mb": 1278,
      "options": 1279,
      "ition": 1280,
      "Ġdoc": 1281,
      "umn": 1282,
      "book": 1283,
      "missions": 1284,
      "chemy": 1285,
      "lay": 1286,
      "Ġflask": 1287,
      "environ": 1288,
      "ends": 1289,
      "ecut": 1290,
      "Ġkeywords": 1291,
      "txt": 1292,
      "MP": 1293,
      "not": 1294,
      "Ġcl": 1295,
      "quest": 1296,
      "ĠDevelop": 1297,
      "Ġapi": 1298,
      "his": 1299,
      "result": 1300,
      "Ġ'__": 1301,
      "Ġtemplate": 1302,
      "imple": 1303,
      "Ġ\\": 1304,
      "Ġlib": 1305,
      "row": 1306,
      "Ġ'--": 1307,
      "perty": 1308,
      "static": 1309,
      "Ċĉ": 1310,
      "sed": 1311,
      "Ġnum": 1312,
      "ources": 1313,
      "={'": 1314,
      "framework": 1315,
      "build": 1316,
      "debug": 1317,
      "Ġcheck": 1318,
      "unittest": 1319,
      "Ġproject": 1320,
      "ĠDevelopers": 1321,
      "apt": 1322,
      "uf": 1323,
      "ics": 1324,
      "ĠCo": 1325,
      "EY": 1326,
      "``": 1327,
      "search": 1328,
      "Ġbot": 1329,
      "amb": 1330,
      "username": 1331,
      "Ġpytest": 1332,
      "tools": 1333,
      "solute": 1334,
      "amp": 1335,
      "Ġ'.": 1336,
      "output": 1337,
      "lugin": 1338,
      "ION": 1339,
      "NAME": 1340,
      "OT": 1341,
      "ray": 1342,
      "aml": 1343,
      "login": 1344,
      "cli": 1345,
      "event": 1346,
      "ik": 1347,
      "title": 1348,
      "Ġload": 1349,
      "Ġ>=": 1350,
      "ĠCON": 1351,
      "fields": 1352,
      "case": 1353,
      "liter": 1354,
      "Ġrequests": 1355,
      "safe": 1356,
      "Ġdatetime": 1357,
      "literals": 1358,
      "UL": 1359,
      "src": 1360,
      "Ġcontext": 1361,
      "ĠData": 1362,
      "Ġzip": 1363,
      "ake": 1364,
      "ule": 1365,
      "('/": 1366,
      "ĠSee": 1367,
      "ogle": 1368,
      "========": 1369,
      "Ġdistutils": 1370,
      "Ġcreate": 1371,
      "ĠImportError": 1372,
      "'s": 1373,
      "List": 1374,
      "function": 1375,
      "pi": 1376,
      "sit": 1377,
      "Ġj": 1378,
      "Ġsho": 1379,
      "Ġrest": 1380,
      "plug": 1381,
      "trans": 1382,
      "right": 1383,
      "+)": 1384,
      "lease": 1385,
      "console": 1386,
      "Ġbase": 1387,
      "Ġ..": 1388,
      "box": 1389,
      "requests": 1390,
      "Ġcontent": 1391,
      "HE": 1392,
      "HO": 1393,
      "String": 1394,
      "ak": 1395,
      "ait": 1396,
      "Ġcan": 1397,
      "que": 1398,
      "Ġres": 1399,
      "Ġ201": 1400,
      "Ġcomp": 1401,
      "ICEN": 1402,
      "DIR": 1403,
      "LO": 1404,
      "dist": 1405,
      "patterns": 1406,
      "Ġhost": 1407,
      "/$',": 1408,
      "Co": 1409,
      "Par": 1410,
      "Ġoptions": 1411,
      "Ġrender": 1412,
      "ally": 1413,
      "engine": 1414,
      "HTTP": 1415,
      "df": 1416,
      "direct": 1417,
      "go": 1418,
      "plo": 1419,
      "ran": 1420,
      "ĠUser": 1421,
      "ING": 1422,
      "ambda": 1423,
      "US": 1424,
      "face": 1425,
      "sor": 1426,
      "Ġhttp": 1427,
      "ĠVERSION": 1428,
      "__':": 1429,
      "rip": 1430,
      "Ġnp": 1431,
      "Ġobj": 1432,
      "link": 1433,
      "ICENSE": 1434,
      "KEY": 1435,
      "ding": 1436,
      "ou": 1437,
      "ow": 1438,
      "Ġ'/": 1439,
      "Ġaut": 1440,
      "move": 1441,
      "aph": 1442,
      "ables": 1443,
      "graph": 1444,
      "ify": 1445,
      "socket": 1446,
      "Ġobject": 1447,
      "Environment": 1448,
      "ne": 1449,
      "Ġup": 1450,
      "Ġserver": 1451,
      "abel": 1452,
      "Ġhas": 1453,
      "modules": 1454,
      "Char": 1455,
      "IL": 1456,
      "PS": 1457,
      "patch": 1458,
      "Ġcurrent": 1459,
      "idd": 1460,
      "pyright": 1461,
      "Ġfiles": 1462,
      "sql": 1463,
      "ters": 1464,
      "uite": 1465,
      "Ġk": 1466,
      "Ġfunction": 1467,
      "Ġrange": 1468,
      "Ġlogger": 1469,
      "Ġpassword": 1470,
      "Ġfields": 1471,
      "File": 1472,
      "GE": 1473,
      "WS": 1474,
      "az": 1475,
      "cor": 1476,
      "clo": 1477,
      "input": 1478,
      "arget": 1479,
      "Ġcmd": 1480,
      "loop": 1481,
      "sets": 1482,
      "ceptions": 1483,
      "Ġevent": 1484,
      "Ġoutput": 1485,
      "Oper": 1486,
      "lan": 1487,
      "long": 1488,
      "ink": 1489,
      "root": 1490,
      "uter": 1491,
      "ĠAl": 1492,
      "unc": 1493,
      "ĊĠĠĠĠĠĠĠĠĠ": 1494,
      "logger": 1495,
      "color": 1496,
      "xy": 1497,
      "Ġac": 1498,
      "anager": 1499,
      "ities": 1500,
      "lob": 1501,
      "mock": 1502,
      "ĠDE": 1503,
      "types": 1504,
      "Ġpermissions": 1505,
      "PAT": 1506,
      "be": 1507,
      "ph": 1508,
      "tware": 1509,
      "Ġport": 1510,
      "ision": 1511,
      "obj": 1512,
      "Ġspecific": 1513,
      "DAT": 1514,
      "ML": 1515,
      "sum": 1516,
      "uct": 1517,
      "Ġarg": 1518,
      "olumn": 1519,
      "top": 1520,
      "manager": 1521,
      "Ġgover": 1522,
      "Al": 1523,
      "cmd": 1524,
      "dent": 1525,
      "tree": 1526,
      "Ġ>": 1527,
      "Ġus": 1528,
      "Ġerror": 1529,
      "ster": 1530,
      "alchemy": 1531,
      "exp": 1532,
      "Ġlanguage": 1533,
      "Ġ[\"": 1534,
      "Ġstat": 1535,
      "Ġhand": 1536,
      "dout": 1537,
      "ible": 1538,
      "Ġdown": 1539,
      "Admin": 1540,
      "Response": 1541,
      "we": 1542,
      "sen": 1543,
      "route": 1544,
      "ach": 1545,
      "rid": 1546,
      "module": 1547,
      "Ġwe": 1548,
      "000": 1549,
      "mplemented": 1550,
      "Ġare": 1551,
      "Ġbuild": 1552,
      "gres": 1553,
      "www": 1554,
      "Implemented": 1555,
      "Cont": 1556,
      "ializer": 1557,
      "service": 1558,
      "Ġabsolute": 1559,
      "\"],": 1560,
      "(['": 1561,
      "/*": 1562,
      "40": 1563,
      "Key": 1564,
      "MA": 1565,
      "cord": 1566,
      "pk": 1567,
      "state": 1568,
      "array": 1569,
      "ected": 1570,
      "Ġelif": 1571,
      "Operating": 1572,
      "SC": 1573,
      "Time": 1574,
      "ds": 1575,
      "ome": 1576,
      "spath": 1577,
      "depend": 1578,
      "any": 1579,
      "Ġpost": 1580,
      "Ġindex": 1581,
      "vert": 1582,
      "ists": 1583,
      "mplates": 1584,
      "annel": 1585,
      "RI": 1586,
      "Run": 1587,
      "ide": 1588,
      "ual": 1589,
      "Ġat": 1590,
      "Ġtext": 1591,
      "Ġinter": 1592,
      "ply": 1593,
      "Ġisinstance": 1594,
      "Ġlimit": 1595,
      "ImplementedError": 1596,
      "IO": 1597,
      "eg": 1598,
      "image": 1599,
      "sing": 1600,
      "Ġle": 1601,
      "itor": 1602,
      "Ġtype": 1603,
      "Ġdict": 1604,
      "Ġint": 1605,
      "actory": 1606,
      "ixin": 1607,
      "API": 1608,
      "The": 1609,
      "des": 1610,
      "gi": 1611,
      "handler": 1612,
      "my": 1613,
      "sv": 1614,
      "wit": 1615,
      "Ġ/": 1616,
      "store": 1617,
      "essages": 1618,
      "items": 1619,
      "ĠConfig": 1620,
      "ear": 1621,
      "fl": 1622,
      "names": 1623,
      "Ġcode": 1624,
      "__),": 1625,
      "Ġnumpy": 1626,
      "ight": 1627,
      "oftware": 1628,
      "ributed": 1629,
      "Serializer": 1630,
      "11": 1631,
      "CON": 1632,
      "ium": 1633,
      "yle": 1634,
      "Ġ--": 1635,
      "mpt": 1636,
      "Ġdirect": 1637,
      "Ġ+=": 1638,
      "duct": 1639,
      "ified": 1640,
      "Parser": 1641,
      "PATH": 1642,
      "'t": 1643,
      "Ch": 1644,
      "FA": 1645,
      "Mixin": 1646,
      "Ġimp": 1647,
      "its": 1648,
      "Ġsource": 1649,
      "uple": 1650,
      "Ġvari": 1651,
      "ĠThis": 1652,
      "ĠFlask": 1653,
      "bose": 1654,
      "csv": 1655,
      "Ġfilename": 1656,
      "number": 1657,
      "RAN": 1658,
      "SON": 1659,
      "mary": 1660,
      "nap": 1661,
      "Ġ'-": 1662,
      "lete": 1663,
      "cover": 1664,
      "connection": 1665,
      "verse": 1666,
      "Exception": 1667,
      "queryset": 1668,
      "localhost": 1669,
      "Ġgoverning": 1670,
      "current": 1671,
      "driver": 1672,
      "gre": 1673,
      "rest": 1674,
      "slug": 1675,
      "ux": 1676,
      "ther": 1677,
      "comple": 1678,
      "keys": 1679,
      "ĠOR": 1680,
      "ĠUn": 1681,
      "Ġconfiguration": 1682,
      ").__": 1683,
      "cls": 1684,
      "ABASE": 1685,
      "vider": 1686,
      "%(": 1687,
      "NT": 1688,
      "Up": 1689,
      "ld": 1690,
      "riter": 1691,
      "Ġupdate": 1692,
      "Ġsql": 1693,
      "Ġstart": 1694,
      "Ġrequired": 1695,
      "efault": 1696,
      "CharField": 1697,
      ".',": 1698,
      "BSD": 1699,
      "DB": 1700,
      "Se": 1701,
      "eed": 1702,
      "lue": 1703,
      "system": 1704,
      "ze": 1705,
      "Ġadmin": 1706,
      "rop": 1707,
      "room": 1708,
      "alt": 1709,
      "Ġgener": 1710,
      "LED": 1711,
      "click": 1712,
      "########": 1713,
      "~~~~": 1714,
      "Ġformat": 1715,
      "ULT": 1716,
      "25": 1717,
      "Date": 1718,
      "To": 1719,
      "Text": 1720,
      "af": 1721,
      "uid": 1722,
      "Ġsession": 1723,
      "err": 1724,
      "property": 1725,
      "Ġvalues": 1726,
      "ecute": 1727,
      "now": 1728,
      "stats": 1729,
      "Ġdistributed": 1730,
      "Logger": 1731,
      "IONS": 1732,
      "Client": 1733,
      "Py": 1734,
      "Python": 1735,
      "fg": 1736,
      "ie": 1737,
      "lic": 1738,
      "pha": 1739,
      "rm": 1740,
      "vo": 1741,
      "wer": 1742,
      "return": 1743,
      "alled": 1744,
      "Ġdir": 1745,
      "Ġinit": 1746,
      "Ġver": 1747,
      "abspath": 1748,
      "logging": 1749,
      "teger": 1750,
      "ĠMeta": 1751,
      "mples": 1752,
      "prefix": 1753,
      "ODO": 1754,
      "Ġshould": 1755,
      "iddle": 1756,
      "Ġdownload": 1757,
      "ss": 1758,
      "schema": 1759,
      "Ġplat": 1760,
      "Ġscripts": 1761,
      "Ġwork": 1762,
      "Ġmatch": 1763,
      "ification": 1764,
      "item": 1765,
      "ĠOS": 1766,
      "assertTrue": 1767,
      "ĠWAR": 1768,
      "ĠHTTP": 1769,
      "Ġmethod": 1770,
      "DEBUG": 1771,
      "ORT": 1772,
      "suite": 1773,
      "--------------------------------": 1774,
      "auto": 1775,
      "cel": 1776,
      "gy": 1777,
      "len": 1778,
      "pid": 1779,
      "sk": 1780,
      "ttp": 1781,
      "ĠAd": 1782,
      "change": 1783,
      "urlpatterns": 1784,
      "common": 1785,
      "place": 1786,
      "Ġmake": 1787,
      "install": 1788,
      "igrations": 1789,
      "ACK": 1790,
      "PE": 1791,
      "Page": 1792,
      "QL": 1793,
      "bar": 1794,
      "flow": 1795,
      "sup": 1796,
      "Ġkwargs": 1797,
      "ĠĠĠĠĠ": 1798,
      "Ġfound": 1799,
      "Ġcall": 1800,
      "adata": 1801,
      "Ġrandom": 1802,
      "ĠString": 1803,
      "ody": 1804,
      "duction": 1805,
      "foo": 1806,
      "uilder": 1807,
      "rapper": 1808,
      "Ġcollection": 1809,
      "ency": 1810,
      "Ġdocument": 1811,
      "gion": 1812,
      "sort": 1813,
      "wd": 1814,
      "ors": 1815,
      "Ġtitle": 1816,
      "Ġdis": 1817,
      "ĠBeta": 1818,
      "Ġwill": 1819,
      "Ġ10": 1820,
      "Ġprocess": 1821,
      "serializers": 1822,
      "Ġlimitations": 1823,
      "iddleware": 1824,
      ">\\": 1825,
      "Qu": 1826,
      "cur": 1827,
      "gener": 1828,
      "label": 1829,
      "match": 1830,
      "ref": 1831,
      "mem": 1832,
      "Ġcom": 1833,
      "loat": 1834,
      "Ġauth": 1835,
      "ĠBSD": 1836,
      "home": 1837,
      "IND": 1838,
      "lector": 1839,
      "Ġargparse": 1840,
      "Name": 1841,
      "[:": 1842,
      "lers": 1843,
      "ture": 1844,
      "tadata": 1845,
      "reset": 1846,
      "report": 1847,
      "ich": 1848,
      "make": 1849,
      "lish": 1850,
      "ched": 1851,
      "angled": 1852,
      "Ġnode": 1853,
      "ither": 1854,
      "\"))": 1855,
      "domain": 1856,
      "ongo": 1857,
      "Ġparse": 1858,
      "backends": 1859,
      "Ġsocket": 1860,
      "headers": 1861,
      "pub": 1862,
      "tt": 1863,
      "table": 1864,
      "Ġpatterns": 1865,
      "ization": 1866,
      "espace": 1867,
      "Ġeither": 1868,
      "Ġdatabase": 1869,
      "ĊĠĠĠĠĠĠĠĠĠĠĠĠĠĠĠĠĠĠĠ": 1870,
      "node": 1871,
      "pr": 1872,
      "ping": 1873,
      "random": 1874,
      "})": 1875,
      "ĠX": 1876,
      "Ġutils": 1877,
      "asic": 1878,
      "uri": 1879,
      "ural": 1880,
      "Ġtask": 1881,
      "ents": 1882,
      "Ġsc": 1883,
      "ĠAN": 1884,
      "exceptions": 1885,
      "']),": 1886,
      "Ġstatus": 1887,
      "ĠOF": 1888,
      "raw": 1889,
      "Ġnumber": 1890,
      "ploy": 1891,
      ")),": 1892,
      "DIT": 1893,
      "aw": 1894,
      "ble": 1895,
      "cache": 1896,
      "oad": 1897,
      "ook": 1898,
      "pg": 1899,
      "tar": 1900,
      "til": 1901,
      "wh": 1902,
      "Ġ''": 1903,
      "lement": 1904,
      "Ġtag": 1905,
      "lied": 1906,
      "getLogger": 1907,
      "Ġweb": 1908,
      "Ġlambda": 1909,
      "formation": 1910,
      "=[\"": 1911,
      "Ġgetattr": 1912,
      "Ġapplication": 1913,
      "apps": 1914,
      "created": 1915,
      "spect": 1916,
      "compile": 1917,
      "dependent": 1918,
      "FAULT": 1919,
      "(_": 1920,
      "Cre": 1921,
      "GI": 1922,
      "MS": 1923,
      "Rai": 1924,
      "ause": 1925,
      "oo": 1926,
      "Ġ6": 1927,
      "Ġpos": 1928,
      "coding": 1929,
      "exit": 1930,
      "exclude": 1931,
      "ĠColumn": 1932,
      "tem": 1933,
      "Ġhave": 1934,
      "address": 1935,
      "TIES": 1936,
      "Ġtrans": 1937,
      "wsgi": 1938,
      "Ġexpress": 1939,
      "Ġusing": 1940,
      "Ġimplied": 1941,
      "ĠANY": 1942,
      "tes": 1943,
      "uch": 1944,
      "Ġemail": 1945,
      "Ġorder": 1946,
      "inc": 1947,
      "ension": 1948,
      "enium": 1949,
      "selenium": 1950,
      "erson": 1951,
      "setuptools": 1952,
      "exists": 1953,
      "Ġ{\"": 1954,
      "ĠNot": 1955,
      "Ġgit": 1956,
      "param": 1957,
      "board": 1958,
      "Ġdepend": 1959,
      "Ġyou": 1960,
      "download": 1961,
      ".\")": 1962,
      "Is": 1963,
      "PO": 1964,
      "cat": 1965,
      "func": 1966,
      "hand": 1967,
      "pu": 1968,
      "Ġ),": 1969,
      "inal": 1970,
      "stack": 1971,
      "Ġscript": 1972,
      "Ġword": 1973,
      "odes": 1974,
      "assertRai": 1975,
      "Ġparams": 1976,
      "'''": 1977,
      "nose": 1978,
      "ĠIndependent": 1979,
      "ĠHttp": 1980,
      "attrs": 1981,
      "ĠKIND": 1982,
      "ĠCONDIT": 1983,
      "RANTIES": 1984,
      "ĠWARRANTIES": 1985,
      "assertRaises": 1986,
      "ĠCONDITIONS": 1987,
      "LAT": 1988,
      "block": 1989,
      "lint": 1990,
      "option": 1991,
      "Ġend": 1992,
      "Ġlevel": 1993,
      "cho": 1994,
      "agement": 1995,
      "connect": 1996,
      "ĠSoftware": 1997,
      "Ġtool": 1998,
      "Ġurllib": 1999,
      "templates": 2000,
      "params": 2001,
      "Request": 2002,
      "Ġextra": 2003,
      "Ġused": 2004,
      "Ar": 2005,
      "UN": 2006,
      "ale": 2007,
      "sg": 2008,
      "zz": 2009,
      "Ġlocal": 2010,
      "ater": 2011,
      "detail": 2012,
      "strip": 2013,
      "ĊĠĠĠĠĊĠĠĠ": 2014,
      "Ġoper": 2015,
      "amespace": 2016,
      "ĠSer": 2017,
      "ĠCommand": 2018,
      "ribute": 2019,
      "ramework": 2020,
      "postgres": 2021,
      "igration": 2022,
      "roller": 2023,
      "queue": 2024,
      "ĠDEBUG": 2025,
      "Ġsqlalchemy": 2026,
      "LICENSE": 2027,
      "PA": 2028,
      "Ġhttps": 2029,
      "Ġaction": 2030,
      "the": 2031,
      "ars": 2032,
      "ily": 2033,
      "testing": 2034,
      "(\"/": 2035,
      "tain": 2036,
      "cret": 2037,
      "Ġmod": 2038,
      "dapt": 2039,
      "TION": 2040,
      "google": 2041,
      "/'": 2042,
      "].": 2043,
      "bind": 2044,
      "dc": 2045,
      "ges": 2046,
      "ja": 2047,
      "opt": 2048,
      "pages": 2049,
      "mote": 2050,
      "older": 2051,
      "']},": 2052,
      "ĠIN": 2053,
      "active": 2054,
      "struct": 2055,
      "values": 2056,
      "msg": 2057,
      "aster": 2058,
      "mission": 2059,
      "NotImplementedError": 2060,
      "Ġcls": 2061,
      "Ġlibrary": 2062,
      "witch": 2063,
      "complete": 2064,
      "lueprint": 2065,
      "dapter": 2066,
      "50": 2067,
      "Adapter": 2068,
      "OG": 2069,
      "nad": 2070,
      "rit": 2071,
      "Ġ``": 2072,
      "ature": 2073,
      "Ġpage": 2074,
      "Ġschema": 2075,
      "Ġinput": 2076,
      "')),": 2077,
      "cei": 2078,
      "ĠTe": 2079,
      "ession": 2080,
      "ĠĠĠĠĠĠĠĠĠĠĠĠĠĠĠĠ": 2081,
      "docs": 2082,
      "derr": 2083,
      "Tests": 2084,
      "ĠWIT": 2085,
      "ĠWeb": 2086,
      "Connection": 2087,
      "ViewSet": 2088,
      "required": 2089,
      "Auth": 2090,
      "ft": 2091,
      "ful": 2092,
      "license": 2093,
      "oint": 2094,
      "ras": 2095,
      "tangled": 2096,
      "ories": 2097,
      "ensions": 2098,
      "repo": 2099,
      "Ġid": 2100,
      "stant": 2101,
      "RET": 2102,
      "('-": 2103,
      "delta": 2104,
      "Ġmin": 2105,
      "\").": 2106,
      "abled": 2107,
      "how": 2108,
      "Ġonly": 2109,
      "lines": 2110,
      "ECT": 2111,
      "rowser": 2112,
      "ranch": 2113,
      "ĠHttpResponse": 2114,
      "\"])": 2115,
      "64": 2116,
      "Arg": 2117,
      "CL": 2118,
      "Id": 2119,
      "TO": 2120,
      "amples": 2121,
      "ration": 2122,
      "son": 2123,
      "wait": 2124,
      "xml": 2125,
      "yaml": 2126,
      "Ġ`": 2127,
      "Ġent": 2128,
      "arn": 2129,
      "med": 2130,
      "Ġpri": 2131,
      "account": 2132,
      "unch": 2133,
      "example": 2134,
      "etch": 2135,
      "pypi": 2136,
      "users": 2137,
      "dump": 2138,
      "Ġsen": 2139,
      "ibrary": 2140,
      "ORD": 2141,
      "services": 2142,
      "requirements": 2143,
      "Ġroot": 2144,
      "plugin": 2145,
      "close": 2146,
      "Do": 2147,
      "PORT": 2148,
      "Res": 2149,
      "cul": 2150,
      "rans": 2151,
      "size": 2152,
      "vice": 2153,
      "orage": 2154,
      "loud": 2155,
      "Ġsort": 2156,
      "except": 2157,
      "Ġ->": 2158,
      "Ġprogram": 2159,
      "Integer": 2160,
      "etail": 2161,
      "iven": 2162,
      "tags": 2163,
      "ĠEnvironment": 2164,
      "APPS": 2165,
      "plugins": 2166,
      "EL": 2167,
      "Plugin": 2168,
      "TR": 2169,
      "day": 2170,
      "messages": 2171,
      "spec": 2172,
      "wist": 2173,
      "Ġplugin": 2174,
      "gex": 2175,
      "Ġtarget": 2176,
      "look": 2177,
      "Ġrecord": 2178,
      "master": 2179,
      "='',": 2180,
      "old": 2181,
      "ĠLog": 2182,
      "Ġtoken": 2183,
      "Ġman": 2184,
      "iffer": 2185,
      "pos": 2186,
      "Process": 2187,
      "imal": 2188,
      "attern": 2189,
      "save": 2190,
      "Ġexpected": 2191,
      "groups": 2192,
      "layer": 2193,
      "HOUT": 2194,
      "DATABASE": 2195,
      "ĠWITHOUT": 2196,
      "wisted": 2197,
      "Node": 2198,
      "nal": 2199,
      "wid": 2200,
      "rel": 2201,
      "let": 2202,
      "Ġ\"__": 2203,
      "mages": 2204,
      "ris": 2205,
      "Ġinformation": 2206,
      "ĠCom": 2207,
      "ĊĊĠ": 2208,
      "Ġasync": 2209,
      "ĠGet": 2210,
      "Ġusername": 2211,
      "Ġsee": 2212,
      "ĠInter": 2213,
      "ignment": 2214,
      "ivision": 2215,
      "Ġcreated": 2216,
      "Ġwhich": 2217,
      "(**": 2218,
      "DateTime": 2219,
      "Ġverbose": 2220,
      "\"):": 2221,
      "24": 2222,
      "RL": 2223,
      "TA": 2224,
      "ade": 2225,
      "can": 2226,
      "drop": 2227,
      "range": 2228,
      "vis": 2229,
      "Ġq": 2230,
      "ornad": 2231,
      "ines": 2232,
      "router": 2233,
      "Ġimage": 2234,
      "Ġtim": 2235,
      "ical": 2236,
      "__))": 2237,
      "aces": 2238,
      "Ġregister": 2239,
      "ries": 2240,
      "agtail": 2241,
      "Ġnull": 2242,
      "Ġblock": 2243,
      "product": 2244,
      "Ġmsg": 2245,
      "loader": 2246,
      "shot": 2247,
      "Ġsend": 2248,
      "Ġany": 2249,
      "ĠException": 2250,
      "Ġprefix": 2251,
      "Ġnose": 2252,
      "================": 2253,
      "MAIL": 2254,
      "RIP": 2255,
      "ornado": 2256,
      "((": 2257,
      "CO": 2258,
      "Get": 2259,
      "GIN": 2260,
      "Open": 2261,
      "dig": 2262,
      "equal": 2263,
      "gine": 2264,
      "mer": 2265,
      "rf": 2266,
      "vi": 2267,
      "wik": 2268,
      "inx": 2269,
      "mpty": 2270,
      "Ġcase": 2271,
      "estamp": 2272,
      "Ġter": 2273,
      "__\":": 2274,
      "entication": 2275,
      "access": 2276,
      "Ġdest": 2277,
      "unit": 2278,
      "elper": 2279,
      "irst": 2280,
      "irror": 2281,
      "application": 2282,
      "Ġback": 2283,
      "amily": 2284,
      "plan": 2285,
      "plic": 2286,
      "Ġstdout": 2287,
      "Ġ._": 2288,
      "runner": 2289,
      "Ġyield": 2290,
      "tension": 2291,
      "Ġmax": 2292,
      "annot": 2293,
      "FIG": 2294,
      "header": 2295,
      "Ġhandle": 2296,
      "({": 2297,
      ".*": 2298,
      "/(?": 2299,
      "201": 2300,
      "CH": 2301,
      "Me": 2302,
      "cap": 2303,
      "render": 2304,
      "tf": 2305,
      "Ġ8": 2306,
      "ĠY": 2307,
      "remove": 2308,
      "Ġpk": 2309,
      "execut": 2310,
      "ello": 2311,
      "ather": 2312,
      "otal": 2313,
      "Ġwrite": 2314,
      "intain": 2315,
      "pop": 2316,
      "Ġrequire": 2317,
      "Ġrequires": 2318,
      "Ġinstance": 2319,
      "STAL": 2320,
      "Ġcomple": 2321,
      "icket": 2322,
      "DEFAULT": 2323,
      "Ġenvironment": 2324,
      "Ġwhen": 2325,
      "ributes": 2326,
      "Ċĉĉ": 2327,
      "USER": 2328,
      ".\",": 2329,
      "MOD": 2330,
      "PRO": 2331,
      "Sc": 2332,
      "TY": 2333,
      "bers": 2334,
      "hash": 2335,
      "ls": 2336,
      "pip": 2337,
      "year": 2338,
      "Ġutil": 2339,
      "ench": 2340,
      "redis": 2341,
      "decor": 2342,
      "delete": 2343,
      "leep": 2344,
      "alth": 2345,
      "Ġclean": 2346,
      "ites": 2347,
      "lots": 2348,
      "upper": 2349,
      "ĠSet": 2350,
      "ĠTODO": 2351,
      "ĠCh": 2352,
      "ush": 2353,
      "ĠDevelopment": 2354,
      "ĠIS": 2355,
      "Ġgiven": 2356,
      "ĠURL": 2357,
      "Ġmock": 2358,
      "UTH": 2359,
      "off": 2360,
      "Ġauto": 2361,
      "sqlite": 2362,
      "Ġprimary": 2363,
      "=__": 2364,
      ">>": 2365,
      "Django": 2366,
      "Pool": 2367,
      "TH": 2368,
      "Te": 2369,
      "cp": 2370,
      "din": 2371,
      "ff": 2372,
      "fore": 2373,
      "ped": 2374,
      "sn": 2375,
      "Ġargument": 2376,
      "send": 2377,
      "arning": 2378,
      "Ġinto": 2379,
      "Ġop": 2380,
      "Ġthread": 2381,
      "agent": 2382,
      "conds": 2383,
      "Ġmigrations": 2384,
      "database": 2385,
      "peri": 2386,
      "ĠRun": 2387,
      "ugh": 2388,
      "gistration": 2389,
      "fixture": 2390,
      "feed": 2391,
      "Ġcommands": 2392,
      "MPLAT": 2393,
      "ĠCopyright": 2394,
      "INGS": 2395,
      "/*.": 2396,
      "intainer": 2397,
      "BO": 2398,
      "By": 2399,
      "Default": 2400,
      "Detail": 2401,
      "Fil": 2402,
      "JECT": 2403,
      "PL": 2404,
      "]+)": 2405,
      "ays": 2406,
      "ias": 2407,
      "less": 2408,
      "ox": 2409,
      "pack": 2410,
      "rt": 2411,
      "sd": 2412,
      "ties": 2413,
      "win": 2414,
      "Ġselenium": 2415,
      "ropy": 2416,
      "','": 2417,
      "Ġcli": 2418,
      "entic": 2419,
      "Ġdivision": 2420,
      "adapt": 2421,
      "('.": 2422,
      "ĠTE": 2423,
      "ĠLICENSE": 2424,
      "commit": 2425,
      "Ġconnection": 2426,
      "actor": 2427,
      "Ġep": 2428,
      "ĠGener": 2429,
      "umentParser": 2430,
      "collection": 2431,
      "Ġsupport": 2432,
      "encies": 2433,
      "results": 2434,
      "Ġpkg": 2435,
      ".\\": 2436,
      "16": 2437,
      "AMP": 2438,
      "EX": 2439,
      "Manager": 2440,
      "Or": 2441,
      "Pre": 2442,
      "QU": 2443,
      "Un": 2444,
      "air": 2445,
      "body": 2446,
      "basic": 2447,
      "element": 2448,
      "mk": 2449,
      "numpy": 2450,
      "pand": 2451,
      "sim": 2452,
      "uk": 2453,
      "zone": 2454,
      "ĠRE": 2455,
      "ont": 2456,
      "inja": 2457,
      "round": 2458,
      "stdout": 2459,
      "ions": 2460,
      "aries": 2461,
      "alue": 2462,
      "Ġ\"/": 2463,
      "ild": 2464,
      "Ġrepo": 2465,
      "Ġsuite": 2466,
      "coder": 2467,
      "ateg": 2468,
      "olver": 2469,
      "ĠsetUp": 2470,
      "Ġmore": 2471,
      "omat": 2472,
      "ummy": 2473,
      "ift": 2474,
      "Ġglob": 2475,
      "rypt": 2476,
      "ĠEvent": 2477,
      "LES": 2478,
      "raph": 2479,
      "cii": 2480,
      "resources": 2481,
      "ustom": 2482,
      "Ġresults": 2483,
      "attributes": 2484,
      "ampa": 2485,
      "ĠAlpha": 2486,
      "Ġstatic": 2487,
      "flag": 2488,
      ")',": 2489,
      "OS": 2490,
      "Per": 2491,
      "Path": 2492,
      "cut": 2493,
      "evel": 2494,
      "fn": 2495,
      "has": 2496,
      "ren": 2497,
      "sw": 2498,
      "sco": 2499,
      "tim": 2500,
      "include": 2501,
      "deploy": 2502,
      "Ġ'%": 2503,
      "anization": 2504,
      "stream": 2505,
      "Ġchar": 2506,
      "ester": 2507,
      "Ġreport": 2508,
      "lig": 2509,
      "paths": 2510,
      "ĠCre": 2511,
      ")).": 2512,
      "Ġ...": 2513,
      "izer": 2514,
      "ready": 2515,
      "iled": 2516,
      "Ġ20": 2517,
      "Ġ%(": 2518,
      "Ġyour": 2519,
      "Ġmaintainer": 2520,
      "ĠTestCase": 2521,
      "ĠReturn": 2522,
      "Add": 2523,
      "ĠJSON": 2524,
      "uffer": 2525,
      "'},": 2526,
      "18": 2527,
      "23": 2528,
      "CT": 2529,
      "De": 2530,
      "SU": 2531,
      "Tool": 2532,
      "Work": 2533,
      "aunch": 2534,
      "bu": 2535,
      "help": 2536,
      "job": 2537,
      "last": 2538,
      "zer": 2539,
      "Ġhtml": 2540,
      "only": 2541,
      "allow": 2542,
      "alignment": 2543,
      "Ġty": 2544,
      "__.": 2545,
      "ameters": 2546,
      "Ġsa": 2547,
      "copy": 2548,
      "mode": 2549,
      "channel": 2550,
      "anges": 2551,
      "logy": 2552,
      "true": 2553,
      "iff": 2554,
      "Ġhere": 2555,
      "Ġgroup": 2556,
      "ayer": 2557,
      "Inter": 2558,
      "oken": 2559,
      "rai": 2560,
      "END": 2561,
      "Execut": 2562,
      "Ġmetadata": 2563,
      "Ġtemp": 2564,
      "ĠCont": 2565,
      "Ġrow": 2566,
      "Ġwhile": 2567,
      "('/')": 2568,
      "Ġfunctions": 2569,
      "Ġdirectory": 2570,
      "stants": 2571,
      "Resource": 2572,
      "STALLED": 2573,
      ".'": 2574,
      ".,": 2575,
      "13": 2576,
      "ED": 2577,
      "GO": 2578,
      "MO": 2579,
      "Mem": 2580,
      "Result": 2581,
      "WORD": 2582,
      "ccess": 2583,
      "clean": 2584,
      "nt": 2585,
      "over": 2586,
      "tk": 2587,
      "tab": 2588,
      "tty": 2589,
      "total": 2590,
      "ude": 2591,
      "Ġone": 2592,
      "Ġjoin": 2593,
      "Ġloc": 2594,
      "Ġquery": 2595,
      "region": 2596,
      "thing": 2597,
      "Ġpool": 2598,
      "Ġ\".": 2599,
      "utes": 2600,
      "apply": 2601,
      "FOR": 2602,
      "ĠTh": 2603,
      "profile": 2604,
      "Ġmust": 2605,
      "hem": 2606,
      "pool": 2607,
      "ĠNO": 2608,
      "ĠNode": 2609,
      "Ġexist": 2610,
      "ĠOpen": 2611,
      "bound": 2612,
      "tains": 2613,
      "ENT": 2614,
      "Read": 2615,
      "css": 2616,
      "prec": 2617,
      "management": 2618,
      "cio": 2619,
      "ailable": 2620,
      "ROOT": 2621,
      "Ġallow": 2622,
      "Ġreadme": 2623,
      "Apache": 2624,
      "Ġvalidators": 2625,
      "ĠComp": 2626,
      "egg": 2627,
      "adapter": 2628,
      "20": 2629,
      "=(": 2630,
      "Framework": 2631,
      "Mod": 2632,
      "SS": 2633,
      "Session": 2634,
      "This": 2635,
      "ax": 2636,
      "bject": 2637,
      "ian": 2638,
      "lr": 2639,
      "lack": 2640,
      "pon": 2641,
      "six": 2642,
      "swith": 2643,
      "sched": 2644,
      "vision": 2645,
      "Ġdel": 2646,
      "Ġfe": 2647,
      "Ġfail": 2648,
      "ason": 2649,
      "ascii": 2650,
      "Ġcore": 2651,
      "Ġpatch": 2652,
      "Ġten": 2653,
      "amel": 2654,
      "Ġremote": 2655,
      "Ġresp": 2656,
      "Ġwrapper": 2657,
      "ĠPath": 2658,
      "Ġ200": 2659,
      "loads": 2660,
      "Index": 2661,
      "Ġcopy": 2662,
      "Ġpaths": 2663,
      "Ġdoes": 2664,
      "space": 2665,
      "TTINGS": 2666,
      "igrate": 2667,
      "Ġcolor": 2668,
      "App": 2669,
      "startswith": 2670,
      "FIX": 2671,
      "lank": 2672,
      "Runner": 2673,
      "errno": 2674,
      "pider": 2675,
      "support": 2676,
      "DateTimeField": 2677,
      "'}": 2678,
      "32": 2679,
      "ASI": 2680,
      "No": 2681,
      "][": 2682,
      "bed": 2683,
      "ov": 2684,
      "ting": 2685,
      "tect": 2686,
      "vol": 2687,
      "vari": 2688,
      "wo": 2689,
      "ward": 2690,
      "Ġ7": 2691,
      "Ġ|": 2692,
      "Ġge": 2693,
      "Ġgraph": 2694,
      "red": 2695,
      "style": 2696,
      "Ġfab": 2697,
      "ionary": 2698,
      "Ġpoint": 2699,
      "Ġ\"-": 2700,
      "ica": 2701,
      "rie": 2702,
      "quired": 2703,
      "elery": 2704,
      "char": 2705,
      "irc": 2706,
      "ĠSh": 2707,
      "ĠCheck": 2708,
      "Ġconn": 2709,
      "todo": 2710,
      "classmethod": 2711,
      "Ġuni": 2712,
      "Ġdebug": 2713,
      "ĠUse": 2714,
      "datetime": 2715,
      "Ġcount": 2716,
      "Ġorig": 2717,
      "Store": 2718,
      "urrency": 2719,
      "ĠConsole": 2720,
      "arkdown": 2721,
      "yncio": 2722,
      "Server": 2723,
      "transl": 2724,
      "Ġplatforms": 2725,
      "Query": 2726,
      "POST": 2727,
      "Method": 2728,
      "MODU": 2729,
      "MPLATE": 2730,
      "Bot": 2731,
      "Factory": 2732,
      "JSON": 2733,
      "Load": 2734,
      "Message": 2735,
      "NO": 2736,
      "br": 2737,
      "gen": 2738,
      "mc": 2739,
      "ock": 2740,
      "script": 2741,
      "vir": 2742,
      "Ġ9": 2743,
      "ĠZ": 2744,
      "Ġgr": 2745,
      "orld": 2746,
      "this": 2747,
      "Ġtuple": 2748,
      "lot": 2749,
      "Ġrelease": 2750,
      "Ġsite": 2751,
      "Ġsave": 2752,
      "firm": 2753,
      "Ġinfo": 2754,
      "Ġour": 2755,
      "Ġopt": 2756,
      "edu": 2757,
      "mount": 2758,
      "Ġbut": 2759,
      "ĠList": 2760,
      "ĠPRO": 2761,
      "plat": 2762,
      "ĠDAT": 2763,
      "indow": 2764,
      "ĠMA": 2765,
      "hook": 2766,
      "ĠOrg": 2767,
      "ITY": 2768,
      "Ġlogin": 2769,
      "Ġoff": 2770,
      "ople": 2771,
      "ĠUp": 2772,
      "ENGIN": 2773,
      "Ġsearch": 2774,
      "gistry": 2775,
      "Ġyaml": 2776,
      "TIME": 2777,
      "vides": 2778,
      "plot": 2779,
      "links": 2780,
      "Ġhasattr": 2781,
      "itoring": 2782,
      "ĠAdd": 2783,
      "public": 2784,
      "Create": 2785,
      "oolean": 2786,
      "ArgumentParser": 2787,
      "ENGINE": 2788,
      "14": 2789,
      "</": 2790,
      ">[": 2791,
      "CI": 2792,
      "Doc": 2793,
      "NS": 2794,
      "UID": 2795,
      "blueprint": 2796,
      "grid": 2797,
      "pin": 2798,
      "rating": 2799,
      "simple": 2800,
      "vester": 2801,
      "xx": 2802,
      "}'.": 2803,
      "Ġ'',": 2804,
      "anc": 2805,
      "stderr": 2806,
      "Ġfin": 2807,
      "Ġpl": 2808,
      "Ġpart": 2809,
      "Ġtra": 2810,
      "Ġsimple": 2811,
      "added": 2812,
      "exception": 2813,
      "ĠBASI": 2814,
      "Ġbin": 2815,
      "etwork": 2816,
      "ĠPy": 2817,
      "ĠPage": 2818,
      "Ġstream": 2819,
      "tems": 2820,
      "odoc": 2821,
      "img": 2822,
      "ifier": 2823,
      "Ġusers": 2824,
      "lower": 2825,
      "sph": 2826,
      "../": 2827,
      "ASS": 2828,
      "Application": 2829,
      "ĠProduction": 2830,
      "Ġshutil": 2831,
      "mplementation": 2832,
      "document": 2833,
      "endswith": 2834,
      "Ġboto": 2835,
      "napshot": 2836,
      "Ġsorted": 2837,
      "Ġrequirements": 2838,
      "decorators": 2839,
      "enticated": 2840,
      "ĠBASIS": 2841,
      "AUTH": 2842,
      "CE": 2843,
      "bs": 2844,
      "eer": 2845,
      "nb": 2846,
      "person": 2847,
      "tz": 2848,
      "Ġserializ": 2849,
      "encode": 2850,
      "ret": 2851,
      "anel": 2852,
      "Ġfirst": 2853,
      "asses": 2854,
      "Ġcsv": 2855,
      "ures": 2856,
      "ged": 2857,
      "Ġsp": 2858,
      "Ġsu": 2859,
      "Ġslug": 2860,
      "first": 2861,
      "unk": 2862,
      "execute": 2863,
      "cond": 2864,
      "Ġbre": 2865,
      "']['": 2866,
      "etc": 2867,
      "Ġmon": 2868,
      "tocol": 2869,
      "umb": 2870,
      "ĠMod": 2871,
      "oreign": 2872,
      "readme": 2873,
      "Property": 2874,
      "ĠUtil": 2875,
      "endpoint": 2876,
      "short": 2877,
      "Ġfilter": 2878,
      "Stream": 2879,
      "Ġextras": 2880,
      "resol": 2881,
      "resource": 2882,
      "actions": 2883,
      "Ġtrac": 2884,
      "Ġvalidate": 2885,
      "cloud": 2886,
      "Content": 2887,
      "SCRIP": 2888,
      "Ġvariables": 2889,
      "Ġplatform": 2890,
      "platform": 2891,
      "oreignKey": 2892,
      "03": 2893,
      "DS": 2894,
      "KEN": 2895,
      "RG": 2896,
      "_(": 2897,
      "ailed": 2898,
      "cal": 2899,
      "gdc": 2900,
      "ker": 2901,
      "nn": 2902,
      "qa": 2903,
      "si": 2904,
      "sm": 2905,
      "scri": 2906,
      "ssh": 2907,
      "var": 2908,
      "wagtail": 2909,
      "Ġqu": 2910,
      "Ġservice": 2911,
      "insert": 2912,
      "esk": 2913,
      "replace": 2914,
      "rob": 2915,
      "Ġio": 2916,
      "decode": 2917,
      "Ġfname": 2918,
      "alid": 2919,
      "meta": 2920,
      "itude": 2921,
      "Ġ\"--": 2922,
      "utron": 2923,
      "cov": 2924,
      "Ġoption": 2925,
      "agers": 2926,
      "Ġnext": 2927,
      "ĠSe": 2928,
      "ĠCO": 2929,
      "ĠChar": 2930,
      "ĠPar": 2931,
      "Ġtop": 2932,
      "umer": 2933,
      "ĠFile": 2934,
      "hoices": 2935,
      "parent": 2936,
      "Profile": 2937,
      "configure": 2938,
      "ials": 2939,
      "Inline": 2940,
      "ocial": 2941,
      "Ġparent": 2942,
      "sha": 2943,
      "STAT": 2944,
      "ĊĠĠĠĠĠĠĠĠĠĠĠĠĠĠĠĠĠĠĠĠĠ": 2945,
      "Exp": 2946,
      "ialize": 2947,
      "ĠApache": 2948,
      "'^(?": 2949,
      "...": 2950,
      "display": 2951,
      "ĠEntry": 2952,
      "ĠDatabase": 2953,
      "HOST": 2954,
      "~~~~~~~~": 2955,
      "raises": 2956,
      "sphinx": 2957,
      "(\"\"\"": 2958,
      "100": 2959,
      "55": 2960,
      "::": 2961,
      "Aut": 2962,
      "CES": 2963,
      "DC": 2964,
      "Line": 2965,
      "Layer": 2966,
      "PY": 2967,
      "RC": 2968,
      "SGI": 2969,
      "aint": 2970,
      "aded": 2971,
      "cms": 2972,
      "done": 2973,
      "factory": 2974,
      "helper": 2975,
      "lambda": 2976,
      "mun": 2977,
      "nly": 2978,
      "ope": 2979,
      "ows": 2980,
      "pass": 2981,
      "pdf": 2982,
      "pattern": 2983,
      "raries": 2984,
      "zip": 2985,
      "Ġ&": 2986,
      "Ġart": 2987,
      "ĠREADME": 2988,
      "Ġqueryset": 2989,
      "secret": 2990,
      "onent": 2991,
      "release": 2992,
      "rome": 2993,
      "rough": 2994,
      "stop": 2995,
      "Ġfunc": 2996,
      "Ġph": 2997,
      "Ġ\"%": 2998,
      "Ġreverse": 2999,
      "ĠArg": 3000,
      "maps": 3001,
      "Ġav": 3002,
      "Ġother": 3003,
      "quence": 3004,
      "ollection": 3005,
      "Ġwrit": 3006,
      "idget": 3007,
      "']:": 3008,
      "abb": 3009,
      "ĠLOG": 3010,
      "Ġmult": 3011,
      "health": 3012,
      "ĠDefault": 3013,
      "temp": 3014,
      "indows": 3015,
      "ĠForm": 3016,
      "MENT": 3017,
      "ĠWSGI": 3018,
      "SEC": 3019,
      "ĠGraph": 3020,
      "Ġrunning": 3021,
      "Ġant": 3022,
      "ĠInc": 3023,
      "'^$',": 3024,
      "URI": 3025,
      "ĠExtension": 3026,
      "ĠKey": 3027,
      "interface": 3028,
      "Ġgoogle": 3029,
      "Ġaddress": 3030,
      "projects": 3031,
      "Ġencoding": 3032,
      "itions": 3033,
      "Ġclick": 3034,
      "Comp": 3035,
      "Ġaccount": 3036,
      "Ġerrors": 3037,
      "Ġinterface": 3038,
      "Ġvariable": 3039,
      "Ġgenerate": 3040,
      "ĠAdmin": 3041,
      "Ġcollections": 3042,
      "Ġscrap": 3043,
      "Ġoperations": 3044,
      "dumps": 3045,
      "lookup": 3046,
      "CESS": 3047,
      ",<": 3048,
      "-%": 3049,
      "/\"": 3050,
      "Found": 3051,
      "IS": 3052,
      "LD": 3053,
      "Library": 3054,
      "Level": 3055,
      "Rout": 3056,
      "Version": 3057,
      "builder": 3058,
      "cer": 3059,
      "dia": 3060,
      "ead": 3061,
      "ling": 3062,
      "nodes": 3063,
      "ric": 3064,
      "rack": 3065,
      "ticket": 3066,
      "writer": 3067,
      "Ġass": 3068,
      "select": 3069,
      "inf": 3070,
      "ative": 3071,
      "atural": 3072,
      "rec": 3073,
      "req": 3074,
      "Ġitems": 3075,
      "',)": 3076,
      "ionet": 3077,
      "arionet": 3078,
      "async": 3079,
      "Ġpr": 3080,
      "iler": 3081,
      "Ġret": 3082,
      "Ġsy": 3083,
      "Ġsize": 3084,
      "Ġsrc": 3085,
      "coun": 3086,
      "exe": 3087,
      "eline": 3088,
      "lime": 3089,
      "ular": 3090,
      "Ġbet": 3091,
      "ĠSQL": 3092,
      "ĠTag": 3093,
      "allable": 3094,
      "(\"--": 3095,
      "Ġmessages": 3096,
      "Ġconnect": 3097,
      "Ġexecute": 3098,
      "perties": 3099,
      "Ġeq": 3100,
      "esponses": 3101,
      "ĠWe": 3102,
      "ocal": 3103,
      "share": 3104,
      "wner": 3105,
      "Ġrunner": 3106,
      "PIPE": 3107,
      "Ġstruct": 3108,
      "Ġmap": 3109,
      "Stable": 3110,
      "lative": 3111,
      "markdown": 3112,
      "ĠCONFIG": 3113,
      "sites": 3114,
      "sitory": 3115,
      "directory": 3116,
      "404": 3117,
      "Ġmethods": 3118,
      "Ġtimestamp": 3119,
      "Ġarguments": 3120,
      "periment": 3121,
      "Ġephem": 3122,
      "todoist": 3123,
      "arionette": 3124,
      "Box": 3125,
      "Check": 3126,
      "Flask": 3127,
      "ForeignKey": 3128,
      "Red": 3129,
      "SER": 3130,
      "Source": 3131,
      "crypt": 3132,
      "diff": 3133,
      "fname": 3134,
      "full": 3135,
      "fail": 3136,
      "gu": 3137,
      "here": 3138,
      "images": 3139,
      "kit": 3140,
      "ny": 3141,
      "next": 3142,
      "sync": 3143,
      "sible": 3144,
      "ton": 3145,
      "Ġar": 3146,
      "oriz": 3147,
      "seconds": 3148,
      "Ġitem": 3149,
      "stance": 3150,
      "Ġfix": 3151,
      "Ġtable": 3152,
      "Ġtornado": 3153,
      "ilar": 3154,
      "Ġsure": 3155,
      "unct": 3156,
      "Ġ##": 3157,
      "limit": 3158,
      "ĊĠĠĠĠĠĠĠĠĠĠ": 3159,
      "Ġneed": 3160,
      "otstr": 3161,
      "Ġbook": 3162,
      "ĠSci": 3163,
      "Ġlines": 3164,
      "ĠPost": 3165,
      "ube": 3166,
      "proxy": 3167,
      "Ġmirror": 3168,
      "Ġ[],": 3169,
      "Ġcontain": 3170,
      "Ġstate": 3171,
      "dataset": 3172,
      "ĠMake": 3173,
      "ized": 3174,
      "acts": 3175,
      "ATION": 3176,
      "ĠGit": 3177,
      "sample": 3178,
      "errors": 3179,
      "tasks": 3180,
      "splitlines": 3181,
      "eff": 3182,
      "bytes": 3183,
      "scr": 3184,
      "TEST": 3185,
      "mbers": 3186,
      "staticmethod": 3187,
      "azy": 3188,
      "Alchemy": 3189,
      "sent": 3190,
      "Topo": 3191,
      "Ġinitial": 3192,
      "handlers": 3193,
      "Ġtools": 3194,
      "arnings": 3195,
      "ĠInternet": 3196,
      "ampaign": 3197,
      "Loader": 3198,
      "SECRET": 3199,
      "otstrap": 3200,
      "AY": 3201,
      "CK": 3202,
      "Column": 3203,
      "Meta": 3204,
      "MAP": 3205,
      "Natural": 3206,
      "PASS": 3207,
      "System": 3208,
      "Suite": 3209,
      "Trans": 3210,
      "XT": 3211,
      "browser": 3212,
      "ca": 3213,
      "cfg": 3214,
      "eu": 3215,
      "her": 3216,
      "ios": 3217,
      "ients": 3218,
      "ka": 3219,
      "pc": 3220,
      "show": 3221,
      "uuid": 3222,
      "vers": 3223,
      "Ġjs": 3224,
      "ert": 3225,
      "Ġfh": 3226,
      "lex": 3227,
      "Ġcfg": 3228,
      "Ġpip": 3229,
      "Ġremove": 3230,
      "Ġregex": 3231,
      "Ġsk": 3232,
      "exc": 3233,
      "ctl": 3234,
      "chive": 3235,
      "construct": 3236,
      "ĊĠĠĠĠĠĠĠĠĠĠĠĠ": 3237,
      "Ġnamespace": 3238,
      "Ġlink": 3239,
      "ĠText": 3240,
      "allery": 3241,
      "very": 3242,
      "verage": 3243,
      "extension": 3244,
      "Ġhandler": 3245,
      ")))": 3246,
      "Ġexecut": 3247,
      "strings": 3248,
      "Ġdev": 3249,
      "dbot": 3250,
      "eback": 3251,
      "uildbot": 3252,
      "Ġbeen": 3253,
      "Required": 3254,
      "Ġchannel": 3255,
      "ĠValue": 3256,
      "marks": 3257,
      "ĠBaseCommand": 3258,
      "Ġcompile": 3259,
      "neutron": 3260,
      "sqlalchemy": 3261,
      "GET": 3262,
      "dentials": 3263,
      "coverage": 3264,
      "################": 3265,
      "voke": 3266,
      "sky": 3267,
      "generic": 3268,
      "postgresql": 3269,
      "planet": 3270,
      "FORM": 3271,
      "Ġunique": 3272,
      ")]": 3273,
      ".\"": 3274,
      "15": 3275,
      ":\\": 3276,
      "AGE": 3277,
      "AML": 3278,
      "Com": 3279,
      "Email": 3280,
      "Linter": 3281,
      "MY": 3282,
      "Object": 3283,
      "Simple": 3284,
      "camel": 3285,
      "glob": 3286,
      "glish": 3287,
      "ient": 3288,
      "lab": 3289,
      "mongo": 3290,
      "rl": 3291,
      "sources": 3292,
      "ted": 3293,
      "vin": 3294,
      "Ġserializers": 3295,
      "enames": 3296,
      "Ġident": 3297,
      "develop": 3298,
      "Ġ'\\": 3299,
      "Ġframe": 3300,
      "Ġcd": 3301,
      "Ġcur": 3302,
      "ested": 3303,
      "illow": 3304,
      "cook": 3305,
      "else": 3306,
      "uler": 3307,
      "ulation": 3308,
      "Ġforms": 3309,
      "ĠSE": 3310,
      "ĠST": 3311,
      "ĠSEC": 3312,
      "ider": 3313,
      "ĠPer": 3314,
      "ĠPre": 3315,
      "provider": 3316,
      "tegr": 3317,
      "Ġexport": 3318,
      "Ġgen": 3319,
      "activ": 3320,
      "control": 3321,
      "stract": 3322,
      "ĊĠĠĠĠĠĠĠĠĠĠĠĠĠĠĠĠĠ": 3323,
      "ĊĠĠĠĠĠĠĠĠĠĠĠĠĠĠĠĠĠĠĠĠĠĠĠ": 3324,
      "Ġbefore": 3325,
      "processor": 3326,
      "PIO": 3327,
      "column": 3328,
      "Ġdbs": 3329,
      "Ġmem": 3330,
      "Ġteam": 3331,
      "spider": 3332,
      "servers": 3333,
      "validate": 3334,
      "ĠRequest": 3335,
      "ĠEnglish": 3336,
      "ĠProject": 3337,
      "TEXT": 3338,
      "ĊĠĠĠĠĠĠĠĠĠĠĠĠĠĠĠĠĠĠĠĠĠĠĠĠĠĠĠĠĠĠĠĠ": 3339,
      "mbol": 3340,
      "Ġresource": 3341,
      "Ġaccess": 3342,
      "255": 3343,
      "ĠNotImplementedError": 3344,
      "Ġdependencies": 3345,
      "ceived": 3346,
      "TOKEN": 3347,
      "Ġbreak": 3348,
      "/\",": 3349,
      "47": 3350,
      "=\"\"\"": 3351,
      "Code": 3352,
      "Mode": 3353,
      "Middleware": 3354,
      "SQL": 3355,
      "TODO": 3356,
      "Writer": 3357,
      "au": 3358,
      "bib": 3359,
      "cle": 3360,
      "dj": 3361,
      "dates": 3362,
      "eo": 3363,
      "fit": 3364,
      "float": 3365,
      "hal": 3366,
      "ise": 3367,
      "jpg": 3368,
      "np": 3369,
      "non": 3370,
      "pol": 3371,
      "rb": 3372,
      "ram": 3373,
      "sur": 3374,
      "sleep": 3375,
      "tmp": 3376,
      "vas": 3377,
      "Ġser": 3378,
      "Ġarray": 3379,
      "enu": 3380,
      "rou": 3381,
      "Ġ'')": 3382,
      "Ġfloat": 3383,
      "Ġcell": 3384,
      "ingle": 3385,
      "Ġsystem": 3386,
      "copyright": 3387,
      "unicode": 3388,
      "setdefault": 3389,
      "Ġabo": 3390,
      "ERS": 3391,
      "ackend": 3392,
      "Ġraw": 3393,
      "Ġwas": 3394,
      "ĠSub": 3395,
      "verbose": 3396,
      "extensions": 3397,
      "prod": 3398,
      "ormal": 3399,
      "logout": 3400,
      "ĠDB": 3401,
      "ĠDe": 3402,
      "ĠIf": 3403,
      "datasets": 3404,
      "versions": 3405,
      "ĠOption": 3406,
      "acters": 3407,
      "gert": 3408,
      "locator": 3409,
      "Ġmay": 3410,
      "Status": 3411,
      "force": 3412,
      "Ġextension": 3413,
      "Ġ{}'.": 3414,
      "udio": 3415,
      "interval": 3416,
      "contenttypes": 3417,
      "ĠVersion": 3418,
      "question": 3419,
      "LOW": 3420,
      "TextField": 3421,
      "skip": 3422,
      "memory": 3423,
      "Scrap": 3424,
      "Filter": 3425,
      "ategory": 3426,
      "Ġfinally": 3427,
      "Ġavailable": 3428,
      "PASSWORD": 3429,
      "(-": 3430,
      ")])": 3431,
      "04": 3432,
      "500": 3433,
      "Class": 3434,
      "CHE": 3435,
      "LI": 3436,
      "OL": 3437,
      "OUT": 3438,
      "SAMP": 3439,
      "branch": 3440,
      "cmake": 3441,
      "flask": 3442,
      "gn": 3443,
      "ko": 3444,
      "kze": 3445,
      "migrations": 3446,
      "nl": 3447,
      "null": 3448,
      "oauth": 3449,
      "rand": 3450,
      "sign": 3451,
      "tor": 3452,
      "tables": 3453,
      "ui": 3454,
      "ven": 3455,
      "}\".": 3456,
      "Ġqueue": 3457,
      "inet": 3458,
      "deps": 3459,
      "',),": 3460,
      "ano": 3461,
      "ste": 3462,
      "thumb": 3463,
      "asy": 3464,
      "metadata": 3465,
      "Ġcal": 3466,
      "icon": 3467,
      "ution": 3468,
      "loaded": 3469,
      "Ġredirect": 3470,
      "Ġindent": 3471,
      "examples": 3472,
      "RES": 3473,
      "('\\": 3474,
      "('',": 3475,
      "')).": 3476,
      "chdir": 3477,
      "andard": 3478,
      "Ġnames": 3479,
      "Ġbranch": 3480,
      "Ġforce": 3481,
      "ish": 3482,
      "Ġlat": 3483,
      "ĠTable": 3484,
      "ĠClient": 3485,
      "ĠCallable": 3486,
      "istory": 3487,
      "prox": 3488,
      "cker": 3489,
      "people": 3490,
      "Ġcontains": 3491,
      "grade": 3492,
      "ĠImage": 3493,
      "ĠFor": 3494,
      "Ġempty": 3495,
      "emon": 3496,
      "ĠRed": 3497,
      "__(*": 3498,
      "SETTINGS": 3499,
      "location": 3500,
      "processors": 3501,
      "Ġapps": 3502,
      "organ": 3503,
      "suites": 3504,
      "ALCHE": 3505,
      "ference": 3506,
      "eek": 3507,
      "Ġcontin": 3508,
      "ashboard": 3509,
      "Settings": 3510,
      "BaseCommand": 3511,
      "subprocess": 3512,
      "Ġspecified": 3513,
      "Ġshort": 3514,
      "Ġlike": 3515,
      "layers": 3516,
      "ListView": 3517,
      "Ġshow": 3518,
      "ween": 3519,
      "celery": 3520,
      "super": 3521,
      "member": 3522,
      "blem": 3523,
      "ĠGeneral": 3524,
      "ĠDATABASE": 3525,
      "MENTS": 3526,
      "kzeug": 3527,
      "ALCHEMY": 3528,
      ".'''": 3529,
      "/.": 3530,
      "67": 3531,
      "80": 3532,
      ":]": 3533,
      "AWS": 3534,
      "BASE": 3535,
      "Dec": 3536,
      "Gener": 3537,
      "OW": 3538,
      "PES": 3539,
      "Password": 3540,
      "Site": 3541,
      "SUR": 3542,
      "TML": 3543,
      "WW": 3544,
      "currency": 3545,
      "gallery": 3546,
      "ier": 3547,
      "ll": 3548,
      "ring": 3549,
      "ract": 3550,
      "scription": 3551,
      "tend": 3552,
      "Ġmail": 3553,
      "selector": 3554,
      "atap": 3555,
      "real": 3556,
      "rect": 3557,
      "Ġiter": 3558,
      "members": 3559,
      "Ġcor": 3560,
      "Ġchoices": 3561,
      "acro": 3562,
      "Ġrel": 3563,
      "ĠAr": 3564,
      "Ġold": 3565,
      "ely": 3566,
      "edia": 3567,
      "upho": 3568,
      "Ġthan": 3569,
      "cha": 3570,
      "Ġblank": 3571,
      "absolute": 3572,
      "Ġurlpatterns": 3573,
      "Ġstack": 3574,
      "Ġhash": 3575,
      "Ġexceptions": 3576,
      "dojo": 3577,
      "parts": 3578,
      "Ġdec": 3579,
      "Ġdetail": 3580,
      "INFO": 3581,
      "Return": 3582,
      "Exit": 3583,
      "archive": 3584,
      "ORS": 3585,
      "pretty": 3586,
      "ĠConnection": 3587,
      "ModelAdmin": 3588,
      "ModelSerializer": 3589,
      "Ġalso": 3590,
      "Ġalready": 3591,
      "taggert": 3592,
      "backend": 3593,
      "Ġchanges": 3594,
      "Ġshell": 3595,
      "NotFound": 3596,
      "uff": 3597,
      "DATA": 3598,
      "pkg": 3599,
      "curity": 3600,
      "Ġposition": 3601,
      "incms": 3602,
      "Ġwords": 3603,
      "Archive": 3604,
      "theme": 3605,
      "digits": 3606,
      "TYPES": 3607,
      "ĠCreate": 3608,
      "Executor": 3609,
      "Ġtempfile": 3610,
      "Ġantlr": 3611,
      "tegration": 3612,
      "*.": 3613,
      "/{": 3614,
      "22": 3615,
      "99": 3616,
      "AM": 3617,
      "EMAIL": 3618,
      "Grid": 3619,
      "Mop": 3620,
      "Migration": 3621,
      "Out": 3622,
      "Only": 3623,
      "Sh": 3624,
      "Token": 3625,
      "aa": 3626,
      "ball": 3627,
      "cell": 3628,
      "cwd": 3629,
      "folder": 3630,
      "ng": 3631,
      "press": 3632,
      "ral": 3633,
      "sy": 3634,
      "spe": 3635,
      "sure": 3636,
      "tle": 3637,
      "target": 3638,
      "tual": 3639,
      "wal": 3640,
      "}\"": 3641,
      "Ġ])": 3642,
      "Ġheaders": 3643,
      "semb": 3644,
      "ons": 3645,
      "atson": 3646,
      "Ġfull": 3647,
      "entity": 3648,
      "Ġreq": 3649,
      "ĠAut": 3650,
      "ĠAtt": 3651,
      "exchange": 3652,
      "Ġ###": 3653,
      "Ġoauth": 3654,
      "')))": 3655,
      "Ġbec": 3656,
      "Ġbody": 3657,
      "Ġwait": 3658,
      "ĠSite": 3659,
      "idy": 3660,
      "ectations": 3661,
      "abc": 3662,
      "uber": 3663,
      "term": 3664,
      "heet": 3665,
      "ĠDis": 3666,
      "=[],": 3667,
      "Ġproxy": 3668,
      "Ġdevelop": 3669,
      "Ġdeprec": 3670,
      "STR": 3671,
      "Ġ})": 3672,
      "ignore": 3673,
      "Entry": 3674,
      "commands": 3675,
      "webdriver": 3676,
      "illa": 3677,
      "Ġchange": 3678,
      "FILE": 3679,
      "Count": 3680,
      "sender": 3681,
      "Control": 3682,
      "witter": 3683,
      "Search": 3684,
      "Ġdirname": 3685,
      "Ġmatches": 3686,
      "price": 3687,
      "RequestHandler": 3688,
      "Ġnullable": 3689,
      "products": 3690,
      "Ġterm": 3691,
      "executable": 3692,
      "basicConfig": 3693,
      "Module": 3694,
      "Ġtraceback": 3695,
      "Ġwriting": 3696,
      "Ġbetween": 3697,
      "ĠValueError": 3698,
      "Ġcontinue": 3699,
      "Ġdetails": 3700,
      "Mopidy": 3701,
      "${": 3702,
      "'\\": 3703,
      ")],": 3704,
      ",))": 3705,
      ".')": 3706,
      "26": 3707,
      "=%": 3708,
      "Boolean": 3709,
      "DL": 3710,
      "Dict": 3711,
      "Driver": 3712,
      "ET": 3713,
      "For": 3714,
      "Null": 3715,
      "Pri": 3716,
      "PRE": 3717,
      "Post": 3718,
      "So": 3719,
      "Util": 3720,
      "Web": 3721,
      "bash": 3722,
      "cr": 3723,
      "ccount": 3724,
      "dated": 3725,
      "fs": 3726,
      "hn": 3727,
      "hq": 3728,
      "ike": 3729,
      "lazy": 3730,
      "mg": 3731,
      "mart": 3732,
      "namespace": 3733,
      "oe": 3734,
      "pull": 3735,
      "tg": 3736,
      "ume": 3737,
      "wrap": 3738,
      "zA": 3739,
      "Ð°": 3740,
      "ĊĠĠ": 3741,
      "Ġhe": 3742,
      "Ġerrno": 3743,
      "ina": 3744,
      "ene": 3745,
      "repr": 3746,
      "ropo": 3747,
      "dec": 3748,
      "detect": 3749,
      "station": 3750,
      "Ġfinal": 3751,
      "ald": 3752,
      "Ġcache": 3753,
      "icro": 3754,
      "entries": 3755,
      "acc": 3756,
      "Ġsalt": 3757,
      "ĠAWS": 3758,
      "REQU": 3759,
      "ĠBy": 3760,
      "upy": 3761,
      "agios": 3762,
      "ape": 3763,
      "appen": 3764,
      "getenv": 3765,
      "Ġne": 3766,
      "Ġbind": 3767,
      "ĠSim": 3768,
      "Ġlength": 3769,
      "ĠTrans": 3770,
      "ĠLib": 3771,
      "ĠLoad": 3772,
      "(\"\\": 3773,
      "keep": 3774,
      "ĊĊĉ": 3775,
      "Ġmanager": 3776,
      "Ġasyncio": 3777,
      "gress": 3778,
      "iful": 3779,
      "Ġexample": 3780,
      "ĠFI": 3781,
      "dirs": 3782,
      "keypatch": 3783,
      "Ġgetenv": 3784,
      "Ġwithout": 3785,
      "Ġunit": 3786,
      "timezone": 3787,
      "until": 3788,
      "Ġsecret": 3789,
      "Ġmaster": 3790,
      "Ġfilenames": 3791,
      "authenticated": 3792,
      "Ġdefaults": 3793,
      "Ġdomain": 3794,
      "Stack": 3795,
      "Engine": 3796,
      "Encoder": 3797,
      "harvester": 3798,
      "ailer": 3799,
      "month": 3800,
      "resh": 3801,
      "Ġwhere": 3802,
      "attribute": 3803,
      "Service": 3804,
      "Ġnoqa": 3805,
      "network": 3806,
      "autiful": 3807,
      "scal": 3808,
      "Notification": 3809,
      "TEMPLATE": 3810,
      "ĊĠĠĠĠĠĠĠĠĠĠĠĠĠĠĠĠĠĠĠĠĠĠĠĠĠĠĠĠĠĠĠ": 3811,
      "Ġ2015": 3812,
      "rank": 3813,
      "WSGI": 3814,
      "Change": 3815,
      "grep": 3816,
      "ĠINSTALLED": 3817,
      "pandoc": 3818,
      "cuts": 3819,
      "ĠReturns": 3820,
      "helpers": 3821,
      "translation": 3822,
      "ĠOrganization": 3823,
      "ĠUtilities": 3824,
      "Scraper": 3825,
      "Ġbecause": 3826,
      "05": 3827,
      "17": 3828,
      "19": 3829,
      "86": 3830,
      "Build": 3831,
      "BACK": 3832,
      "Dir": 3833,
      "Find": 3834,
      "GES": 3835,
      "Hello": 3836,
      "IM": 3837,
      "Image": 3838,
      "NU": 3839,
      "OOT": 3840,
      "Player": 3841,
      "Str": 3842,
      "Solver": 3843,
      "Table": 3844,
      "Vari": 3845,
      "]+": 3846,
      "aemon": 3847,
      "blog": 3848,
      "den": 3849,
      "fast": 3850,
      "fetch": 3851,
      "gor": 3852,
      "jinja": 3853,
      "mt": 3854,
      "tuple": 3855,
      "Ġloop": 3856,
      "atible": 3857,
      "Ġfunct": 3858,
      "Ġimports": 3859,
      "ality": 3860,
      "Ġpages": 3861,
      "Ġtf": 3862,
      "Ġtables": 3863,
      "Ġtwisted": 3864,
      "utton": 3865,
      "aclass": 3866,
      "Ġdriver": 3867,
      "Ġref": 3868,
      "Ġrelative": 3869,
      "Ġsan": 3870,
      "Ġag": 3871,
      "Ġover": 3872,
      "uplic": 3873,
      "ategy": 3874,
      "convert": 3875,
      "confirm": 3876,
      "gettext": 3877,
      "Ġreturns": 3878,
      "Ġthem": 3879,
      "ĠLibrary": 3880,
      "Ġmark": 3881,
      "Ġconf": 3882,
      "Ġsts": 3883,
      "ĠMigration": 3884,
      "Ġexec": 3885,
      "contacts": 3886,
      "listdir": 3887,
      "inition": 3888,
      "ĠUUID": 3889,
      "ĠLicensed": 3890,
      "soup": 3891,
      "creen": 3892,
      "Ġsequence": 3893,
      "worker": 3894,
      "ĠInst": 3895,
      "Ġmeta": 3896,
      "ORY": 3897,
      "defaults": 3898,
      "Storage": 3899,
      "success": 3900,
      "psm": 3901,
      "anner": 3902,
      "Formatter": 3903,
      "numbers": 3904,
      "Ġtimeout": 3905,
      "Ġugettext": 3906,
      "Ġsome": 3907,
      "127": 3908,
      "Ġdocs": 3909,
      "events": 3910,
      "Ġautomat": 3911,
      "Ġobjects": 3912,
      "Ġevents": 3913,
      "desk": 3914,
      "CONF": 3915,
      "afka": 3916,
      "Ġendpoint": 3917,
      "choice": 3918,
      "ceiver": 3919,
      "CLI": 3920,
      "ĠContent": 3921,
      "ĠPROJECT": 3922,
      "alidation": 3923,
      "Ġrelated": 3924,
      "/%": 3925,
      "Author": 3926,
      "Backend": 3927,
      "Event": 3928,
      "Fe": 3929,
      "Group": 3930,
      "Item": 3931,
      "NING": 3932,
      "Pos": 3933,
      "PUT": 3934,
      "Spider": 3935,
      "dl": 3936,
      "ea": 3937,
      "family": 3938,
      "imo": 3939,
      "jor": 3940,
      "las": 3941,
      "middleware": 3942,
      "ned": 3943,
      "ose": 3944,
      "pri": 3945,
      "pare": 3946,
      "rpc": 3947,
      "snap": 3948,
      "twisted": 3949,
      "zen": 3950,
      "}'": 3951,
      "ĠQ": 3952,
      "Ġkeys": 3953,
      "inbox": 3954,
      "record": 3955,
      "reverse": 3956,
      "Ġimplementation": 3957,
      "Ġfl": 3958,
      "Ġfeed": 3959,
      "alias": 3960,
      "Ġcelery": 3961,
      "Ġpand": 3962,
      "urlo": 3963,
      "icy": 3964,
      "enter": 3965,
      "Ġdon": 3966,
      "Ġdes": 3967,
      "Ġrec": 3968,
      "Ġsl": 3969,
      "Ġsin": 3970,
      "Ġsample": 3971,
      "Ġsoftware": 3972,
      "exec": 3973,
      "editor": 3974,
      "('--": 3975,
      "Ġthere": 3976,
      "getcwd": 3977,
      "Ġwarnings": 3978,
      "Ġlay": 3979,
      "abil": 3980,
      "about": 3981,
      "pyx": 3982,
      "ĠPY": 3983,
      "extract": 3984,
      "prop": 3985,
      "properties": 3986,
      "Ġtesting": 3987,
      "ckan": 3988,
      "Ġconvert": 3989,
      "topo": 3990,
      "track": 3991,
      "ifact": 3992,
      "ĠIt": 3993,
      "ĠMo": 3994,
      "ĠMult": 3995,
      "Ġgh": 3996,
      "reads": 3997,
      "hould": 3998,
      "controller": 3999,
      "igh": 4000,
      "igns": 4001,
      "Ġprovider": 4002,
      "tax": 4003,
      "Ġdeploy": 4004,
      "ĠWWW": 4005,
      "timeout": 4006,
      "ENAB": 4007,
      "Ġpylint": 4008,
      "ĊĠĠĠĠĠĠĠĠĠĠĠĠĠĠĠĠĠĠ": 4009,
      "Ġans": 4010,
      "findall": 4011,
      "ĠApp": 4012,
      "Ġtemplates": 4013,
      "managers": 4014,
      "hosts": 4015,
      "Ġjsonify": 4016,
      "toolbar": 4017,
      "servable": 4018,
      "Ġextensions": 4019,
      "Ġxrange": 4020,
      "Ġtimedelta": 4021,
      "Ġhelpers": 4022,
      "Ġnow": 4023,
      "avig": 4024,
      "ECK": 4025,
      "123": 4026,
      "debugger": 4027,
      "Ġloader": 4028,
      "LOG": 4029,
      "distutils": 4030,
      "Ġupload": 4031,
      "weather": 4032,
      "labels": 4033,
      "Ġdependency": 4034,
      "zzle": 4035,
      "Ġmodules": 4036,
      "ĠTemplate": 4037,
      "Ġsender": 4038,
      "ĠLogin": 4039,
      "Ġcomplete": 4040,
      "sniffer": 4041,
      "sdk": 4042,
      "ĠTEST": 4043,
      "Ġglobal": 4044,
      "auncher": 4045,
      "jobs": 4046,
      "Memory": 4047,
      "ĠCompany": 4048,
      "Ġtenant": 4049,
      "Ġfabric": 4050,
      "MODULE": 4051,
      "shortcuts": 4052,
      "resolvers": 4053,
      "umerate": 4054,
      "Router": 4055,
      "infra": 4056,
      "FORMAT": 4057,
      "Ġabout": 4058,
      "SURU": 4059,
      "Ġfunctools": 4060,
      "alidationError": 4061,
      "urlopen": 4062,
      "\"}": 4063,
      ")\\": 4064,
      ")):": 4065,
      "/{}": 4066,
      "33": 4067,
      "36": 4068,
      "88": 4069,
      "=_": 4070,
      "Action": 4071,
      "Builder": 4072,
      "Collection": 4073,
      "Hub": 4074,
      "OP": 4075,
      "WA": 4076,
      "XX": 4077,
      "[-": 4078,
      "\\'": 4079,
      "][\"": 4080,
      "bench": 4081,
      "buffer": 4082,
      "cf": 4083,
      "horiz": 4084,
      "kafka": 4085,
      "rict": 4086,
      "rules": 4087,
      "tw": 4088,
      "vt": 4089,
      "zon": 4090,
      "}.": 4091,
      "Ġet": 4092,
      "ined": 4093,
      "ination": 4094,
      "inline": 4095,
      "invalid": 4096,
      "erkzeug": 4097,
      "enable": 4098,
      "encoding": 4099,
      "enabled": 4100,
      "Ġip": 4101,
      "Ġits": 4102,
      "Ġ'{}": 4103,
      "stdin": 4104,
      "Ġfailed": 4105,
      "tho": 4106,
      "arrow": 4107,
      "Ġclo": 4108,
      "Ġcustom": 4109,
      "Ġpull": 4110,
      "ically": 4111,
      "illi": 4112,
      "acter": 4113,
      "Ġsame": 4114,
      "Ġsuf": 4115,
      "served": 4116,
      "copg": 4117,
      "edit": 4118,
      "edoc": 4119,
      "ird": 4120,
      "irflow": 4121,
      "ulus": 4122,
      "Ġresponses": 4123,
      "ids": 4124,
      "ident": 4125,
      "issing": 4126,
      "ĠTask": 4127,
      "ints": 4128,
      "ĠPub": 4129,
      "Ġ[{": 4130,
      "Ġstyle": 4131,
      "Ġstderr": 4132,
      "trace": 4133,
      "trics": 4134,
      "ĠDo": 4135,
      "umulus": 4136,
      "addr": 4137,
      "ayload": 4138,
      "part": 4139,
      "Ġnotification": 4140,
      "ITE": 4141,
      "ĠROOT": 4142,
      "Ġprofile": 4143,
      "Input": 4144,
      "Instance": 4145,
      "imer": 4146,
      "raft": 4147,
      "eci": 4148,
      "undle": 4149,
      "Example": 4150,
      "Ġmode": 4151,
      "tenant": 4152,
      "URRE": 4153,
      "cipe": 4154,
      "company": 4155,
      "ledge": 4156,
      "monitoring": 4157,
      "().__": 4158,
      "Ġxml": 4159,
      "Ġperform": 4160,
      "Ġabort": 4161,
      "Ġtrack": 4162,
      "parsers": 4163,
      "layout": 4164,
      "Ġ2014": 4165,
      "patcher": 4166,
      "azure": 4167,
      "expand": 4168,
      "Selector": 4169,
      "----------------------------------------": 4170,
      "------------------------------------------------------------------------": 4171,
      "Ġdocumentation": 4172,
      "publish": 4173,
      "ĠComment": 4174,
      "Template": 4175,
      "airs": 4176,
      "swall": 4177,
      "light": 4178,
      "bucket": 4179,
      "Ġcorehq": 4180,
      "Auto": 4181,
      "ĊĠĠĠĠĠĠĠĠĠĠĠĠĠĠ": 4182,
      "ĠSTAT": 4183,
      "ĠSECRET": 4184,
      "organizer": 4185,
      "walk": 4186,
      "ĠAttribute": 4187,
      "appengine": 4188,
      "ĠLibraries": 4189,
      "Ġsuffix": 4190,
      "umulusci": 4191,
      "([\"": 4192,
      ")\",": 4193,
      "+.\\": 4194,
      ",?": 4195,
      "27": 4196,
      "30": 4197,
      "=('": 4198,
      "CP": 4199,
      "Del": 4200,
      "Desk": 4201,
      "FRE": 4202,
      "Jo": 4203,
      "LAY": 4204,
      "MT": 4205,
      "OK": 4206,
      "Org": 4207,
      "PER": 4208,
      "Popen": 4209,
      "ROR": 4210,
      "VE": 4211,
      "With": 4212,
      "]:": 4213,
      "bag": 4214,
      "bio": 4215,
      "buildbot": 4216,
      "gun": 4217,
      "hen": 4218,
      "href": 4219,
      "mar": 4220,
      "migrate": 4221,
      "oper": 4222,
      "oogle": 4223,
      "pa": 4224,
      "sl": 4225,
      "sie": 4226,
      "tion": 4227,
      "tornado": 4228,
      "uck": 4229,
      "ually": 4230,
      "vx": 4231,
      "wrapper": 4232,
      "zes": 4233,
      "Ã¶": 4234,
      "Ġengine": 4235,
      "Ġattrs": 4236,
      "Ġheader": 4237,
      "Ġadded": 4238,
      "ern": 4239,
      "ences": 4240,
      "Ġfetch": 4241,
      "Ġfamily": 4242,
      "thedoc": 4243,
      "arative": 4244,
      "Ġpprint": 4245,
      "itop": 4246,
      "Ġtwo": 4247,
      "utable": 4248,
      "Ġdrop": 4249,
      "Ġregion": 4250,
      "Ġsleep": 4251,
      "ĠAuthor": 4252,
      "ĠAccount": 4253,
      "()),": 4254,
      "experiment": 4255,
      "Ġ#:": 4256,
      "RERG": 4257,
      "live": 4258,
      "ola": 4259,
      "Ġsetting": 4260,
      "'].": 4261,
      "ĠCH": 4262,
      "ĠCloud": 4263,
      "ĠPri": 4264,
      "(\"%": 4265,
      "usion": 4266,
      "Ġconstants": 4267,
      "tob": 4268,
      "plural": 4269,
      "Ġstop": 4270,
      "heat": 4271,
      "ĠDoc": 4272,
      "Ġexit": 4273,
      "domo": 4274,
      "readthedoc": 4275,
      "Ġ16": 4276,
      "ourse": 4277,
      "emann": 4278,
      "Ġapplic": 4279,
      "bootstrap": 4280,
      "iple": 4281,
      "filters": 4282,
      "oci": 4283,
      "fov": 4284,
      "foli": 4285,
      "atcher": 4286,
      "uilt": 4287,
      "Ġpypandoc": 4288,
      "ared": 4289,
      "ialized": 4290,
      "classes": 4291,
      "Mock": 4292,
      "dictionary": 4293,
      "website": 4294,
      "discover": 4295,
      "Ġensure": 4296,
      "Ġenumerate": 4297,
      "UserNotification": 4298,
      "scrap": 4299,
      "Ġlive": 4300,
      "Ġvalidator": 4301,
      "Ġnumbers": 4302,
      "transport": 4303,
      "HEAD": 4304,
      "StringProperty": 4305,
      "Ġresources": 4306,
      "Ġ2016": 4307,
      "GEX": 4308,
      "ĠAll": 4309,
      "ĠStringIO": 4310,
      "(_('": 4311,
      "Ġ60": 4312,
      "ĠServer": 4313,
      "ĠService": 4314,
      "PAY": 4315,
      "PARERG": 4316,
      "TIONS": 4317,
      "opts": 4318,
      "IntegerField": 4319,
      "digest": 4320,
      "DetailView": 4321,
      "mkdir": 4322,
      "rensie": 4323,
      "Ġcharacters": 4324,
      "Ġtyping": 4325,
      "GOOG": 4326,
      "Ġexisting": 4327,
      "ponsor": 4328,
      "Ġorigin": 4329,
      "QuerySet": 4330,
      "Document": 4331,
      "ancy": 4332,
      "ContentType": 4333,
      "SCRIPT": 4334,
      "Ġskip": 4335,
      "Ġcursor": 4336,
      "halo": 4337,
      "ramid": 4338,
      "LOWED": 4339,
      "ĠRedis": 4340,
      "Ġdecimal": 4341,
      "Variable": 4342,
      "uplicate": 4343,
      "Ġpandas": 4344,
      "ENABLED": 4345,
      "itopes": 4346,
      "readthedocs": 4347,
      "PARERGA": 4348,
      "++": 4349,
      "-\\": 4350,
      "1000": 4351,
      "21": 4352,
      "29": 4353,
      "200": 4354,
      "79": 4355,
      "AV": 4356,
      "Cell": 4357,
      "Daemon": 4358,
      "From": 4359,
      "Fix": 4360,
      "HTML": 4361,
      "JAN": 4362,
      "Row": 4363,
      "SH": 4364,
      "Ste": 4365,
      "Task": 4366,
      "Tree": 4367,
      "YAML": 4368,
      "amount": 4369,
      "bre": 4370,
      "bit": 4371,
      "card": 4372,
      "capt": 4373,
      "cale": 4374,
      "cumulusci": 4375,
      "dit": 4376,
      "duration": 4377,
      "ek": 4378,
      "ez": 4379,
      "gz": 4380,
      "hr": 4381,
      "ij": 4382,
      "just": 4383,
      "kno": 4384,
      "language": 4385,
      "lator": 4386,
      "lename": 4387,
      "pp": 4388,
      "resp": 4389,
      "ucket": 4390,
      "ves": 4391,
      "vcs": 4392,
      "wt": 4393,
      "zilla": 4394,
      "sec": 4395,
      "seed": 4396,
      "inn": 4397,
      "eras": 4398,
      "ereci": 4399,
      "reg": 4400,
      "redirect": 4401,
      "registry": 4402,
      "rows": 4403,
      "Ġimages": 4404,
      "deb": 4405,
      "ank": 4406,
      "anine": 4407,
      "arwin": 4408,
      "Ġcst": 4409,
      "Ġpub": 4410,
      "geo": 4411,
      "Ġtmp": 4412,
      "Ġtaint": 4413,
      "ico": 4414,
      "icle": 4415,
      "Ġdump": 4416,
      "Ġswitch": 4417,
      "Ġairflow": 4418,
      "elved": 4419,
      "\"\",": 4420,
      "ĠBo": 4421,
      "ĠBlueprint": 4422,
      "child": 4423,
      "FOLD": 4424,
      "olve": 4425,
      "ĊĠĠĠĠĠĠĠĠĠĠĠĠĠ": 4426,
      "Ġbo": 4427,
      "Ġbuffer": 4428,
      "Ġwant": 4429,
      "Ġwerkzeug": 4430,
      "ĠSnapshot": 4431,
      "Ġlast": 4432,
      "ector": 4433,
      "ĠType": 4434,
      "(\"#": 4435,
      "(\"-": 4436,
      "uble": 4437,
      "profiles": 4438,
      "Ġmy": 4439,
      "Ġmer": 4440,
      "Ġmrb": 4441,
      "Ġ[])": 4442,
      "pep": 4443,
      "today": 4444,
      "-----": 4445,
      "Ġstore": 4446,
      "tra": 4447,
      "=\"/": 4448,
      "Ġ((": 4449,
      "tempt": 4450,
      "ĠIter": 4451,
      "ĠMongo": 4452,
      "Ġ123": 4453,
      "Provider": 4454,
      "igcat": 4455,
      "cessary": 4456,
      "ĠResult": 4457,
      "TestSuite": 4458,
      "Ġinstalled": 4459,
      "sess": 4460,
      "assertions": 4461,
      "endar": 4462,
      "ebug": 4463,
      "INSTALLED": 4464,
      "basename": 4465,
      "cludes": 4466,
      "ĠGPIO": 4467,
      "udget": 4468,
      "Ġpytz": 4469,
      "Ġcoun": 4470,
      "Ġcoverage": 4471,
      "Ġannot": 4472,
      "ĠInvalid": 4473,
      "processing": 4474,
      "ĠTesting": 4475,
      "Ġsubject": 4476,
      "csrf": 4477,
      "Stat": 4478,
      "ANS": 4479,
      "yntax": 4480,
      "computer": 4481,
      "linux": 4482,
      "webapp": 4483,
      "cesses": 4484,
      "have": 4485,
      "roll": 4486,
      "Ġuuid": 4487,
      "ava": 4488,
      "ious": 4489,
      "player": 4490,
      "players": 4491,
      "Ġbased": 4492,
      "dflib": 4493,
      "Ġcmdclass": 4494,
      "sumer": 4495,
      "All": 4496,
      "Ġstats": 4497,
      "weight": 4498,
      "ĠConfiguration": 4499,
      "Ġdirectories": 4500,
      "green": 4501,
      "Update": 4502,
      "rooms": 4503,
      "generate": 4504,
      "Ġauthentication": 4505,
      "Ġtags": 4506,
      "(_(\"": 4507,
      "Ġpossible": 4508,
      "zzanine": 4509,
      "Authentication": 4510,
      "Down": 4511,
      "culate": 4512,
      "ifferent": 4513,
      "widget": 4514,
      "================================": 4515,
      "Order": 4516,
      "Ġtypes": 4517,
      "MODE": 4518,
      "scheduler": 4519,
      "Ġgeo": 4520,
      "Ġoriginal": 4521,
      "virtool": 4522,
      "ĠMAIL": 4523,
      "ĠSQLALCHEMY": 4524,
      "crypto": 4525,
      "ĠScience": 4526,
      "euro": 4527,
      "ĠPermission": 4528,
      "rousel": 4529,
      "ĠDATABASES": 4530,
      "Ġhashlib": 4531,
      "BACKEND": 4532,
      "StorageAdapter": 4533,
      "URRENT": 4534,
      "JANGO": 4535,
      "Ġtainted": 4536,
      "elvedereci": 4537,
      "FOLDER": 4538,
      "Ġmrbelvedereci": 4539,
      "'re": 4540,
      "+\"": 4541,
      "/')": 4542,
      "89": 4543,
      "><": 4544,
      "Be": 4545,
      "Cos": 4546,
      "Cloud": 4547,
      "EE": 4548,
      "Fail": 4549,
      "FFIX": 4550,
      "GER": 4551,
      "IZ": 4552,
      "If": 4553,
      "Loc": 4554,
      "Mic": 4555,
      "Met": 4556,
      "MIN": 4557,
      "Master": 4558,
      "OF": 4559,
      "Package": 4560,
      "Please": 4561,
      "Rule": 4562,
      "Sub": 4563,
      "Script": 4564,
      "Tag": 4565,
      "Title": 4566,
      "UP": 4567,
      "Worm": 4568,
      "You": 4569,
      "ains": 4570,
      "ben": 4571,
      "cro": 4572,
      "ced": 4573,
      "called": 4574,
      "dp": 4575,
      "fon": 4576,
      "flat": 4577,
      "faces": 4578,
      "ga": 4579,
      "game": 4580,
      "gers": 4581,
      "gtf": 4582,
      "hl": 4583,
      "iel": 4584,
      "iod": 4585,
      "kom": 4586,
      "mq": 4587,
      "mat": 4588,
      "mong": 4589,
      "nx": 4590,
      "ole": 4591,
      "social": 4592,
      "tri": 4593,
      "ving": 4594,
      "vate": 4595,
      "xls": 4596,
      "yper": 4597,
      "~/.": 4598,
      "ĊĊĠĠĠĠĠĠĠĠĠĠĠ": 4599,
      "Ġquestion": 4600,
      "Ġkeep": 4601,
      "ended": 4602,
      "regex": 4603,
      "revision": 4604,
      "roler": 4605,
      "Ġ'$": 4606,
      "Ġ'{": 4607,
      "ances": 4608,
      "storage": 4609,
      "Ġfn": 4610,
      "Ġfol": 4611,
      "asqu": 4612,
      "met": 4613,
      "Ġcalled": 4614,
      "Ġpop": 4615,
      "Ġpattern": 4616,
      "Ġ\"{": 4617,
      "__('": 4618,
      "Ġdur": 4619,
      "Ġreset": 4620,
      "Ġreply": 4621,
      "Ġregistry": 4622,
      "Ġsim": 4623,
      "Ġsign": 4624,
      "Ġsync": 4625,
      "Ġsources": 4626,
      "Ġsingle": 4627,
      "ĠAs": 4628,
      "Ġdefined": 4629,
      "codes": 4630,
      "couch": 4631,
      "fire": 4632,
      "()[": 4633,
      "Ġintegration": 4634,
      "ctime": 4635,
      "Ġaf": 4636,
      "REGEX": 4637,
      "ĠBack": 4638,
      "ERY": 4639,
      "ERROR": 4640,
      "upload": 4641,
      "iring": 4642,
      "andid": 4643,
      "ulate": 4644,
      "getattr": 4645,
      "Ġnon": 4646,
      "Ġnargs": 4647,
      "Ġwin": 4648,
      "ĠSup": 4649,
      "ĠSimple": 4650,
      "ĠSponsor": 4651,
      "idx": 4652,
      "ecture": 4653,
      "etter": 4654,
      "ĠTime": 4655,
      "ĠToken": 4656,
      "ĠLink": 4657,
      "comment": 4658,
      "commun": 4659,
      "Ġmarionette": 4660,
      "Ġste": 4661,
      "maildir": 4662,
      "ĠDist": 4663,
      "ummary": 4664,
      "team": 4665,
      "power": 4666,
      "Ġgrid": 4667,
      "ĠFound": 4668,
      "readlines": 4669,
      "parameters": 4670,
      "controler": 4671,
      "Ġ100": 4672,
      "Provides": 4673,
      "Ġeval": 4674,
      "Ġeach": 4675,
      "Ġproduction": 4676,
      "ipedia": 4677,
      "libc": 4678,
      "jsonrpc": 4679,
      "ducer": 4680,
      "assertIn": 4681,
      "Ġdecode": 4682,
      "formatter": 4683,
      "djangoproject": 4684,
      "dateutil": 4685,
      "udp": 4686,
      "credentials": 4687,
      "mlab": 4688,
      "lybot": 4689,
      "Ġanal": 4690,
      "collector": 4691,
      "spon": 4692,
      "states": 4693,
      "compiler": 4694,
      "Configuration": 4695,
      "sudo": 4696,
      "Ġenviron": 4697,
      "ives": 4698,
      "Ġrout": 4699,
      "validator": 4700,
      "ALITY": 4701,
      "hael": 4702,
      "Ġprepare": 4703,
      "ACHE": 4704,
      "ACCESS": 4705,
      "Ġ<=": 4706,
      "rigger": 4707,
      "DataSource": 4708,
      "Ġsock": 4709,
      "rontab": 4710,
      "ĠDataSet": 4711,
      "pipe": 4712,
      "Ġjust": 4713,
      "distribut": 4714,
      "Copyright": 4715,
      "ĠDEFAULT": 4716,
      "Ġusage": 4717,
      "expected": 4718,
      "pkm": 4719,
      "vertica": 4720,
      "Ġleg": 4721,
      "CONFIG": 4722,
      "Chris": 4723,
      "curs": 4724,
      "[:-": 4725,
      "spectus": 4726,
      "puzzle": 4727,
      "choices": 4728,
      "UND": 4729,
      "repository": 4730,
      "Ġenter": 4731,
      "specific": 4732,
      "2016": 4733,
      "office": 4734,
      "Ġthreading": 4735,
      "Ġclimlab": 4736,
      "timestamp": 4737,
      "SUFFIX": 4738,
      "Worker": 4739,
      "Member": 4740,
      "wards": 4741,
      "ircu": 4742,
      "MODULES": 4743,
      "virtual": 4744,
      "Ġoptparse": 4745,
      "robb": 4746,
      "ĠCharField": 4747,
      "STATUS": 4748,
      "Linear": 4749,
      "country": 4750,
      "SERVER": 4751,
      "ilarities": 4752,
      "Ġcontaining": 4753,
      "ĠGitHub": 4754,
      "SQLAlchemy": 4755,
      "bibpy": 4756,
      "clear": 4757,
      "ĠOptional": 4758,
      "Decimal": 4759,
      "Ġdevelopment": 4760,
      "detector": 4761,
      "upyter": 4762,
      "desktop": 4763,
      "ĠModel": 4764,
      "Ġanswer": 4765,
      ",?,?": 4766,
      "Delta": 4767,
      "Cosmo": 4768,
      "fonts": 4769,
      "Ġfollow": 4770,
      "asquer": 4771,
      "controleren": 4772,
      "'/": 4773,
      "96": 4774,
      ":'": 4775,
      ":',": 4776,
      "?\\": 4777,
      "As": 4778,
      "FY": 4779,
      "LIN": 4780,
      "LACK": 4781,
      "NG": 4782,
      "NOT": 4783,
      "Neuro": 4784,
      "PR": 4785,
      "RA": 4786,
      "RU": 4787,
      "Th": 4788,
      "Write": 4789,
      "Widget": 4790,
      "bc": 4791,
      "bl": 4792,
      "bmc": 4793,
      "cy": 4794,
      "dd": 4795,
      "dr": 4796,
      "dic": 4797,
      "hex": 4798,
      "mtime": 4799,
      "menu": 4800,
      "pas": 4801,
      "png": 4802,
      "sue": 4803,
      "wx": 4804,
      "warning": 4805,
      "ways": 4806,
      "}/": 4807,
      "Ġ):": 4808,
      "Ġargv": 4809,
      "Ġattributes": 4810,
      "security": 4811,
      "onate": 4812,
      "onents": 4813,
      "erm": 4814,
      "ernal": 4815,
      "rep": 4816,
      "decl": 4817,
      "anal": 4818,
      "asctime": 4819,
      "Ġput": 4820,
      "Ġ\"{}": 4821,
      "icial": 4822,
      "aco": 4823,
      "ĠAn": 4824,
      "()))": 4825,
      "ctx": 4826,
      "Ġawait": 4827,
      "Ġ#'": 4828,
      "quot": 4829,
      "ĠBuild": 4830,
      "lim": 4831,
      "aging": 4832,
      "cean": 4833,
      "Ġnl": 4834,
      "Ġbench": 4835,
      "Ġwt": 4836,
      "Ġwriter": 4837,
      "Ġworld": 4838,
      "Ġthey": 4839,
      "isfile": 4840,
      "Ġlabel": 4841,
      "abstract": 4842,
      "ĠCa": 4843,
      "ĠLocal": 4844,
      "ĠPO": 4845,
      "verter": 4846,
      "protocol": 4847,
      "ĠID": 4848,
      "datamodel": 4849,
      "ĠManager": 4850,
      "ĠNo": 4851,
      "versioneer": 4852,
      "classifiers": 4853,
      "ĠField": 4854,
      "permissions": 4855,
      "configuration": 4856,
      "Ġprompt": 4857,
      "Ġproduct": 4858,
      "Ġprovides": 4859,
      "Ġdecor": 4860,
      "endor": 4861,
      "timeError": 4862,
      "found": 4863,
      "Ġ30": 4864,
      "Research": 4865,
      "Extension": 4866,
      "Ġstrings": 4867,
      "ixins": 4868,
      "samples": 4869,
      "DESCRIP": 4870,
      "Ġobtain": 4871,
      "ANEL": 4872,
      "Ġ{}\".": 4873,
      "Ġzope": 4874,
      "validators": 4875,
      "disable": 4876,
      "Ġchat": 4877,
      "ACE": 4878,
      "eplo": 4879,
      "ASSE": 4880,
      "Database": 4881,
      "DataRequired": 4882,
      "ĊĠĠĠĠĠĠĠĠĠĠĠĠĠĠĠĠĠĠĠĠĠĠĠĠĠĠĠĠ": 4883,
      "ĊĠĠĠĠĠĠĠĠĠĠĠĠĠĠĠĠĠĠĠĠĠĠĠĠĠĠĠĠĠĠĠĠĠĠĠĠĠĠĠĠ": 4884,
      "laybook": 4885,
      "Ġjob": 4886,
      "Ġrestart": 4887,
      "Ġhandlers": 4888,
      "RANS": 4889,
      "256": 4890,
      "pidy": 4891,
      "sorted": 4892,
      "Ġdispatcher": 4893,
      "Ġcomment": 4894,
      "tarball": 4895,
      "Ġmodified": 4896,
      "AdapterMethod": 4897,
      "Processor": 4898,
      "visible": 4899,
      "Temp": 4900,
      "pandas": 4901,
      "scope": 4902,
      "Ġfeincms": 4903,
      "Ġgevent": 4904,
      "ĠUpdate": 4905,
      ">[\\": 4906,
      "Ġtrain": 4907,
      "Ġserializer": 4908,
      "Ġsudo": 4909,
      "scriber": 4910,
      "scribe": 4911,
      "Ġsymbol": 4912,
      "Redirect": 4913,
      "scrapi": 4914,
      "developers": 4915,
      "gnore": 4916,
      "NotFoundError": 4917,
      "BooleanField": 4918,
      "PREFIX": 4919,
      "ropout": 4920,
      "Strategy": 4921,
      "Ġafter": 4922,
      "ĠFoundation": 4923,
      "NeuroML": 4924,
      "DESCRIPTION": 4925,
      "AdapterMethodNotImplementedError": 4926,
      "!\")": 4927,
      "\"+": 4928,
      "\"/": 4929,
      "(('": 4930,
      ")'": 4931,
      ")[": 4932,
      ",-": 4933,
      "-]+)": 4934,
      "43": 4935,
      "60": 4936,
      "AA": 4937,
      "And": 4938,
      "BIN": 4939,
      "CEL": 4940,
      "DF": 4941,
      "Dis": 4942,
      "EST": 4943,
      "IG": 4944,
      "Map": 4945,
      "Make": 4946,
      "One": 4947,
      "SV": 4948,
      "Sp": 4949,
      "VI": 4950,
      "Wait": 4951,
      "Window": 4952,
      "]}": 4953,
      "]['": 4954,
      "]))": 4955,
      "ao": 4956,
      "aq": 4957,
      "aws": 4958,
      "audio": 4959,
      "ba": 4960,
      "bos": 4961,
      "batch": 4962,
      "beta": 4963,
      "bservable": 4964,
      "cen": 4965,
      "craft": 4966,
      "dk": 4967,
      "dart": 4968,
      "div": 4969,
      "empty": 4970,
      "gl": 4971,
      "gments": 4972,
      "lap": 4973,
      "mac": 4974,
      "nor": 4975,
      "oom": 4976,
      "rust": 4977,
      "sage": 4978,
      "sms": 4979,
      "sci": 4980,
      "switch": 4981,
      "tile": 4982,
      "tice": 4983,
      "uzz": 4984,
      "va": 4985,
      "vies": 4986,
      "well": 4987,
      "ym": 4988,
      "zinc": 4989,
      "Ġ$": 4990,
      "Ġact": 4991,
      "onS": 4992,
      "inus": 4993,
      "ering": 4994,
      "esh": 4995,
      "enge": 4996,
      "retry": 4997,
      "registration": 4998,
      "recurs": 4999,
      "roy": 5000,
      "roid": 5001,
      "routes": 5002,
      "Ġim": 5003,
      "Ġignore": 5004,
      "dem": 5005,
      "Ġ',": 5006,
      "Ġ'<": 5007,
      "sth": 5008,
      "Ġframework": 5009,
      "aron": 5010,
      "alm": 5011,
      "aler": 5012,
      "asm": 5013,
      "ascript": 5014,
      "asyncio": 5015,
      "Ġcs": 5016,
      "Ġcwd": 5017,
      "Ġcpu": 5018,
      "Ġpd": 5019,
      "Ġplayer": 5020,
      "urs": 5021,
      "urve": 5022,
      "itize": 5023,
      "Ġtc": 5024,
      "Ġ\"\\": 5025,
      "Ġ\"_": 5026,
      "icsearch": 5027,
      "__:": 5028,
      "utc": 5029,
      "Ġreg": 5030,
      "Ġremo": 5031,
      "Ġreplace": 5032,
      "Ġreactor": 5033,
      "Ġsi": 5034,
      "Ġsha": 5035,
      "ĠAns": 5036,
      "Ġdefine": 5037,
      "fiber": 5038,
      "unif": 5039,
      "()]": 5040,
      "ripe": 5041,
      "Ġamp": 5042,
      "Ġagre": 5043,
      "Ġamount": 5044,
      "ĠBe": 5045,
      "chris": 5046,
      "ircul": 5047,
      "anda": 5048,
      "andbox": 5049,
      "agic": 5050,
      "getvalue": 5051,
      "olor": 5052,
      "Ġraster": 5053,
      "tures": 5054,
      "otgun": 5055,
      "Ġbug": 5056,
      "Ġbrowser": 5057,
      "Ġvx": 5058,
      "urlresolvers": 5059,
      "Ġwid": 5060,
      "Ġwhe": 5061,
      "Ġwrap": 5062,
      "ami": 5063,
      "ison": 5064,
      "isual": 5065,
      "Ġlaw": 5066,
      "cribe": 5067,
      "ĠTo": 5068,
      "ĠTree": 5069,
      "ĠTSURU": 5070,
      "abet": 5071,
      "Ġ\"\"\")": 5072,
      "ĠPassword": 5073,
      "istics": 5074,
      "ĊĊĊ": 5075,
      "extra": 5076,
      "Ġtoday": 5077,
      "Ġmiddleware": 5078,
      "pline": 5079,
      "Ġstations": 5080,
      "uman": 5081,
      "Ġoslo": 5082,
      "Ġhar": 5083,
      "Ġhow": 5084,
      "Ġhook": 5085,
      "Ġhigh": 5086,
      "ĠMem": 5087,
      "ĠMessage": 5088,
      "ĠMailer": 5089,
      "ONG": 5090,
      "ryn": 5091,
      "META": 5092,
      "Ġ_(\"": 5093,
      "ĠRes": 5094,
      "ĠEmail": 5095,
      "apping": 5096,
      "Ġdatasets": 5097,
      "TestRunner": 5098,
      "Ġdelete": 5099,
      "Ġparam": 5100,
      "Ġparsing": 5101,
      "portinus": 5102,
      "some": 5103,
      "ĠGroup": 5104,
      "used": 5105,
      "cheme": 5106,
      "locale": 5107,
      "works": 5108,
      "Export": 5109,
      "Examples": 5110,
      "ĠIndex": 5111,
      "collect": 5112,
      "Ġkeyword": 5113,
      "ĠTests": 5114,
      "Ġmean": 5115,
      "ĠApi": 5116,
      "organization": 5117,
      "presen": 5118,
      "testsuite": 5119,
      "compute": 5120,
      "Ġbytes": 5121,
      "Ġcreating": 5122,
      "lattice": 5123,
      "Ġwhat": 5124,
      "internal": 5125,
      "ĠRegistration": 5126,
      "Ġpredict": 5127,
      "atted": 5128,
      "illing": 5129,
      "epitopes": 5130,
      "ABLE": 5131,
      "Api": 5132,
      "Login": 5133,
      "avascript": 5134,
      "ĠSystemExit": 5135,
      "ĠBaseHTTP": 5136,
      "itional": 5137,
      "={'':": 5138,
      "Ġcontextlib": 5139,
      "functions": 5140,
      "+)'": 5141,
      "+)/$',": 5142,
      "HERE": 5143,
      "akes": 5144,
      "Ġrenderer": 5145,
      "facebook": 5146,
      "sors": 5147,
      "Ġautodoc": 5148,
      "Ġupgrade": 5149,
      "phabet": 5150,
      "Alpha": 5151,
      "Ġ>>>": 5152,
      "ideo": 5153,
      "Ġatlas": 5154,
      "Ġdictionary": 5155,
      "svn": 5156,
      "greg": 5157,
      "ĠUnless": 5158,
      "PyYAML": 5159,
      "Ġcallback": 5160,
      "ĠStringField": 5161,
      "Ġdocuments": 5162,
      "Ġscr": 5163,
      "what": 5164,
      "where": 5165,
      "Ġordering": 5166,
      "Ġmanagement": 5167,
      "width": 5168,
      "canvas": 5169,
      "TYPE": 5170,
      "THON": 5171,
      "PLANS": 5172,
      "rtd": 5173,
      "ĠTEMPLATE": 5174,
      "ĠREST": 5175,
      "omaton": 5176,
      "Permission": 5177,
      "allowed": 5178,
      "ReadOnly": 5179,
      "Ġdelay": 5180,
      "Ġoffset": 5181,
      "CreateModel": 5182,
      "DocType": 5183,
      "Ġbinary": 5184,
      "bsdetector": 5185,
      "ĠCharacter": 5186,
      "Ġmulti": 5187,
      "ĠGraphics": 5188,
      "ĠKeyError": 5189,
      "ĠAdminConfig": 5190,
      "Ġpipeline": 5191,
      "verything": 5192,
      "Ġexecutable": 5193,
      "skyfield": 5194,
      "Ġexports": 5195,
      "realpath": 5196,
      "Ġitertools": 5197,
      "Ġdeprecated": 5198,
      "Soup": 5199,
      "Engineering": 5200,
      "autifulSoup": 5201,
      "Feature": 5202,
      "azurectl": 5203,
      "ĠSTATUS": 5204,
      "Ġapplicable": 5205,
      "HEADER": 5206,
      "PAYMENTS": 5207,
      "Ġpublish": 5208,
      "MODEL": 5209,
      "ĠBackdrop": 5210,
      "robbler": 5211,
      "Ġwtforms": 5212,
      "uniform": 5213,
      "Ġagreed": 5214,
      "ircular": 5215,
      "'})": 5216,
      ",'": 5217,
      "44": 5218,
      "45": 5219,
      "5000": 5220,
      "></": 5221,
      "AST": 5222,
      "Cannot": 5223,
      "Frame": 5224,
      "Git": 5225,
      "It": 5226,
      "IPS": 5227,
      "Length": 5228,
      "Local": 5229,
      "Num": 5230,
      "Network": 5231,
      "Su": 5232,
      "Some": 5233,
      "SConnection": 5234,
      "Value": 5235,
      "bool": 5236,
      "bble": 5237,
      "blank": 5238,
      "cd": 5239,
      "city": 5240,
      "dot": 5241,
      "dyn": 5242,
      "ei": 5243,
      "eq": 5244,
      "ebook": 5245,
      "ealth": 5246,
      "ftime": 5247,
      "ffix": 5248,
      "hello": 5249,
      "iot": 5250,
      "mixins": 5251,
      "none": 5252,
      "nail": 5253,
      "rat": 5254,
      "respon": 5255,
      "san": 5256,
      "venv": 5257,
      "voc": 5258,
      "way": 5259,
      "week": 5260,
      "xb": 5261,
      "ydebugger": 5262,
      "Ġ,": 5263,
      "Ġ?": 5264,
      "Ġsel": 5265,
      "Ġerr": 5266,
      "Ġloaded": 5267,
      "Ġattribute": 5268,
      "orary": 5269,
      "inspect": 5270,
      "enance": 5271,
      "ensor": 5272,
      "remote": 5273,
      "deg": 5274,
      "demo": 5275,
      "Ġ'_": 5276,
      "stm": 5277,
      "stropy": 5278,
      "stock": 5279,
      "Ġfr": 5280,
      "Ġfolder": 5281,
      "metrics": 5282,
      "Ġpin": 5283,
      "Ġpad": 5284,
      "urb": 5285,
      "gevent": 5286,
      "Ġ\"\"": 5287,
      "Ġdm": 5288,
      "Ġdin": 5289,
      "Ġdtype": 5290,
      "Ġduration": 5291,
      "Ġsw": 5292,
      "Ġsil": 5293,
      "Ġsco": 5294,
      "Ġsay": 5295,
      "Ġsix": 5296,
      "Ġsocial": 5297,
      "seract": 5298,
      "Ġdefinition": 5299,
      "cod": 5300,
      "uni": 5301,
      "()}": 5302,
      "()):": 5303,
      "Ġinspect": 5304,
      "setattr": 5305,
      "Ġam": 5306,
      "REC": 5307,
      "ĠBot": 5308,
      "ĠBASE": 5309,
      "')]": 5310,
      "mozilla": 5311,
      "Ġthen": 5312,
      "agma": 5313,
      "constants": 5314,
      "consumer": 5315,
      "getters": 5316,
      "Ġnormal": 5317,
      "Ġbundle": 5318,
      "Ġwell": 5319,
      "Ġthese": 5320,
      "'][": 5321,
      "pyfile": 5322,
      "versed": 5323,
      "istance": 5324,
      "usError": 5325,
      "logs": 5326,
      "Ġmat": 5327,
      "Ġmgr": 5328,
      "Ġmigrate": 5329,
      "peer": 5330,
      "pebble": 5331,
      "Ġurls": 5332,
      "trail": 5333,
      "ĠDummy": 5334,
      "tech": 5335,
      "Ġnamed": 5336,
      "Ġhg": 5337,
      "Ġexpo": 5338,
      "Ġexception": 5339,
      "ONE": 5340,
      "izard": 5341,
      "docker": 5342,
      "typing": 5343,
      "ured": 5344,
      "initial": 5345,
      "minal": 5346,
      "Info": 5347,
      "Ġ['-": 5348,
      "sessions": 5349,
      "assertFalse": 5350,
      "Context": 5351,
      "based": 5352,
      "ship": 5353,
      "sof": 5354,
      "cluding": 5355,
      "Ġconfigparser": 5356,
      "Ġpymongo": 5357,
      "binary": 5358,
      "unds": 5359,
      "ĠInput": 5360,
      "={}": 5361,
      "clause": 5362,
      "DESC": 5363,
      "ignments": 5364,
      "present": 5365,
      "Start": 5366,
      "forge": 5367,
      "Ġdistance": 5368,
      "component": 5369,
      "sule": 5370,
      "suffix": 5371,
      "monitor": 5372,
      "latform": 5373,
      "ĠExample": 5374,
      "dispatch": 5375,
      "Ġcontroller": 5376,
      "levelname": 5377,
      "ROM": 5378,
      "Ġuseful": 5379,
      "Ġtimezone": 5380,
      "subject": 5381,
      "Ġenable": 5382,
      "news": 5383,
      "newswall": 5384,
      "URLCONF": 5385,
      "sedfit": 5386,
      "``.": 5387,
      "Ġbases": 5388,
      "Ġresolve": 5389,
      "Ġ2013": 5390,
      "Ġgoverned": 5391,
      "Ġhandles": 5392,
      "Controller": 5393,
      "Ġlex": 5394,
      "ĠUnion": 5395,
      "Ġdirnames": 5396,
      "Ġdisable": 5397,
      "Ġtasks": 5398,
      "Ġwebsite": 5399,
      "downloads": 5400,
      "handle": 5401,
      "Ġoperation": 5402,
      "(\"/\")": 5403,
      "structure": 5404,
      "licenses": 5405,
      "ĠHttpResponseRedirect": 5406,
      "accounts": 5407,
      "Ġsentry": 5408,
      "related": 5409,
      "TAG": 5410,
      "Ġbackend": 5411,
      "plications": 5412,
      "CHAN": 5413,
      "Ġcompletion": 5414,
      "Ġutility": 5415,
      "ĠChat": 5416,
      "cpp": 5417,
      "ontal": 5418,
      "flags": 5419,
      "Delete": 5420,
      "Ġsafe": 5421,
      "Intercept": 5422,
      "Execution": 5423,
      "Ġlocation": 5424,
      "ĠThread": 5425,
      "ponydebugger": 5426,
      "Ġmonitoring": 5427,
      "ĠModules": 5428,
      "Expectations": 5429,
      "healthcheck": 5430,
      "Ġscrapy": 5431,
      "ĠSQLAlchemy": 5432,
      "global": 5433,
      "cookie": 5434,
      "Generate": 5435,
      "Sitemap": 5436,
      "ufflinks": 5437,
      "Ġnecessary": 5438,
      "scalars": 5439,
      "gorith": 5440,
      "ĠContentType": 5441,
      "WARE": 5442,
      "ĠDocument": 5443,
      "GOOGLE": 5444,
      "known": 5445,
      "innia": 5446,
      "Ġrouters": 5447,
      "passth": 5448,
      "eploy": 5449,
      "sedfitter": 5450,
      "passthrough": 5451,
      "(\\": 5452,
      "(|": 5453,
      "(.*": 5454,
      "*'": 5455,
      "06": 5456,
      "08": 5457,
      "400": 5458,
      "85": 5459,
      "91": 5460,
      "93": 5461,
      ":%": 5462,
      ":\")": 5463,
      "<=[": 5464,
      ">'": 5465,
      ">.": 5466,
      "Ag": 5467,
      "Alex": 5468,
      "BS": 5469,
      "CD": 5470,
      "Cl": 5471,
      "CRIP": 5472,
      "Campa": 5473,
      "Category": 5474,
      "CACHE": 5475,
      "DO": 5476,
      "DJANGO": 5477,
      "FE": 5478,
      "FIC": 5479,
      "GDC": 5480,
      "Hand": 5481,
      "IRE": 5482,
      "Lib": 5483,
      "Link": 5484,
      "My": 5485,
      "Markdown": 5486,
      "NCI": 5487,
      "Pi": 5488,
      "Print": 5489,
      "Schema": 5490,
      "TAR": 5491,
      "Target": 5492,
      "UM": 5493,
      "ValidationError": 5494,
      "WAR": 5495,
      "Wrapper": 5496,
      "Za": 5497,
      "_.": 5498,
      "ae": 5499,
      "afer": 5500,
      "cent": 5501,
      "cdis": 5502,
      "cach": 5503,
      "candid": 5504,
      "draw": 5505,
      "dummy": 5506,
      "eit": 5507,
      "fab": 5508,
      "final": 5509,
      "factions": 5510,
      "faq": 5511,
      "gest": 5512,
      "hub": 5513,
      "history": 5514,
      "iate": 5515,
      "ius": 5516,
      "iable": 5517,
      "jir": 5518,
      "jupyter": 5519,
      "jaco": 5520,
      "kind": 5521,
      "kimo": 5522,
      "linter": 5523,
      "mC": 5524,
      "masquer": 5525,
      "nes": 5526,
      "nment": 5527,
      "nick": 5528,
      "owner": 5529,
      "pv": 5530,
      "pus": 5531,
      "pboard": 5532,
      "push": 5533,
      "rnn": 5534,
      "sf": 5535,
      "sin": 5536,
      "side": 5537,
      "slybot": 5538,
      "uled": 5539,
      "wm": 5540,
      "wel": 5541,
      "window": 5542,
      "yatt": 5543,
      "yze": 5544,
      "|\"": 5545,
      "}:": 5546,
      "Ġ).": 5547,
      "Ġlocalhost": 5548,
      "Ġdelta": 5549,
      "see": 5550,
      "ony": 5551,
      "invoke": 5552,
      "erp": 5553,
      "erator": 5554,
      "esome": 5555,
      "esforce": 5556,
      "atos": 5557,
      "revi": 5558,
      "rove": 5559,
      "Ġion": 5560,
      "Ġ''.": 5561,
      "aniel": 5562,
      "Ġfake": 5563,
      "Ġimportlib": 5564,
      "alesforce": 5565,
      "Ġcame": 5566,
      "Ġcap": 5567,
      "Ġcart": 5568,
      "Ġcloud": 5569,
      "Ġcurrency": 5570,
      "Ġpe": 5571,
      "romium": 5572,
      "ests": 5573,
      "itialize": 5574,
      "Ġtri": 5575,
      "Ġtts": 5576,
      "Ġ\"+": 5577,
      "icem": 5578,
      "ingest": 5579,
      "ingred": 5580,
      "utdown": 5581,
      "ented": 5582,
      "ility": 5583,
      "acy": 5584,
      "acOS": 5585,
      "Ġdim": 5586,
      "Ġdropout": 5587,
      "Ġreceiver": 5588,
      "Ġsplit": 5589,
      "Ġsnap": 5590,
      "Ġslack": 5591,
      "Ġscheme": 5592,
      "ĠAC": 5593,
      "adoc": 5594,
      "advent": 5595,
      "mako": 5596,
      "major": 5597,
      "riend": 5598,
      "riemann": 5599,
      "riented": 5600,
      "Ġinsert": 5601,
      "Ġinfile": 5602,
      "Ġinner": 5603,
      "Ġinvoke": 5604,
      "setLevel": 5605,
      "export": 5606,
      "els": 5607,
      "edInline": 5608,
      "ĠBudget": 5609,
      "('_": 5610,
      "')[": 5611,
      "lize": 5612,
      "Ġthrough": 5613,
      "chi": 5614,
      "irder": 5615,
      "anger": 5616,
      "approx": 5617,
      "Ġnd": 5618,
      "Ġnet": 5619,
      "Ġbar": 5620,
      "Ġbucket": 5621,
      "Ġvan": 5622,
      "Ġvia": 5623,
      "Ġreturned": 5624,
      "Ġwidget": 5625,
      "ĠSpec": 5626,
      "ĠSession": 5627,
      "idual": 5628,
      "isation": 5629,
      "ĠTr": 5630,
      "ĠTimer": 5631,
      "allenge": 5632,
      "ĠCustom": 5633,
      "ĠCollection": 5634,
      "prompt": 5635,
      "problem": 5636,
      "processes": 5637,
      "Ġmd": 5638,
      "Ġmongo": 5639,
      "Ġmarkdown": 5640,
      "Ġmacro": 5641,
      "Ġmissing": 5642,
      "plus": 5643,
      "places": 5644,
      "Ġstage": 5645,
      "Ġstandard": 5646,
      "umns": 5647,
      "teams": 5648,
      "Ġhour": 5649,
      "ysis": 5650,
      "ĠMark": 5651,
      "ĠMain": 5652,
      "ĠMarkdown": 5653,
      "ĠMacOS": 5654,
      "ĠNew": 5655,
      "imedia": 5656,
      "environment": 5657,
      "Ġexact": 5658,
      "ĠFil": 5659,
      "obuilder": 5660,
      "parame": 5661,
      "listen": 5662,
      "strftime": 5663,
      "Project": 5664,
      "igma": 5665,
      "Ġevel": 5666,
      "Ġ_('": 5667,
      "initialized": 5668,
      "minor": 5669,
      "ĠEN": 5670,
      "boBox": 5671,
      "library": 5672,
      "libvcs": 5673,
      "TestResult": 5674,
      "tau": 5675,
      "taw": 5676,
      "Ġ['*.": 5677,
      "imize": 5678,
      "0000": 5679,
      "Ġ%}": 5680,
      "john": 5681,
      "Ġdecl": 5682,
      "ĠUrl": 5683,
      "ĠWith": 5684,
      "ending": 5685,
      "SECON": 5686,
      "rain": 5687,
      "raig": 5688,
      "soft": 5689,
      "Ġelast": 5690,
      "STMS": 5691,
      "kwarg": 5692,
      "udy": 5693,
      "Ġcould": 5694,
      "Ġselect": 5695,
      "Ġseconds": 5696,
      "Ġbelow": 5697,
      "={}'.": 5698,
      "processout": 5699,
      "findCampa": 5700,
      "answer": 5701,
      "vedir": 5702,
      "ostart": 5703,
      "ixel": 5704,
      "ĠTestCommand": 5705,
      "VERAGE": 5706,
      "Ġsublime": 5707,
      "qlgraph": 5708,
      "lugins": 5709,
      "ignature": 5710,
      "fixtures": 5711,
      "compatible": 5712,
      "servicem": 5713,
      "\"]),": 5714,
      "linear": 5715,
      "psqlgraph": 5716,
      "Ġzer": 5717,
      "Ġzeit": 5718,
      "lecture": 5719,
      "arguments": 5720,
      "Ġcontrol": 5721,
      "checker": 5722,
      "Ġpermission": 5723,
      "device": 5724,
      "Ġdateutil": 5725,
      "Ġabspath": 5726,
      "Ġchild": 5727,
      "contents": 5728,
      "(?=[": 5729,
      "(?<=[": 5730,
      "Append": 5731,
      "autostart": 5732,
      "Ġenabled": 5733,
      "ĠProfile": 5734,
      "ĠProxy": 5735,
      "aven": 5736,
      "serialize": 5737,
      "1024": 5738,
      "ĠprojectId": 5739,
      "aptcha": 5740,
      "sitter": 5741,
      "StringField": 5742,
      "akanda": 5743,
      "distance": 5744,
      "ranha": 5745,
      "sorflow": 5746,
      "graphy": 5747,
      "Ġupdated": 5748,
      "Chars": 5749,
      "idden": 5750,
      "correct": 5751,
      "lanc": 5752,
      "colors": 5753,
      "PATTER": 5754,
      "Ġ>>": 5755,
      "express": 5756,
      "CONT": 5757,
      "verseFile": 5758,
      "Sepsm": 5759,
      "PyOpen": 5760,
      "voice": 5761,
      "Ġinitialize": 5762,
      "celerator": 5763,
      "matchdict": 5764,
      "Ġcommit": 5765,
      "Ġcommon": 5766,
      "})/(?": 5767,
      "Ġtransip": 5768,
      "Art": 5769,
      "details": 5770,
      "ĠWebDriver": 5771,
      "media": 5772,
      "ĠEnvironmentVariable": 5773,
      "ĠLogger": 5774,
      "Ġmanage": 5775,
      "COL": 5776,
      "wiki": 5777,
      "Ġcasexml": 5778,
      "annotation": 5779,
      "CHECK": 5780,
      "capabil": 5781,
      "ĠSetup": 5782,
      "Ġautoload": 5783,
      "ĠRuntimeError": 5784,
      "EXEC": 5785,
      "Ġrepository": 5786,
      "zeros": 5787,
      "Ġlocator": 5788,
      "ĠNOTE": 5789,
      "scheduled": 5790,
      "variable": 5791,
      "Ġgraphdb": 5792,
      "hooks": 5793,
      "lowercase": 5794,
      "gdcdictionary": 5795,
      "gdcdatamodel": 5796,
      "ĠParameters": 5797,
      "~~~~~~~~~~~~~~~~": 5798,
      "ĠArgs": 5799,
      "abbix": 5800,
      "ĠDefaultForm": 5801,
      "exempt": 5802,
      "shared": 5803,
      "MAPS": 5804,
      "ĠSETTINGS": 5805,
      "activate": 5806,
      "Ġserial": 5807,
      "prodtask": 5808,
      "randint": 5809,
      "atapackage": 5810,
      "Ġcorrect": 5811,
      "Ġheight": 5812,
      "Ġfinalize": 5813,
      "aldwin": 5814,
      "CLIENT": 5815,
      "Ġflag": 5816,
      "Ġsince": 5817,
      "ckanext": 5818,
      "Ġghstats": 5819,
      "OPEN": 5820,
      "expanduser": 5821,
      "ĠAttributeError": 5822,
      "Ġannotation": 5823,
      "kombu": 5824,
      "mongrel": 5825,
      "Ġanalyze": 5826,
      "sponsors": 5827,
      "WorkerMessage": 5828,
      "hexdigest": 5829,
      "Ġnltk": 5830,
      "bosity": 5831,
      "sciunit": 5832,
      "alerta": 5833,
      "agicMock": 5834,
      "Ġrasterio": 5835,
      "Ġwraps": 5836,
      "ĠBackdropUser": 5837,
      "TARGET": 5838,
      "cdisutils": 5839,
      "jiradoc": 5840,
      "kimochi": 5841,
      "ingredients": 5842,
      "adventure": 5843,
      "Ġevelink": 5844,
      "SECONDS": 5845,
      "Ġelasticsearch": 5846,
      "STMSolver": 5847,
      "findCampaigns": 5848,
      "servicemanager": 5849,
      "PyOpenWorm": 5850,
      "ĠWebDriverWait": 5851,
      "'%": 5852,
      "'d": 5853,
      "'(?": 5854,
      "(',": 5855,
      ")\"": 5856,
      "*',": 5857,
      "57": 5858,
      ":')": 5859,
      ":(?": 5860,
      "=\\": 5861,
      "An": 5862,
      "Any": 5863,
      "Cone": 5864,
      "CURRENT": 5865,
      "DA": 5866,
      "Debug": 5867,
      "Ed": 5868,
      "First": 5869,
      "Game": 5870,
      "GIT": 5871,
      "Import": 5872,
      "Just": 5873,
      "LL": 5874,
      "Language": 5875,
      "Many": 5876,
      "Mutable": 5877,
      "New": 5878,
      "OM": 5879,
      "OUR": 5880,
      "OAUTH": 5881,
      "PH": 5882,
      "Person": 5883,
      "Qt": 5884,
      "RF": 5885,
      "Round": 5886,
      "SP": 5887,
      "Ticket": 5888,
      "USE": 5889,
      "UNT": 5890,
      "UUID": 5891,
      "VAR": 5892,
      "WI": 5893,
      "Wh": 5894,
      "XME": 5895,
      "[[": 5896,
      "aja": 5897,
      "bi": 5898,
      "dh": 5899,
      "dim": 5900,
      "darwin": 5901,
      "een": 5902,
      "fd": 5903,
      "fp": 5904,
      "fre": 5905,
      "flu": 5906,
      "free": 5907,
      "frensie": 5908,
      "gb": 5909,
      "hodes": 5910,
      "iok": 5911,
      "ked": 5912,
      "lication": 5913,
      "mor": 5914,
      "nable": 5915,
      "normal": 5916,
      "nagios": 5917,
      "oop": 5918,
      "ology": 5919,
      "pit": 5920,
      "pil": 5921,
      "pap": 5922,
      "ru": 5923,
      "responses": 5924,
      "rdflib": 5925,
      "screen": 5926,
      "tre": 5927,
      "tcp": 5928,
      "vector": 5929,
      "wers": 5930,
      "ypes": 5931,
      "Ġes": 5932,
      "Ġlow": 5933,
      "Ġlookup": 5934,
      "Ġ------------------------------------------------------------------------": 5935,
      "inux": 5936,
      "erce": 5937,
      "esNot": 5938,
      "atial": 5939,
      "reindex": 5940,
      "role": 5941,
      "deprec": 5942,
      "leg": 5943,
      "allot": 5944,
      "Ġcard": 5945,
      "Ġctx": 5946,
      "Ġcampaign": 5947,
      "Ġplease": 5948,
      "Ġ\"..": 5949,
      "icious": 5950,
      "Ġdue": 5951,
      "Ġdone": 5952,
      "Ġdta": 5953,
      "Ġsm": 5954,
      "Ġsph": 5955,
      "Ġspider": 5956,
      "Ġsmart": 5957,
      "Ġsyntax": 5958,
      "ĠAUTH": 5959,
      "addo": 5960,
      "come": 5961,
      "Ġinvalid": 5962,
      "Ġoa": 5963,
      "Ġok": 5964,
      "Ġown": 5965,
      "RECT": 5966,
      "updates": 5967,
      "chat": 5968,
      "chan": 5969,
      "conn": 5970,
      "aps": 5971,
      "ulated": 5972,
      "olicy": 5973,
      "Ġbound": 5974,
      "Ġbasic": 5975,
      "Ġbuilt": 5976,
      "Ġvir": 5977,
      "Ġvideo": 5978,
      "iso": 5979,
      "iscover": 5980,
      "Ġlater": 5981,
      "pathname": 5982,
      "pyyaml": 5983,
      "pytz": 5984,
      "ĠCelery": 5985,
      "ĠLine": 5986,
      "Ġ\"\"\",": 5987,
      "(\".": 5988,
      "verts": 5989,
      "usage": 5990,
      "Ġconsole": 5991,
      "Ġconfirm": 5992,
      "touch": 5993,
      "grad": 5994,
      "Ġstor": 5995,
      "train": 5996,
      "hef": 5997,
      "mailer": 5998,
      "Ġhome": 5999,
      "odb": 6000,
      "odiscover": 6001,
      "datastore": 6002,
      "ĠNum": 6003,
      "ĠNagios": 6004,
      "Ġversions": 6005,
      "Ġexists": 6006,
      "Ġgame": 6007,
      "Ġgtr": 6008,
      "ĠFind": 6009,
      "keywords": 6010,
      "luid": 6011,
      "readline": 6012,
      "house": 6013,
      "ayes": 6014,
      "perf": 6015,
      "ĠOr": 6016,
      "Ġ25": 6017,
      "Ġnotify": 6018,
      "Ġ14": 6019,
      "MEDI": 6020,
      "Ġ_,": 6021,
      "ĠRec": 6022,
      "Ġprotocol": 6023,
      "Int": 6024,
      "Ġdataset": 6025,
      "ĠWork": 6026,
      "ught": 6027,
      "formatted": 6028,
      "fox": 6029,
      "shell": 6030,
      "])|\"": 6031,
      "])(?=[": 6032,
      "arehouse": 6033,
      "located": 6034,
      "Reset": 6035,
      "workspace": 6036,
      "Exist": 6037,
      "nox": 6038,
      "ĠHash": 6039,
      "ĠHome": 6040,
      "aive": 6041,
      "openstack": 6042,
      "tence": 6043,
      "atterbot": 6044,
      "iteritems": 6045,
      "Ġmezzanine": 6046,
      "DEV": 6047,
      "predict": 6048,
      "ModelForm": 6049,
      "compar": 6050,
      "gitignore": 6051,
      "\"][\"": 6052,
      "sues": 6053,
      "ivo": 6054,
      "templatetags": 6055,
      "locals": 6056,
      "Ġrouter": 6057,
      "Ġzinnia": 6058,
      "ARD": 6059,
      "checksum": 6060,
      "Ġperiod": 6061,
      "ario": 6062,
      "([^": 6063,
      "ASON": 6064,
      "ĠEnd": 6065,
      "ABC": 6066,
      "DIRECT": 6067,
      "modified": 6068,
      "solve": 6069,
      "FIL": 6070,
      "scm": 6071,
      "scene": 6072,
      "Ġ50": 6073,
      "ĠImports": 6074,
      "ĊĠĠĠĠĠĠĠĠĠĠĠĠĠĠĠĠĠĠĠĠĠĠĠĠĠĠĠ": 6075,
      "contextmanager": 6076,
      "playbook": 6077,
      "Ġ\\'": 6078,
      "Ġnumer": 6079,
      "Ġloading": 6080,
      "ULL": 6081,
      "transip": 6082,
      "Ġcontents": 6083,
      "Ġcomponents": 6084,
      "district": 6085,
      "Ġcurrently": 6086,
      "Ġkeras": 6087,
      "topics": 6088,
      "achine": 6089,
      "Ġpostgres": 6090,
      "single": 6091,
      "ights": 6092,
      "mptt": 6093,
      "Ġdirectly": 6094,
      "Channel": 6095,
      "ĠUnit": 6096,
      "Ġsqlite": 6097,
      "Ġgenerated": 6098,
      "nowledge": 6099,
      "alledProcess": 6100,
      "ĠWARNING": 6101,
      "reporting": 6102,
      "tesseract": 6103,
      "ĠNote": 6104,
      "Ġdepends": 6105,
      "Array": 6106,
      "ĠTeam": 6107,
      "Ġmininet": 6108,
      "ArgusError": 6109,
      "Ġentries": 6110,
      "DoesNot": 6111,
      "Ġtimer": 6112,
      "({'": 6113,
      "Ċĉĉĉ": 6114,
      "USERNAME": 6115,
      "pipeline": 6116,
      ">>>": 6117,
      "ffect": 6118,
      "Ġthreads": 6119,
      "Files": 6120,
      "Ġsupported": 6121,
      "Ġpkgutil": 6122,
      "Prefix": 6123,
      "ĠREQU": 6124,
      "ategories": 6125,
      "Perms": 6126,
      "scout": 6127,
      "Ġtensorflow": 6128,
      "rieve": 6129,
      "charformat": 6130,
      "JSONEncoder": 6131,
      "ĠMAX": 6132,
      "xxxx": 6133,
      "Ġparts": 6134,
      "documents": 6135,
      "conditions": 6136,
      "Ġmonkeypatch": 6137,
      "ĠModule": 6138,
      "ĠCOV": 6139,
      "Expected": 6140,
      "aintenance": 6141,
      "eader": 6142,
      "Ġpragma": 6143,
      "guest": 6144,
      "Ġaren": 6145,
      "limits": 6146,
      "Ġbookmarks": 6147,
      "ĠScient": 6148,
      "constructor": 6149,
      "thumbnail": 6150,
      "Ġlatest": 6151,
      "specs": 6152,
      "sembly": 6153,
      "Ġbindings": 6154,
      "reshape": 6155,
      "Ġmetavar": 6156,
      "Ġautomatically": 6157,
      "=_('": 6158,
      "Ġclose": 6159,
      "Ġ[{'": 6160,
      "LAYER": 6161,
      "capture": 6162,
      "anks": 6163,
      "Ġtmpdir": 6164,
      "ĠIterable": 6165,
      "rollments": 6166,
      "firefox": 6167,
      "limiter": 6168,
      "ĠCarousel": 6169,
      "Ġdecorator": 6170,
      "ĠBeautifulSoup": 6171,
      "worksheet": 6172,
      "IPSL": 6173,
      "Ġsilent": 6174,
      "software": 6175,
      "Interceptor": 6176,
      "ajax": 6177,
      "iokit": 6178,
      "addoption": 6179,
      "ĠNagiosPlugin": 6180,
      "MEDIA": 6181,
      "alledProcessError": 6182,
      "DoesNotExist": 6183,
      "!\"": 6184,
      "(.": 6185,
      "(\"\",": 6186,
      ")(": 6187,
      ")}": 6188,
      ")\")": 6189,
      ",\"": 6190,
      ".%": 6191,
      "/#": 6192,
      "/<": 6193,
      "/%(": 6194,
      "28": 6195,
      ":`": 6196,
      "?%": 6197,
      "Are": 6198,
      "Aaction": 6199,
      "BM": 6200,
      "Bro": 6201,
      "Bad": 6202,
      "BRO": 6203,
      "Button": 6204,
      "CMS": 6205,
      "DP": 6206,
      "Dest": 6207,
      "Dummy": 6208,
      "Est": 6209,
      "FL": 6210,
      "Float": 6211,
      "GUN": 6212,
      "Graph": 6213,
      "GPIO": 6214,
      "Geo": 6215,
      "Har": 6216,
      "Http": 6217,
      "Helper": 6218,
      "IRES": 6219,
      "LAN": 6220,
      "Man": 6221,
      "Main": 6222,
      "NER": 6223,
      "NSI": 6224,
      "OAuth": 6225,
      "PC": 6226,
      "Pa": 6227,
      "Ph": 6228,
      "Point": 6229,
      "Panel": 6230,
      "Rob": 6231,
      "Rec": 6232,
      "Random": 6233,
      "Spec": 6234,
      "SNO": 6235,
      "SUserNotification": 6236,
      "Tangled": 6237,
      "UDE": 6238,
      "Visual": 6239,
      "Watch": 6240,
      "Windows": 6241,
      "[%(": 6242,
      "\\.\\": 6243,
      "]),": 6244,
      "ama": 6245,
      "bp": 6246,
      "bz": 6247,
      "bam": 6248,
      "bus": 6249,
      "bum": 6250,
      "bile": 6251,
      "bunch": 6252,
      "cc": 6253,
      "cals": 6254,
      "crontab": 6255,
      "dt": 6256,
      "dest": 6257,
      "dashboard": 6258,
      "eon": 6259,
      "eval": 6260,
      "eded": 6261,
      "easy": 6262,
      "fy": 6263,
      "fan": 6264,
      "fut": 6265,
      "failed": 6266,
      "gh": 6267,
      "gment": 6268,
      "ground": 6269,
      "girder": 6270,
      "hy": 6271,
      "hot": 6272,
      "hints": 6273,
      "ior": 6274,
      "jwt": 6275,
      "javascript": 6276,
      "kal": 6277,
      "kyle": 6278,
      "lb": 6279,
      "lac": 6280,
      "lang": 6281,
      "launch": 6282,
      "mult": 6283,
      "mnt": 6284,
      "micro": 6285,
      "nc": 6286,
      "nr": 6287,
      "nac": 6288,
      "nux": 6289,
      "niffer": 6290,
      "nius": 6291,
      "oun": 6292,
      "ous": 6293,
      "ohttp": 6294,
      "ood": 6295,
      "other": 6296,
      "pet": 6297,
      "rs": 6298,
      "rv": 6299,
      "rong": 6300,
      "rupt": 6301,
      "rug": 6302,
      "rule": 6303,
      "rpkm": 6304,
      "sam": 6305,
      "slow": 6306,
      "salt": 6307,
      "sbag": 6308,
      "tc": 6309,
      "ti": 6310,
      "tq": 6311,
      "tex": 6312,
      "tone": 6313,
      "tsearch": 6314,
      "twitter": 6315,
      "uli": 6316,
      "van": 6317,
      "vard": 6318,
      "war": 6319,
      "wall": 6320,
      "whe": 6321,
      "watch": 6322,
      "warn": 6323,
      "zmq": 6324,
      "Ðº": 6325,
      "ÑĤ": 6326,
      "Ñĭ": 6327,
      "ĠĊ": 6328,
      "ĠView": 6329,
      "ĠQu": 6330,
      "Ġservers": 6331,
      "ority": 6332,
      "section": 6333,
      "second": 6334,
      "onac": 6335,
      "iness": 6336,
      "infer": 6337,
      "inbound": 6338,
      "atip": 6339,
      "mpy": 6340,
      "roker": 6341,
      "Ġiobj": 6342,
      "Ġibmc": 6343,
      "ane": 6344,
      "stations": 6345,
      "step": 6346,
      "Ġfmt": 6347,
      "ley": 6348,
      "lear": 6349,
      "Ġimporting": 6350,
      "asp": 6351,
      "Ġpys": 6352,
      "Ġpush": 6353,
      "Ġplayers": 6354,
      "Ġpayload": 6355,
      "ura": 6356,
      "urn": 6357,
      "uray": 6358,
      "urik": 6359,
      "itly": 6360,
      "itive": 6361,
      "Ġtp": 6362,
      "Ġ\"#": 6363,
      "Ġ\"(?<=[": 6364,
      "ille": 6365,
      "ilog": 6366,
      "acancy": 6367,
      "Ġdat": 6368,
      "Ġdsa": 6369,
      "Ġdays": 6370,
      "Ġreversion": 6371,
      "Ġrecipe": 6372,
      "Ġsched": 6373,
      "serve": 6374,
      "series": 6375,
      "ader": 6376,
      "una": 6377,
      "units": 6378,
      "rix": 6379,
      "Ġinbox": 6380,
      "Ġinteger": 6381,
      "exist": 6382,
      "expo": 6383,
      "Ġastropy": 6384,
      "Ġ#################": 6385,
      "quick": 6386,
      "quences": 6387,
      "REAT": 6388,
      "REST": 6389,
      "RESS": 6390,
      "ĠBasic": 6391,
      "modb": 6392,
      "chant": 6393,
      "chain": 6394,
      "chron": 6395,
      "iration": 6396,
      "agpy": 6397,
      "agination": 6398,
      "apache": 6399,
      "ulse": 6400,
      "ceeded": 6401,
      "Ġrespon": 6402,
      "Ġrename": 6403,
      "Ġns": 6404,
      "Ġnavig": 6405,
      "Ġbit": 6406,
      "Ġbool": 6407,
      "Ġbib": 6408,
      "Ġbatt": 6409,
      "Ġbits": 6410,
      "Ġvis": 6411,
      "Ġvendor": 6412,
      "Ġwarehouse": 6413,
      "amma": 6414,
      "ĠSome": 6415,
      "ĠShow": 6416,
      "ĠSingle": 6417,
      "ĠSCRIP": 6418,
      "isdir": 6419,
      "ety": 6420,
      "ĠTRANS": 6421,
      "abaster": 6422,
      "pyc": 6423,
      "pyjaco": 6424,
      "pyranha": 6425,
      "ĠCar": 6426,
      "ĠCourse": 6427,
      "ĠLevel": 6428,
      "ĠPod": 6429,
      "ĠPillow": 6430,
      "verbosity": 6431,
      "verilog": 6432,
      "prob": 6433,
      "proto": 6434,
      "progress": 6435,
      "logo": 6436,
      "Ġmk": 6437,
      "Ġmime": 6438,
      "Ġmany": 6439,
      "\")]": 6440,
      "Ġ[(": 6441,
      "Ġ[(\"": 6442,
      "terman": 6443,
      "todict": 6444,
      "plain": 6445,
      "Ġstdin": 6446,
      "trac": 6447,
      "height": 6448,
      "ĠDr": 6449,
      "Ġ(>=": 6450,
      "formset": 6451,
      "ysics": 6452,
      "ĠIRC": 6453,
      "Ġ{%": 6454,
      "dataframe": 6455,
      "ythonize": 6456,
      "ĠNull": 6457,
      "ĠNetwork": 6458,
      "ĠNested": 6459,
      "ĠNSUserNotification": 6460,
      "orepath": 6461,
      "Ġground": 6462,
      "ĠFe": 6463,
      "ĠFuture": 6464,
      "Ġ*=": 6465,
      "addTest": 6466,
      "addHandler": 6467,
      "=[(\"": 6468,
      "ĠOUT": 6469,
      "ĠObservable": 6470,
      "Ġ24": 6471,
      "Ġnotes": 6472,
      "Ġ18": 6473,
      "Product": 6474,
      "igquery": 6475,
      "Ġelement": 6476,
      "loadTests": 6477,
      "minion": 6478,
      "ĠResponse": 6479,
      "Ġproc": 6480,
      "Ġprops": 6481,
      "Ġproperty": 6482,
      "Ġprospectus": 6483,
      "ipients": 6484,
      "libs": 6485,
      "taint": 6486,
      "SIX": 6487,
      "Ġinstant": 6488,
      "Ġinstead": 6489,
      "artifact": 6490,
      "filer": 6491,
      "0001": 6492,
      "Ġdemo": 6493,
      "Ġdelet": 6494,
      "ĠUsing": 6495,
      "=['-": 6496,
      "ĠWindows": 6497,
      "\":\"/": 6498,
      "portis": 6499,
      "timeseries": 6500,
      "veloper": 6501,
      "SET": 6502,
      "SELE": 6503,
      "shift": 6504,
      "sock": 6505,
      "ecss": 6506,
      "ecret": 6507,
      "ĠGeo": 6508,
      "ĠGoogle": 6509,
      "ironic": 6510,
      "Ġpyramid": 6511,
      "Ġcover": 6512,
      "acebook": 6513,
      "Ġruntime": 6514,
      "Register": 6515,
      "ĠInteger": 6516,
      "PID": 6517,
      "aiohttp": 6518,
      "ializecss": 6519,
      "Ġyear": 6520,
      "ĠTestS": 6521,
      "Ġmedia": 6522,
      "archi": 6523,
      "ĠApplication": 6524,
      "savedir": 6525,
      "Ġsubscription": 6526,
      "igned": 6527,
      "errorhandler": 6528,
      "mann": 6529,
      "formed": 6530,
      "rstrip": 6531,
      "\"].": 6532,
      "UTF": 6533,
      "UTOR": 6534,
      "misc": 6535,
      "Ġcredentials": 6536,
      "monkeypatch": 6537,
      "webs": 6538,
      "ĠKEY": 6539,
      "ALLOWED": 6540,
      "internet": 6541,
      "ĠReserved": 6542,
      "taggit": 6543,
      "Ġpermit": 6544,
      "Ġpref": 6545,
      "Ġpretend": 6546,
      "splitext": 6547,
      "pagedown": 6548,
      "orderable": 6549,
      "submit": 6550,
      "subscription": 6551,
      "subscribe": 6552,
      "ASH": 6553,
      "DIS": 6554,
      "Ġexpand": 6555,
      "leanup": 6556,
      "ĠProvider": 6557,
      "Logging": 6558,
      "ĠJob": 6559,
      "aving": 6560,
      "available": 6561,
      "parserutils": 6562,
      "mbed": 6563,
      "notify": 6564,
      "notification": 6565,
      "debugtoolbar": 6566,
      "Ġ'.'.": 6567,
      "srcfile": 6568,
      "Ġjnius": 6569,
      "Ġ2012": 6570,
      "LOAD": 6571,
      "ĠUsers": 6572,
      "ower": 6573,
      "sockets": 6574,
      "iddly": 6575,
      "colorific": 6576,
      "mockup": 6577,
      "expectations": 6578,
      "Ġstatistics": 6579,
      "Ġbuilding": 6580,
      "statements": 6581,
      "describe": 6582,
      "Chri": 6583,
      "restea": 6584,
      "aff": 6585,
      "PyGrid": 6586,
      "ieve": 6587,
      "ĠMetaData": 6588,
      "Ġworking": 6589,
      "Ġworkbook": 6590,
      "ĠHTTPServer": 6591,
      "ACKAGE": 6592,
      "Ġdatabases": 6593,
      "ĠXXX": 6594,
      "Ġtransl": 6595,
      "alex": 6596,
      "aterializecss": 6597,
      "Ġoperator": 6598,
      "ĠCommandError": 6599,
      "binds": 6600,
      "binding": 6601,
      "optics": 6602,
      "fully": 6603,
      "CLASSE": 6604,
      "CLUDE": 6605,
      "Double": 6606,
      "TRX": 6607,
      "DATABASES": 6608,
      "ĠCommun": 6609,
      "__)))": 6610,
      "Ġblocks": 6611,
      "wikia": 6612,
      "wikipedia": 6613,
      "Ġterms": 6614,
      "tfh": 6615,
      "ĠYou": 6616,
      "ĠYAML": 6617,
      "DEFAULTS": 6618,
      "PROJECT": 6619,
      "Ġcleanup": 6620,
      "THIS": 6621,
      "BOARD": 6622,
      "Defaults": 6623,
      "OrNone": 6624,
      "simulation": 6625,
      "ĠEventWith": 6626,
      "lignment": 6627,
      "Workspace": 6628,
      "copyfile": 6629,
      "ĠController": 6630,
      "cleanup": 6631,
      "tablename": 6632,
      "Ġallowed": 6633,
      "lacklist": 6634,
      "Ġdoesn": 6635,
      "AppConfig": 6636,
      "volution": 6637,
      "volume": 6638,
      "Ġpoints": 6639,
      "charge": 6640,
      "JSONLayer": 6641,
      "ĠZO": 6642,
      "Ġofficial": 6643,
      "simplejson": 6644,
      "ApplicationExamples": 6645,
      "bspline": 6646,
      "Ġserialize": 6647,
      "ĠParse": 6648,
      "PYTHON": 6649,
      "passwd": 6650,
      "Ġ&&": 6651,
      "Ġartist": 6652,
      "ĠArgus": 6653,
      "abbrevi": 6654,
      "Component": 6655,
      "Ġaccounts": 6656,
      "lookups": 6657,
      "counter": 6658,
      "limeLinter": 6659,
      "SERT": 6660,
      "ĠPostgres": 6661,
      "scratch": 6662,
      "Ġdevices": 6663,
      "Common": 6664,
      "cookies": 6665,
      "Ġmemory": 6666,
      "ĊĠĠĠĠĠĠĠĠĠĠĠĠĠĠĠĠĠĠĠĠĠĠĠĠĠĠĠĠĠĠĠĠĠ": 6667,
      "npm": 6668,
      "ĠSublimeLinter": 6669,
      "ĠOptionParser": 6670,
      "OWL": 6671,
      "ĠArray": 6672,
      "sycopg": 6673,
      "Ġtermstyle": 6674,
      "Nulls": 6675,
      "Utils": 6676,
      "ikeplus": 6677,
      "wraps": 6678,
      "Ð°Ð": 6679,
      "Ġlengths": 6680,
      "ĠFIXME": 6681,
      "snapnum": 6682,
      "Ġlayers": 6683,
      "Ġlayout": 6684,
      "ĠPYTEST": 6685,
      "cffi": 6686,
      "ĠPublic": 6687,
      "FRENSI": 6688,
      "John": 6689,
      "MTP": 6690,
      "ucky": 6691,
      "foliant": 6692,
      "discoverd": 6693,
      "Step": 6694,
      "ĠSnapshotStatus": 6695,
      "Michael": 6696,
      "benny": 6697,
      "ircuit": 6698,
      "DecimalField": 6699,
      "CELERY": 6700,
      "urvey": 6701,
      "ĠResource": 6702,
      "Ġscrapi": 6703,
      "whatportis": 6704,
      "ĠThreadPool": 6705,
      "candidates": 6706,
      "mCare": 6707,
      "Ġcamelize": 6708,
      "Ġpeople": 6709,
      "Ġmacros": 6710,
      "Ġzerver": 6711,
      "AppendLibrary": 6712,
      "capabilities": 6713,
      "EXECUTOR": 6714,
      "checksums": 6715,
      "ĠScientific": 6716,
      "Estim": 6717,
      "SNOME": 6718,
      "busmenu": 6719,
      "wheel": 6720,
      "onacci": 6721,
      "inferior": 6722,
      "atipay": 6723,
      "Ġibmcnx": 6724,
      "urikura": 6725,
      "Ġbattle": 6726,
      "ĠSCRIPT": 6727,
      "Ġgroundstation": 6728,
      "SELECT": 6729,
      "PyGridError": 6730,
      "CLASSES": 6731,
      "abbreviate": 6732,
      "FRENSIE": 6733,
      "!')": 6734,
      "\"{": 6735,
      "\"},": 6736,
      "**": 6737,
      "*\\": 6738,
      "/\")": 6739,
      "07": 6740,
      "300": 6741,
      "66": 6742,
      "87": 6743,
      ":\"": 6744,
      ":\",": 6745,
      "AG": 6746,
      "Bit": 6747,
      "BUT": 6748,
      "BOT": 6749,
      "Cho": 6750,
      "Current": 6751,
      "Center": 6752,
      "Des": 6753,
      "DLE": 6754,
      "Dashboard": 6755,
      "ILED": 6756,
      "Max": 6757,
      "NE": 6758,
      "PU": 6759,
      "PAR": 6760,
      "SG": 6761,
      "Send": 6762,
      "Switch": 6763,
      "VAL": 6764,
      "]):": 6765,
      "_,": 6766,
      "ah": 6767,
      "aas": 6768,
      "bf": 6769,
      "cpu": 6770,
      "cufflinks": 6771,
      "dn": 6772,
      "dat": 6773,
      "dom": 6774,
      "dmg": 6775,
      "ech": 6776,
      "echo": 6777,
      "fr": 6778,
      "fin": 6779,
      "flo": 6780,
      "fron": 6781,
      "got": 6782,
      "gtr": 6783,
      "impl": 6784,
      "kes": 6785,
      "kman": 6786,
      "mant": 6787,
      "mirror": 6788,
      "nos": 6789,
      "nested": 6790,
      "ould": 6791,
      "pad": 6792,
      "pio": 6793,
      "panel": 6794,
      "payload": 6795,
      "rate": 6796,
      "rant": 6797,
      "say": 6798,
      "snapshot": 6799,
      "should": 6800,
      "uv": 6801,
      "uel": 6802,
      "uess": 6803,
      "vag": 6804,
      "world": 6805,
      "watson": 6806,
      "ycopg": 6807,
      "ĠError": 6808,
      "Ġ--------": 6809,
      "Ġattr": 6810,
      "Ġservices": 6811,
      "Ġadapter": 6812,
      "orch": 6813,
      "iny": 6814,
      "rev": 6815,
      "relative": 6816,
      "reference": 6817,
      "recipe": 6818,
      "Ġ'+": 6819,
      "thread": 6820,
      "theta": 6821,
      "Ġimported": 6822,
      "Ġcv": 6823,
      "Ġpup": 6824,
      "Ġpack": 6825,
      "Ġplaybook": 6826,
      "Ġplugins": 6827,
      "uris": 6828,
      "ito": 6829,
      "ited": 6830,
      "itution": 6831,
      "icular": 6832,
      "__\\": 6833,
      "__()": 6834,
      "__).": 6835,
      "define": 6836,
      "inglet": 6837,
      "ential": 6838,
      "Ġdiff": 6839,
      "Ġdifferent": 6840,
      "Ġregistration": 6841,
      "Ġreceived": 6842,
      "pty": 6843,
      "Ġsun": 6844,
      "Ġsuch": 6845,
      "ĠAP": 6846,
      "ĠAb": 6847,
      "ĠAuth": 6848,
      "coerce": 6849,
      "maker": 6850,
      "maked": 6851,
      "ride": 6852,
      "rive": 6853,
      "='/": 6854,
      "='''": 6855,
      "quit": 6856,
      "\"\"\",": 6857,
      "\"\"\")": 6858,
      "('%": 6859,
      "('~/.": 6860,
      "liRunner": 6861,
      "mobile": 6862,
      "chrome": 6863,
      "Ġrule": 6864,
      "Ġbigcat": 6865,
      "Ġvtk": 6866,
      "Ġwagtail": 6867,
      "Ġtheir": 6868,
      "ĠSD": 6869,
      "ĠSH": 6870,
      "ides": 6871,
      "']]": 6872,
      "delay": 6873,
      "htag": 6874,
      "ĠCase": 6875,
      "ĠCode": 6876,
      "ĠCsv": 6877,
      "ĠCampaign": 6878,
      "ĠCliRunner": 6879,
      "ĠLength": 6880,
      "ĠPool": 6881,
      "ĠPAT": 6882,
      "ĠPlugin": 6883,
      "ĠPORT": 6884,
      "ĠPANEL": 6885,
      "ĠPDA": 6886,
      "(\"[": 6887,
      "istr": 6888,
      "using": 6889,
      "extend": 6890,
      "\")),": 6891,
      "icence": 6892,
      "Ġconv": 6893,
      "Ġconstant": 6894,
      "Ġstrip": 6895,
      "Ġstock": 6896,
      "tric": 6897,
      "mails": 6898,
      "omas": 6899,
      "ĠDate": 6900,
      "Ġauthors": 6901,
      "Ġhard": 6902,
      "ĠItem": 6903,
      "filepath": 6904,
      "ĠMaintenance": 6905,
      "ĠName": 6906,
      "Ġexchange": 6907,
      "Ġgames": 6908,
      "ĠFix": 6909,
      "ĠFeed": 6910,
      "reader": 6911,
      "utility": 6912,
      "addPage": 6913,
      "perly": 6914,
      "irection": 6915,
      "party": 6916,
      "Ġ23": 6917,
      "Ġeasy": 6918,
      "vals": 6919,
      "Ġapprox": 6920,
      "ĠRole": 6921,
      "Ġproblem": 6922,
      "TestLoader": 6923,
      "Ġ['_": 6924,
      "SIB": 6925,
      "artist": 6926,
      "opps": 6927,
      "ATIONS": 6928,
      "ĠWait": 6929,
      "ĠWatson": 6930,
      "Convert": 6931,
      "Ġparsed": 6932,
      "Ġparameters": 6933,
      "outube": 6934,
      "shape": 6935,
      "rawn": 6936,
      "STY": 6937,
      "running": 6938,
      "Ġcov": 6939,
      "Ġcopyright": 6940,
      "Ġsecurity": 6941,
      "Extr": 6942,
      "Exceeded": 6943,
      "Ġonce": 6944,
      "openpg": 6945,
      "Ġykman": 6946,
      "ĠStat": 6947,
      "ĠStation": 6948,
      "LETE": 6949,
      "berry": 6950,
      "Ġkeyring": 6951,
      "Movies": 6952,
      "Ġmed": 6953,
      "ORM": 6954,
      "Ġtear": 6955,
      "ANY": 6956,
      "querysets": 6957,
      "cipy": 6958,
      "compat": 6959,
      "feincms": 6960,
      "psycopg": 6961,
      "Ġ404": 6962,
      "Ġraises": 6963,
      "disabled": 6964,
      "interfaces": 6965,
      "Ġalias": 6966,
      "Ġalert": 6967,
      "checkbox": 6968,
      "attrib": 6969,
      "Ġable": 6970,
      "ĠThese": 6971,
      "ributors": 6972,
      "ACT": 6973,
      "([])": 6974,
      "Series": 6975,
      "netes": 6976,
      "scan": 6977,
      "newick": 6978,
      "locking": 6979,
      "TED": 6980,
      "IDDLE": 6981,
      "__)),": 6982,
      "{}/": 6983,
      "ronym": 6984,
      "bookmarks": 6985,
      "Ġlibraries": 6986,
      "Ġprojects": 6987,
      "ĠCount": 6988,
      "pie": 6989,
      "transactions": 6990,
      "+)\\": 6991,
      "+)$',": 6992,
      "Ġcompatible": 6993,
      "Comple": 6994,
      "linked": 6995,
      "azoo": 6996,
      "phone": 6997,
      "summary": 6998,
      "RIBUT": 6999,
      "Ġintercept": 7000,
      "desc": 7001,
      "flush": 7002,
      "Ġcodecs": 7003,
      "ĠUnicode": 7004,
      "Ġgenerator": 7005,
      "ssl": 7006,
      "Ġdisplay": 7007,
      "generator": 7008,
      "blems": 7009,
      "when": 7010,
      "Ġwebapp": 7011,
      "catimg": 7012,
      "medi": 7013,
      "culated": 7014,
      "TRAV": 7015,
      "Ġrecords": 7016,
      "Ġcases": 7017,
      "2015": 7018,
      "executor": 7019,
      "executors": 7020,
      "uppercase": 7021,
      "]+)/$',": 7022,
      "('.')": 7023,
      "ĠGenerated": 7024,
      "ifti": 7025,
      "timer": 7026,
      "times": 7027,
      "ĠCreated": 7028,
      "channels": 7029,
      "cleaned": 7030,
      "ĠNOTI": 7031,
      "Ġfails": 7032,
      "Ġopts": 7033,
      "plotlib": 7034,
      "Ġparticular": 7035,
      "CEP": 7036,
      "Ġsuites": 7037,
      "calculate": 7038,
      "Ġquick": 7039,
      "releases": 7040,
      "LDAP": 7041,
      "Route": 7042,
      "Ġassoci": 7043,
      "Ġretrie": 7044,
      "Ġstructure": 7045,
      "Ġfixed": 7046,
      "proxyprefix": 7047,
      "Ġchannels": 7048,
      "vince": 7049,
      "rouver": 7050,
      "stetho": 7051,
      "Ġcalculated": 7052,
      "ubernetes": 7053,
      "Ġdeprecation": 7054,
      "REQUEST": 7055,
      "NUM": 7056,
      "deny": 7057,
      "ĠUUIDField": 7058,
      "Ġslash": 7059,
      "ĠTemplateView": 7060,
      "horizontal": 7061,
      "zones": 7062,
      "Ġxmlsec": 7063,
      "operation": 7064,
      "scrape": 7065,
      "ijn": 7066,
      "ĠTypeError": 7067,
      "Ġcounter": 7068,
      "trize": 7069,
      "Ġduring": 7070,
      "Ġsteps": 7071,
      "Ġfollowing": 7072,
      "quotas": 7073,
      "abstractmethod": 7074,
      "Ġsymbols": 7075,
      "Ġactual": 7076,
      "ĠMemory": 7077,
      "NetworkSolver": 7078,
      "Success": 7079,
      "sanitize": 7080,
      "vocations": 7081,
      "Ġmatplotlib": 7082,
      "forgeError": 7083,
      "TAGS": 7084,
      "parametrize": 7085,
      "paper": 7086,
      "Ġescal": 7087,
      "Ġ\"..\",": 7088,
      "isoformat": 7089,
      "ĠOrder": 7090,
      "FILTER": 7091,
      "firefoxos": 7092,
      "Ġnavigator": 7093,
      "Choice": 7094,
      "dmgbuild": 7095,
      "vagrant": 7096,
      "Ġ----------": 7097,
      "Ġpupa": 7098,
      "ingleton": 7099,
      "Ġsunpy": 7100,
      "makedir": 7101,
      "openpgp": 7102,
      "TRAVIS": 7103,
      "Ġassociated": 7104,
      "#\"": 7105,
      "'\",": 7106,
      "'/'": 7107,
      "({}": 7108,
      ")/": 7109,
      ")')": 7110,
      ")+\"": 7111,
      ".+": 7112,
      ".'.": 7113,
      ".\"),": 7114,
      "02": 7115,
      "37": 7116,
      "42": 7117,
      "69": 7118,
      "75": 7119,
      ">\"": 7120,
      ">')": 7121,
      ">'.": 7122,
      "AK": 7123,
      "Ak": 7124,
      "Act": 7125,
      "BI": 7126,
      "Ben": 7127,
      "CC": 7128,
      "Can": 7129,
      "Cop": 7130,
      "CSS": 7131,
      "Cleanup": 7132,
      "DD": 7133,
      "DASH": 7134,
      "Element": 7135,
      "FM": 7136,
      "FN": 7137,
      "FR": 7138,
      "Fast": 7139,
      "GRO": 7140,
      "Google": 7141,
      "HITE": 7142,
      "IF": 7143,
      "IR": 7144,
      "ISC": 7145,
      "KER": 7146,
      "Lear": 7147,
      "LLOWED": 7148,
      "LSTMSolver": 7149,
      "MAN": 7150,
      "Mongo": 7151,
      "Ne": 7152,
      "Need": 7153,
      "OST": 7154,
      "Off": 7155,
      "PG": 7156,
      "Po": 7157,
      "Plan": 7158,
      "RQ": 7159,
      "Rom": 7160,
      "RUN": 7161,
      "Sound": 7162,
      "Sched": 7163,
      "Sensor": 7164,
      "Signature": 7165,
      "SMTP": 7166,
      "TEN": 7167,
      "Two": 7168,
      "Trigger": 7169,
      "TWARE": 7170,
      "Use": 7171,
      "Usage": 7172,
      "Won": 7173,
      "Zone": 7174,
      "]>=": 7175,
      "_)": 7176,
      "avid": 7177,
      "bg": 7178,
      "bmodels": 7179,
      "bak": 7180,
      "baz": 7181,
      "bcp": 7182,
      "bigcat": 7183,
      "bbc": 7184,
      "billing": 7185,
      "blanc": 7186,
      "bigquery": 7187,
      "bwebs": 7188,
      "blacklist": 7189,
      "cv": 7190,
      "ccept": 7191,
      "cud": 7192,
      "cast": 7193,
      "crest": 7194,
      "caster": 7195,
      "cnt": 7196,
      "cube": 7197,
      "circular": 7198,
      "circuit": 7199,
      "dm": 7200,
      "dst": 7201,
      "dream": 7202,
      "dtemp": 7203,
      "eken": 7204,
      "factor": 7205,
      "gin": 7206,
      "gif": 7207,
      "gcl": 7208,
      "gax": 7209,
      "hol": 7210,
      "hip": 7211,
      "heng": 7212,
      "hard": 7213,
      "hdf": 7214,
      "ima": 7215,
      "ioc": 7216,
      "jeff": 7217,
      "kt": 7218,
      "kan": 7219,
      "kapi": 7220,
      "ksm": 7221,
      "la": 7222,
      "ln": 7223,
      "lest": 7224,
      "land": 7225,
      "mn": 7226,
      "mal": 7227,
      "mut": 7228,
      "mgr": 7229,
      "macro": 7230,
      "morepath": 7231,
      "na": 7232,
      "nvid": 7233,
      "nacc": 7234,
      "navig": 7235,
      "olean": 7236,
      "pargs": 7237,
      "pick": 7238,
      "pulse": 7239,
      "qgrid": 7240,
      "rum": 7241,
      "rice": 7242,
      "raml": 7243,
      "spar": 7244,
      "sandbox": 7245,
      "tb": 7246,
      "td": 7247,
      "tv": 7248,
      "tol": 7249,
      "tiddly": 7250,
      "uw": 7251,
      "uz": 7252,
      "uint": 7253,
      "uction": 7254,
      "vg": 7255,
      "vn": 7256,
      "vp": 7257,
      "vide": 7258,
      "wan": 7259,
      "wind": 7260,
      "who": 7261,
      "waf": 7262,
      "wtf": 7263,
      "wise": 7264,
      "wiring": 7265,
      "xIO": 7266,
      "xont": 7267,
      "xfail": 7268,
      "xico": 7269,
      "yl": 7270,
      "yml": 7271,
      "yelp": 7272,
      "yzer": 7273,
      "yola": 7274,
      "zure": 7275,
      "zabbix": 7276,
      "}]": 7277,
      "}_": 7278,
      "~/": 7279,
      "Ã¤": 7280,
      "Ñģ": 7281,
      "âĢ": 7282,
      "Ġ//": 7283,
      "Ġ))": 7284,
      "Ġactive": 7285,
      "Ġetc": 7286,
      "Ġ${": 7287,
      "Ġudp": 7288,
      "orig": 7289,
      "orph": 7290,
      "seq": 7291,
      "seVersion": 7292,
      "onsh": 7293,
      "inv": 7294,
      "inSelector": 7295,
      "atth": 7296,
      "attempt": 7297,
      "encoder": 7298,
      "reen": 7299,
      "reet": 7300,
      "reversion": 7301,
      "reloader": 7302,
      "rod": 7303,
      "roop": 7304,
      "Ġir": 7305,
      "Ġirc": 7306,
      "dep": 7307,
      "Ġ'[": 7308,
      "Ġ'..": 7309,
      "Ġ'../": 7310,
      "Ġ'*'": 7311,
      "stan": 7312,
      "stone": 7313,
      "story": 7314,
      "staff": 7315,
      "Ġfrap": 7316,
      "Ġfree": 7317,
      "Ġfactory": 7318,
      "Ġfacebook": 7319,
      "ionError": 7320,
      "arl": 7321,
      "arm": 7322,
      "arvis": 7323,
      "lem": 7324,
      "lets": 7325,
      "leave": 7326,
      "lemb": 7327,
      "alcodes": 7328,
      "algorith": 7329,
      "assets": 7330,
      "mexico": 7331,
      "Ġcha": 7332,
      "Ġcatted": 7333,
      "Ġcythonize": 7334,
      "Ġpeer": 7335,
      "Ġpsycopg": 7336,
      "urable": 7337,
      "itecture": 7338,
      "Ġtn": 7339,
      "Ġts": 7340,
      "Ġtw": 7341,
      "Ġtakes": 7342,
      "Ġtrove": 7343,
      "Ġtbmodels": 7344,
      "Ġ\"$": 7345,
      "icate": 7346,
      "icip": 7347,
      "icles": 7348,
      "ingen": 7349,
      "utter": 7350,
      "ilicon": 7351,
      "acto": 7352,
      "Ġdst": 7353,
      "Ġdns": 7354,
      "Ġduplicate": 7355,
      "ameter": 7356,
      "Ġredis": 7357,
      "Ġsg": 7358,
      "Ġsum": 7359,
      "Ġsound": 7360,
      "Ġsnapshot": 7361,
      "Ġsieve": 7362,
      "ĠAt": 7363,
      "ĠAct": 7364,
      "ĠALLOWED": 7365,
      "ĠAlemb": 7366,
      "adi": 7367,
      "cop": 7368,
      "cobwebs": 7369,
      "unix": 7370,
      "mast": 7371,
      "Ġinv": 7372,
      "Ġincomplete": 7373,
      "exer": 7374,
      "ctsit": 7375,
      "Ġaround": 7376,
      "eds": 7377,
      "ĠBen": 7378,
      "ĠBlog": 7379,
      "ĠBoolean": 7380,
      "ERK": 7381,
      "\",\"": 7382,
      "\",)],": 7383,
      "uper": 7384,
      "lik": 7385,
      "like": 7386,
      "Ġthree": 7387,
      "chucky": 7388,
      "andon": 7389,
      "andLayer": 7390,
      "agged": 7391,
      "conc": 7392,
      "consu": 7393,
      "apy": 7394,
      "ulk": 7395,
      "FOUND": 7396,
      "getitem": 7397,
      "oldo": 7398,
      "Ġrc": 7399,
      "Ġrk": 7400,
      "Ġrate": 7401,
      "Ġrdf": 7402,
      "Ġrsync": 7403,
      "TERABLE": 7404,
      "turtle": 7405,
      "Ġnick": 7406,
      "Ġnodes": 7407,
      "Ġbi": 7408,
      "Ġbuildbot": 7409,
      "Ġvault": 7410,
      "Ġway": 7411,
      "Ġwatch": 7412,
      "Ġweek": 7413,
      "Ġwould": 7414,
      "amic": 7415,
      "amcrest": 7416,
      "ĠSp": 7417,
      "ĠSw": 7418,
      "ĠSte": 7419,
      "ĠSentry": 7420,
      "ĠSplit": 7421,
      "ĠSalt": 7422,
      "ĠSAMP": 7423,
      "ĠSIM": 7424,
      "ĠShould": 7425,
      "ĠSurvey": 7426,
      "']}": 7427,
      "']).": 7428,
      "isc": 7429,
      "isations": 7430,
      "ismaster": 7431,
      "isdn": 7432,
      "Ġlayer": 7433,
      "ĠTO": 7434,
      "ĠTarget": 7435,
      "ĠTuple": 7436,
      "ĠTwitter": 7437,
      "ĠTTree": 7438,
      "ĠTRA": 7439,
      "ablest": 7440,
      "allclose": 7441,
      "'::": 7442,
      "ĠCan": 7443,
      "ĠCMS": 7444,
      "ĠCLI": 7445,
      "ĠColor": 7446,
      "ĠCalledProcessError": 7447,
      "ĠLI": 7448,
      "ĠLast": 7449,
      "ĠLoo": 7450,
      "ĠLONG": 7451,
      "coming": 7452,
      "ĠPM": 7453,
      "ĠPackage": 7454,
      "ĠPIL": 7455,
      "ĠPlan": 7456,
      "(\"@": 7457,
      "istic": 7458,
      "proj": 7459,
      "production": 7460,
      "provision": 7461,
      "Ġtopo": 7462,
      "logical": 7463,
      "Ġmicro": 7464,
      "Ġask": 7465,
      "Ġconans": 7466,
      "tox": 7467,
      "tock": 7468,
      "------": 7469,
      "Ġurlpattern": 7470,
      "Ġstorage": 7471,
      "oney": 7472,
      "ĠDetail": 7473,
      "ĠDeploy": 7474,
      "umi": 7475,
      "Ġ([": 7476,
      "httplib": 7477,
      "teen": 7478,
      "Ġhol": 7479,
      "odo": 7480,
      "ysql": 7481,
      "sertionError": 7482,
      "ĠImplementation": 7483,
      "ĠITERABLE": 7484,
      "dataobject": 7485,
      "indy": 7486,
      "ĠMic": 7487,
      "ĠMOD": 7488,
      "Ġissue": 7489,
      "orem": 7490,
      "ONT": 7491,
      "Ġgcode": 7492,
      "Ġgdp": 7493,
      "dog": 7494,
      "ĠFree": 7495,
      "ĠFROM": 7496,
      "luci": 7497,
      "===": 7498,
      "oslo": 7499,
      "addTests": 7500,
      "addCleanup": 7501,
      "perator": 7502,
      "ĠOut": 7503,
      "ĠObject": 7504,
      "ĠOnly": 7505,
      "parsing": 7506,
      "Ġ27": 7507,
      "contact": 7508,
      "contains": 7509,
      "Ġnotifier": 7510,
      "MEK": 7511,
      "MES": 7512,
      "listings": 7513,
      "listdict": 7514,
      "struction": 7515,
      "Ġec": 7516,
      "Ġev": 7517,
      "Ġequal": 7518,
      "Ġlogout": 7519,
      "initialize": 7520,
      "minutes": 7521,
      "ĠRest": 7522,
      "ĠRob": 7523,
      "ĠRaml": 7524,
      "ĠRPi": 7525,
      "ĠRights": 7526,
      "Ġproperties": 7527,
      "Ġprovide": 7528,
      "ĠEd": 7529,
      "ĠEnum": 7530,
      "ĠEMAIL": 7531,
      "boolean": 7532,
      "ipient": 7533,
      "ipuz": 7534,
      "Invalid": 7535,
      "Integration": 7536,
      "TestMixin": 7537,
      "Ġ['.": 7538,
      "SING": 7539,
      "jsonschema": 7540,
      "artin": 7541,
      "article": 7542,
      "imum": 7543,
      "imizer": 7544,
      "assertIs": 7545,
      "Ġdevice": 7546,
      "Ġdetect": 7547,
      "ĠUSE": 7548,
      "ĠWik": 7549,
      "Converter": 7550,
      "dbf": 7551,
      "putenv": 7552,
      "INS": 7553,
      "INSERT": 7554,
      "atory": 7555,
      "###": 7556,
      "atchable": 7557,
      "cluster": 7558,
      "Ġlongitude": 7559,
      "msisdn": 7560,
      "ĠGo": 7561,
      "ADD": 7562,
      "])+\"": 7563,
      "runk": 7564,
      "useum": 7565,
      "crets": 7566,
      "Ġcoord": 7567,
      "Ġsens": 7568,
      "Ġsegment": 7569,
      "Ġopenerp": 7570,
      "bins": 7571,
      "Ġpasswd": 7572,
      "lyn": 7573,
      "Ġruntests": 7574,
      "Ġbeing": 7575,
      "Ġbehave": 7576,
      "Received": 7577,
      "Ġmopidy": 7578,
      "answers": 7579,
      "ĠState": 7580,
      "ĠStack": 7581,
      "clang": 7582,
      "Ġmajor": 7583,
      "Move": 7584,
      "sale": 7585,
      "DED": 7586,
      "Ġpathlib": 7587,
      "defaultdict": 7588,
      "diction": 7589,
      "installed": 7590,
      "instances": 7591,
      "Ġdocker": 7592,
      "mitive": 7593,
      "State": 7594,
      "Stroop": 7595,
      "astropy": 7596,
      "urrence": 7597,
      "spam": 7598,
      "ANT": 7599,
      "ynchron": 7600,
      "017": 7601,
      "compress": 7602,
      "clients": 7603,
      "toolkit": 7604,
      "serving": 7605,
      "Configurable": 7606,
      "itlets": 7607,
      "ivers": 7608,
      "())]": 7609,
      "Ġexternal": 7610,
      "lineExceeded": 7611,
      "ledger": 7612,
      "...\")": 7613,
      "Ġrole": 7614,
      "Ġrobot": 7615,
      "Ġroutes": 7616,
      "Ġ{})": 7617,
      "Ġ{}\\": 7618,
      "latest": 7619,
      "latitude": 7620,
      "ĠExp": 7621,
      "ĠExamples": 7622,
      "Ġzoe": 7623,
      "resistance": 7624,
      "Ġoutfile": 7625,
      "ĠKnowledge": 7626,
      "inside": 7627,
      "interactive": 7628,
      "taskcat": 7629,
      "ĠRealm": 7630,
      "Ġalpha": 7631,
      "Ġalways": 7632,
      "Ġalphabet": 7633,
      "SDL": 7634,
      "Ġpretty": 7635,
      "umpia": 7636,
      "Ġabc": 7637,
      "Ġabstract": 7638,
      "Ġchrome": 7639,
      "Ġchallenge": 7640,
      "Ġgood": 7641,
      "efore": 7642,
      "subtotal": 7643,
      "sublime": 7644,
      "substance": 7645,
      "txtr": 7646,
      "Ġui": 7647,
      "ifications": 7648,
      "viders": 7649,
      "autodoc": 7650,
      "byte": 7651,
      "Ġencode": 7652,
      "methods": 7653,
      "ĠProgramming": 7654,
      "scrobbler": 7655,
      "DataverseFile": 7656,
      "boto": 7657,
      "ĠVer": 7658,
      "ĠValidationError": 7659,
      "Ġsouth": 7660,
      "tokenize": 7661,
      "serializer": 7662,
      "128": 7663,
      "{}'.": 7664,
      "authorized": 7665,
      "ronos": 7666,
      "notes": 7667,
      "cliff": 7668,
      "ĠCONT": 7669,
      "ULATION": 7670,
      "Listener": 7671,
      "sitories": 7672,
      "Ġjava": 7673,
      "transform": 7674,
      "Ġcompiler": 7675,
      "LOC": 7676,
      "LOCK": 7677,
      "Ġhosts": 7678,
      "HTTPConnection": 7679,
      "ĠUserProfile": 7680,
      "Ġautobuilder": 7681,
      "azer": 7682,
      "lane": 7683,
      "roots": 7684,
      "phasm": 7685,
      "MLPR": 7686,
      "Allow": 7687,
      "cmdclass": 7688,
      "expired": 7689,
      "expiration": 7690,
      "Ġstattest": 7691,
      "Contact": 7692,
      "403": 7693,
      "MAX": 7694,
      "SCHE": 7695,
      "dependencies": 7696,
      "RunProcess": 7697,
      "IOError": 7698,
      "Ġlearning": 7699,
      "svg": 7700,
      "111": 7701,
      "CONTEXT": 7702,
      "systems": 7703,
      "TextTestRunner": 7704,
      "ĠHTTPSConnection": 7705,
      "gygax": 7706,
      "Ġdiscord": 7707,
      "memcache": 7708,
      "Ġauthentic": 7709,
      "homepage": 7710,
      "ĠsocketIO": 7711,
      "nodelist": 7712,
      "whack": 7713,
      "compiled": 7714,
      "Creation": 7715,
      "Created": 7716,
      "Ġpositive": 7717,
      "incuna": 7718,
      "stackover": 7719,
      "Ġlocals": 7720,
      "aterial": 7721,
      "Ġactions": 7722,
      "bindings": 7723,
      "ĠINPUT": 7724,
      "fuller": 7725,
      "tangledframework": 7726,
      "Ġminutes": 7727,
      "Ġentropy": 7728,
      "Ġsent": 7729,
      "culator": 7730,
      "position": 7731,
      "ProcessOut": 7732,
      "letter": 7733,
      "ĠInterface": 7734,
      "cancel": 7735,
      "Ġqtaw": 7736,
      "Ġregistered": 7737,
      "MAILGUN": 7738,
      "COVERAGE": 7739,
      "COUNT": 7740,
      "Ġbackup": 7741,
      "plicitly": 7742,
      "({\"": 7743,
      "2014": 7744,
      "caps": 7745,
      "capmetrics": 7746,
      "MODALITY": 7747,
      "PROCESS": 7748,
      "years": 7749,
      "decorator": 7750,
      "ĠDevelopmentConfig": 7751,
      "THER": 7752,
      "forever": 7753,
      "periments": 7754,
      "feeds": 7755,
      "BOOK": 7756,
      "JECTORY": 7757,
      "OrReadOnly": 7758,
      "mkdtemp": 7759,
      "similarities": 7760,
      "rypto": 7761,
      "AddField": 7762,
      "AddonS": 7763,
      "zerver": 7764,
      "allowdeny": 7765,
      "Interface": 7766,
      "ntc": 7767,
      "tkt": 7768,
      "Ġ\"./": 7769,
      "SSH": 7770,
      "IndexView": 7771,
      "bedfiles": 7772,
      "variant": 7773,
      "variables": 7774,
      "variablest": 7775,
      "characters": 7776,
      "ircd": 7777,
      "ĠShotgun": 7778,
      "Ġdebugging": 7779,
      "translators": 7780,
      "MethodField": 7781,
      "brandon": 7782,
      "Ġgratipay": 7783,
      "ĠDATA": 7784,
      "TIMEOUT": 7785,
      "Ġplata": 7786,
      "Ġsimplejson": 7787,
      "retval": 7788,
      "condition": 7789,
      "ĠUtils": 7790,
      "RGB": 7791,
      "esktop": 7792,
      "robber": 7793,
      "ĠSearch": 7794,
      "Ġtopics": 7795,
      "STATIC": 7796,
      "HOSTS": 7797,
      "Automaton": 7798,
      "zipball": 7799,
      "Ġartifact": 7800,
      "ĠLOGGER": 7801,
      "tempts": 7802,
      "Ġprice": 7803,
      "Checker": 7804,
      "diffusion": 7805,
      "Ġfixture": 7806,
      "Ġneeds": 7807,
      "ĠMakefile": 7808,
      "SystemRandom": 7809,
      "Transcode": 7810,
      "ComboBox": 7811,
      "globals": 7812,
      "Ġmember": 7813,
      "SQLALCHEMY": 7814,
      "djqgrid": 7815,
      "Ġserve": 7816,
      "flaskext": 7817,
      "signals": 7818,
      "steps": 7819,
      "Ġcalculate": 7820,
      "RESULT": 7821,
      "ished": 7822,
      "superuser": 7823,
      "supervis": 7824,
      "PasswordReset": 7825,
      "chaul": 7826,
      "targets": 7827,
      "ĠAuto": 7828,
      "ĠAutodoc": 7829,
      "ĠDisplay": 7830,
      "STRAP": 7831,
      "Ġchanged": 7832,
      "MopidyException": 7833,
      "Prizes": 7834,
      "ĠTransaction": 7835,
      "StackedInline": 7836,
      "WSGIInterceptor": 7837,
      "ĠOrganizationContact": 7838,
      "IMIZ": 7839,
      "Ġsana": 7840,
      "Authorization": 7841,
      "Position": 7842,
      "ĠQt": 7843,
      "records": 7844,
      "Ġdesired": 7845,
      "ĠMultimedia": 7846,
      "ĠTESTFN": 7847,
      "vtid": 7848,
      "Ġ'{}',),": 7849,
      "illiam": 7850,
      "editable": 7851,
      "identifiers": 7852,
      "-----------------------------------------------------------------------------": 7853,
      "published": 7854,
      "ĠCHECK": 7855,
      "folio": 7856,
      "ĠskipIf": 7857,
      "ijksm": 7858,
      "Ġdumps": 7859,
      "ĠMongoDB": 7860,
      "TestSuiteRunner": 7861,
      "Ġcountry": 7862,
      "ifferentiable": 7863,
      "Location": 7864,
      "Metaclass": 7865,
      "OFTWARE": 7866,
      "xlsx": 7867,
      "metaclass": 7868,
      "Ġsimilarities": 7869,
      "communicate": 7870,
      "powerlib": 7871,
      "distribution": 7872,
      "distributex": 7873,
      "Thomas": 7874,
      "declare": 7875,
      "analysis": 7876,
      "ĠPOSIX": 7877,
      "ĊĠĠĠĠĠĠĠĠĠĠĠĠĠĠĠĠĠĠĠĠĠĠĠĠĠĠĠĠĠĠĠĠĠĠĠĠĠĠĠĠĠĠĠĠĠĠĠĠĠĠĠĠĠĠĠĠ": 7878,
      "BINAR": 7879,
      "IGNO": 7880,
      "Spect": 7881,
      "Ġcsft": 7882,
      "ĠAnsible": 7883,
      "fibermap": 7884,
      "Ġwidth": 7885,
      "Ġwhether": 7886,
      "amiPerms": 7887,
      "isonfiles": 7888,
      "ĠPasswordField": 7889,
      "Ġharvester": 7890,
      "ĠBaseHTTPServer": 7891,
      "Ġdiners": 7892,
      ">.+)'": 7893,
      "IREMENTS": 7894,
      "masquerade": 7895,
      "sftp": 7896,
      "ĠSpecial": 7897,
      "ĠCustomer": 7898,
      "Ġstagecraft": 7899,
      "ĠMarkup": 7900,
      "Ġexactly": 7901,
      "ĠENV": 7902,
      "Ġdeclarative": 7903,
      "Ġchildren": 7904,
      "PATTERNS": 7905,
      "voiceapi": 7906,
      "COLOR": 7907,
      "WIFI": 7908,
      "luidDouble": 7909,
      "ĠRecaptcha": 7910,
      "comparisonfiles": 7911,
      "ABCMeta": 7912,
      "RobinSelector": 7913,
      "futures": 7914,
      "kylefuller": 7915,
      "nacculator": 7916,
      "nuxrc": 7917,
      "oungest": 7918,
      "wallpaper": 7919,
      "aspberry": 7920,
      "expose": 7921,
      "ĠSingleSwitch": 7922,
      "ĠNestedMutable": 7923,
      "ĠOUTPUT": 7924,
      "loadTestsFrom": 7925,
      "tainted": 7926,
      "Ġdeleted": 7927,
      "Registered": 7928,
      "archived": 7929,
      "ĠZOE": 7930,
      "PYTHONPATH": 7931,
      "ĠArrayField": 7932,
      "urisdiction": 7933,
      "ĠSDK": 7934,
      "ĠFeedback": 7935,
      "SIBLE": 7936,
      "ĠtearDown": 7937,
      ")+\"_": 7938,
      "DASHBOARD": 7939,
      "FastxIO": 7940,
      "TwoChars": 7941,
      "nvidia": 7942,
      "riceRule": 7943,
      "tiddlyweb": 7944,
      "windpowerlib": 7945,
      "xontrib": 7946,
      "orphic": 7947,
      "Ġfrappe": 7948,
      "algorithms": 7949,
      "actology": 7950,
      "ĠAlembic": 7951,
      "andLayerMixin": 7952,
      "oldowan": 7953,
      "ĠTRAJECTORY": 7954,
      "ĠLooseVersion": 7955,
      "ĠDetailView": 7956,
      "ĠMODALITY": 7957,
      "ĠRamlCop": 7958,
      "Stroopwaf": 7959,
      "lineExceededError": 7960,
      "Ġauthenticate": 7961,
      "stackoverflow": 7962,
      "Ġqtawesome": 7963,
      "PROCESSORS": 7964,
      "variablestars": 7965,
      "AutomatonException": 7966,
      "IMIZED": 7967,
      "ijksmuseum": 7968,
      "luidDoubleCone": 7969,
      "\"')": 7970,
      "$'": 7971,
      ")-": 7972,
      ");": 7973,
      "*\",": 7974,
      "+',": 7975,
      "-{": 7976,
      "/?": 7977,
      "09": 7978,
      "31": 7979,
      "54": 7980,
      "56": 7981,
      "59": 7982,
      "9000": 7983,
      "=\"\",": 7984,
      "Ans": 7985,
      "Ass": 7986,
      "BA": 7987,
      "BY": 7988,
      "Blue": 7989,
      "Cr": 7990,
      "Cal": 7991,
      "Col": 7992,
      "Cache": 7993,
      "Description": 7994,
      "Direct": 7995,
      "Def": 7996,
      "Elect": 7997,
      "Flow": 7998,
      "Function": 7999,
      "Fetch": 8000,
      "HU": 8001,
      "Health": 8002,
      "IX": 8003,
      "IST": 8004,
      "Ke": 8005,
      "LS": 8006,
      "LU": 8007,
      "LCD": 8008,
      "Mult": 8009,
      "MMIT": 8010,
      "NC": 8011,
      "ND": 8012,
      "NAB": 8013,
      "Option": 8014,
      "OVE": 8015,
      "Oriented": 8016,
      "PM": 8017,
      "Pages": 8018,
      "PEND": 8019,
      "Pillow": 8020,
      "Platform": 8021,
      "Render": 8022,
      "Rijksmuseum": 8023,
      "SA": 8024,
      "Sum": 8025,
      "Sta": 8026,
      "TS": 8027,
      "TU": 8028,
      "Ten": 8029,
      "THE": 8030,
      "Timer": 8031,
      "TRIBUT": 8032,
      "Url": 8033,
      "Valid": 8034,
      "Wizard": 8035,
      "XPATH": 8036,
      "ZONE": 8037,
      "\\\\": 8038,
      "aim": 8039,
      "average": 8040,
      "button": 8041,
      "before": 8042,
      "cython": 8043,
      "dy": 8044,
      "dition": 8045,
      "dzen": 8046,
      "datapackage": 8047,
      "drive": 8048,
      "ele": 8049,
      "false": 8050,
      "fmt": 8051,
      "furikura": 8052,
      "hat": 8053,
      "ied": 8054,
      "ipy": 8055,
      "iant": 8056,
      "iprofile": 8057,
      "jan": 8058,
      "kazoo": 8059,
      "mad": 8060,
      "mith": 8061,
      "mstr": 8062,
      "matt": 8063,
      "nel": 8064,
      "oli": 8065,
      "pel": 8066,
      "pause": 8067,
      "pair": 8068,
      "punct": 8069,
      "rhodes": 8070,
      "sir": 8071,
      "sho": 8072,
      "tn": 8073,
      "tel": 8074,
      "tions": 8075,
      "uator": 8076,
      "vim": 8077,
      "vant": 8078,
      "vices": 8079,
      "warnings": 8080,
      "xis": 8081,
      "yo": 8082,
      "yield": 8083,
      "yays": 8084,
      "youtube": 8085,
      "{:": 8086,
      "};": 8087,
      "}),": 8088,
      "Ġ~": 8089,
      "ĠĊĠĠĠ": 8090,
      "ĠĊĠĠĠĠĠĠĠ": 8091,
      "Ġad": 8092,
      "Ġatt": 8093,
      "Ġright": 8094,
      "Ġ--------------------------------": 8095,
      "Ġlook": 8096,
      "Ġ-----": 8097,
      "Ġutc": 8098,
      "orry": 8099,
      "sep": 8100,
      "once": 8101,
      "inated": 8102,
      "includes": 8103,
      "atn": 8104,
      "eno": 8105,
      "enum": 8106,
      "enrollments": 8107,
      "reload": 8108,
      "rout": 8109,
      "roide": 8110,
      "deli": 8111,
      "devel": 8112,
      "deep": 8113,
      "Ġ'//": 8114,
      "Ġ'%(": 8115,
      "',],": 8116,
      "ortcut": 8117,
      "Ġfuture": 8118,
      "Ġfast": 8119,
      "Ġfont": 8120,
      "Ġfrensie": 8121,
      "thes": 8122,
      "threads": 8123,
      "arre": 8124,
      "learning": 8125,
      "alpha": 8126,
      "Ġca": 8127,
      "Ġci": 8128,
      "Ġcare": 8129,
      "Ġcategory": 8130,
      "Ġcnc": 8131,
      "Ġpi": 8132,
      "Ġpod": 8133,
      "Ġpolicy": 8134,
      "Ġppel": 8135,
      "ursor": 8136,
      "urwid": 8137,
      "estion": 8138,
      "ital": 8139,
      "itespace": 8140,
      "Ġtx": 8141,
      "Ġtrue": 8142,
      "Ġtiny": 8143,
      "Ġ\"%(": 8144,
      "__',": 8145,
      "__.__": 8146,
      "entropy": 8147,
      "iling": 8148,
      "acing": 8149,
      "accept": 8150,
      "Ġday": 8151,
      "Ġreload": 8152,
      "Ġrevision": 8153,
      "Ġreserved": 8154,
      "Ġsummary": 8155,
      "Ġscipy": 8156,
      "serial": 8157,
      "ĠAnd": 8158,
      "ĠAss": 8159,
      "unce": 8160,
      "()['": 8161,
      "rim": 8162,
      "rish": 8163,
      "Ġindic": 8164,
      "Ġincluding": 8165,
      "setests": 8166,
      "Ġaxis": 8167,
      "edwidget": 8168,
      "ĠBit": 8169,
      "('^": 8170,
      "upport": 8171,
      "mopidy": 8172,
      "changes": 8173,
      "getid": 8174,
      "getpid": 8175,
      "ĊĠĠĠĠĠĠĠĠĊĠĠĠĠĠĠĠ": 8176,
      "Ġnn": 8177,
      "Ġnee": 8178,
      "Ġnetwork": 8179,
      "otation": 8180,
      "Ġbash": 8181,
      "Ġbill": 8182,
      "Ġforward": 8183,
      "Ġwall": 8184,
      "Ġwindow": 8185,
      "Ġtheano": 8186,
      "ĠSc": 8187,
      "ĠSlack": 8188,
      "issue": 8189,
      "Ġll": 8190,
      "Ġlauncher": 8191
    },
    "merges": [
      [
        "Ġ",
        "Ġ"
      ],
      [
        "ĠĠ",
        "ĠĠ"
      ],
      [
        "o",
        "r"
      ],
      [
        "s",
        "e"
      ],
      [
        "o",
        "n"
      ],
      [
        "i",
        "n"
      ],
      [
        "e",
        "r"
      ],
      [
        "e",
        "s"
      ],
      [
        "ĠĠ",
        "Ġ"
      ],
      [
        "a",
        "t"
      ],
      [
        "e",
        "n"
      ],
      [
        "Ġ",
        "="
      ],
      [
        "r",
        "e"
      ],
      [
        "m",
        "p"
      ],
      [
        "r",
        "o"
      ],
      [
        "Ġ",
        "i"
      ],
      [
        "d",
        "e"
      ],
      [
        "Ġ",
        "'"
      ],
      [
        "'",
        ","
      ],
      [
        "or",
        "t"
      ],
      [
        "a",
        "n"
      ],
      [
        "s",
        "t"
      ],
      [
        "Ġ",
        "f"
      ],
      [
        "Ċ",
        "ĠĠĠ"
      ],
      [
        "i",
        "on"
      ],
      [
        "t",
        "h"
      ],
      [
        "mp",
        "ort"
      ],
      [
        "Ċ",
        "ĠĠĠĠ"
      ],
      [
        "a",
        "r"
      ],
      [
        "l",
        "e"
      ],
      [
        "Ġi",
        "mport"
      ],
      [
        "a",
        "l"
      ],
      [
        "a",
        "s"
      ],
      [
        "m",
        "e"
      ],
      [
        "Ġ",
        "c"
      ],
      [
        ")",
        ":"
      ],
      [
        "Ġ",
        "p"
      ],
      [
        "u",
        "r"
      ],
      [
        "ro",
        "m"
      ],
      [
        "es",
        "t"
      ],
      [
        "i",
        "t"
      ],
      [
        "g",
        "e"
      ],
      [
        "se",
        "l"
      ],
      [
        "sel",
        "f"
      ],
      [
        "Ġ",
        "t"
      ],
      [
        "Ġ",
        "\""
      ],
      [
        "i",
        "c"
      ],
      [
        "_",
        "_"
      ],
      [
        "de",
        "f"
      ],
      [
        "ĊĠĠĠĠ",
        "ĠĠĠ"
      ],
      [
        "in",
        "g"
      ],
      [
        "u",
        "t"
      ],
      [
        "en",
        "t"
      ],
      [
        "i",
        "l"
      ],
      [
        "l",
        "o"
      ],
      [
        "a",
        "c"
      ],
      [
        "Ġ",
        "d"
      ],
      [
        "a",
        "me"
      ],
      [
        "Ġ",
        "re"
      ],
      [
        "p",
        "t"
      ],
      [
        "Ġ",
        "s"
      ],
      [
        "se",
        "r"
      ],
      [
        "Ġf",
        "rom"
      ],
      [
        "Ġ",
        "A"
      ],
      [
        "a",
        "d"
      ],
      [
        "Ġ",
        "def"
      ],
      [
        "c",
        "o"
      ],
      [
        "f",
        "i"
      ],
      [
        "u",
        "n"
      ],
      [
        "m",
        "a"
      ],
      [
        "(",
        ")"
      ],
      [
        "er",
        "s"
      ],
      [
        "r",
        "i"
      ],
      [
        "Ġ",
        "in"
      ],
      [
        "se",
        "t"
      ],
      [
        "e",
        "x"
      ],
      [
        "c",
        "t"
      ],
      [
        "Ġ",
        "a"
      ],
      [
        "=",
        "'"
      ],
      [
        "Ġ",
        "#"
      ],
      [
        "n",
        "ame"
      ],
      [
        "Ġ",
        "o"
      ],
      [
        "q",
        "u"
      ],
      [
        "e",
        "l"
      ],
      [
        "e",
        "d"
      ],
      [
        "R",
        "E"
      ],
      [
        "\"",
        "\""
      ],
      [
        "Ġ",
        "B"
      ],
      [
        "(",
        "'"
      ],
      [
        "as",
        "s"
      ],
      [
        "E",
        "R"
      ],
      [
        "-",
        "-"
      ],
      [
        "\"",
        ","
      ],
      [
        "'",
        ")"
      ],
      [
        "u",
        "p"
      ],
      [
        "l",
        "i"
      ],
      [
        "Ġ",
        "self"
      ],
      [
        "m",
        "o"
      ],
      [
        "Ġ",
        "th"
      ],
      [
        "c",
        "h"
      ],
      [
        "i",
        "r"
      ],
      [
        "an",
        "d"
      ],
      [
        "an",
        "g"
      ],
      [
        "Ġ",
        ":"
      ],
      [
        "at",
        "e"
      ],
      [
        "a",
        "g"
      ],
      [
        "a",
        "ge"
      ],
      [
        "c",
        "on"
      ],
      [
        "ac",
        "k"
      ],
      [
        "a",
        "p"
      ],
      [
        "u",
        "l"
      ],
      [
        "F",
        "O"
      ],
      [
        "ge",
        "t"
      ],
      [
        "o",
        "l"
      ],
      [
        "c",
        "e"
      ],
      [
        "Ġ",
        "r"
      ],
      [
        "T",
        "ER"
      ],
      [
        "ĊĠĠĠĠ",
        "ĠĠĠĠ"
      ],
      [
        "t",
        "ur"
      ],
      [
        "l",
        "ass"
      ],
      [
        "tur",
        "n"
      ],
      [
        "at",
        "h"
      ],
      [
        "ĠB",
        "E"
      ],
      [
        "Ġ:",
        ":"
      ],
      [
        "ĠA",
        "F"
      ],
      [
        "FO",
        "RE"
      ],
      [
        "ĠBE",
        "FORE"
      ],
      [
        "ĠAF",
        "TER"
      ],
      [
        "Ġ",
        "n"
      ],
      [
        "o",
        "t"
      ],
      [
        "f",
        "rom"
      ],
      [
        "Ġ",
        "b"
      ],
      [
        "Ġ",
        "v"
      ],
      [
        "pt",
        "ion"
      ],
      [
        "ur",
        "l"
      ],
      [
        "at",
        "a"
      ],
      [
        "Ġre",
        "turn"
      ],
      [
        "Ġf",
        "or"
      ],
      [
        "ar",
        "g"
      ],
      [
        "[",
        "'"
      ],
      [
        "Ġ",
        "w"
      ],
      [
        "a",
        "m"
      ],
      [
        "Ġth",
        "e"
      ],
      [
        "u",
        "e"
      ],
      [
        "Ġ",
        "S"
      ],
      [
        "i",
        "d"
      ],
      [
        "at",
        "ion"
      ],
      [
        "Ġ",
        "set"
      ],
      [
        "'",
        "]"
      ],
      [
        "i",
        "s"
      ],
      [
        "Ġ",
        "l"
      ],
      [
        "ers",
        "ion"
      ],
      [
        "e",
        "ct"
      ],
      [
        "m",
        "ent"
      ],
      [
        "e",
        "t"
      ],
      [
        "c",
        "ri"
      ],
      [
        "Ġ",
        "T"
      ],
      [
        "a",
        "b"
      ],
      [
        "in",
        "t"
      ],
      [
        "de",
        "l"
      ],
      [
        "es",
        "s"
      ],
      [
        "u",
        "th"
      ],
      [
        "Ġi",
        "f"
      ],
      [
        "al",
        "l"
      ],
      [
        "a",
        "se"
      ],
      [
        "p",
        "ath"
      ],
      [
        "h",
        "t"
      ],
      [
        "'",
        ":"
      ],
      [
        "p",
        "y"
      ],
      [
        "j",
        "ang"
      ],
      [
        "jang",
        "o"
      ],
      [
        "Ġ",
        "C"
      ],
      [
        "Ġ",
        "L"
      ],
      [
        "Ġ\"",
        "\"\""
      ],
      [
        "co",
        "m"
      ],
      [
        "t",
        "est"
      ],
      [
        "i",
        "th"
      ],
      [
        "Ġ",
        "P"
      ],
      [
        "(",
        "\""
      ],
      [
        "e",
        "w"
      ],
      [
        "v",
        "e"
      ],
      [
        "fi",
        "g"
      ],
      [
        "u",
        "b"
      ],
      [
        "v",
        "er"
      ],
      [
        "i",
        "st"
      ],
      [
        "u",
        "s"
      ],
      [
        "k",
        "e"
      ],
      [
        "Ċ",
        "Ċ"
      ],
      [
        "ex",
        "t"
      ],
      [
        "p",
        "ro"
      ],
      [
        "or",
        "m"
      ],
      [
        "Ġt",
        "o"
      ],
      [
        "lo",
        "g"
      ],
      [
        "p",
        "en"
      ],
      [
        "Ġ",
        "m"
      ],
      [
        "re",
        "qu"
      ],
      [
        "th",
        "on"
      ],
      [
        "mo",
        "del"
      ],
      [
        "Ċ",
        "ĊĠĠĠ"
      ],
      [
        "\"",
        ")"
      ],
      [
        "ic",
        "en"
      ],
      [
        "ag",
        "es"
      ],
      [
        "Ġc",
        "lass"
      ],
      [
        "Ġ",
        "as"
      ],
      [
        "arg",
        "s"
      ],
      [
        "icen",
        "se"
      ],
      [
        "Ġt",
        "est"
      ],
      [
        "Ġ",
        "__"
      ],
      [
        "Ġ",
        "["
      ],
      [
        "c",
        "k"
      ],
      [
        "cri",
        "ption"
      ],
      [
        "p",
        "e"
      ],
      [
        "uth",
        "or"
      ],
      [
        "Ġc",
        "on"
      ],
      [
        "ĊĠĠĠĠĠĠĠĠ",
        "ĠĠĠ"
      ],
      [
        "t",
        "er"
      ],
      [
        "t",
        "o"
      ],
      [
        "es",
        "cription"
      ],
      [
        "ul",
        "t"
      ],
      [
        "t",
        "p"
      ],
      [
        "g",
        "r"
      ],
      [
        "p",
        "l"
      ],
      [
        "--",
        "--"
      ],
      [
        "Ġ",
        "url"
      ],
      [
        "r",
        "or"
      ],
      [
        "Ġ",
        "st"
      ],
      [
        "t",
        "r"
      ],
      [
        "on",
        "e"
      ],
      [
        "=",
        "\""
      ],
      [
        "h",
        "e"
      ],
      [
        "ma",
        "il"
      ],
      [
        "ĠĠĠĠ",
        "ĠĠĠĠ"
      ],
      [
        "o",
        "m"
      ],
      [
        "j",
        "ect"
      ],
      [
        "Ġ",
        "D"
      ],
      [
        "u",
        "ser"
      ],
      [
        "r",
        "ue"
      ],
      [
        "Ġ",
        "-"
      ],
      [
        "u",
        "m"
      ],
      [
        "Ġ",
        "("
      ],
      [
        "i",
        "ew"
      ],
      [
        "ht",
        "tp"
      ],
      [
        "t",
        "e"
      ],
      [
        "Ġo",
        "s"
      ],
      [
        "i",
        "f"
      ],
      [
        "it",
        "e"
      ],
      [
        "ack",
        "ages"
      ],
      [
        "Ġ",
        "name"
      ],
      [
        "Ġa",
        "uthor"
      ],
      [
        "Ġ",
        "h"
      ],
      [
        "f",
        "orm"
      ],
      [
        "o",
        "d"
      ],
      [
        "y",
        "s"
      ],
      [
        "or",
        "d"
      ],
      [
        "el",
        "d"
      ],
      [
        "ser",
        "t"
      ],
      [
        "p",
        "o"
      ],
      [
        "/",
        "/"
      ],
      [
        ")",
        ","
      ],
      [
        "Ġ",
        "I"
      ],
      [
        "Ġ",
        "{"
      ],
      [
        "d",
        "ata"
      ],
      [
        "fi",
        "le"
      ],
      [
        "in",
        "d"
      ],
      [
        ":",
        "//"
      ],
      [
        "y",
        "thon"
      ],
      [
        "Ġ",
        "M"
      ],
      [
        "ab",
        "le"
      ],
      [
        "Ġi",
        "s"
      ],
      [
        "Ġ",
        "N"
      ],
      [
        "model",
        "s"
      ],
      [
        ")",
        ")"
      ],
      [
        "Ġ",
        "."
      ],
      [
        "i",
        "me"
      ],
      [
        "Ġv",
        "ersion"
      ],
      [
        "i",
        "mport"
      ],
      [
        "en",
        "v"
      ],
      [
        "Ġd",
        "jango"
      ],
      [
        "or",
        "e"
      ],
      [
        "Ġ",
        "ex"
      ],
      [
        "Ġset",
        "up"
      ],
      [
        "]",
        ","
      ],
      [
        "v",
        "ersion"
      ],
      [
        "O",
        "N"
      ],
      [
        "Ġ",
        "g"
      ],
      [
        "(",
        "):"
      ],
      [
        "i",
        "z"
      ],
      [
        "r",
        "y"
      ],
      [
        "c",
        "lass"
      ],
      [
        "in",
        "e"
      ],
      [
        "d",
        "o"
      ],
      [
        "Ġ",
        "F"
      ],
      [
        "o",
        "b"
      ],
      [
        "d",
        "ir"
      ],
      [
        "ke",
        "y"
      ],
      [
        "Ġ",
        "*"
      ],
      [
        "E",
        "r"
      ],
      [
        "r",
        "int"
      ],
      [
        "t",
        "y"
      ],
      [
        "Er",
        "ror"
      ],
      [
        "l",
        "u"
      ],
      [
        "=",
        "="
      ],
      [
        "re",
        "ad"
      ],
      [
        "o",
        "s"
      ],
      [
        "h",
        "o"
      ],
      [
        "ut",
        "il"
      ],
      [
        "ad",
        "d"
      ],
      [
        "a",
        "y"
      ],
      [
        "=",
        "["
      ],
      [
        "o",
        "ol"
      ],
      [
        "d",
        "er"
      ],
      [
        "e",
        "mail"
      ],
      [
        "i",
        "le"
      ],
      [
        "p",
        "er"
      ],
      [
        "Ġ",
        "O"
      ],
      [
        "ma",
        "in"
      ],
      [
        "i",
        "re"
      ],
      [
        "p",
        "ar"
      ],
      [
        "T",
        "rue"
      ],
      [
        "u",
        "re"
      ],
      [
        "i",
        "eld"
      ],
      [
        "ing",
        "s"
      ],
      [
        "ac",
        "t"
      ],
      [
        "Ġ",
        "2"
      ],
      [
        "Ġ=",
        "="
      ],
      [
        "Ġ",
        "and"
      ],
      [
        "Ġ",
        "get"
      ],
      [
        "on",
        "g"
      ],
      [
        "con",
        "t"
      ],
      [
        "Ġn",
        "ot"
      ],
      [
        "es",
        "p"
      ],
      [
        "a",
        "ult"
      ],
      [
        "Ġ",
        "1"
      ],
      [
        "M",
        "E"
      ],
      [
        "j",
        "s"
      ],
      [
        "li",
        "st"
      ],
      [
        "st",
        "r"
      ],
      [
        "']",
        ","
      ],
      [
        "ĊĠĠĠĠ",
        "Ġ"
      ],
      [
        "P",
        "ro"
      ],
      [
        "o",
        "ur"
      ],
      [
        "i",
        "g"
      ],
      [
        "Ġ",
        "e"
      ],
      [
        "Ġre",
        "qu"
      ],
      [
        "mp",
        "le"
      ],
      [
        "c",
        "ess"
      ],
      [
        "as",
        "k"
      ],
      [
        "lo",
        "ad"
      ],
      [
        "\"\"",
        "\""
      ],
      [
        "v",
        "al"
      ],
      [
        "I",
        "T"
      ],
      [
        "Ġ",
        "log"
      ],
      [
        "mp",
        "l"
      ],
      [
        "e",
        "m"
      ],
      [
        "s",
        "ion"
      ],
      [
        "con",
        "fig"
      ],
      [
        "o",
        "de"
      ],
      [
        "Ġ",
        "_"
      ],
      [
        "in",
        "it"
      ],
      [
        "Ġo",
        "f"
      ],
      [
        "m",
        "and"
      ],
      [
        "i",
        "al"
      ],
      [
        "m",
        "in"
      ],
      [
        "Ġa",
        "p"
      ],
      [
        "Ġw",
        "ith"
      ],
      [
        "Ġ",
        "R"
      ],
      [
        "Ġp",
        "ro"
      ],
      [
        "Ġ",
        "E"
      ],
      [
        "b",
        "o"
      ],
      [
        "i",
        "p"
      ],
      [
        "Ġ",
        "un"
      ],
      [
        "ap",
        "p"
      ],
      [
        "ang",
        "u"
      ],
      [
        "w",
        "ord"
      ],
      [
        "d",
        "escription"
      ],
      [
        "angu",
        "age"
      ],
      [
        "I",
        "n"
      ],
      [
        "Ġd",
        "escription"
      ],
      [
        "ct",
        "ion"
      ],
      [
        "Ġp",
        "rint"
      ],
      [
        "Ġd",
        "ata"
      ],
      [
        "li",
        "b"
      ],
      [
        "T",
        "est"
      ],
      [
        "t",
        "a"
      ],
      [
        "Ġ",
        "+"
      ],
      [
        "requ",
        "est"
      ],
      [
        "Ġ",
        "['"
      ],
      [
        "S",
        "I"
      ],
      [
        "Ġin",
        "st"
      ],
      [
        "ith",
        "ub"
      ],
      [
        "js",
        "on"
      ],
      [
        "ool",
        "s"
      ],
      [
        "t",
        "ings"
      ],
      [
        "ar",
        "t"
      ],
      [
        "al",
        "se"
      ],
      [
        "Ġ",
        "@"
      ],
      [
        "o",
        "p"
      ],
      [
        "d",
        "u"
      ],
      [
        "g",
        "ithub"
      ],
      [
        "f",
        "il"
      ],
      [
        "ir",
        "es"
      ],
      [
        "http",
        "s"
      ],
      [
        "i",
        "m"
      ],
      [
        "Ġs",
        "ys"
      ],
      [
        "A",
        "T"
      ],
      [
        "0",
        "0"
      ],
      [
        "__",
        "("
      ],
      [
        "()",
        ","
      ],
      [
        "esp",
        "on"
      ],
      [
        "util",
        "s"
      ],
      [
        "----",
        "----"
      ],
      [
        "se",
        "s"
      ],
      [
        "u",
        "pt"
      ],
      [
        "as",
        "sert"
      ],
      [
        "Ġ",
        "%"
      ],
      [
        "j",
        "o"
      ],
      [
        "ob",
        "ject"
      ],
      [
        "Ġ",
        "de"
      ],
      [
        "Ġ",
        "U"
      ],
      [
        "p",
        "ackages"
      ],
      [
        "or",
        "k"
      ],
      [
        "=",
        "['"
      ],
      [
        "Ġ",
        "W"
      ],
      [
        "li",
        "ent"
      ],
      [
        "C",
        "on"
      ],
      [
        "o",
        "k"
      ],
      [
        "ri",
        "b"
      ],
      [
        "d",
        "b"
      ],
      [
        "upt",
        "ools"
      ],
      [
        "at",
        "us"
      ],
      [
        "gr",
        "am"
      ],
      [
        "g",
        "er"
      ],
      [
        "p",
        "ut"
      ],
      [
        "en",
        "d"
      ],
      [
        "ĠL",
        "icense"
      ],
      [
        "ĠP",
        "ython"
      ],
      [
        "e",
        "b"
      ],
      [
        "I",
        "N"
      ],
      [
        "o",
        "c"
      ],
      [
        "Ġp",
        "ar"
      ],
      [
        "Ġp",
        "ackages"
      ],
      [
        "\"",
        ":"
      ],
      [
        "o",
        "ut"
      ],
      [
        "v",
        "iew"
      ],
      [
        "p",
        "ort"
      ],
      [
        "ess",
        "age"
      ],
      [
        "t",
        "ime"
      ],
      [
        "u",
        "g"
      ],
      [
        "ack",
        "age"
      ],
      [
        "requ",
        "ires"
      ],
      [
        "i",
        "fi"
      ],
      [
        "b",
        "ase"
      ],
      [
        "ve",
        "lo"
      ],
      [
        "form",
        "at"
      ],
      [
        "f",
        "o"
      ],
      [
        "Ġv",
        "al"
      ],
      [
        "d",
        "jango"
      ],
      [
        "S",
        "E"
      ],
      [
        "ic",
        "t"
      ],
      [
        "')",
        ","
      ],
      [
        "Ġ",
        "],"
      ],
      [
        "espon",
        "se"
      ],
      [
        "s",
        "h"
      ],
      [
        "velo",
        "p"
      ],
      [
        "*",
        "-"
      ],
      [
        "Ġrequ",
        "est"
      ],
      [
        "r",
        "a"
      ],
      [
        "ĠN",
        "one"
      ],
      [
        "Ġ-",
        "*-"
      ],
      [
        "at",
        "or"
      ],
      [
        "s",
        "o"
      ],
      [
        "jo",
        "in"
      ],
      [
        "cri",
        "pt"
      ],
      [
        "Ġinst",
        "all"
      ],
      [
        "Ġ",
        "el"
      ],
      [
        "e",
        "c"
      ],
      [
        "#",
        "#"
      ],
      [
        "l",
        "er"
      ],
      [
        "at",
        "ch"
      ],
      [
        "ĠL",
        "anguage"
      ],
      [
        "un",
        "t"
      ],
      [
        "c",
        "lu"
      ],
      [
        "Ġcon",
        "fig"
      ],
      [
        "g",
        "ing"
      ],
      [
        "Ġ",
        "0"
      ],
      [
        "F",
        "ield"
      ],
      [
        "ce",
        "pt"
      ],
      [
        "S",
        "T"
      ],
      [
        "Ġl",
        "ong"
      ],
      [
        "Ġset",
        "uptools"
      ],
      [
        "d",
        "ate"
      ],
      [
        "gram",
        "m"
      ],
      [
        "m",
        "s"
      ],
      [
        ")",
        "."
      ],
      [
        "k",
        "w"
      ],
      [
        "u",
        "il"
      ],
      [
        "Ġ",
        "G"
      ],
      [
        "er",
        "y"
      ],
      [
        "Ġl",
        "icense"
      ],
      [
        "w",
        "n"
      ],
      [
        "at",
        "ed"
      ],
      [
        "ut",
        "e"
      ],
      [
        "i",
        "es"
      ],
      [
        "Ġ",
        "3"
      ],
      [
        ">",
        "="
      ],
      [
        "gramm",
        "ing"
      ],
      [
        "A",
        "D"
      ],
      [
        "u",
        "ment"
      ],
      [
        "ir",
        "on"
      ],
      [
        "]",
        ")"
      ],
      [
        "our",
        "ce"
      ],
      [
        "mpl",
        "ate"
      ],
      [
        "u",
        "d"
      ],
      [
        "Ġ",
        "user"
      ],
      [
        "r",
        "un"
      ],
      [
        "ap",
        "i"
      ],
      [
        "E",
        "N"
      ],
      [
        "Pro",
        "gramming"
      ],
      [
        "u",
        "se"
      ],
      [
        "Ġp",
        "y"
      ],
      [
        "c",
        "re"
      ],
      [
        "m",
        "l"
      ],
      [
        "Ġ",
        "}"
      ],
      [
        "Ġc",
        "o"
      ],
      [
        "e",
        "velop"
      ],
      [
        "es",
        "ult"
      ],
      [
        "ĊĠĠĠĠĠĠĠĠ",
        "ĠĠĠĠĠĠĠĠ"
      ],
      [
        "Ġ",
        "se"
      ],
      [
        "o",
        "g"
      ],
      [
        "clu",
        "de"
      ],
      [
        "kw",
        "args"
      ],
      [
        "t",
        "ext"
      ],
      [
        "Ġo",
        "pen"
      ],
      [
        "pen",
        "d"
      ],
      [
        "'",
        "'"
      ],
      [
        "ch",
        "e"
      ],
      [
        "ation",
        "s"
      ],
      [
        "ar",
        "y"
      ],
      [
        "b",
        "in"
      ],
      [
        "Ġ",
        "models"
      ],
      [
        "a",
        "re"
      ],
      [
        "or",
        "y"
      ],
      [
        "Ġp",
        "ass"
      ],
      [
        "ac",
        "e"
      ],
      [
        "l",
        "y"
      ],
      [
        "lo",
        "c"
      ],
      [
        "Ġr",
        "un"
      ],
      [
        "Ġb",
        "e"
      ],
      [
        "ption",
        "s"
      ],
      [
        "Ġas",
        "sert"
      ],
      [
        "om",
        "mand"
      ],
      [
        "v",
        "ent"
      ],
      [
        "un",
        "d"
      ],
      [
        "Ġ",
        "an"
      ],
      [
        "R",
        "e"
      ],
      [
        "w",
        "ork"
      ],
      [
        "Ġ",
        "or"
      ],
      [
        "de",
        "d"
      ],
      [
        "Ġt",
        "ry"
      ],
      [
        "c",
        "ore"
      ],
      [
        "ĠĠĠĠ",
        "ĠĠĠ"
      ],
      [
        "E",
        "x"
      ],
      [
        "n",
        "o"
      ],
      [
        "set",
        "up"
      ],
      [
        "Ġ",
        "on"
      ],
      [
        "en",
        "g"
      ],
      [
        "py",
        "thon"
      ],
      [
        "ĠI",
        "n"
      ],
      [
        "g",
        "ist"
      ],
      [
        "=",
        "{"
      ],
      [
        "N",
        "one"
      ],
      [
        "Ġ",
        ")"
      ],
      [
        "Ġ",
        "H"
      ],
      [
        "m",
        "d"
      ],
      [
        "n",
        "s"
      ],
      [
        "Ġ",
        "mo"
      ],
      [
        "RE",
        "AD"
      ],
      [
        "pro",
        "cess"
      ],
      [
        "P",
        "I"
      ],
      [
        "lo",
        "w"
      ],
      [
        "f",
        "ind"
      ],
      [
        "an",
        "ce"
      ],
      [
        "ic",
        "ation"
      ],
      [
        "ty",
        "pe"
      ],
      [
        "READ",
        "ME"
      ],
      [
        "a",
        "i"
      ],
      [
        "n",
        "ect"
      ],
      [
        "o",
        "pen"
      ],
      [
        "ial",
        "iz"
      ],
      [
        "an",
        "s"
      ],
      [
        "qu",
        "al"
      ],
      [
        "Ġst",
        "r"
      ],
      [
        ".",
        "_"
      ],
      [
        "r",
        "ame"
      ],
      [
[...]
