{
  "version": "1.0",
  "truncation": null,
  "padding": null,
  "added_tokens": [
    {
      "id": 0,
      "content": "<pad>",
      "single_word": false,
      "lstrip": false,
      "rstrip": false,
      "normalized": false,
      "special": true
    },
    {
      "id": 1,
      "content": "<mask>",
      "single_word": false,
      "lstrip": false,
      "rstrip": false,
      "normalized": false,
      "special": true
    },
    {
      "id": 2,
      "content": "<unk>",
      "single_word": false,
      "lstrip": false,
      "rstrip": false,
      "normalized": false,
      "special": true
    },
    {
      "id": 3,
      "content": "<bos>",
      "single_word": false,
      "lstrip": false,
      "rstrip": false,
      "normalized": false,
      "special": true
    },
    {
      "id": 4,
      "content": "<eos>",
      "single_word": false,
      "lstrip": false,
      "rstrip": false,
      "normalized": false,
      "special": true
    }
  ],
  "normalizer": null,
  "pre_tokenizer": {
    "type": "ByteLevel",
    "add_prefix_space": true,
    "trim_offsets": true,
    "use_regex": true
  },
  "post_processor": {
    "type": "ByteLevel",
    "add_prefix_space": true,
    "trim_offsets": false,
    "use_regex": true
  },
  "decoder": null,
  "model": {
    "type": "BPE",
    "dropout": null,
    "unk_token": "<unk>",
    "continuing_subword_prefix": null,
    "end_of_word_suffix": null,
    "fuse_unk": false,
    "byte_fallback": false,
    "ignore_merges": false,
    "vocab": {
      "<pad>": 0,
      "<mask>": 1,
      "<unk>": 2,
      "<bos>": 3,
      "<eos>": 4,
      " ": 5,
      "!": 6,
      "\"": 7,
      "#": 8,
      "$": 9,
      "%": 10,
      "&": 11,
      "'": 12,
      "(": 13,
      ")": 14,
      "+": 15,
      ",": 16,
      "-": 17,
      ".": 18,
      "/": 19,
      "0": 20,
      "1": 21,
      "2": 22,
      "3": 23,
      "4": 24,
      "5": 25,
      "6": 26,
      "7": 27,
      "8": 28,
      "9": 29,
      ":": 30,
      ";": 31,
      "<": 32,
      "?": 33,
      "@": 34,
      "A": 35,
      "B": 36,
      "C": 37,
      "D": 38,
      "E": 39,
      "F": 40,
      "G": 41,
      "H": 42,
      "I": 43,
      "J": 44,
      "K": 45,
      "L": 46,
      "M": 47,
      "N": 48,
      "O": 49,
      "P": 50,
      "Q": 51,
      "R": 52,
      "S": 53,
      "T": 54,
      "U": 55,
      "V": 56,
      "W": 57,
      "X": 58,
      "Y": 59,
      "Z": 60,
      "[": 61,
      "\\": 62,
      "]": 63,
      "_": 64,
      "`": 65,
      "a": 66,
      "b": 67,
      "c": 68,
      "d": 69,
      "e": 70,
      "f": 71,
      "g": 72,
      "h": 73,
      "i": 74,
      "j": 75,
      "k": 76,
      "l": 77,
      "m": 78,
      "n": 79,
      "o": 80,
      "p": 81,
      "q": 82,
      "r": 83,
      "s": 84,
      "t": 85,
      "u": 86,
      "v": 87,
      "w": 88,
      "x": 89,
      "y": 90,
      "z": 91,
      "{": 92,
      "¢": 93,
      "£": 94,
      "¥": 95,
      "ª": 96,
      "«": 97,
      "¬": 98,
      "®": 99,
      "°": 100,
      "´": 101,
      "¹": 102,
      "Â": 103,
      "Ã": 104,
      "ĉ": 105,
      "Ġ": 106,
      "Ģ": 107,
      "Ĥ": 108,
      "ĥ": 109,
      "Ħ": 110,
      "ħ": 111,
      "Ĩ": 112,
      "Ī": 113,
      "Ĵ": 114,
      "Ļ": 115,
      "ļ": 116,
      "Ŀ": 117,
      "ŀ": 118,
      "ł": 119,
      "me": 120,
      "ome": 121,
      "ĠS": 122,
      "ĠSome": 123,
      "on": 124,
      "one": 125,
      "ĠSomeone": 126,
      "th": 127,
      "in": 128,
      "ing": 129,
      "Ġa": 130,
      "is": 131,
      "thing": 132,
      "ĠSomething": 133,
      "Ġis": 134,
      "Ġ(": 135,
      "es": 136,
      "re": 137,
      "at": 138,
      "Ġt": 139,
      "Ġf": 140,
      "wh": 141,
      "that": 142,
      "Ġto": 143,
      "Ġp": 144,
      ").": 145,
      "Ġs": 146,
      "Ġw": 147,
      "Ġh": 148,
      "ere": 149,
      "Ġd": 150,
      "where": 151,
      "le": 152,
      "el": 153,
      "Ġc": 154,
      "ĠSomewhere": 155,
      "Ġb": 156,
      "ed": 157,
      "Ġth": 158,
      "Ġan": 159,
      "Ġo": 160,
      "an": 161,
      "Ġg": 162,
      "Ġthe": 163,
      "Ġfe": 164,
      "er": 165,
      "or": 166,
      "Ġfeel": 167,
      "Ġl": 168,
      "ic": 169,
      "as": 170,
      "os": 171,
      "Ġin": 172,
      "ess": 173,
      "en": 174,
      "ar": 175,
      "op": 176,
      "Ġdo": 177,
      "Ġat": 178,
      "Ġn": 179,
      "et": 180,
      "oss": 181,
      "who": 182,
      "Ġposs": 183,
      "Ġpossess": 184,
      "Ġof": 185,
      "eop": 186,
      "eople": 187,
      "Ġand": 188,
      "ou": 189,
      "it": 190,
      "ĠP": 191,
      "ĠPeople": 192,
      "al": 193,
      "ant": 194,
      "Ġm": 195,
      "Ġwant": 196,
      "oo": 197,
      "id": 198,
      "Ġfor": 199,
      "'s": 200,
      "Ġha": 201,
      "Ġare": 202,
      "ro": 203,
      "Ġgo": 204,
      "ich": 205,
      "ri": 206,
      "Ġe": 207,
      "which": 208,
      "ay": 209,
      "Ġu": 210,
      "ve": 211,
      "ut": 212,
      "Ġ((": 213,
      "Ġne": 214,
      "Ġst": 215,
      "Ġhas": 216,
      "Ġon": 217,
      "ak": 218,
      "ac": 219,
      "pp": 220,
      "il": 221,
      "ir": 222,
      "Ġli": 223,
      "ot": 224,
      "ĠĠ": 225,
      "ks": 226,
      "ion": 227,
      "Ġre": 228,
      "Ġget": 229,
      "ad": 230,
      "Ġr": 231,
      "ent": 232,
      "ec": 233,
      "Ġwi": 234,
      "ves": 235,
      "Ġwith": 236,
      "Ġpl": 237,
      "Ġdoes": 238,
      "un": 239,
      "ood": 240,
      "Ġout": 241,
      "Ġbe": 242,
      "Ġwas": 243,
      ")).": 244,
      "im": 245,
      "gh": 246,
      "nt": 247,
      "ke": 248,
      "ch": 249,
      "ur": 250,
      "Ġhapp": 251,
      "ow": 252,
      "ds": 253,
      "Ġbu": 254,
      "ide": 255,
      "Ġup": 256,
      "Ġhappy": 257,
      "Ġgoes": 258,
      "Ġch": 259,
      "Ġlo": 260,
      "rom": 261,
      "ver": 262,
      "ble": 263,
      "ls": 264,
      "Ġnot": 265,
      "Ġpet": 266,
      "Ġgets": 267,
      "are": 268,
      "Ġco": 269,
      "ation": 270,
      "Ġfrom": 271,
      "akes": 272,
      "Ġsh": 273,
      "us": 274,
      "Ġse": 275,
      "ain": 276,
      "Ġfood": 277,
      "ct": 278,
      "ul": 279,
      "ght": 280,
      "Ġas": 281,
      "ld": 282,
      "ous": 283,
      "))": 284,
      "Ġlike": 285,
      "Ġti": 286,
      "ore": 287,
      "Ġle": 288,
      "Ġk": 289,
      "ity": 290,
      "Ġthat": 291,
      "ĠĠĠĠ": 292,
      "Ġ).": 293,
      "Ġex": 294,
      "Ġplay": 295,
      "Ġbuy": 296,
      "ly": 297,
      "art": 298,
      "Ġme": 299,
      "Ġtheir": 300,
      "imal": 301,
      "'t": 302,
      "out": 303,
      "side": 304,
      "Ġfin": 305,
      "mp": 306,
      "Ġdec": 307,
      "Ġab": 308,
      "Ġanimal": 309,
      "iv": 310,
      "Ġwor": 311,
      "Ġhe": 312,
      "Ġhis": 313,
      "ter": 314,
      "ĠT": 315,
      "Ġsp": 316,
      "Ġtr": 317,
      "Ġcl": 318,
      "nd": 319,
      "Ġwants": 320,
      "Ġcan": 321,
      "Ġabout": 322,
      "ce": 323,
      "Ġneed": 324,
      "rien": 325,
      "Ġthey": 326,
      "est": 327,
      "rou": 328,
      "Ġhome": 329,
      "ake": 330,
      "Ġ)": 331,
      "Ġfrien": 332,
      "ong": 333,
      "ild": 334,
      "Ġus": 335,
      "ked": 336,
      "Ġal": 337,
      "Ġcar": 338,
      "Ġdecid": 339,
      "Ġact": 340,
      "wn": 341,
      "ep": 342,
      "Ġsa": 343,
      "ge": 344,
      "Ġcon": 345,
      "ate": 346,
      "Ġtime": 347,
      "Ġwh": 348,
      "Ġnew": 349,
      "ĠTh": 350,
      "ace": 351,
      "ort": 352,
      "ivity": 353,
      "Ġit": 354,
      "ment": 355,
      "Ġeat": 356,
      "oney": 357,
      "ther": 358,
      "Ġhave": 359,
      "Ġmoney": 360,
      "am": 361,
      "Ġactivity": 362,
      "Ġj": 363,
      "Ġfun": 364,
      "Ġdis": 365,
      "Ġgi": 366,
      "Ġloo": 367,
      "all": 368,
      "ible": 369,
      "to": 370,
      "Ġdoing": 371,
      "ame": 372,
      "ry": 373,
      "ful": 374,
      "ick": 375,
      "Ġher": 376,
      "arent": 377,
      "ach": 378,
      "Ġchild": 379,
      "Ġtri": 380,
      "Ġloc": 381,
      "Ġhad": 382,
      "Ġparent": 383,
      "st": 384,
      "Ġv": 385,
      "ard": 386,
      "li": 387,
      "Ġve": 388,
      "Ġnear": 389,
      "Ġwat": 390,
      "Ġbuys": 391,
      "Ġtoo": 392,
      "Ġtakes": 393,
      "Ġput": 394,
      "Ġby": 395,
      "Ġpart": 396,
      "ice": 397,
      "Ġen": 398,
      "ited": 399,
      "ells": 400,
      "red": 401,
      "king": 402,
      "led": 403,
      "ĠThe": 404,
      "hic": 405,
      "Ġhel": 406,
      "Ġfriends": 407,
      "Ġwal": 408,
      "Ġwe": 409,
      "Ġvehic": 410,
      "Ġoff": 411,
      "ell": 412,
      "Ġdecides": 413,
      "Ġwent": 414,
      "Ġexc": 415,
      "ĠĠĠĠĠĠĠĠ": 416,
      "Ġinto": 417,
      "ish": 418,
      "ers": 419,
      "ack": 420,
      "Ġte": 421,
      "Ġsees": 422,
      "Ġdr": 423,
      "ass": 424,
      "and": 425,
      "qu": 426,
      "Ġvehicle": 427,
      "Ġfr": 428,
      "ol": 429,
      "Ġdri": 430,
      "Ġmo": 431,
      "ill": 432,
      "leep": 433,
      "Ġhelp": 434,
      "uc": 435,
      "ated": 436,
      "ted": 437,
      "oy": 438,
      "Ġsc": 439,
      "Ġinside": 440,
      "urn": 441,
      "Ġdog": 442,
      "now": 443,
      "Ġoutside": 444,
      "Ġplace": 445,
      "ans": 446,
      "Ġed": 447,
      "ts": 448,
      "ouse": 449,
      "Ġno": 450,
      "ved": 451,
      "Ġop": 452,
      "Ġmakes": 453,
      "Ġfi": 454,
      "Ġgood": 455,
      "very": 456,
      "Ġgot": 457,
      "ving": 458,
      "ist": 459,
      "Ġfinds": 460,
      "Ġedible": 461,
      "Ġun": 462,
      "alls": 463,
      "Ġwhere": 464,
      "Ġaf": 465,
      "Ġy": 466,
      "way": 467,
      "Ġlocation": 468,
      "Ġexcited": 469,
      "its": 470,
      "Ġcomp": 471,
      "Ġcoo": 472,
      "ure": 473,
      "able": 474,
      "Ġasks": 475,
      "Ġbo": 476,
      "vent": 477,
      "ast": 478,
      "ip": 479,
      "xt": 480,
      "tain": 481,
      "Ġone": 482,
      "Ġcle": 483,
      "Ġhouse": 484,
      "ang": 485,
      "Ġwork": 486,
      "ade": 487,
      "ra": 488,
      "Ġso": 489,
      "ig": 490,
      "ud": 491,
      "Ġover": 492,
      "ould": 493,
      "Ġsad": 494,
      "ered": 495,
      "Ġdown": 496,
      "ool": 497,
      "Ġnext": 498,
      "row": 499,
      "Ġrun": 500,
      "kes": 501,
      "Ġpro": 502,
      "Ġstore": 503,
      "Ġstr": 504,
      "Ġsee": 505,
      "ings": 506,
      "ft": 507,
      "Ġday": 508,
      "Ġback": 509,
      "ound": 510,
      "Ġlea": 511
    },
    "merges": [
      [
        "m",
        "e"
      ],
      [
        "o",
        "me"
      ],
      [
        "Ġ",
        "S"
      ],
      [
        "ĠS",
        "ome"
      ],
      [
        "o",
        "n"
      ],
      [
        "on",
        "e"
      ],
      [
        "ĠSome",
        "one"
      ],
      [
        "t",
        "h"
      ],
      [
        "i",
        "n"
      ],
      [
        "in",
        "g"
      ],
      [
        "Ġ",
        "a"
      ],
      [
        "i",
        "s"
      ],
      [
        "th",
        "ing"
      ],
      [
        "ĠSome",
        "thing"
      ],
      [
        "Ġ",
        "is"
      ],
      [
        "Ġ",
        "("
      ],
      [
        "e",
        "s"
      ],
      [
        "r",
        "e"
      ],
      [
        "a",
        "t"
      ],
      [
        "Ġ",
        "t"
      ],
      [
        "Ġ",
        "f"
      ],
      [
        "w",
        "h"
      ],
      [
        "th",
        "at"
      ],
      [
        "Ġt",
        "o"
      ],
      [
        "Ġ",
        "p"
      ],
      [
        ")",
        "."
      ],
      [
        "Ġ",
        "s"
      ],
      [
        "Ġ",
        "w"
      ],
      [
        "Ġ",
        "h"
      ],
      [
        "e",
        "re"
      ],
      [
        "Ġ",
        "d"
      ],
      [
        "wh",
        "ere"
      ],
      [
        "l",
        "e"
      ],
      [
        "e",
        "l"
      ],
      [
        "Ġ",
        "c"
      ],
      [
        "ĠSome",
        "where"
      ],
      [
        "Ġ",
        "b"
      ],
      [
        "e",
        "d"
      ],
      [
        "Ġ",
        "th"
      ],
      [
        "Ġa",
        "n"
      ],
      [
        "Ġ",
        "o"
      ],
      [
        "a",
        "n"
      ],
      [
        "Ġ",
        "g"
      ],
      [
        "Ġth",
        "e"
      ],
      [
        "Ġf",
        "e"
      ],
      [
        "e",
        "r"
      ],
      [
        "o",
        "r"
      ],
      [
        "Ġfe",
        "el"
      ],
      [
        "Ġ",
        "l"
      ],
      [
        "i",
        "c"
      ],
      [
        "a",
        "s"
      ],
      [
        "o",
        "s"
      ],
      [
        "Ġ",
        "in"
      ],
      [
        "es",
        "s"
      ],
      [
        "e",
        "n"
      ],
      [
        "a",
        "r"
      ],
      [
        "o",
        "p"
      ],
      [
        "Ġd",
        "o"
      ],
      [
        "Ġa",
        "t"
      ],
      [
        "Ġ",
        "n"
      ],
      [
        "e",
        "t"
      ],
      [
        "os",
        "s"
      ],
      [
        "wh",
        "o"
      ],
      [
        "Ġp",
        "oss"
      ],
      [
        "Ġposs",
        "ess"
      ],
      [
        "Ġo",
        "f"
      ],
      [
        "e",
        "op"
      ],
      [
        "eop",
        "le"
      ],
      [
        "Ġan",
        "d"
      ],
      [
        "o",
        "u"
      ],
      [
        "i",
        "t"
      ],
      [
        "Ġ",
        "P"
      ],
      [
        "ĠP",
        "eople"
      ],
      [
        "a",
        "l"
      ],
      [
        "an",
        "t"
      ],
      [
        "Ġ",
        "m"
      ],
      [
        "Ġw",
        "ant"
      ],
      [
        "o",
        "o"
      ],
      [
        "i",
        "d"
      ],
      [
        "Ġf",
        "or"
      ],
      [
        "'",
        "s"
      ],
      [
        "Ġh",
        "a"
      ],
      [
        "Ġa",
        "re"
      ],
      [
        "r",
        "o"
      ],
      [
        "Ġg",
        "o"
      ],
      [
        "ic",
        "h"
      ],
      [
        "r",
        "i"
      ],
      [
        "Ġ",
        "e"
      ],
      [
        "wh",
        "ich"
      ],
      [
        "a",
        "y"
      ],
      [
        "Ġ",
        "u"
      ],
      [
        "v",
        "e"
      ],
      [
        "u",
        "t"
      ],
      [
        "Ġ(",
        "("
      ],
      [
        "Ġn",
        "e"
      ],
      [
        "Ġs",
        "t"
      ],
      [
        "Ġh",
        "as"
      ],
      [
        "Ġ",
        "on"
      ],
      [
        "a",
        "k"
      ],
      [
        "a",
        "c"
      ],
      [
        "p",
        "p"
      ],
      [
        "i",
        "l"
      ],
      [
        "i",
        "r"
      ],
      [
        "Ġl",
        "i"
      ],
      [
        "o",
        "t"
      ],
      [
        "Ġ",
        "Ġ"
      ],
      [
        "k",
        "s"
      ],
      [
        "i",
        "on"
      ],
      [
        "Ġ",
        "re"
      ],
      [
        "Ġg",
        "et"
      ],
      [
        "a",
        "d"
      ],
      [
        "Ġ",
        "r"
      ],
      [
        "en",
        "t"
      ],
      [
        "e",
        "c"
      ],
      [
        "Ġw",
        "i"
      ],
      [
        "v",
        "es"
      ],
      [
        "Ġwi",
        "th"
      ],
      [
        "Ġp",
        "l"
      ],
      [
        "Ġdo",
        "es"
      ],
      [
        "u",
        "n"
      ],
      [
        "oo",
        "d"
      ],
      [
        "Ġo",
        "ut"
      ],
      [
        "Ġb",
        "e"
      ],
      [
        "Ġw",
        "as"
      ],
      [
        ")",
        ")."
      ],
      [
        "i",
        "m"
      ],
      [
        "g",
        "h"
      ],
      [
        "n",
        "t"
      ],
      [
        "k",
        "e"
      ],
      [
        "c",
        "h"
      ],
      [
        "u",
        "r"
      ],
      [
        "Ġha",
        "pp"
      ],
      [
        "o",
        "w"
      ],
      [
        "d",
        "s"
      ],
      [
        "Ġb",
        "u"
      ],
      [
        "id",
        "e"
      ],
      [
        "Ġu",
        "p"
      ],
      [
        "Ġhapp",
        "y"
      ],
      [
        "Ġgo",
        "es"
      ],
      [
        "Ġc",
        "h"
      ],
      [
        "Ġl",
        "o"
      ],
      [
        "ro",
        "m"
      ],
      [
        "v",
        "er"
      ],
      [
        "b",
        "le"
      ],
      [
        "l",
        "s"
      ],
      [
        "Ġn",
        "ot"
      ],
      [
        "Ġp",
        "et"
      ],
      [
        "Ġget",
        "s"
      ],
      [
        "a",
        "re"
      ],
      [
        "Ġc",
        "o"
      ],
      [
        "at",
        "ion"
      ],
      [
        "Ġf",
        "rom"
      ],
      [
        "ak",
        "es"
      ],
      [
        "Ġs",
        "h"
      ],
      [
        "u",
        "s"
      ],
      [
        "Ġs",
        "e"
      ],
      [
        "a",
        "in"
      ],
      [
        "Ġf",
        "ood"
      ],
      [
        "c",
        "t"
      ],
      [
        "u",
        "l"
      ],
      [
        "gh",
        "t"
      ],
      [
        "Ġa",
        "s"
      ],
      [
        "l",
        "d"
      ],
      [
        "ou",
        "s"
      ],
      [
        ")",
        ")"
      ],
      [
        "Ġli",
        "ke"
      ],
      [
        "Ġt",
        "i"
      ],
      [
        "o",
        "re"
      ],
      [
        "Ġ",
        "le"
      ],
      [
        "Ġ",
        "k"
      ],
      [
        "it",
        "y"
      ],
      [
        "Ġ",
        "that"
      ],
      [
        "ĠĠ",
        "ĠĠ"
      ],
      [
        "Ġ",
        ")."
      ],
      [
        "Ġe",
        "x"
      ],
      [
        "Ġpl",
        "ay"
      ],
      [
        "Ġbu",
        "y"
      ],
      [
        "l",
        "y"
      ],
      [
        "ar",
        "t"
      ],
      [
        "Ġ",
        "me"
      ],
      [
        "Ġthe",
        "ir"
      ],
      [
        "im",
        "al"
      ],
      [
        "'",
        "t"
      ],
      [
        "ou",
        "t"
      ],
      [
        "s",
        "ide"
      ],
      [
        "Ġf",
        "in"
      ],
      [
        "m",
        "p"
      ],
      [
        "Ġd",
        "ec"
      ],
      [
        "Ġa",
        "b"
      ],
      [
        "Ġan",
        "imal"
      ],
      [
        "i",
        "v"
      ],
      [
        "Ġw",
        "or"
      ],
      [
        "Ġh",
        "e"
      ],
      [
        "Ġh",
        "is"
      ],
      [
        "t",
        "er"
      ],
      [
        "Ġ",
        "T"
      ],
      [
        "Ġs",
        "p"
      ],
      [
        "Ġt",
        "r"
      ],
      [
        "Ġc",
        "l"
      ],
      [
        "n",
        "d"
      ],
      [
        "Ġwant",
        "s"
      ],
      [
        "Ġc",
        "an"
      ],
      [
        "Ġab",
        "out"
      ],
      [
        "c",
        "e"
      ],
      [
        "Ġne",
        "ed"
      ],
      [
        "ri",
        "en"
      ],
      [
        "Ġthe",
        "y"
      ],
      [
        "es",
        "t"
      ],
      [
        "r",
        "ou"
      ],
      [
        "Ġh",
        "ome"
      ],
      [
        "ak",
        "e"
      ],
      [
        "Ġ",
        ")"
      ],
      [
        "Ġf",
        "rien"
      ],
      [
        "on",
        "g"
      ],
      [
        "il",
        "d"
      ],
      [
        "Ġu",
        "s"
      ],
      [
        "k",
        "ed"
      ],
      [
        "Ġa",
        "l"
      ],
      [
        "Ġc",
        "ar"
      ],
      [
        "Ġdec",
        "id"
      ],
      [
        "Ġa",
        "ct"
      ],
      [
        "w",
        "n"
      ],
      [
        "e",
        "p"
      ],
      [
        "Ġs",
        "a"
      ],
      [
        "g",
        "e"
      ],
      [
        "Ġc",
        "on"
      ],
      [
        "at",
        "e"
      ],
      [
        "Ġti",
        "me"
      ],
      [
        "Ġ",
        "wh"
      ],
      [
        "Ġne",
        "w"
      ],
      [
        "ĠT",
        "h"
      ],
      [
        "ac",
        "e"
      ],
      [
        "or",
        "t"
      ],
      [
        "iv",
        "ity"
      ],
      [
        "Ġ",
        "it"
      ],
      [
        "me",
        "nt"
      ],
      [
        "Ġe",
        "at"
      ],
      [
        "one",
        "y"
      ],
      [
        "th",
        "er"
      ],
      [
        "Ġha",
        "ve"
      ],
      [
        "Ġm",
        "oney"
      ],
      [
        "a",
        "m"
      ],
      [
        "Ġact",
        "ivity"
      ],
      [
        "Ġ",
        "j"
      ],
      [
        "Ġf",
        "un"
      ],
      [
        "Ġd",
        "is"
      ],
      [
        "Ġg",
        "i"
      ],
      [
        "Ġl",
        "oo"
      ],
      [
        "al",
        "l"
      ],
      [
        "i",
        "ble"
      ],
      [
        "t",
        "o"
      ],
      [
        "Ġdo",
        "ing"
      ],
      [
        "a",
        "me"
      ],
      [
        "r",
        "y"
      ],
      [
        "f",
        "ul"
      ],
      [
        "ic",
        "k"
      ],
      [
        "Ġh",
        "er"
      ],
      [
        "are",
        "nt"
      ],
      [
        "ac",
        "h"
      ],
      [
        "Ġch",
        "ild"
      ],
      [
        "Ġt",
        "ri"
      ],
      [
        "Ġlo",
        "c"
      ],
      [
        "Ġha",
        "d"
      ],
      [
        "Ġp",
        "arent"
      ],
      [
        "s",
        "t"
      ],
      [
        "Ġ",
        "v"
      ],
      [
        "ar",
        "d"
      ],
      [
        "l",
        "i"
      ],
      [
        "Ġ",
        "ve"
      ],
      [
        "Ġne",
        "ar"
      ],
      [
        "Ġw",
        "at"
      ],
      [
        "Ġbuy",
        "s"
      ],
      [
        "Ġto",
        "o"
      ],
      [
        "Ġt",
        "akes"
      ],
      [
        "Ġp",
        "ut"
      ],
      [
        "Ġb",
        "y"
      ],
      [
        "Ġp",
        "art"
      ],
      [
        "ic",
        "e"
      ],
      [
        "Ġ",
        "en"
      ],
      [
        "it",
        "ed"
      ],
      [
        "el",
        "ls"
      ],
      [
        "re",
        "d"
      ],
      [
        "k",
        "ing"
      ],
      [
        "le",
        "d"
      ],
      [
        "ĠTh",
        "e"
      ],
      [
        "h",
        "ic"
      ],
      [
        "Ġh",
        "el"
      ],
      [
        "Ġfrien",
        "ds"
      ],
      [
        "Ġw",
        "al"
      ],
      [
        "Ġw",
        "e"
      ],
      [
        "Ġve",
        "hic"
      ],
      [
        "Ġof",
        "f"
      ],
      [
        "el",
        "l"
      ],
      [
        "Ġdecid",
        "es"
      ],
      [
        "Ġw",
        "ent"
      ],
      [
        "Ġex",
        "c"
      ],
      [
        "ĠĠĠĠ",
        "ĠĠĠĠ"
      ],
      [
        "Ġin",
        "to"
      ],
      [
        "is",
        "h"
      ],
      [
        "er",
        "s"
      ],
      [
        "ac",
        "k"
      ],
      [
        "Ġt",
        "e"
      ],
      [
        "Ġse",
        "es"
      ],
      [
        "Ġd",
        "r"
      ],
      [
        "as",
        "s"
      ],
      [
        "an",
        "d"
      ],
      [
        "q",
        "u"
      ],
      [
        "Ġvehic",
        "le"
      ],
      [
        "Ġf",
        "r"
      ],
      [
        "o",
        "l"
      ],
      [
        "Ġd",
        "ri"
      ],
      [
        "Ġm",
        "o"
      ],
      [
        "il",
        "l"
      ],
      [
        "le",
        "ep"
      ],
      [
        "Ġhel",
        "p"
      ],
      [
        "u",
        "c"
      ],
      [
        "at",
        "ed"
      ],
      [
        "t",
        "ed"
      ],
      [
        "o",
        "y"
      ],
      [
        "Ġs",
        "c"
      ],
      [
        "Ġin",
        "side"
      ],
      [
        "ur",
        "n"
      ],
      [
        "Ġdo",
        "g"
      ],
      [
        "n",
        "ow"
      ],
      [
        "Ġout",
        "side"
      ],
      [
        "Ġpl",
        "ace"
      ],
      [
        "an",
        "s"
      ],
      [
        "Ġ",
        "ed"
      ],
      [
        "t",
        "s"
      ],
      [
        "ous",
        "e"
      ],
      [
        "Ġn",
        "o"
      ],
      [
        "v",
        "ed"
      ],
      [
        "Ġo",
        "p"
      ],
      [
        "Ġm",
        "akes"
      ],
      [
        "Ġf",
        "i"
      ],
      [
        "Ġg",
        "ood"
      ],
      [
        "ver",
        "y"
      ],
      [
        "Ġgo",
        "t"
      ],
      [
        "v",
        "ing"
      ],
      [
        "is",
        "t"
      ],
      [
        "Ġfin",
        "ds"
      ],
      [
        "Ġed",
        "ible"
      ],
      [
        "Ġu",
        "n"
      ],
      [
        "al",
        "ls"
      ],
      [
        "Ġ",
        "where"
      ],
      [
        "Ġa",
        "f"
      ],
      [
        "Ġ",
        "y"
      ],
      [
        "w",
        "ay"
      ],
      [
        "Ġloc",
        "ation"
      ],
      [
        "Ġexc",
        "ited"
      ],
      [
        "it",
        "s"
      ],
      [
        "Ġco",
        "mp"
      ],
      [
        "Ġc",
        "oo"
      ],
      [
        "u",
        "re"
      ],
      [
        "a",
        "ble"
      ],
      [
        "Ġas",
        "ks"
      ],
      [
        "Ġb",
        "o"
      ],
      [
        "v",
        "ent"
      ],
      [
        "as",
        "t"
      ],
      [
        "i",
        "p"
      ],
      [
        "x",
        "t"
      ],
      [
        "t",
        "ain"
      ],
      [
        "Ġ",
        "one"
      ],
      [
        "Ġc",
        "le"
      ],
      [
        "Ġh",
        "ouse"
      ],
      [
        "an",
        "g"
      ],
      [
        "Ġwor",
        "k"
      ],
      [
        "ad",
        "e"
      ],
      [
        "r",
        "a"
      ],
      [
        "Ġs",
        "o"
      ],
      [
        "i",
        "g"
      ],
      [
        "u",
        "d"
      ],
      [
        "Ġo",
        "ver"
      ],
      [
        "ou",
        "ld"
      ],
      [
        "Ġs",
        "ad"
      ],
      [
        "ere",
        "d"
      ],
      [
        "Ġdo",
        "wn"
      ],
      [
        "oo",
        "l"
      ],
      [
        "Ġne",
        "xt"
      ],
      [
        "ro",
        "w"
      ],
      [
        "Ġr",
        "un"
      ],
      [
        "k",
        "es"
      ],
      [
        "Ġp",
        "ro"
      ],
      [
        "Ġst",
        "ore"
      ],
      [
        "Ġst",
        "r"
      ],
      [
        "Ġse",
        "e"
      ],
      [
        "ing",
        "s"
      ],
      [
        "f",
        "t"
      ],
      [
        "Ġd",
        "ay"
      ],
      [
        "Ġb",
        "ack"
      ],
      [
        "ou",
        "nd"
      ],
      [
        "Ġle",
        "a"
      ]
    ]
  }
}