{
  "version": "1.0",
  "truncation": null,
  "padding": null,
  "added_tokens": [
    {
      "id": 0,
      "content": "<pad>",
      "single_word": false,
      "lstrip": false,
      "rstrip": false,
      "normalized": false,
      "special": true
    },
    {
      "id": 1,
      "content": "<mask>",
      "single_word": false,
      "lstrip": false,
      "rstrip": false,
      "normalized": false,
      "special": true
    },
    {
      "id": 2,
      "content": "<unk>",
      "single_word": false,
      "lstrip": false,
      "rstrip": false,
      "normalized": false,
      "special": true
    },
    {
      "id": 3,
      "content": "<bos>",
      "single_word": false,
      "lstrip": false,
      "rstrip": false,
      "normalized": false,
      "special": true
    },
    {
      "id": 4,
      "content": "<eos>",
      "single_word": false,
      "lstrip": false,
      "rstrip": false,
      "normalized": false,
      "special": true
    }
  ],
  "normalizer": null,
  "pre_tokenizer": {
    "type": "ByteLevel",
    "add_prefix_space": true,
    "trim_offsets": true,
    "use_regex": true
  },
  "post_processor": {
    "type": "ByteLevel",
    "add_prefix_space": true,
    "trim_offsets": false,
    "use_regex": true
  },
  "decoder": null,
  "model": {
    "type": "BPE",
    "dropout": null,
    "unk_token": "<unk>",
    "continuing_subword_prefix": null,
    "end_of_word_suffix": null,
    "fuse_unk": false,
    "byte_fallback": false,
    "ignore_merges": false,
    "vocab": {
      "<pad>": 0,
      "<mask>": 1,
      "<unk>": 2,
      "<bos>": 3,
      "<eos>": 4,
      "\t": 5,
      " ": 6,
      "!": 7,
      "\"": 8,
      "#": 9,
      "$": 10,
      "%": 11,
      "&": 12,
      "'": 13,
      "(": 14,
      ")": 15,
      "*": 16,
      "+": 17,
      ",": 18,
      "-": 19,
      ".": 20,
      "/": 21,
      "0": 22,
      "1": 23,
      "2": 24,
      "3": 25,
      "4": 26,
      "5": 27,
      "6": 28,
      "7": 29,
      "8": 30,
      "9": 31,
      ":": 32,
      ";": 33,
      "<": 34,
      "=": 35,
      ">": 36,
      "?": 37,
      "@": 38,
      "A": 39,
      "B": 40,
      "C": 41,
      "D": 42,
      "E": 43,
      "F": 44,
      "G": 45,
      "H": 46,
      "I": 47,
      "J": 48,
      "K": 49,
      "L": 50,
      "M": 51,
      "N": 52,
      "O": 53,
      "P": 54,
      "Q": 55,
      "R": 56,
      "S": 57,
      "T": 58,
      "U": 59,
      "V": 60,
      "W": 61,
      "X": 62,
      "Y": 63,
      "Z": 64,
      "[": 65,
      "\\": 66,
      "]": 67,
      "^": 68,
      "_": 69,
      "`": 70,
      "a": 71,
      "b": 72,
      "c": 73,
      "d": 74,
      "e": 75,
      "f": 76,
      "g": 77,
      "h": 78,
      "i": 79,
      "j": 80,
      "k": 81,
      "l": 82,
      "m": 83,
      "n": 84,
      "o": 85,
      "p": 86,
      "q": 87,
      "r": 88,
      "s": 89,
      "t": 90,
      "u": 91,
      "v": 92,
      "w": 93,
      "x": 94,
      "y": 95,
      "z": 96,
      "{": 97,
      "|": 98,
      "}": 99,
      "~": 100,
      "¶": 101,
      "½": 102,
      "Â": 103,
      "Ã": 104,
      "â": 105,
      "Ġ": 106,
      "Ģ": 107,
      "ĵ": 108,
      "Ķ": 109,
      "ĺ": 110,
      "Ġt": 111,
      "Ġa": 112,
      "he": 113,
      "ou": 114,
      "in": 115,
      "Ġs": 116,
      "Ġc": 117,
      "Ġy": 118,
      "Ġyou": 119,
      "Ġthe": 120,
      "re": 121,
      "er": 122,
      "at": 123,
      "Ġf": 124,
      "on": 125,
      "Ġp": 126,
      "Ġh": 127,
      "Ġyour": 128,
      "Ġb": 129,
      "Ġw": 130,
      "or": 131,
      "it": 132,
      "Ġto": 133,
      "nd": 134,
      "Ġl": 135,
      "ing": 136,
      "Ġd": 137,
      "Ġg": 138,
      "st": 139,
      "Ġo": 140,
      "Ġm": 141,
      "et": 142,
      "en": 143,
      "es": 144,
      "al": 145,
      "Ġin": 146,
      "ar": 147,
      "Ġha": 148,
      "se": 149,
      "le": 150,
      "Ġ,": 151,
      "ve": 152,
      "an": 153,
      "ke": 154,
      "Ġi": 155,
      "Ġn": 156,
      "oo": 157,
      "Ġof": 158,
      "Ġand": 159,
      "Ġbe": 160,
      "ac": 161,
      "Ġe": 162,
      "om": 163,
      "Ġre": 164,
      "her": 165,
      "id": 166,
      "im": 167,
      "Ġfor": 168,
      "Ġth": 169,
      "ig": 170,
      "Ġu": 171,
      "ic": 172,
      "ion": 173,
      "out": 174,
      "ow": 175,
      "Ġwit": 176,
      "ll": 177,
      "Ġwith": 178,
      "ot": 179,
      "Ġcat": 180,
      "ay": 181,
      "ed": 182,
      "ly": 183,
      "Ġst": 184,
      "Ġon": 185,
      "ent": 186,
      "ake": 187,
      "ster": 188,
      "ir": 189,
      "is": 190,
      "Ġham": 191,
      "Ġhamster": 192,
      "Ġcon": 193,
      "ea": 194,
      "ge": 195,
      "Ġfr": 196,
      "Ġor": 197,
      "Ġit": 198,
      "Ġif": 199,
      "ro": 200,
      "ec": 201,
      "Ġtr": 202,
      "ut": 203,
      "Ġhe": 204,
      "Ġca": 205,
      "Ġas": 206,
      "end": 207,
      "Ġthat": 208,
      "Ġan": 209,
      "Ġher": 210,
      "Ġpl": 211,
      "sh": 212,
      "ch": 213,
      "Ġout": 214,
      "ter": 215,
      "Ġmake": 216,
      "ee": 217,
      "ver": 218,
      "ru": 219,
      "Ġat": 220,
      "il": 221,
      "ure": 222,
      "ive": 223,
      "Ġgu": 224,
      "Ġhim": 225,
      "Ġdo": 226,
      "Ġloo": 227,
      "Ġis": 228,
      "Ġget": 229,
      "ate": 230,
      "ad": 231,
      "ep": 232,
      "ont": 233,
      "Ġwhe": 234,
      "Ġli": 235,
      "Ġnot": 236,
      "Ġlook": 237,
      "Ġsh": 238,
      "Ġk": 239,
      "iend": 240,
      "Ġab": 241,
      "Ġpig": 242,
      "Ġbo": 243,
      "inea": 244,
      "Ġguinea": 245,
      "Ġare": 246,
      "ide": 247,
      "Ġr": 248,
      "Ġne": 249,
      "ace": 250,
      "ck": 251,
      "Ġsp": 252,
      "Ġwh": 253,
      "ur": 254,
      "igh": 255,
      "ood": 256,
      "ce": 257,
      "ation": 258,
      "pp": 259,
      "Ġdont": 260,
      "ain": 261,
      "Ġfriend": 262,
      "Ġ-": 263,
      "Ġint": 264,
      "Ġabout": 265,
      "lf": 266,
      "ab": 267,
      "Ġcom": 268,
      "ess": 269,
      "ct": 270,
      "Ġup": 271,
      "Ġex": 272,
      "ol": 273,
      "Ġthem": 274,
      "am": 275,
      "ss": 276,
      "Ġch": 277,
      "ind": 278,
      "Ġcage": 279,
      "Ġsom": 280,
      "alk": 281,
      "ight": 282,
      "rou": 283,
      "Ġhave": 284,
      "rush": 285,
      "Ġv": 286,
      "Ġche": 287,
      "Ġpro": 288,
      "Ġte": 289,
      "qu": 290,
      "ore": 291,
      "Ġke": 292,
      "Ġtim": 293,
      "ers": 294,
      "Ġuse": 295,
      "self": 296,
      "act": 297,
      "Ġkeep": 298,
      "Ġask": 299,
      "nt": 300,
      "Ġwat": 301,
      "Ġcl": 302,
      "Ġso": 303,
      "Ġwhen": 304,
      "Ġyourself": 305,
      "ant": 306,
      "ther": 307,
      "Ġfe": 308,
      "ap": 309,
      "Ġtalk": 310,
      "reat": 311,
      "ul": 312,
      "Ġcrush": 313,
      "Ġtime": 314,
      "ard": 315,
      "Ġfrom": 316,
      "Ġtake": 317,
      "ove": 318,
      "ect": 319,
      "art": 320,
      "Ġdi": 321,
      "ick": 322,
      "Ġtry": 323,
      "Ġcats": 324,
      "Ġhis": 325,
      "ice": 326,
      "ings": 327,
      "Ġgive": 328,
      "Ġcheck": 329,
      "Ġgo": 330,
      "ip": 331,
      "ort": 332,
      "Ġpo": 333,
      "ill": 334,
      "Ġshe": 335,
      "Ġkn": 336,
      "Ġcle": 337,
      "Ġsu": 338,
      "Ġbu": 339,
      "all": 340,
      "Ġwe": 341,
      "Ġfriends": 342,
      "ine": 343,
      "one": 344,
      "Ġhor": 345,
      "round": 346,
      "Ġlit": 347,
      "ack": 348,
      "Ġfind": 349,
      "Ġplace": 350,
      "Ġad": 351,
      "Ġj": 352,
      "Ġall": 353,
      "Ġsome": 354,
      "th": 355,
      "Ġen": 356,
      "ach": 357,
      "Ġcons": 358,
      "Ġsee": 359,
      "Ġsure": 360,
      "Ġsm": 361,
      "Ġother": 362,
      "ial": 363,
      "Ġclean": 364,
      "iz": 365,
      "Ġpre": 366,
      "are": 367,
      "ra": 368,
      "Ġhamsters": 369,
      "Ġput": 370,
      "gh": 371,
      "ies": 372,
      "ys": 373,
      "Ġtreat": 374,
      "Ġhand": 375,
      "Ġknow": 376,
      "Ġle": 377,
      "eel": 378,
      "Ġlike": 379,
      "mp": 380,
      "Ġfeel": 381,
      "Ġav": 382,
      "ail": 383,
      "Ġbox": 384,
      "op": 385,
      "Ġhow": 386,
      "Ġcont": 387,
      "ere": 388,
      "ider": 389,
      "Ġaround": 390,
      "Ġatt": 391,
      "ri": 392,
      "Ġfood": 393,
      "and": 394,
      "Ġrem": 395,
      "as": 396,
      "Ġwhat": 397,
      "ff": 398,
      "Ġse": 399,
      "Ġfl": 400,
      "Ġconsider": 401,
      "oid": 402,
      "Ġlet": 403,
      "Ġal": 404,
      "Ġavoid": 405,
      "Ġwater": 406,
      "Ġlitter": 407,
      "Ġpet": 408,
      "Ġey": 409,
      "able": 410,
      "ally": 411,
      "Ġapp": 412,
      "Ġpers": 413,
      "get": 414,
      "ize": 415,
      "ions": 416,
      "Ġplay": 417,
      "Ġqu": 418,
      "ment": 419,
      "Ġtheir": 420,
      "Ġfeed": 421,
      "Ġcan": 422,
      "way": 423,
      "Ġlea": 424,
      "dy": 425,
      "ose": 426,
      "ld": 427,
      "ust": 428,
      "Ġsc": 429,
      "Ġperson": 430,
      "ak": 431,
      "Ġact": 432,
      "Ġinto": 433,
      "un": 434,
      "Ġpigs": 435,
      "Ġthey": 436,
      "Ġstart": 437,
      "Ġhorse": 438,
      "Ġits": 439,
      "Ġvet": 440,
      "pl": 441,
      "ile": 442,
      "ink": 443,
      "Ġgood": 444,
      "Ġover": 445,
      "eth": 446,
      "ress": 447,
      "Ġlo": 448,
      "mb": 449,
      "Ġpr": 450,
      "du": 451,
      "age": 452,
      "Ġwill": 453,
      "oose": 454,
      "Ġone": 455,
      "Ġco": 456,
      "irt": 457,
      "Ġchoose": 458,
      "Ġyoure": 459,
      "ite": 460,
      "Ġany": 461,
      "ase": 462,
      "Ġbre": 463,
      "ast": 464,
      "Ġsay": 465,
      "av": 466,
      "ity": 467,
      "Ġthis": 468,
      "Ġback": 469,
      "old": 470,
      "cc": 471,
      "Ġoff": 472,
      "ign": 473,
      "Ġconf": 474,
      "add": 475,
      "Ġnew": 476,
      "Ġprov": 477,
      "ry": 478,
      "Ġprovide": 479,
      "Ġbr": 480,
      "ten": 481,
      "Ġwor": 482,
      "sp": 483,
      "Ġbody": 484,
      "Ġwant": 485,
      "Ġcut": 486,
      "Ġintere": 487,
      "ular": 488,
      "Ġinterest": 489,
      "Ġbot": 490,
      "ention": 491,
      "ble": 492,
      "Ġright": 493,
      "fe": 494,
      "Ġob": 495,
      "we": 496,
      "ous": 497,
      "Ġfir": 498,
      "Ġtell": 499,
      "ang": 500,
      "Ġsadd": 501,
      "ong": 502,
      "very": 503,
      "Ġwatch": 504,
      "Ġattention": 505,
      "Ġby": 506,
      "Ġmore": 507,
      "Ġneed": 508,
      "Ġcontact": 509,
      "Ġde": 510,
      "Ġwa": 511,
      "ough": 512,
      "Ġtoys": 513,
      "Ġbed": 514,
      "Ġbef": 515,
      "ome": 516,
      "vers": 517,
      "Ġme": 518,
      "Ġthink": 519,
      "Ġcare": 520,
      "Ġbut": 521,
      "own": 522,
      "per": 523,
      "sing": 524,
      "Ġtw": 525,
      "Ġaway": 526,
      "Ġdis": 527,
      "Ġund": 528,
      "Ġfirst": 529,
      "Ġsaddle": 530,
      "arn": 531,
      "oom": 532,
      "Ġbefore": 533,
      "Ġsign": 534,
      "Ġdec": 535,
      "Ġadd": 536,
      "ser": 537,
      "sure": 538,
      "ance": 539,
      "Ġnotice": 540,
      "Ġshow": 541,
      "ng": 542,
      "Ġmove": 543,
      "ise": 544,
      "ould": 545,
      "Ġtoo": 546,
      "Ġrel": 547,
      "Ġconvers": 548,
      "Ġcomm": 549,
      "Ġconversation": 550,
      "Ġacc": 551,
      "Ġday": 552,
      "ame": 553,
      "sit": 554,
      "ward": 555,
      "Ġcar": 556,
      "Ġdet": 557,
      "Ġeye": 558,
      "mber": 559,
      "ue": 560,
      "Ġthings": 561,
      "Ġlist": 562,
      "Ġsometh": 563,
      "Ġbuy": 564,
      "Ġunder": 565,
      "if": 566,
      "pe": 567,
      "Ġclose": 568,
      "ding": 569,
      "ist": 570,
      "lp": 571,
      "ses": 572,
      "Ġsl": 573,
      "Ġfre": 574,
      "Ġgr": 575,
      "Ġsomething": 576,
      "tle": 577,
      "ather": 578,
      "Ġgir": 579,
      "iv": 580,
      "Ġun": 581,
      "Ġstr": 582,
      "pen": 583,
      "Ġru": 584,
      "Ġbl": 585,
      "Ġbeh": 586,
      "Ġreg": 587,
      "Ġdoes": 588,
      "our": 589,
      "Ġhold": 590,
      "Ġconfid": 591,
      "les": 592,
      "ouse": 593,
      "Ġpe": 594,
      "Ġsit": 595,
      "ting": 596,
      "Ġtoget": 597,
      "Ġdown": 598,
      "Ġtwo": 599,
      "Ġtogether": 600,
      "cial": 601,
      "Ġpick": 602,
      "ors": 603,
      "Ġmu": 604,
      "Ġtrain": 605,
      "Ġmat": 606,
      "Ġremove": 607,
      "Ġappro": 608,
      "est": 609,
      "gn": 610,
      "ms": 611,
      "Ġhas": 612,
      "Ġevery": 613,
      "Ġpu": 614,
      "Ġarea": 615,
      "Ġregular": 616,
      "Ġaf": 617,
      "Ġcre": 618,
      "Ġflirt": 619,
      "side": 620,
      "Ġsa": 621,
      "Ġeach": 622,
      "Ġcompl": 623,
      "Ġjust": 624,
      "Ġtreats": 625,
      "Ġwork": 626,
      "hes": 627,
      "Ġresp": 628,
      "ild": 629,
      "Ġposit": 630,
      "Ġro": 631,
      "Ġfo": 632,
      "Ġph": 633,
      "Ġev": 634,
      "kes": 635,
      "ls": 636,
      "Ġpay": 637,
      "Ġheal": 638,
      "Ġfeelings": 639,
      "Ġag": 640,
      "Ġstay": 641,
      "ship": 642,
      "Ġwear": 643,
      "Ġallow": 644,
      "Ġeyes": 645,
      "Ġloc": 646,
      "duce": 647,
      "avi": 648,
      "ag": 649,
      "Ġhang": 650,
      "Ġrec": 651,
      "Ġdist": 652,
      "pare": 653,
      "ves": 654,
      "erm": 655,
      "ence": 656,
      "Ġread": 657,
      "Ġsocial": 658,
      "Ġsmall": 659,
      "ange": 660,
      "Ġspend": 661,
      "Ġsupp": 662,
      "Ġbehavi": 663,
      "cu": 664,
      "su": 665,
      "ts": 666,
      "wn": 667,
      "Ġwr": 668,
      "Ġway": 669,
      "Ġno": 670,
      "Ġhealth": 671,
      "Ġset": 672,
      "its": 673,
      "Ġmed": 674,
      "Ġkis": 675,
      "Ġhorses": 676,
      "Ġlisten": 677,
      "ps": 678,
      "Ġend": 679,
      "Ġwhere": 680,
      "Ġwell": 681,
      "Ġbedding": 682,
      "Ġsigns": 683,
      "Ġafter": 684,
      "ass": 685,
      "Ġhome": 686,
      "Ġhelp": 687,
      "Ġnote": 688,
      "Ġpur": 689,
      "lect": 690,
      "Ġear": 691,
      "Ġprepare": 692,
      "Ġlearn": 693,
      "Ġdecide": 694,
      "ful": 695,
      "Ġpat": 696,
      "Ġown": 697,
      "Ġbreed": 698,
      "serve": 699,
      "au": 700,
      "ie": 701,
      "ily": 702,
      "orm": 703,
      "Ġman": 704,
      "other": 705,
      "ish": 706,
      "Ġkit": 707,
      "Ġspace": 708,
      "Ġintro": 709,
      "ian": 710,
      "uage": 711,
      "Ġlang": 712,
      "Ġmo": 713,
      "Ġroom": 714,
      "Ġleave": 715,
      "Ġcreate": 716,
      "Ġbehavior": 717,
      "Ġlanguage": 718,
      "Ġtou": 719,
      "Ġopen": 720,
      "ently": 721,
      "Ġwhether": 722,
      "Ġobserve": 723,
      "ft": 724,
      "fort": 725,
      "Ġar": 726,
      "Ġhouse": 727,
      "Ġbit": 728,
      "stand": 729,
      "Ġusing": 730,
      "Ġsmile": 731,
      "ire": 732,
      "Ġinter": 733,
      "Ġimp": 734,
      "Ġnec": 735,
      "Ġdiff": 736,
      "ks": 737,
      "ating": 738,
      "Ġpart": 739,
      "Ġhead": 740,
      "Ġunderstand": 741,
      "ember": 742,
      "Ġcol": 743,
      "Ġbet": 744,
      "Ġwee": 745,
      "Ġtoy": 746,
      "imal": 747,
      "Ġonce": 748,
      "Ġanimal": 749,
      "Ġconfident": 750,
      "iec": 751,
      "xt": 752,
      "ound": 753,
      "Ġcor": 754,
      "ary": 755,
      "ical": 756,
      "Ġwhile": 757,
      "ult": 758,
      "Ġgoat": 759,
      "Ġenough": 760,
      "Ġremember": 761,
      "Ġthrou": 762,
      "Ġregularly": 763,
      "Ġthrough": 764,
      "ible": 765,
      "ious": 766,
      "ving": 767,
      "Ġthere": 768,
      "Ġmea": 769,
      "Ġbec": 770,
      "Ġdeterm": 771,
      "Ġtouch": 772,
      "ject": 773,
      "tain": 774,
      "ount": 775,
      "Ġthen": 776,
      "Ġpiec": 777,
      "vel": 778,
      "Ġkitten": 779,
      "Ġintroduce": 780,
      "Ġdetermine": 781,
      "ell": 782,
      "Ġcal": 783,
      "Ġlar": 784,
      "Ġmay": 785,
      "Ġhair": 786,
      "ool": 787,
      "Ġstu": 788,
      "aper": 789,
      "Ġkiss": 790,
      "Ġsec": 791,
      "rect": 792,
      "ond": 793,
      "Ġtop": 794,
      "Ġdry": 795,
      "Ġstop": 796,
      "ationship": 797,
      "aking": 798,
      "Ġrelationship": 799,
      "Ġpurch": 800,
      "el": 801,
      "iet": 802,
      "Ġgl": 803,
      "iment": 804,
      "ape": 805,
      "ails": 806,
      "Ġmeasure": 807,
      "um": 808,
      "Ġsqu": 809,
      "Ġsize": 810,
      "eng": 811,
      "Ġunt": 812,
      "Ġlikes": 813,
      "Ġcomfort": 814,
      "Ġexp": 815,
      "Ġchange": 816,
      "Ġcoat": 817,
      "Ġmuch": 818,
      "Ġcompliment": 819,
      "ient": 820,
      "ple": 821,
      "Ġside": 822,
      "Ġper": 823,
      "Ġbab": 824,
      "Ġlong": 825,
      "Ġid": 826,
      "Ġem": 827,
      "Ġshould": 828,
      "Ġjo": 829,
      "ia": 830,
      "oor": 831,
      "raw": 832,
      "Ġpract": 833,
      "aw": 834,
      "tom": 835,
      "Ġsep": 836,
      "Ġpaper": 837,
      "ities": 838,
      "Ġbest": 839,
      "Ġshort": 840,
      "Ġsomeone": 841,
      "Ġhands": 842,
      "Ġsafe": 843,
      "Ġdiffere": 844,
      "Ġuntil": 845,
      "ib": 846,
      "ness": 847,
      "erc": 848,
      "Ġfun": 849,
      "Ġlove": 850,
      "Ġgather": 851,
      "Ġinc": 852,
      "Ġbeing": 853,
      "Ġhes": 854,
      "Ġexam": 855,
      "Ġbuild": 856,
      "Ġquest": 857,
      "Ġbring": 858,
      "Ġwait": 859,
      "Ġwash": 860,
      "Ġready": 861,
      "Ġpurchase": 862,
      "ces": 863,
      "int": 864,
      "Ġfur": 865,
      "Ġdiet": 866,
      "Ġposs": 867,
      "Ġpets": 868,
      "Ġeven": 869,
      "Ġears": 870,
      "Ġsepar": 871,
      "Ġhal": 872,
      "Ġmon": 873,
      "iding": 874,
      "Ġdog": 875,
      "Ġlittle": 876,
      "Ġpeop": 877,
      "Ġmater": 878,
      "Ġagain": 879,
      "Ġcalm": 880,
      "Ġlarge": 881,
      "Ġpractice": 882,
      "Ġseparate": 883,
      "riend": 884,
      "ub": 885,
      "Ġaw": 886,
      "Ġho": 887,
      "Ġnice": 888,
      "Ġoften": 889,
      "aces": 890,
      "Ġfront": 891,
      "Ġplan": 892,
      "Ġboy": 893,
      "Ġspec": 894,
      "Ġexerc": 895,
      "Ġcommon": 896,
      "Ġcomfortable": 897,
      "Ġmaterial": 898,
      "ract": 899,
      "Ġsk": 900,
      "Ġsw": 901,
      "red": 902,
      "Ġfin": 903,
      "Ġbat": 904,
      "Ġinside": 905,
      "Ġel": 906,
      "Ġreal": 907,
      "llow": 908,
      "Ġstand": 909,
      "Ġlife": 910,
      "Ġspot": 911,
      "Ġproper": 912,
      "Ġleg": 913,
      "ways": 914,
      "Ġbreak": 915,
      "Ġpositive": 916,
      "cess": 917,
      "Ġve": 918,
      "erin": 919,
      "Ġinst": 920,
      "Ġspr": 921,
      "Ġwho": 922,
      "Ġtest": 923,
      "Ġexercise": 924,
      "pri": 925,
      "Ġsim": 926,
      "read": 927,
      "Ġwalk": 928,
      "ale": 929,
      "arch": 930,
      "Ġhapp": 931,
      "Ġstick": 932,
      "thing": 933,
      "Ġalways": 934,
      "Ġslow": 935,
      "Ġlocation": 936,
      "Ġinteract": 937,
      "Ġpeople": 938,
      "ud": 939,
      "ull": 940,
      "Ġhoo": 941,
      "Ġold": 942,
      "Ġname": 943,
      "Ġenc": 944,
      "rier": 945,
      "Ġfloor": 946,
      "Ġapproach": 947,
      "Ġtie": 948,
      "ated": 949,
      "Ġbrush": 950,
      "ition": 951,
      "Ġlot": 952,
      "Ġmain": 953,
      "Ġrepe": 954,
      "uring": 955,
      "Ġfew": 956,
      "ments": 957,
      "Ġveterin": 958,
      "ween": 959,
      "Ġwrite": 960,
      "Ġbetween": 961,
      "Ġdifferent": 962,
      "ogn": 963,
      "Ġty": 964,
      "Ġcall": 965,
      "ree": 966,
      "Ġdes": 967,
      "Ġdraw": 968,
      "Ġmin": 969,
      "ality": 970,
      "arm": 971,
      "Ġtrim": 972,
      "Ġass": 973,
      "urn": 974,
      "ations": 975,
      "Ġproble": 976,
      "Ġpost": 977,
      "Ġinterests": 978,
      "Ġtraining": 979,
      "Ġfollow": 980,
      "Ġexamine": 981,
      "priate": 982,
      "form": 983,
      "Ġface": 984,
      "Ġlim": 985,
      "Ġcomp": 986,
      "Ġext": 987,
      "Ġclot": 988,
      "Ġgoing": 989,
      "ify": 990,
      "Ġrecogn": 991,
      "Ġrecognize": 992,
      "Ġfam": 993,
      "Ġdr": 994,
      "Ġdate": 995,
      "Ġdress": 996,
      "Ġgently": 997,
      "Ġhab": 998,
      "Ġeas": 999,
      "Ġres": 1000,
      "Ġreward": 1001,
      "Ġtrail": 1002,
      "tern": 1003,
      "Ġalone": 1004,
      "Ġboth": 1005,
      "Ġphys": 1006,
      "Ġhealthy": 1007,
      "Ġmedia": 1008,
      "Ġpossible": 1009,
      "bo": 1010,
      "ump": 1011,
      "Ġbreat": 1012,
      "Ġball": 1013,
      "arian": 1014,
      "Ġhay": 1015,
      "Ġrep": 1016,
      "Ġdoing": 1017,
      "essary": 1018,
      "Ġsock": 1019,
      "Ġboxes": 1020,
      "Ġquiet": 1021,
      "Ġbottle": 1022,
      "Ġmeet": 1023,
      "Ġdoesnt": 1024,
      "Ġquestions": 1025,
      "Ġveterinarian": 1026,
      "bb": 1027,
      "oy": 1028,
      "ze": 1029,
      "ons": 1030,
      "itor": 1031,
      "Ġlau": 1032,
      "Ġleng": 1033,
      "ets": 1034,
      "Ġdoor": 1035,
      "Ġnear": 1036,
      "Ġselect": 1037,
      "Ġaccess": 1038,
      "Ġgirls": 1039,
      "Ġlength": 1040,
      "ric": 1041,
      "Ġ1": 1042,
      "oura": 1043,
      "ins": 1044,
      "Ġsur": 1045,
      "Ġcur": 1046,
      "Ġhone": 1047,
      "Ġboo": 1048,
      "Ġbir": 1049,
      "arf": 1050,
      "Ġclass": 1051,
      "Ġshel": 1052,
      "Ġactiv": 1053,
      "Ġoffer": 1054,
      "Ġbrid": 1055,
      "Ġfresh": 1056,
      "Ġrun": 1057,
      "Ġpiece": 1058,
      "Ġmonitor": 1059,
      "Ġrepeat": 1060,
      "do": 1061,
      "ear": 1062,
      "hing": 1063,
      "ner": 1064,
      "nip": 1065,
      "os": 1066,
      "ty": 1067,
      "warf": 1068,
      "Ġwould": 1069,
      "Ġduring": 1070,
      "Ġdwarf": 1071,
      "ark": 1072,
      "Ġref": 1073,
      "Ġthan": 1074,
      "Ġcatnip": 1075,
      "Ġanother": 1076,
      "Ġchew": 1077,
      "ection": 1078,
      "Ġcontin": 1079,
      "Ġfocu": 1080,
      "Ġident": 1081,
      "Ġtrailer": 1082,
      "Ġlaugh": 1083,
      "ds": 1084,
      "line": 1085,
      "Ġtail": 1086,
      "Ġsy": 1087,
      "Ġfig": 1088,
      "Ġbar": 1089,
      "Ġbow": 1090,
      "Ġmaking": 1091,
      "led": 1092,
      "Ġnu": 1093,
      "Ġstir": 1094,
      "Ġguy": 1095,
      "Ġnever": 1096,
      "ables": 1097,
      "Ġtext": 1098,
      "Ġtalking": 1099,
      "Ġbuck": 1100,
      "Ġsmell": 1101,
      "Ġappropriate": 1102,
      "Ġanimals": 1103,
      "Ġstuff": 1104,
      "Ġsecure": 1105,
      "Ġaware": 1106,
      "Ġfocus": 1107,
      "Ġfigure": 1108,
      "air": 1109,
      "Ġtub": 1110,
      "ative": 1111,
      "Ġfit": 1112,
      "Ġhigh": 1113,
      "Ġhard": 1114,
      "Ġnat": 1115,
      "eak": 1116,
      "Ġteeth": 1117,
      "Ġcrushs": 1118,
      "Ġdirect": 1119,
      "Ġattach": 1120,
      "Ġsche": 1121,
      "Ġbottom": 1122,
      "Ġnecessary": 1123,
      "Ġfamily": 1124,
      "Ġcontinue": 1125,
      "Ġent": 1126,
      "Ġaff": 1127,
      "Ġsch": 1128,
      "Ġbig": 1129,
      "Ġgen": 1130,
      "Ġgrou": 1131,
      "Ġmess": 1132,
      "Ġinv": 1133,
      "Ġcond": 1134,
      "Ġtrust": 1135,
      "Ġcasu": 1136,
      "ept": 1137,
      "Ġkind": 1138,
      "Ġsuit": 1139,
      "Ġlead": 1140,
      "akes": 1141,
      "dule": 1142,
      "Ġcover": 1143,
      "Ġgroom": 1144,
      "Ġpull": 1145,
      "Ġphone": 1146,
      "Ġpatient": 1147,
      "Ġmany": 1148,
      "Ġveget": 1149,
      "Ġslowly": 1150,
      "Ġassess": 1151,
      "ourage": 1152,
      "Ġidentify": 1153,
      "Ġstirru": 1154,
      "Ġschedule": 1155,
      "od": 1156,
      "Ġswe": 1157,
      "Ġsame": 1158,
      "Ġdro": 1159,
      "Ġmight": 1160,
      "Ġmother": 1161,
      "anc": 1162,
      "Ġnow": 1163,
      "Ġbeg": 1164,
      "ich": 1165,
      "Ġstep": 1166,
      "Ġcau": 1167,
      "Ġfriendly": 1168,
      "Ġadop": 1169,
      "Ġinterested": 1170,
      "Ġweek": 1171,
      "Ġbecome": 1172,
      "Ġsquir": 1173,
      "Ġmaterials": 1174,
      "Ġspray": 1175,
      "Ġproblems": 1176,
      "Ġphysical": 1177,
      "Ġnumber": 1178,
      "Ġnatur": 1179,
      "Ġ2": 1180,
      "Ġap": 1181,
      "atch": 1182,
      "Ġbase": 1183,
      "ans": 1184,
      "Ġrest": 1185,
      "Ġoutside": 1186,
      "Ġhimher": 1187,
      "Ġsho": 1188,
      "Ġwhich": 1189,
      "Ġpres": 1190,
      "Ġhandle": 1191,
      "Ġstring": 1192,
      "Ġgoats": 1193,
      "Ġhalter": 1194,
      "Ġlimit": 1195,
      "Ġschool": 1196,
      "Ġbegin": 1197,
      "Ġsquirre": 1198,
      "ix": 1199,
      "lies": 1200,
      "Ġ3": 1201,
      "Ġwarm": 1202,
      "Ġlay": 1203,
      "Ġlight": 1204,
      "Ġrepl": 1205,
      "Ġonly": 1206,
      "Ġgetting": 1207,
      "Ġboard": 1208,
      "Ġused": 1209,
      "Ġfoods": 1210,
      "Ġdisc": 1211,
      "Ġdays": 1212,
      "Ġdistance": 1213,
      "Ġneck": 1214,
      "Ġweeks": 1215,
      "Ġelse": 1216,
      "Ġhappy": 1217,
      "ully": 1218,
      "Ġbridle": 1219,
      "Ġvegetables": 1220,
      "eal": 1221,
      "fully": 1222,
      "ges": 1223,
      "pt": 1224,
      "up": 1225,
      "ually": 1226,
      "Ġes": 1227,
      "hed": 1228,
      "Ġcr": 1229,
      "ates": 1230,
      "Ġpot": 1231,
      "Ġhol": 1232,
      "Ġbad": 1233,
      "Ġtoward": 1234,
      "sed": 1235,
      "Ġnails": 1236,
      "Ġconn": 1237,
      "Ġshare": 1238,
      "Ġvis": 1239,
      "Ġtemp": 1240,
      "Ġclear": 1241,
      "Ġenj": 1242,
      "Ġensure": 1243,
      "Ġself": 1244,
      "Ġprot": 1245,
      "Ġneeds": 1246,
      "ific": 1247,
      "Ġgirl": 1248,
      "Ġposition": 1249,
      "Ġdistract": 1250,
      "ock": 1251,
      "Ġvery": 1252,
      "Ġage": 1253,
      "Ġsn": 1254,
      "Ġcard": 1255,
      "Ġfill": 1256,
      "Ġpri": 1257,
      "ank": 1258,
      "Ġrese": 1259,
      "Ġreally": 1260,
      "Ġstore": 1261,
      "ents": 1262,
      "Ġguys": 1263,
      "Ġshirt": 1264,
      "Ġriding": 1265,
      "Ġexper": 1266,
      "ames": 1267,
      "Ġvac": 1268,
      "Ġtimes": 1269,
      "Ġclick": 1270,
      "Ġaccept": 1271,
      "Ġconfidence": 1272,
      "Ġrespect": 1273,
      "Ġsupplies": 1274,
      "Ġcolor": 1275,
      "Ġexpect": 1276,
      "Ġlegs": 1277,
      "Ġtype": 1278,
      "Ġhabit": 1279,
      "board": 1280,
      "Ġbowl": 1281,
      "ax": 1282,
      "der": 1283,
      "yle": 1284,
      "Ġtea": 1285,
      "Ġcir": 1286,
      "erv": 1287,
      "eral": 1288,
      "ory": 1289,
      "Ġline": 1290,
      "Ġda": 1291,
      "Ġwithout": 1292,
      "ility": 1293,
      "Ġwheel": 1294,
      "Ġshape": 1295,
      "Ġneut": 1296,
      "Ġcome": 1297,
      "amin": 1298,
      "Ġprocess": 1299,
      "Ġweight": 1300,
      "Ġquick": 1301,
      "Ġscr": 1302,
      "Ġbreeder": 1303,
      "Ġbaby": 1304,
      "Ġadopt": 1305,
      "Ġholes": 1306,
      "Ġhabitat": 1307,
      "hy": 1308,
      "iate": 1309,
      "king": 1310,
      "li": 1311,
      "oc": 1312,
      "to": 1313,
      "here": 1314,
      "Ġsing": 1315,
      "ertain": 1316,
      "Ġbas": 1317,
      "Ġwood": 1318,
      "Ġwall": 1319,
      "Ġmark": 1320,
      "als": 1321,
      "Ġnose": 1322,
      "ides": 1323,
      "Ġthough": 1324,
      "outh": 1325,
      "enty": 1326,
      "Ġtra": 1327,
      "Ġexpl": 1328,
      "Ġvit": 1329,
      "Ġsoft": 1330,
      "Ġsub": 1331,
      "ially": 1332,
      "Ġfree": 1333,
      "Ġcomplet": 1334,
      "Ġrope": 1335,
      "aws": 1336,
      "Ġhobb": 1337,
      "Ġmaintain": 1338,
      "Ġshelter": 1339,
      "Ġreplace": 1340,
      "Ġresearch": 1341,
      "friend": 1342,
      "gy": 1343,
      "ien": 1344,
      "pu": 1345,
      "Ġam": 1346,
      "Ġcou": 1347,
      "Ġpol": 1348,
      "Ġhive": 1349,
      "Ġopp": 1350,
      "Ġhaving": 1351,
      "Ġreact": 1352,
      "Ġreas": 1353,
      "ics": 1354,
      "ional": 1355,
      "Ġonto": 1356,
      "Ġtrick": 1357,
      "Ġplenty": 1358,
      "eep": 1359,
      "Ġdolp": 1360,
      "Ġgets": 1361,
      "ade": 1362,
      "Ġspeak": 1363,
      "Ġwhy": 1364,
      "Ġchang": 1365,
      "aps": 1366,
      "Ġcleaning": 1367,
      "Ġlevel": 1368,
      "Ġalread": 1369,
      "Ġappear": 1370,
      "Ġleast": 1371,
      "Ġactive": 1372,
      "astic": 1373,
      "Ġroll": 1374,
      "Ġpattern": 1375,
      "ause": 1376,
      "Ġmost": 1377,
      "Ġimport": 1378,
      "Ġboyfriend": 1379,
      "Ġproperly": 1380,
      "Ġencourage": 1381,
      "Ġgroup": 1382,
      "Ġcondition": 1383,
      "Ġsuitable": 1384,
      "Ġsquirrel": 1385,
      "Ġdolph": 1386,
      "Ġalready": 1387,
      "cle": 1388,
      "lt": 1389,
      "ling": 1390,
      "vir": 1391,
      "Ġtar": 1392,
      "Ġsle": 1393,
      "Ġsound": 1394,
      "Ġfav": 1395,
      "Ġmouth": 1396,
      "Ġim": 1397,
      "Ġest": 1398,
      "Ġreach": 1399,
      "ids": 1400,
      "Ġstress": 1401,
      "Ġplaces": 1402,
      "Ġplastic": 1403,
      "Ġlooks": 1404,
      "ants": 1405,
      "Ġenvir": 1406,
      "Ġpregn": 1407,
      "Ġcontain": 1408,
      "Ġrelax": 1409,
      "Ġcommun": 1410,
      "Ġcarrier": 1411,
      "ages": 1412,
      "Ġsupport": 1413,
      "Ġbecause": 1414,
      "Ġsimple": 1415,
      "ude": 1416,
      "Ġeasy": 1417,
      "Ġhonest": 1418,
      "doors": 1419,
      "Ġenjoy": 1420,
      "Ġvitamin": 1421,
      "Ġimportant": 1422,
      "Ġtarget": 1423,
      "Ġenviron": 1424,
      "gg": 1425,
      "lish": 1426,
      "med": 1427,
      "Ġsen": 1428,
      "Ġfore": 1429,
      "Ġfast": 1430,
      "Ġpast": 1431,
      "Ġpass": 1432,
      "Ġlast": 1433,
      "Ġdone": 1434,
      "Ġground": 1435,
      "Ġmind": 1436,
      "Ġinform": 1437,
      "Ġnorm": 1438,
      "oof": 1439,
      "Ġemp": 1440,
      "Ġeating": 1441,
      "Ġlooking": 1442,
      "Ġnext": 1443,
      "Ġteach": 1444,
      "Ġsoap": 1445,
      "Ġfem": 1446,
      "ipe": 1447,
      "Ġknot": 1448,
      "Ġadv": 1449,
      "Ġpret": 1450,
      "Ġleather": 1451,
      "Ġseed": 1452,
      "duct": 1453,
      "Ġneeded": 1454,
      "Ġcarefully": 1455,
      "Ġmus": 1456,
      "Ġeverything": 1457,
      "Ġrespon": 1458,
      "Ġcorrect": 1459,
      "Ġpieces": 1460,
      "Ġbabies": 1461,
      "Ġincl": 1462,
      "Ġbreath": 1463,
      "Ġsweat": 1464,
      "Ġdrop": 1465,
      "Ġshoes": 1466,
      "Ġconnect": 1467,
      "Ġdaily": 1468,
      "Ġcomplete": 1469,
      "ches": 1470,
      "ual": 1471,
      "Ġturn": 1472,
      "Ġcool": 1473,
      "Ġhy": 1474,
      "Ġhide": 1475,
      "Ġhum": 1476,
      "Ġwont": 1477,
      "Ġless": 1478,
      "Ġgre": 1479,
      "Ġma": 1480,
      "vest": 1481,
      "ked": 1482,
      "Ġeat": 1483,
      "Ġstill": 1484,
      "Ġonline": 1485,
      "gest": 1486,
      "Ġorg": 1487,
      "ruct": 1488,
      "Ġothers": 1489,
      "Ġleft": 1490,
      "Ġsew": 1491,
      "Ġquality": 1492,
      "Ġfeeding": 1493,
      "Ġstrip": 1494,
      "Ġflirting": 1495,
      "Ġart": 1496,
      "Ġimpress": 1497,
      "Ġemot": 1498,
      "Ġextra": 1499,
      "Ġcasual": 1500,
      "Ġstirrup": 1501,
      "Ġnatural": 1502,
      "Ġcardboard": 1503,
      "Ġscratch": 1504,
      "Ġenvironment": 1505,
      "ever": 1506,
      "fect": 1507,
      "ger": 1508,
      "us": 1509,
      "where": 1510,
      "ines": 1511,
      "ints": 1512,
      "Ġser": 1513,
      "ature": 1514,
      "Ġfight": 1515,
      "Ġpain": 1516,
      "Ġpair": 1517,
      "Ġgiv": 1518,
      "Ġmouse": 1519,
      "Ġmakes": 1520,
      "Ġinvest": 1521,
      "Ġreject": 1522,
      "imate": 1523,
      "Ġcapu": 1524,
      "Ġrid": 1525,
      "Ġsug": 1526,
      "arent": 1527,
      "Ġsex": 1528,
      "Ġsaying": 1529,
      "Ġcarp": 1530,
      "Ġblank": 1531,
      "Ġsitu": 1532,
      "Ġbetter": 1533,
      "Ġemail": 1534,
      "Ġspecial": 1535,
      "Ġrealize": 1536,
      "Ġboots": 1537,
      "Ġapart": 1538,
      "Ġtemper": 1539,
      "Ġchanges": 1540,
      "Ġcapuch": 1541,
      "for": 1542,
      "gress": 1543,
      "ied": 1544,
      "ues": 1545,
      "Ġ5": 1546,
      "Ġtape": 1547,
      "Ġcru": 1548,
      "Ġyoull": 1549,
      "Ġthese": 1550,
      "Ġpen": 1551,
      "Ġharn": 1552,
      "Ġtoil": 1553,
      "Ġtowe": 1554,
      "Ġlow": 1555,
      "Ġoil": 1556,
      "Ġmix": 1557,
      "etc": 1558,
      "oop": 1559,
      "Ġemb": 1560,
      "Ġret": 1561,
      "Ġstyle": 1562,
      "ished": 1563,
      "Ġite": 1564,
      "Ġloop": 1565,
      "Ġrom": 1566,
      "Ġtrying": 1567,
      "Ġsuch": 1568,
      "Ġjump": 1569,
      "Ġanything": 1570,
      "Ġconversations": 1571,
      "Ġfrequ": 1572,
      "Ġpell": 1573,
      "Ġsaf": 1574,
      "Ġlocal": 1575,
      "Ġvisit": 1576,
      "Ġamount": 1577,
      "Ġappearance": 1578,
      "Ġcommunic": 1579,
      "Ġinformation": 1580,
      "Ġfemale": 1581,
      "Ġcarpet": 1582,
      "Ġharness": 1583,
      "Ġtoilet": 1584,
      "app": 1585,
      "ience": 1586,
      "lo": 1587,
      "lic": 1588,
      "pec": 1589,
      "ron": 1590,
      "ted": 1591,
      "Ġetc": 1592,
      "Ġsend": 1593,
      "Ġyouve": 1594,
      "ering": 1595,
      "Ġfle": 1596,
      "Ġparent": 1597,
      "Ġwire": 1598,
      "Ġgreat": 1599,
      "Ġocc": 1600,
      "ety": 1601,
      "Ġind": 1602,
      "Ġill": 1603,
      "Ġnail": 1604,
      "Ġnerv": 1605,
      "ook": 1606,
      "Ġequ": 1607,
      "Ġeff": 1608,
      "Ġform": 1609,
      "Ġusu": 1610,
      "Ġstra": 1611,
      "lfriend": 1612,
      "Ġwhenever": 1613,
      "ortun": 1614,
      "Ġshes": 1615,
      "mptom": 1616,
      "Ġattract": 1617,
      "rie": 1618,
      "Ġletter": 1619,
      "Ġpersonal": 1620,
      "Ġpersonality": 1621,
      "Ġload": 1622,
      "Ġproof": 1623,
      "Ġsays": 1624,
      "Ġobject": 1625,
      "Ġcarry": 1626,
      "Ġexpress": 1627,
      "Ġbath": 1628,
      "Ġdesign": 1629,
      "Ġsurf": 1630,
      "Ġactivity": 1631,
      "Ġbarrier": 1632,
      "Ġaffection": 1633,
      "Ġespec": 1634,
      "Ġcouple": 1635,
      "Ġopportun": 1636,
      "Ġfavor": 1637,
      "Ġorgan": 1638,
      "Ġscratching": 1639,
      "Ġsafety": 1640,
      "Ġnervous": 1641,
      "mptoms": 1642,
      "Ġespecially": 1643,
      "just": 1644,
      "less": 1645,
      "rate": 1646,
      "sy": 1647,
      "Ġtight": 1648,
      "Ġsides": 1649,
      "Ġyoung": 1650,
      "Ġfab": 1651,
      "Ġfits": 1652,
      "ony": 1653,
      "Ġpun": 1654,
      "Ġhot": 1655,
      "Ġbra": 1656,
      "Ġwipe": 1657,
      "Ġopt": 1658,
      "oot": 1659,
      "omm": 1660,
      "imb": 1661,
      "Ġthree": 1662,
      "Ġur": 1663,
      "ically": 1664,
      "Ġtray": 1665,
      "Ġisnt": 1666,
      "Ġneg": 1667,
      "Ġwhite": 1668,
      "Ġfriendship": 1669,
      "olo": 1670,
      "Ġclimb": 1671,
      "Ġpoint": 1672,
      "Ġweigh": 1673,
      "Ġadm": 1674,
      "Ġadjust": 1675,
      "Ġremain": 1676,
      "Ġscent": 1677,
      "spect": 1678,
      "Ġgirlfriend": 1679,
      "Ġrespond": 1680,
      "Ġmedic": 1681,
      "Ġearly": 1682,
      "Ġsecond": 1683,
      "Ġagainst": 1684,
      "Ġspecific": 1685,
      "Ġdrink": 1686,
      "Ġsymptoms": 1687,
      "Ġinvite": 1688,
      "Ġtowards": 1689,
      "Ġprotect": 1690,
      "Ġpriv": 1691,
      "Ġcircle": 1692,
      "Ġnormal": 1693,
      "Ġresponse": 1694,
      "Ġstraight": 1695,
      "Ġfabric": 1696,
      "cic": 1697,
      "els": 1698,
      "me": 1699,
      "ny": 1700,
      "oice": 1701,
      "row": 1702,
      "rain": 1703,
      "unt": 1704,
      "Ġ4": 1705,
      "Ġtack": 1706,
      "Ġair": 1707,
      "inch": 1708,
      "Ġsi": 1709,
      "Ġsour": 1710,
      "Ġcertain": 1711,
      "rent": 1712,
      "Ġfing": 1713,
      "Ġlou": 1714,
      "Ġdating": 1715,
      "Ġgra": 1716,
      "Ġocic": 1717,
      "Ġmil": 1718,
      "ances": 1719,
      "Ġbeen": 1720,
      "uth": 1721,
      "Ġshy": 1722,
      "Ġareas": 1723,
      "olve": 1724,
      "amp": 1725,
      "Ġchar": 1726,
      "Ġvar": 1727,
      "Ġfeet": 1728,
      "Ġeng": 1729,
      "rib": 1730,
      "Ġapply": 1731,
      "Ġdeal": 1732,
      "Ġdiscu": 1733,
      "Ġcommand": 1734,
      "velop": 1735,
      "iety": 1736,
      "Ġglo": 1737,
      "Ġposts": 1738,
      "Ġcloth": 1739,
      "Ġreput": 1740,
      "Ġbird": 1741,
      "Ġtube": 1742,
      "ancy": 1743,
      "Ġcause": 1744,
      "Ġpresent": 1745,
      "Ġquickly": 1746,
      "Ġsingle": 1747,
      "Ġreason": 1748,
      "Ġestab": 1749,
      "Ġinclude": 1750,
      "Ġitems": 1751,
      "Ġpellets": 1752,
      "Ġparents": 1753,
      "Ġfavorite": 1754,
      "Ġocicat": 1755,
      "Ġdiscuss": 1756,
      "by": 1757,
      "cing": 1758,
      "ning": 1759,
      "ost": 1760,
      "rot": 1761,
      "so": 1762,
      "Ġver": 1763,
      "inter": 1764,
      "Ġsess": 1765,
      "Ġcry": 1766,
      "Ġfac": 1767,
      "Ġpad": 1768,
      "Ġpaw": 1769,
      "Ġbro": 1770,
      "itch": 1771,
      "Ġdeep": 1772,
      "Ġmom": 1773,
      "Ġmount": 1774,
      "Ġmale": 1775,
      "ens": 1776,
      "Ġign": 1777,
      "Ġbees": 1778,
      "Ġed": 1779,
      "Ġrele": 1780,
      "Ġforget": 1781,
      "Ġforward": 1782,
      "stern": 1783,
      "Ġconst": 1784,
      "Ġhell": 1785,
      "Ġant": 1786,
      "Ġdoors": 1787,
      "Ġlift": 1788,
      "Ġprof": 1789,
      "quire": 1790,
      "Ġclo": 1791,
      "orth": 1792,
      "Ġsuper": 1793,
      "Ġwestern": 1794,
      "Ġseek": 1795,
      "Ġremind": 1796,
      "Ġalso": 1797,
      "Ġplaying": 1798,
      "Ġcoll": 1799,
      "Ġdevelop": 1800,
      "sert": 1801,
      "Ġpups": 1802,
      "Ġevent": 1803,
      "Ġaggress": 1804,
      "Ġglue": 1805,
      "Ġheshe": 1806,
      "Ġskin": 1807,
      "Ġminut": 1808,
      "Ġcompan": 1809,
      "Ġactivities": 1810,
      "Ġbucket": 1811,
      "Ġhobbies": 1812,
      "Ġcontainer": 1813,
      "Ġfasten": 1814,
      "Ġstrips": 1815,
      "Ġrejection": 1816,
      "Ġsuggest": 1817,
      "Ġtowel": 1818,
      "Ġreturn": 1819,
      "Ġillness": 1820,
      "Ġpunish": 1821,
      "Ġloud": 1822,
      "Ġgloves": 1823,
      "gien": 1824,
      "ken": 1825,
      "wor": 1826,
      "Ġtree": 1827,
      "inate": 1828,
      "Ġsick": 1829,
      "Ġsong": 1830,
      "Ġcant": 1831,
      "Ġcreat": 1832,
      "Ġhour": 1833,
      "Ġband": 1834,
      "Ġwind": 1835,
      "Ġwinter": 1836,
      "ories": 1837,
      "Ġtool": 1838,
      "Ġlap": 1839,
      "Ġdirt": 1840,
      "Ġgent": 1841,
      "Ġgif": 1842,
      "Ġok": 1843,
      "etch": 1844,
      "Ġinj": 1845,
      "Ġindoors": 1846,
      "Ġinspect": 1847,
      "Ġnon": 1848,
      "Ġnor": 1849,
      "Ġbel": 1850,
      "ows": 1851,
      "ead": 1852,
      "Ġfru": 1853,
      "Ġtrack": 1854,
      "Ġcaut": 1855,
      "Ġcages": 1856,
      "Ġshap": 1857,
      "Ġabs": 1858,
      "Ġris": 1859,
      "Ġspay": 1860,
      "ably": 1861,
      "Ġchild": 1862,
      "Ġasking": 1863,
      "Ġsun": 1864,
      "Ġje": 1865,
      "Ġpref": 1866,
      "Ġprev": 1867,
      "Ġlean": 1868,
      "Ġflat": 1869,
      "Ġaltern": 1870,
      "Ġscre": 1871,
      "Ġtheyre": 1872,
      "Ġprom": 1873,
      "Ġwants": 1874,
      "Ġstrong": 1875,
      "Ġblock": 1876,
      "Ġpush": 1877,
      "Ġrespons": 1878,
      "Ġlocate": 1879,
      "Ġkissing": 1880,
      "Ġarr": 1881,
      "Ġjoin": 1882,
      "Ġhalf": 1883,
      "Ġfinished": 1884,
      "Ġlots": 1885,
      "Ġtubes": 1886,
      "Ġmessage": 1887,
      "Ġboards": 1888,
      "Ġdolphin": 1889,
      "Ġsleep": 1890,
      "Ġempty": 1891,
      "Ġmusic": 1892,
      "Ġcompletely": 1893,
      "Ġhygien": 1894,
      "Ġserious": 1895,
      "Ġgiving": 1896,
      "Ġblanket": 1897,
      "Ġromant": 1898,
      "Ġusually": 1899,
      "Ġprivate": 1900,
      "Ġcollar": 1901,
      "cular": 1902,
      "gian": 1903,
      "lm": 1904,
      "over": 1905,
      "Ġing": 1906,
      "Ġtig": 1907,
      "ouble": 1908,
      "rease": 1909,
      "Ġfut": 1910,
      "Ġfive": 1911,
      "Ġfold": 1912,
      "Ġfull": 1913,
      "Ġpra": 1914,
      "Ġhi": 1915,
      "Ġbal": 1916,
      "Ġbur": 1917,
      "Ġbag": 1918,
      "Ġwet": 1919,
      "Ġworth": 1920,
      "Ġlines": 1921,
      "ales": 1922,
      "aring": 1923,
      "Ġhad": 1924,
      "anut": 1925,
      "Ġiron": 1926,
      "Ġelect": 1927,
      "Ġthing": 1928,
      "Ġstro": 1929,
      "ential": 1930,
      "iss": 1931,
      "Ġaside": 1932,
      "Ġloose": 1933,
      "Ġlips": 1934,
      "Ġcomes": 1935,
      "Ġexcess": 1936,
      "Ġproduct": 1937,
      "ected": 1938,
      "Ġadult": 1939,
      "Ġjeal": 1940,
      "Ġconsult": 1941,
      "Ġsmo": 1942,
      "Ġavail": 1943,
      "Ġsearch": 1944,
      "Ġalong": 1945,
      "Ġplayful": 1946,
      "Ġfeeder": 1947,
      "Ġscoop": 1948,
      "Ġworry": 1949,
      "Ġinteresting": 1950,
      "wegian": 1951,
      "Ġdef": 1952,
      "Ġdetails": 1953,
      "istent": 1954,
      "ives": 1955,
      "Ġrub": 1956,
      "Ġbehind": 1957,
      "Ġpeanut": 1958,
      "Ġways": 1959,
      "Ġends": 1960,
      "Ġbreeding": 1961,
      "Ġmanx": 1962,
      "Ġpartic": 1963,
      "ients": 1964,
      "Ġhole": 1965,
      "redients": 1966,
      "Ġsticks": 1967,
      "Ġinteraction": 1968,
      "Ġhoof": 1969,
      "Ġhoop": 1970,
      "Ġclothes": 1971,
      "Ġhoney": 1972,
      "ledge": 1973,
      "amese": 1974,
      "Ġclicker": 1975,
      "Ġbasic": 1976,
      "Ġpatterns": 1977,
      "Ġpregnancy": 1978,
      "Ġsense": 1979,
      "Ġforest": 1980,
      "Ġsweater": 1981,
      "Ġsituation": 1982,
      "Ġcapuchin": 1983,
      "Ġfrequently": 1984,
      "Ġnegative": 1985,
      "Ġsiamese": 1986,
      "Ġreputable": 1987,
      "Ġestablish": 1988,
      "Ġsuperv": 1989,
      "Ġgentle": 1990,
      "Ġnorwegian": 1991,
      "Ġarrange": 1992,
      "Ġromantic": 1993,
      "Ġingredients": 1994,
      "Ġfuture": 1995,
      "Ġjealous": 1996,
      "gle": 1997,
      "io": 1998,
      "ipp": 1999,
      "let": 2000,
      "man": 2001,
      "na": 2002,
      "nces": 2003,
      "uck": 2004,
      "Ġtaking": 2005,
      "Ġsad": 2006,
      "Ġsol": 2007,
      "Ġcould": 2008,
      "ren": 2009,
      "erg": 2010,
      "Ġferal": 2011,
      "Ġpar": 2012,
      "Ġpack": 2013,
      "Ġhints": 2014,
      "Ġbeng": 2015,
      "ord": 2016,
      "orough": 2017,
      "ites": 2018,
      "Ġdust": 2019,
      "Ġmot": 2020,
      "Ġmut": 2021,
      "Ġmeth": 2022,
      "Ġmade": 2023,
      "Ġnet": 2024,
      "acter": 2025,
      "Ġrein": 2026,
      "Ġreins": 2027,
      "Ġthorough": 2028,
      "ict": 2029,
      "Ġcatch": 2030,
      "ental": 2031,
      "Ġconc": 2032,
      "Ġhelm": 2033,
      "Ġcas": 2034,
      "Ġthats": 2035,
      "ilt": 2036,
      "ilar": 2037,
      "epend": 2038,
      "Ġshav": 2039,
      "Ġabove": 2040,
      "Ġround": 2041,
      "urt": 2042,
      "Ġcomb": 2043,
      "ightly": 2044,
      "Ġchee": 2045,
      "Ġproject": 2046,
      "ores": 2047,
      "ards": 2048,
      "Ġpop": 2049,
      "Ġbusy": 2050,
      "Ġjack": 2051,
      "Ġpress": 2052,
      "Ġfeels": 2053,
      "Ġcontro": 2054,
      "Ġleash": 2055,
      "Ġactually": 2056,
      "Ġclosed": 2057,
      "Ġslightly": 2058,
      "Ġgirth": 2059,
      "Ġrug": 2060,
      "Ġwrap": 2061,
      "Ġprepared": 2062,
      "Ġintern": 2063,
      "Ġpartner": 2064,
      "Ġstudy": 2065,
      "Ġperform": 2066,
      "Ġjokes": 2067,
      "Ġquestion": 2068,
      "Ġmonke": 2069,
      "Ġplans": 2070,
      "Ġbathing": 2071,
      "Ġinstruct": 2072,
      "Ġinstead": 2073,
      "Ġsimilar": 2074,
      "Ġhabits": 2075,
      "Ġcurrent": 2076,
      "Ġmessages": 2077,
      "Ġtrusted": 2078,
      "Ġsteps": 2079,
      "Ġexperience": 2080,
      "Ġvacation": 2081,
      "Ġtease": 2082,
      "Ġneuter": 2083,
      "Ġexplore": 2084,
      "Ġpretend": 2085,
      "Ġcorrectly": 2086,
      "Ġmaze": 2087,
      "Ġemotions": 2088,
      "Ġtemperature": 2089,
      "Ġoccas": 2090,
      "rief": 2091,
      "Ġrelease": 2092,
      "Ġprofess": 2093,
      "Ġcreative": 2094,
      "Ġokay": 2095,
      "Ġchildren": 2096,
      "Ġhygiene": 2097,
      "Ġbengal": 2098,
      "Ġmutual": 2099,
      "Ġshavings": 2100,
      "Ġinstructions": 2101,
      "book": 2102,
      "iqu": 2103,
      "ium": 2104,
      "now": 2105,
      "olf": 2106,
      "ssed": 2107,
      "ug": 2108,
      "âĢ": 2109,
      "Ġz": 2110,
      "Ġtun": 2111,
      "Ġack": 2112,
      "head": 2113,
      "ined": 2114,
      "Ġcent": 2115,
      "Ġcove": 2116,
      "Ġyard": 2117,
      "erally": 2118,
      "ats": 2119,
      "Ġfall": 2120,
      "onge": 2121,
      "Ġpour": 2122,
      "Ġhiding": 2123,
      "Ġbond": 2124,
      "Ġwas": 2125,
      "Ġwolf": 2126,
      "iting": 2127,
      "Ġdna": 2128,
      "sts": 2129,
      "Ġmult": 2130,
      "alu": 2131,
      "Ġinit": 2132,
      "Ġinsert": 2133,
      "Ġbee": 2134,
      "Ġreduce": 2135,
      "Ġthin": 2136,
      "Ġthick": 2137,
      "ionally": 2138,
      "lly": 2139,
      "Ġstain": 2140,
      "ision": 2141,
      "Ġheat": 2142,
      "Ġheart": 2143,
      "ters": 2144,
      "Ġable": 2145,
      "Ġra": 2146,
      "Ġnest": 2147,
      "Ġsponge": 2148,
      "ppy": 2149,
      "Ġexcu": 2150,
      "Ġvoice": 2151,
      "Ġclip": 2152,
      "Ġclaws": 2153,
      "Ġsoak": 2154,
      "anted": 2155,
      "Ġfeather": 2156,
      "Ġfelt": 2157,
      "Ġtalks": 2158,
      "Ġhisher": 2159,
      "Ġbud": 2160,
      "ized": 2161,
      "Ġplaypen": 2162,
      "Ġscru": 2163,
      "iled": 2164,
      "Ġlock": 2165,
      "Ġmem": 2166,
      "Ġdisp": 2167,
      "Ġshows": 2168,
      "Ġcarrot": 2169,
      "istic": 2170,
      "Ġgrad": 2171,
      "Ġholding": 2172,
      "Ġrod": 2173,
      "Ġsupple": 2174,
      "Ġsupply": 2175,
      "Ġmedical": 2176,
      "Ġmoving": 2177,
      "Ġopening": 2178,
      "ired": 2179,
      "Ġcollect": 2180,
      "Ġshoulder": 2181,
      "Ġjoke": 2182,
      "iber": 2183,
      "Ġbathe": 2184,
      "Ġinstall": 2185,
      "Ġenclo": 2186,
      "Ġtyp": 2187,
      "Ġextre": 2188,
      "Ġeasily": 2189,
      "Ġinvolve": 2190,
      "Ġcasually": 2191,
      "Ġstirrups": 2192,
      "Ġpotential": 2193,
      "Ġtravel": 2194,
      "Ġreaction": 2195,
      "Ġimmed": 2196,
      "Ġobjects": 2197,
      "Ġaffectionate": 2198,
      "Ġopportunity": 2199,
      "Ġmilk": 2200,
      "Ġbroken": 2201,
      "Ġignore": 2202,
      "Ġconstant": 2203,
      "Ġprevent": 2204,
      "Ġavailable": 2205,
      "Ġhelmet": 2206,
      "Ġcontrol": 2207,
      "Ġmonkey": 2208,
      "Ġacknow": 2209,
      "Ġcovered": 2210,
      "Ġenclosure": 2211,
      "Ġimmediate": 2212,
      "aut": 2213,
      "bs": 2214,
      "bal": 2215,
      "cy": 2216,
      "dr": 2217,
      "day": 2218,
      "em": 2219,
      "ex": 2220,
      "equ": 2221,
      "gr": 2222,
      "iff": 2223,
      "iod": 2224,
      "ners": 2225,
      "race": 2226,
      "Ġtend": 2227,
      "Ġac": 2228,
      "ino": 2229,
      "iness": 2230,
      "inct": 2231,
      "Ġcro": 2232,
      "Ġcinch": 2233,
      "ret": 2234,
      "ergy": 2235,
      "Ġfil": 2236,
      "Ġfour": 2237,
      "Ġfoot": 2238,
      "Ġpill": 2239,
      "Ġbin": 2240,
      "Ġwom": 2241,
      "Ġwild": 2242,
      "itions": 2243,
      "Ġga": 2244,
      "Ġgard": 2245,
      "Ġmid": 2246,
      "Ġmood": 2247,
      "Ġmice": 2248,
      "ening": 2249,
      "aly": 2250,
      "ooth": 2251,
      "omfort": 2252,
      "Ġthread": 2253,
      "Ġstare": 2254,
      "Ġstri": 2255,
      "ises": 2256,
      "Ġorder": 2257,
      "Ġann": 2258,
      "Ġplants": 2259,
      "Ġoutf": 2260,
      "Ġhimself": 2261,
      "Ġisol": 2262,
      "atever": 2263,
      "Ġshut": 2264,
      "Ġshop": 2265,
      "Ġarent": 2266,
      "Ġrag": 2267,
      "Ġwhatever": 2268,
      "Ġups": 2269,
      "Ġchance": 2270,
      "Ġwere": 2271,
      "Ġadequ": 2272,
      "Ġsomewhere": 2273,
      "Ġseems": 2274,
      "Ġsmil": 2275,
      "Ġsmooth": 2276,
      "Ġhandling": 2277,
      "Ġfeeling": 2278,
      "Ġqual": 2279,
      "osed": 2280,
      "unch": 2281,
      "Ġconfine": 2282,
      "Ġthinking": 2283,
      "Ġbutter": 2284,
      "Ġaddress": 2285,
      "Ġaccid": 2286,
      "Ġcarri": 2287,
      "Ġdeter": 2288,
      "Ġslide": 2289,
      "Ġgrow": 2290,
      "Ġgrids": 2291,
      "Ġstraps": 2292,
      "Ġrubb": 2293,
      "Ġblack": 2294,
      "Ġworking": 2295,
      "Ġnoise": 2296,
      "Ġimpro": 2297,
      "Ġtouching": 2298,
      "Ġkittens": 2299,
      "Ġcompliments": 2300,
      "Ġfunny": 2301,
      "Ġinches": 2302,
      "Ġsketch": 2303,
      "Ġfinally": 2304,
      "Ġsprink": 2305,
      "Ġhooves": 2306,
      "Ġapproachable": 2307,
      "Ġminim": 2308,
      "Ġproblem": 2309,
      "Ġfacebook": 2310,
      "Ġmeeting": 2311,
      "Ġbirth": 2312,
      "Ġshelves": 2313,
      "Ġbuckle": 2314,
      "Ġappropriately": 2315,
      "Ġgeneral": 2316,
      "anced": 2317,
      "Ġnaturally": 2318,
      "Ġbased": 2319,
      "Ġesc": 2320,
      "Ġprior": 2321,
      "Ġvacc": 2322,
      "Ġwalls": 2323,
      "Ġthought": 2324,
      "Ġhobby": 2325,
      "Ġdolphins": 2326,
      "Ġpregnant": 2327,
      "Ġseeds": 2328,
      "Ġpaint": 2329,
      "force": 2330,
      "Ġembrace": 2331,
      "Ġfleec": 2332,
      "Ġeffort": 2333,
      "Ġsurface": 2334,
      "Ġsource": 2335,
      "Ġgrass": 2336,
      "Ġvariety": 2337,
      "Ġsessions": 2338,
      "Ġhello": 2339,
      "Ġminutes": 2340,
      "Ġinjur": 2341,
      "Ġshaped": 2342,
      "Ġjeans": 2343,
      "Ġprefer": 2344,
      "Ġresponsib": 2345,
      "Ġpraise": 2346,
      "Ġproducts": 2347,
      "Ġsupervise": 2348,
      "Ġsolid": 2349,
      "Ġmethod": 2350,
      "Ġreinforce": 2351,
      "Ġcasino": 2352,
      "Ġjacket": 2353,
      "ique": 2354,
      "Ġacknowledge": 2355,
      "Ġadequate": 2356,
      "dle": 2357,
      "emp": 2358,
      "ground": 2359,
      "ister": 2360,
      "ket": 2361,
      "last": 2362,
      "most": 2363,
      "nch": 2364,
      "nce": 2365,
      "ply": 2366,
      "zing": 2367,
      "Ġ6": 2368,
      "Ġahead": 2369,
      "inse": 2370,
      "Ġcy": 2371,
      "Ġcour": 2372,
      "Ġyes": 2373,
      "rec": 2374,
      "ercial": 2375,
      "ator": 2376,
      "Ġfar": 2377,
      "Ġfact": 2378,
      "Ġfence": 2379,
      "Ġfix": 2380,
      "Ġpony": 2381,
      "Ġhist": 2382,
      "Ġwound": 2383,
      "Ġlive": 2384,
      "Ġladd": 2385,
      "Ġdid": 2386,
      "Ġdig": 2387,
      "Ġdam": 2388,
      "Ġdates": 2389,
      "Ġmar": 2390,
      "Ġmont": 2391,
      "Ġmone": 2392,
      "etim": 2393,
      "alm": 2394,
      "aries": 2395,
      "oos": 2396,
      "ided": 2397,
      "iders": 2398,
      "Ġthro": 2399,
      "icult": 2400,
      "Ġstre": 2401,
      "Ġtrap": 2402,
      "Ġtries": 2403,
      "Ġtrun": 2404,
      "Ġtruth": 2405,
      "ended": 2406,
      "Ġplat": 2407,
      "Ġoutdoors": 2408,
      "ilities": 2409,
      "Ġring": 2410,
      "Ġrack": 2411,
      "Ġrinse": 2412,
      "urb": 2413,
      "urs": 2414,
      "Ġcomment": 2415,
      "Ġsometim": 2416,
      "Ġval": 2417,
      "Ġvol": 2418,
      "Ġprob": 2419,
      "Ġasks": 2420,
      "antage": 2421,
      "Ġfear": 2422,
      "ective": 2423,
      "Ġenergy": 2424,
      "ared": 2425,
      "Ġtreatment": 2426,
      "ered": 2427,
      "asing": 2428,
      "Ġwhats": 2429,
      "Ġseat": 2430,
      "Ġsees": 2431,
      "Ġstarts": 2432,
      "Ġloss": 2433,
      "Ġbreec": 2434,
      "aste": 2435,
      "avy": 2436,
      "Ġbrown": 2437,
      "Ġfirm": 2438,
      "Ġcareful": 2439,
      "Ġdish": 2440,
      "Ġdishes": 2441,
      "Ġdecision": 2442,
      "Ġshowing": 2443,
      "Ġcommercial": 2444,
      "Ġaccount": 2445,
      "Ġslip": 2446,
      "Ġgrab": 2447,
      "Ġunc": 2448,
      "Ġhanging": 2449,
      "Ġsmaller": 2450,
      "Ġdifficult": 2451,
      "Ġcorner": 2452,
      "Ġlarger": 2453,
      "Ġperfect": 2454,
      "Ġlonger": 2455,
      "Ġincrease": 2456,
      "Ġfinish": 2457,
      "Ġsimply": 2458,
      "Ġinteractions": 2459,
      "Ġsurround": 2460,
      "Ġentertain": 2461,
      "Ġapolo": 2462,
      "Ġdiscover": 2463,
      "Ġadoption": 2464,
      "Ġbasket": 2465,
      "Ġpolite": 2466,
      "Ġadvantage": 2467,
      "Ġhuman": 2468,
      "Ġcommunicate": 2469,
      "Ġurine": 2470,
      "Ġmedication": 2471,
      "Ġdrinking": 2472,
      "Ġfingers": 2473,
      "Ġcharacter": 2474,
      "work": 2475,
      "Ġhours": 2476,
      "Ġfruits": 2477,
      "Ġbalanced": 2478,
      "Ġthoroughly": 2479,
      "Ġpopular": 2480,
      "Ġpressure": 2481,
      "Ġprofessional": 2482,
      "aluate": 2483,
      "Ġbudget": 2484,
      "Ġgradually": 2485,
      "Ġimmediately": 2486,
      "Ġimprove": 2487,
      "Ġhistory": 2488,
      "Ġmonth": 2489,
      "Ġmoney": 2490,
      "Ġthroat": 2491,
      "br": 2492,
      "co": 2493,
      "cue": 2494,
      "dd": 2495,
      "ele": 2496,
      "fo": 2497,
      "gize": 2498,
      "hp": 2499,
      "hold": 2500,
      "ier": 2501,
      "iot": 2502,
      "light": 2503,
      "mon": 2504,
      "nit": 2505,
      "oint": 2506,
      "ral": 2507,
      "sw": 2508,
      "shes": 2509,
      "tim": 2510,
      "ush": 2511,
      "vie": 2512,
      "vious": 2513,
      "zy": 2514,
      "zz": 2515,
      "hen": 2516,
      "inal": 2517,
      "inister": 2518,
      "Ġsort": 2519,
      "Ġcount": 2520,
      "Ġcup": 2521,
      "Ġcele": 2522,
      "rees": 2523,
      "Ġfa": 2524,
      "Ġfake": 2525,
      "Ġpalm": 2526,
      "Ġhit": 2527,
      "Ġhous": 2528,
      "Ġhint": 2529,
      "ither": 2530,
      "Ġlid": 2531,
      "Ġlunch": 2532,
      "Ġdre": 2533,
      "Ġdri": 2534,
      "Ġgot": 2535,
      "Ġgain": 2536,
      "Ġgame": 2537,
      "Ġmir": 2538,
      "Ġmist": 2539,
      "etite": 2540,
      "arr": 2541,
      "acher": 2542,
      "Ġeither": 2543,
      "Ġrequire": 2544,
      "Ġthrow": 2545,
      "ices": 2546,
      "ower": 2547,
      "Ġwithin": 2548,
      "Ġstur": 2549,
      "Ġstall": 2550,
      "entions": 2551,
      "irm": 2552,
      "ising": 2553,
      "Ġtrue": 2554,
      "uts": 2555,
      "Ġheight": 2556,
      "Ġanaly": 2557,
      "Ġansw": 2558,
      "Ġshamp": 2559,
      "Ġneigh": 2560,
      "Ġspread": 2561,
      "Ġcoming": 2562,
      "Ġexc": 2563,
      "Ġchos": 2564,
      "Ġvent": 2565,
      "Ġteacher": 2566,
      "Ġkey": 2567,
      "apers": 2568,
      "Ġdiv": 2569,
      "Ġallerg": 2570,
      "Ġseem": 2571,
      "raid": 2572,
      "oplast": 2573,
      "ffic": 2574,
      "Ġapprec": 2575,
      "Ġappetite": 2576,
      "Ġpersian": 2577,
      "Ġcann": 2578,
      "Ġacts": 2579,
      "Ġoverfe": 2580,
      "Ġanyone": 2581,
      "Ġwords": 2582,
      "Ġcute": 2583,
      "Ġobvious": 2584,
      "Ġtelling": 2585,
      "Ġmeans": 2586,
      "sitive": 2587,
      "Ġclosely": 2588,
      "Ġunless": 2589,
      "Ġunique": 2590,
      "Ġblow": 2591,
      "Ġeveryone": 2592,
      "Ġpuppy": 2593,
      "Ġafraid": 2594,
      "Ġevaluate": 2595,
      "Ġrecomm": 2596,
      "Ġarms": 2597,
      "Ġhousehold": 2598,
      "Ġparts": 2599,
      "Ġcoroplast": 2600,
      "Ġstud": 2601,
      "Ġsquare": 2602,
      "Ġperiod": 2603,
      "Ġideal": 2604,
      "Ġfurnit": 2605,
      "Ġpossib": 2606,
      "Ġskill": 2607,
      "Ġsweep": 2608,
      "Ġswitch": 2609,
      "Ġstanding": 2610,
      "Ġspots": 2611,
      "Ġclothing": 2612,
      "Ġdrill": 2613,
      "Ġrescue": 2614,
      "Ġbreathe": 2615,
      "Ġbreathing": 2616,
      "Ġaccessories": 2617,
      "Ġ10": 2618,
      "Ġclasses": 2619,
      "Ġrefrain": 2620,
      "Ġsmells": 2621,
      "Ġstuffing": 2622,
      "Ġdirectly": 2623,
      "Ġgenerally": 2624,
      "Ġgroups": 2625,
      "Ġconditions": 2626,
      "Ġgroomed": 2627,
      "Ġsweet": 2628,
      "Ġdropp": 2629,
      "Ġcausing": 2630,
      "Ġrestrain": 2631,
      "Ġsniff": 2632,
      "Ġexpert": 2633,
      "Ġexplain": 2634,
      "Ġsubtle": 2635,
      "Ġreasons": 2636,
      "Ġtricks": 2637,
      "Ġrelaxed": 2638,
      "Ġsensitive": 2639,
      "Ġpretty": 2640,
      "Ġhumor": 2641,
      "Ġcommunication": 2642,
      "Ġattraction": 2643,
      "Ġsurfaces": 2644,
      "Ġorganize": 2645,
      "Ġadminister": 2646,
      "Ġremaining": 2647,
      "unte": 2648,
      "Ġverbal": 2649,
      "Ġfacing": 2650,
      "Ġmoment": 2651,
      "Ġedges": 2652,
      "Ġantib": 2653,
      "Ġcloser": 2654,
      "Ġaggression": 2655,
      "Ġdirty": 2656,
      "Ġbelow": 2657,
      "Ġcautious": 2658,
      "Ġrisks": 2659,
      "Ġsleeping": 2660,
      "Ġtiger": 2661,
      "Ġstroke": 2662,
      "Ġparticular": 2663,
      "Ġcheek": 2664,
      "Ġoccasionally": 2665,
      "Ġtunn": 2666,
      "Ġlocker": 2667,
      "Ġtypes": 2668,
      "Ġextreme": 2669,
      "Ġinvolved": 2670,
      "Ġcross": 2671,
      "Ġgaze": 2672,
      "Ġgarden": 2673,
      "Ġstrike": 2674,
      "Ġannoy": 2675,
      "Ġoutfit": 2676,
      "Ġqualities": 2677,
      "Ġfleece": 2678,
      "Ġladder": 2679,
      "Ġdidnt": 2680,
      "Ġtrunk": 2681,
      "Ġsometimes": 2682,
      "Ġvolunte": 2683,
      "Ġprobably": 2684,
      "Ġapologize": 2685,
      "Ġmirr": 2686,
      "Ġsturdy": 2687,
      "Ġshampoo": 2688,
      "Ġneighb": 2689,
      "Ġchosen": 2690,
      "Ġoverfeed": 2691,
      "Ġfurniture": 2692,
      "case": 2693,
      "crib": 2694,
      "ein": 2695,
      "go": 2696,
      "gu": 2697,
      "hol": 2698,
      "ler": 2699,
      "ne": 2700,
      "nx": 2701,
      "nal": 2702,
      "oon": 2703,
      "pin": 2704,
      "ring": 2705,
      "ups": 2706,
      "Ġtab": 2707,
      "Ġtone": 2708,
      "Ġterm": 2709,
      "Ġaut": 2710,
      "Ġsea": 2711,
      "Ġcer": 2712,
      "Ġcues": 2713,
      "ath": 2714,
      "Ġfish": 2715,
      "Ġpan": 2716,
      "Ġport": 2717,
      "Ġpants": 2718,
      "Ġht": 2719,
      "Ġhig": 2720,
      "Ġhurt": 2721,
      "Ġbound": 2722,
      "Ġwide": 2723,
      "Ġwol": 2724,
      "Ġwarn": 2725,
      "ital": 2726,
      "Ġtox": 2727,
      "Ġtoss": 2728,
      "Ġdang": 2729,
      "Ġdance": 2730,
      "Ġdouble": 2731,
      "Ġdental": 2732,
      "stac": 2733,
      "style": 2734,
      "strate": 2735,
      "Ġopin": 2736,
      "Ġmy": 2737,
      "Ġmor": 2738,
      "Ġmis": 2739,
      "Ġmust": 2740,
      "Ġinch": 2741,
      "Ġinapp": 2742,
      "ars": 2743,
      "arra": 2744,
      "Ġhaz": 2745,
      "kew": 2746,
      "Ġnight": 2747,
      "Ġnames": 2748,
      "acing": 2749,
      "Ġever": 2750,
      "Ġegg": 2751,
      "llent": 2752,
      "Ġsty": 2753,
      "Ġstap": 2754,
      "Ġstable": 2755,
      "Ġstraw": 2756,
      "Ġstory": 2757,
      "Ġonion": 2758,
      "Ġorig": 2759,
      "ropriate": 2760,
      "ech": 2761,
      "Ġheavy": 2762,
      "Ġguide": 2763,
      "Ġissu": 2764,
      "ately": 2765,
      "Ġliving": 2766,
      "Ġshar": 2767,
      "Ġkid": 2768,
      "Ġability": 2769,
      "Ġbold": 2770,
      "Ġrout": 2771,
      "Ġrand": 2772,
      "Ġneat": 2773,
      "Ġsphy": 2774,
      "Ġintentions": 2775,
      "ament": 2776,
      "Ġvoc": 2777,
      "Ġtex": 2778,
      "Ġsoc": 2779,
      "Ġsoon": 2780,
      "Ġdise": 2781,
      "Ġgoes": 2782,
      "iple": 2783,
      "ipate": 2784,
      "Ġsheet": 2785,
      "Ġwean": 2786,
      "Ġjud": 2787,
      "Ġconsistent": 2788,
      "izing": 2789,
      "izes": 2790,
      "Ġputting": 2791,
      "erences": 2792,
      "Ġattemp": 2793,
      "rian": 2794,
      "Ġremo": 2795,
      "Ġalmost": 2796,
      "Ġpetting": 2797,
      "Ġplaytim": 2798,
      "Ġleaving": 2799,
      "Ġloves": 2800,
      "Ġcosts": 2801,
      "Ġbackground": 2802,
      "Ġnewsp": 2803,
      "Ġobs": 2804,
      "Ġobstac": 2805,
      "Ġdev": 2806,
      "Ġdeli": 2807,
      "Ġmean": 2808,
      "Ġsignals": 2809,
      "Ġdecor": 2810,
      "Ġadding": 2811,
      "Ġcaring": 2812,
      "Ġrules": 2813,
      "Ġblue": 2814,
      "ources": 2815,
      "Ġeveryday": 2816,
      "Ġworks": 2817,
      "Ġphot": 2818,
      "Ġdistinct": 2819,
      "Ġdisturb": 2820,
      "Ġowner": 2821,
      "Ġintroduct": 2822,
      "Ġarm": 2823,
      "Ġcords": 2824,
      "Ġtopics": 2825,
      "Ġstops": 2826,
      "Ġidea": 2827,
      "Ġemails": 2828,
      "Ġfurther": 2829,
      "Ġevening": 2830,
      "Ġelim": 2831,
      "Ġrealistic": 2832,
      "itional": 2833,
      "Ġmini": 2834,
      "Ġassoc": 2835,
      "Ġresist": 2836,
      "Ġresources": 2837,
      "Ġphysically": 2838,
      "umps": 2839,
      "Ġreply": 2840,
      "Ġaccessible": 2841,
      "Ġbook": 2842,
      "Ġstuffed": 2843,
      "atively": 2844,
      "Ġaffected": 2845,
      "Ġgrooming": 2846,
      "Ġweekly": 2847,
      "Ġpresence": 2848,
      "Ġprotein": 2849,
      "Ġthoughts": 2850,
      "Ġsounds": 2851,
      "Ġknots": 2852,
      "Ġadvice": 2853,
      "Ġmuscular": 2854,
      "Ġgreet": 2855,
      "Ġfights": 2856,
      "Ġtemperament": 2857,
      "Ġcapuchins": 2858,
      "Ġembarra": 2859,
      "Ġequip": 2860,
      "Ġopportunities": 2861,
      "Ġclimbing": 2862,
      "Ġmedicine": 2863,
      "Ġfinger": 2864,
      "Ġaggressive": 2865,
      "Ġcompany": 2866,
      "Ġgift": 2867,
      "Ġgifts": 2868,
      "Ġsmoke": 2869,
      "Ġmotion": 2870,
      "Ġinternet": 2871,
      "Ġmultiple": 2872,
      "Ġexcuse": 2873,
      "Ġfeathers": 2874,
      "Ġrodent": 2875,
      "Ġwomen": 2876,
      "Ġisolate": 2877,
      "Ġupset": 2878,
      "Ġcarriage": 2879,
      "Ġsprinkle": 2880,
      "Ġcourse": 2881,
      "Ġentertainment": 2882,
      "hpurs": 2883,
      "Ġappreciate": 2884,
      "Ġcannot": 2885,
      "Ġantibiot": 2886,
      "Ġvolunteer": 2887,
      "Ġhigher": 2888,
      "Ġboundaries": 2889,
      "Ġwolves": 2890,
      "Ġinappropriate": 2891,
      "Ġissues": 2892,
      "Ġrandom": 2893,
      "Ġsphynx": 2894,
      "Ġvocal": 2895,
      "Ġplaytime": 2896,
      "ah": 2897,
      "ailed": 2898,
      "ber": 2899,
      "band": 2900,
      "ced": 2901,
      "cked": 2902,
      "dhpurs": 2903,
      "give": 2904,
      "ios": 2905,
      "jor": 2906,
      "ky": 2907,
      "kward": 2908,
      "mi": 2909,
      "mer": 2910,
      "ming": 2911,
      "ph": 2912,
      "pr": 2913,
      "pers": 2914,
      "port": 2915,
      "pected": 2916,
      "right": 2917,
      "shen": 2918,
      "tles": 2919,
      "ww": 2920,
      "ware": 2921,
      "Ġ7": 2922,
      "Ġ8": 2923,
      "Ġrush": 2924,
      "ĠâĢ": 2925,
      "Ġtal": 2926,
      "Ġtip": 2927,
      "Ġtong": 2928,
      "Ġtied": 2929,
      "ince": 2930,
      "Ġsow": 2931,
      "Ġsil": 2932,
      "Ġsam": 2933,
      "Ġsight": 2934,
      "Ġsill": 2935,
      "Ġsand": 2936,
      "Ġsection": 2937,
      "Ġsince": 2938,
      "Ġcm": 2939,
      "Ġcake": 2940,
      "Ġcult": 2941,
      "Ġcub": 2942,
      "Ġcourage": 2943,
      "Ġyet": 2944,
      "Ġyarn": 2945,
      "ern": 2946,
      "ery": 2947,
      "Ġfen": 2948,
      "Ġfec": 2949,
      "Ġfine": 2950,
      "Ġfound": 2951,
      "Ġfount": 2952,
      "Ġpaws": 2953,
      "Ġpict": 2954,
      "Ġhat": 2955,
      "Ġhug": 2956,
      "Ġbite": 2957,
      "Ġbrief": 2958,
      "Ġwid": 2959,
      "Ġwaste": 2960,
      "itis": 2961,
      "itation": 2962,
      "Ġtoe": 2963,
      "Ġlick": 2964,
      "Ġlaws": 2965,
      "Ġdee": 2966,
      "Ġdra": 2967,
      "Ġdark": 2968,
      "Ġdamp": 2969,
      "Ġdepend": 2970,
      "Ġgold": 2971,
      "Ġgest": 2972,
      "Ġgau": 2973,
      "Ġgrief": 2974,
      "Ġod": 2975,
      "Ġmet": 2976,
      "aloos": 2977,
      "sel": 2978,
      "ved": 2979,
      "Ġice": 2980,
      "Ġnick": 2981,
      "Ġandor": 2982,
      "Ġbelt": 2983,
      "Ġbelly": 2984,
      "acy": 2985,
      "Ġred": 2986,
      "Ġforce": 2987,
      "Ġforgive": 2988,
      "iggle": 2989,
      "icing": 2990,
      "oth": 2991,
      "Ġstar": 2992,
      "Ġstate": 2993,
      "Ġframe": 2994,
      "Ġtrouble": 2995,
      "Ġanx": 2996,
      "Ġplain": 2997,
      "shop": 2998,
      "ilding": 2999,
      "ures": 3000,
      "Ġdoe": 3001,
      "epy": 3002,
      "Ġwheels": 3003,
      "Ġpiggy": 3004,
      "Ġspaces": 3005,
      "pping": 3006,
      "Ġintell": 3007,
      "ability": 3008,
      "Ġcompare": 3009,
      "Ġexit": 3010,
      "Ġexist": 3011,
      "amic": 3012,
      "Ġchall": 3013,
      "Ġchest": 3014,
      "Ġteen": 3015,
      "Ġsole": 3016,
      "Ġsoil": 3017,
      "Ġfeature": 3018,
      "Ġpole": 3019,
      "Ġpoke": 3020,
      "Ġpois": 3021,
      "Ġsucc": 3022,
      "Ġsudd": 3023,
      "Ġbuilding": 3024,
      "alls": 3025,
      "Ġjour": 3026,
      "Ġseeing": 3027,
      "Ġcleaner": 3028,
      "Ġsell": 3029,
      "Ġflu": 3030,
      "Ġletting": 3031,
      "Ġalco": 3032,
      "Ġappaloos": 3033,
      "Ġpersistent": 3034,
      "Ġplays": 3035,
      "Ġleaves": 3036,
      "Ġscared": 3037,
      "Ġactor": 3038,
      "Ġaction": 3039,
      "Ġstarting": 3040,
      "Ġgoodby": 3041,
      "Ġoverdo": 3042,
      "Ġlost": 3043,
      "mble": 3044,
      "mbers": 3045,
      "Ġprice": 3046,
      "Ġwilling": 3047,
      "Ġanywhere": 3048,
      "Ġconflic": 3049,
      "Ġword": 3050,
      "Ġworst": 3051,
      "Ġwave": 3052,
      "Ġthinks": 3053,
      "Ġbutt": 3054,
      "Ġdisli": 3055,
      "Ġundo": 3056,
      "Ġsignific": 3057,
      "Ġmovements": 3058,
      "ised": 3059,
      "Ġaccomm": 3060,
      "Ġdetect": 3061,
      "ified": 3062,
      "istics": 3063,
      "Ġfreshen": 3064,
      "Ġgrain": 3065,
      "Ġgrip": 3066,
      "Ġunex": 3067,
      "Ġrule": 3068,
      "Ġblood": 3069,
      "Ġmatter": 3070,
      "Ġhasnt": 3071,
      "Ġcreepy": 3072,
      "Ġsaid": 3073,
      "Ġworkshop": 3074,
      "Ġroam": 3075,
      "Ġevents": 3076,
      "Ġagree": 3077,
      "Ġrecord": 3078,
      "Ġbehaviors": 3079,
      "Ġwrong": 3080,
      "Ġmedium": 3081,
      "Ġlistener": 3082,
      "Ġpath": 3083,
      "ieve": 3084,
      "Ġmoves": 3085,
      "Ġmoder": 3086,
      "Ġcolors": 3087,
      "Ġthroughout": 3088,
      "Ġtheres": 3089,
      "Ġtopic": 3090,
      "Ġcoats": 3091,
      "Ġjodhpurs": 3092,
      "Ġdogs": 3093,
      "Ġcalmly": 3094,
      "Ġawkward": 3095,
      "Ġspecies": 3096,
      "Ġswab": 3097,
      "Ġfinal": 3098,
      "Ġlifestyle": 3099,
      "Ġvegg": 3100,
      "Ġwhole": 3101,
      "Ġhappen": 3102,
      "Ġcalls": 3103,
      "Ġlimits": 3104,
      "Ġcompet": 3105,
      "Ġfamil": 3106,
      "Ġresult": 3107,
      "body": 3108,
      "Ġballs": 3109,
      "Ġrefill": 3110,
      "Ġchewing": 3111,
      "Ġbigger": 3112,
      "Ġsquirrels": 3113,
      "Ġcrown": 3114,
      "Ġconnection": 3115,
      "Ġclearly": 3116,
      "Ġrespectful": 3117,
      "Ġcoloring": 3118,
      "Ġteasing": 3119,
      "hydr": 3120,
      "Ġpolo": 3121,
      "Ġconditioner": 3122,
      "Ġslee": 3123,
      "Ġconnections": 3124,
      "Ġmajor": 3125,
      "Ġserve": 3126,
      "Ġcrushes": 3127,
      "Ġoccup": 3128,
      "Ġindepend": 3129,
      "Ġorganiz": 3130,
      "Ġoptional": 3131,
      "Ġadmit": 3132,
      "Ġspecifically": 3133,
      "Ġfabrics": 3134,
      "Ġsources": 3135,
      "Ġenglish": 3136,
      "Ġcommands": 3137,
      "Ġedge": 3138,
      "Ġwindow": 3139,
      "Ġtools": 3140,
      "Ġcaution": 3141,
      "Ġabscess": 3142,
      "Ġscrew": 3143,
      "Ġelectric": 3144,
      "Ġzone": 3145,
      "Ġcenter": 3146,
      "Ġpillow": 3147,
      "Ġmiddle": 3148,
      "Ġaccident": 3149,
      "Ġminimize": 3150,
      "Ġescape": 3151,
      "Ġthoughtful": 3152,
      "Ġinjury": 3153,
      "Ġmarine": 3154,
      "Ġstreng": 3155,
      "Ġvalue": 3156,
      "Ġbreeches": 3157,
      "Ġuncomfort": 3158,
      "Ġcharacteristics": 3159,
      "Ġhousing": 3160,
      "Ġdroppings": 3161,
      "Ġmirror": 3162,
      "Ġceramic": 3163,
      "Ġfishing": 3164,
      "Ġmyster": 3165,
      "Ġhazards": 3166,
      "Ġstaple": 3167,
      "Ġjudge": 3168,
      "Ġattempt": 3169,
      "Ġobsess": 3170,
      "Ġdeliver": 3171,
      "Ġdistinctive": 3172,
      "Ġintroduction": 3173,
      "Ġequipment": 3174,
      "Ġtongue": 3175,
      "Ġsample": 3176,
      "Ġsilly": 3177,
      "Ġfencing": 3178,
      "Ġfountain": 3179,
      "Ġintellig": 3180,
      "Ġsuccess": 3181,
      "Ġsudden": 3182,
      "Ġjournal": 3183,
      "Ġalcohol": 3184,
      "Ġgoodbye": 3185,
      "Ġsignificant": 3186,
      "Ġaccommod": 3187,
      "Ġunexpected": 3188,
      "Ġveggies": 3189,
      "back": 3190,
      "blic": 3191,
      "cious": 3192,
      "caut": 3193,
      "door": 3194,
      "een": 3195,
      "fact": 3196,
      "gry": 3197,
      "house": 3198,
      "hlet": 3199,
      "iar": 3200,
      "iol": 3201,
      "iable": 3202,
      "ife": 3203,
      "iest": 3204,
      "kin": 3205,
      "ker": 3206,
      "lets": 3207,
      "latch": 3208,
      "losed": 3209,
      "nec": 3210,
      "night": 3211,
      "oys": 3212,
      "par": 3213,
      "rance": 3214,
      "rator": 3215,
      "sive": 3216,
      "sue": 3217,
      "tp": 3218,
      "tion": 3219,
      "tail": 3220,
      "tical": 3221,
      "uum": 3222,
      "vies": 3223,
      "wanted": 3224,
      "ying": 3225,
      "Ġer": 3226,
      "Ġvel": 3227,
      "Ġtv": 3228,
      "Ġtin": 3229,
      "Ġtable": 3230,
      "Ġtame": 3231,
      "Ġtakes": 3232,
      "Ġtilt": 3233,
      "inations": 3234,
      "infect": 3235,
      "Ġsat": 3236,
      "Ġsite": 3237,
      "Ġserv": 3238,
      "Ġsores": 3239,
      "Ġsized": 3240,
      "Ġsided": 3241,
      "Ġskew": 3242,
      "Ġcold": 3243,
      "Ġcell": 3244,
      "Ġcook": 3245,
      "Ġcrib": 3246,
      "Ġyell": 3247,
      "att": 3248,
      "aten": 3249,
      "atious": 3250,
      "atives": 3251,
      "Ġfails": 3252,
      "Ġfiber": 3253,
      "onic": 3254,
      "onys": 3255,
      "onous": 3256,
      "Ġpace": 3257,
      "Ġpinch": 3258,
      "Ġpapers": 3259,
      "Ġhun": 3260,
      "Ġhides": 3261,
      "Ġhunt": 3262,
      "Ġbits": 3263,
      "orage": 3264,
      "ording": 3265,
      "itter": 3266,
      "itive": 3267,
      "nder": 3268,
      "Ġlic": 3269,
      "Ġlure": 3270,
      "Ġlab": 3271,
      "Ġland": 3272,
      "Ġlumps": 3273,
      "Ġdep": 3274,
      "Ġgrie": 3275,
      "stic": 3276,
      "Ġov": 3277,
      "Ġmes": 3278,
      "Ġmail": 3279,
      "Ġmas": 3280,
      "Ġmild": 3281,
      "Ġmales": 3282,
      "Ġmech": 3283,
      "etah": 3284,
      "ences": 3285,
      "aling": 3286,
      "Ġinf": 3287,
      "Ġinqu": 3288,
      "Ġinner": 3289,
      "arant": 3290,
      "lev": 3291,
      "anic": 3292,
      "Ġnap": 3293,
      "Ġbeaut": 3294,
      "aches": 3295,
      "omes": 3296,
      "Ġreass": 3297,
      "hers": 3298,
      "imul": 3299,
      "Ġthose": 3300,
      "ote": 3301,
      "ott": 3302,
      "otic": 3303,
      "edom": 3304,
      "lying": 3305,
      "Ġstea": 3306,
      "Ġstock": 3307,
      "Ġstaring": 3308,
      "Ġstorage": 3309,
      "Ġstimul": 3310,
      "Ġones": 3311,
      "Ġtran": 3312,
      "Ġtrip": 3313,
      "Ġhere": 3314,
      "Ġhear": 3315,
      "Ġheel": 3316,
      "Ġasse": 3317,
      "Ġplant": 3318,
      "Ġoutdoor": 3319,
      "vert": 3320,
      "veral": 3321,
      "Ġathlet": 3322,
      "ilize": 3323,
      "ured": 3324,
      "Ġguard": 3325,
      "Ġloops": 3326,
      "Ġlie": 3327,
      "Ġliking": 3328,
      "Ġnotes": 3329,
      "Ġkids": 3330,
      "Ġboys": 3331,
      "Ġride": 3332,
      "Ġrings": 3333,
      "Ġsport": 3334,
      "Ġspell": 3335,
      "ceed": 3336,
      "aint": 3337,
      "Ġintim": 3338,
      "Ġintimate": 3339,
      "abb": 3340,
      "Ġupright": 3341,
      "Ġexch": 3342,
      "Ġexotic": 3343,
      "amm": 3344,
      "Ġchart": 3345,
      "Ġchick": 3346,
      "Ġchase": 3347,
      "Ġchoice": 3348,
      "Ġcheetah": 3349,
      "Ġproduce": 3350,
      "Ġproport": 3351,
      "Ġteats": 3352,
      "Ġkeeps": 3353,
      "Ġkeeping": 3354,
      "Ġclues": 3355,
      "Ġclipp": 3356,
      "Ġdip": 3357,
      "Ġcheckups": 3358,
      "Ġgoals": 3359,
      "Ġsupers": 3360,
      "Ġbump": 3361,
      "Ġweb": 3362,
      "though": 3363,
      "Ġprecaut": 3364,
      "Ġhandful": 3365,
      "Ġlikely": 3366,
      "mpit": 3367,
      "Ġattend": 3368,
      "asites": 3369,
      "Ġsemi": 3370,
      "Ġseveral": 3371,
      "Ġalthough": 3372,
      "Ġapple": 3373,
      "Ġappoint": 3374,
      "Ġfeeders": 3375,
      "Ġscat": 3376,
      "Ġscore": 3377,
      "Ġpersonally": 3378,
      "Ġacting": 3379,
      "Ġovernight": 3380,
      "Ġlog": 3381,
      "ducing": 3382,
      "Ġcozy": 3383,
      "Ġbreast": 3384,
      "astrator": 3385,
      "Ġconfide": 3386,
      "Ġbrow": 3387,
      "Ġbottles": 3388,
      "Ġobtain": 3389,
      "weight": 3390,
      "Ġdest": 3391,
      "Ġdelic": 3392,
      "Ġdehydr": 3393,
      "Ġbefriend": 3394,
      "Ġmeow": 3395,
      "Ġmember": 3396,
      "Ġmembers": 3397,
      "Ġtwitter": 3398,
      "Ġdisinfect": 3399,
      "Ġcommit": 3400,
      "sites": 3401,
      "Ġbuying": 3402,
      "Ġfreedom": 3403,
      "Ġunnec": 3404,
      "Ġunwanted": 3405,
      "Ġpeace": 3406,
      "Ġsits": 3407,
      "Ġsites": 3408,
      "Ġmating": 3409,
      "Ġmature": 3410,
      "Ġpublic": 3411,
      "Ġflirts": 3412,
      "Ġflirtatious": 3413,
      "Ġstays": 3414,
      "Ġwearing": 3415,
      "Ġsocialize": 3416,
      "Ġspending": 3417,
      "Ġbreeds": 3418,
      "Ġmod": 3419,
      "Ġmoist": 3420,
      "Ġtouches": 3421,
      "Ġarmpit": 3422,
      "Ġparty": 3423,
      "Ġcolony": 3424,
      "Ġcorners": 3425,
      "Ġcalled": 3426,
      "Ġsecret": 3427,
      "Ġrelationships": 3428,
      "Ġpurchasing": 3429,
      "Ġsquee": 3430,
      "Ġbabys": 3431,
      "Ġshortest": 3432,
      "Ġdifferences": 3433,
      "Ġwashing": 3434,
      "Ġskip": 3435,
      "Ġswap": 3436,
      "Ġelastrator": 3437,
      "Ġstands": 3438,
      "Ġspotted": 3439,
      "Ġtesting": 3440,
      "Ġenclosed": 3441,
      "Ġapproaching": 3442,
      "Ġmaine": 3443,
      "Ġdesired": 3444,
      "Ġdrawing": 3445,
      "Ġtrimmed": 3446,
      "Ġposture": 3447,
      "umping": 3448,
      "Ġnearby": 3449,
      "rict": 3450,
      "Ġbirman": 3451,
      "Ġrunning": 3452,
      "doll": 3453,
      "Ġreflect": 3454,
      "Ġsyring": 3455,
      "Ġsyrian": 3456,
      "Ġbowls": 3457,
      "airs": 3458,
      "Ġfitting": 3459,
      "Ġdirection": 3460,
      "Ġentire": 3461,
      "Ġbiggest": 3462,
      "Ġadopting": 3463,
      "Ġrestrict": 3464,
      "Ġshoe": 3465,
      "Ġcrit": 3466,
      "Ġcrow": 3467,
      "Ġcrack": 3468,
      "Ġpotty": 3469,
      "Ġshared": 3470,
      "Ġenjoys": 3471,
      "Ġdistractions": 3472,
      "Ġsneak": 3473,
      "Ġstores": 3474,
      "Ġexperien": 3475,
      "Ġvacuum": 3476,
      "Ġneutering": 3477,
      "Ġneutral": 3478,
      "Ġnoseband": 3479,
      "Ġtrash": 3480,
      "Ġsubst": 3481,
      "Ġsubject": 3482,
      "iency": 3483,
      "Ġcoun": 3484,
      "Ġactively": 3485,
      "Ġreaching": 3486,
      "Ġpassions": 3487,
      "Ġnormally": 3488,
      "Ġleathers": 3489,
      "Ġsweaters": 3490,
      "Ġgreen": 3491,
      "Ġemotional": 3492,
      "Ġfighting": 3493,
      "Ġsugar": 3494,
      "Ġblankets": 3495,
      "Ġapartment": 3496,
      "forward": 3497,
      "Ġlower": 3498,
      "ronic": 3499,
      "Ġeffective": 3500,
      "Ġattractive": 3501,
      "Ġdesigned": 3502,
      "Ġtighten": 3503,
      "Ġbrand": 3504,
      "Ġoptions": 3505,
      "ology": 3506,
      "Ġgirlfriends": 3507,
      "Ġseconds": 3508,
      "Ġstraightforward": 3509,
      "Ġshyness": 3510,
      "Ġcharge": 3511,
      "Ġengage": 3512,
      "Ġvertical": 3513,
      "Ġsession": 3514,
      "Ġfacial": 3515,
      "Ġmounting": 3516,
      "Ġclosing": 3517,
      "Ġminute": 3518,
      "Ġcompanion": 3519,
      "Ġbelieve": 3520,
      "Ġfruit": 3521,
      "Ġabsor": 3522,
      "Ġrisk": 3523,
      "Ġscreen": 3524,
      "Ġelectronic": 3525,
      "Ġparasites": 3526,
      "Ġnetwor": 3527,
      "Ġconcern": 3528,
      "Ġinitiate": 3529,
      "Ġraise": 3530,
      "Ġmemor": 3531,
      "Ġdispose": 3532,
      "Ġsupplement": 3533,
      "Ġsupplements": 3534,
      "Ġacquire": 3535,
      "Ġfilled": 3536,
      "Ġragdoll": 3537,
      "Ġsmiling": 3538,
      "Ġsmiles": 3539,
      "Ġrubbing": 3540,
      "Ġreinforcement": 3541,
      "Ġcycle": 3542,
      "Ġdampen": 3543,
      "Ġplatform": 3544,
      "Ġfirmly": 3545,
      "Ġaccounts": 3546,
      "Ġthroatlatch": 3547,
      "zzle": 3548,
      "Ġdream": 3549,
      "Ġdried": 3550,
      "Ġmistakes": 3551,
      "Ġanswer": 3552,
      "Ġventil": 3553,
      "Ġdividers": 3554,
      "Ġskills": 3555,
      "Ġparticularly": 3556,
      "Ġtunnels": 3557,
      "cribed": 3558,
      "Ġhttp": 3559,
      "Ġtoxic": 3560,
      "Ġdanger": 3561,
      "Ġopinion": 3562,
      "Ġmorning": 3563,
      "Ġoriginal": 3564,
      "Ġtexts": 3565,
      "Ġdisease": 3566,
      "Ġremoving": 3567,
      "Ġobstacle": 3568,
      "Ġphotos": 3569,
      "Ġeliminate": 3570,
      "Ġassoci": 3571,
      "Ġantibiotics": 3572,
      "Ġsincere": 3573,
      "Ġpicture": 3574,
      "Ġwidth": 3575,
      "Ġdeeper": 3576,
      "Ġgauge": 3577,
      "Ġodor": 3578,
      "Ġnickn": 3579,
      "Ġfeatures": 3580,
      "Ġpoisonous": 3581,
      "Ġappaloosa": 3582,
      "Ġdislikes": 3583,
      "Ġfamiliar": 3584,
      "Ġaccidentally": 3585,
      "Ġstrength": 3586,
      "Ġuncomfortable": 3587,
      "Ġlicen": 3588,
      "Ġmechanic": 3589,
      "Ġinquis": 3590,
      "Ġsteady": 3591,
      "Ġathletic": 3592,
      "Ġchicken": 3593,
      "Ġproportion": 3594,
      "Ġprecautions": 3595,
      "Ġdehydration": 3596,
      "Ġunnecessary": 3597,
      "ave": 3598,
      "agn": 3599,
      "be": 3600,
      "bre": 3601,
      "brate": 3602,
      "cent": 3603,
      "cro": 3604,
      "cul": 3605,
      "dance": 3606,
      "dder": 3607,
      "eg": 3608,
      "eous": 3609,
      "eaten": 3610,
      "fy": 3611,
      "ged": 3612,
      "ho": 3613,
      "land": 3614,
      "loy": 3615,
      "liness": 3616,
      "mo": 3617,
      "mill": 3618,
      "nel": 3619,
      "osure": 3620,
      "ogr": 3621,
      "pace": 3622,
      "pose": 3623,
      "pective": 3624,
      "rit": 3625,
      "ram": 3626,
      "rap": 3627,
      "room": 3628,
      "tic": 3629,
      "tress": 3630,
      "use": 3631,
      "uine": 3632,
      "umb": 3633,
      "ums": 3634,
      "used": 3635,
      "ugg": 3636,
      "ufact": 3637,
      "wort": 3638,
      "worm": 3639,
      "zer": 3640,
      "Ġvers": 3641,
      "Ġtet": 3642,
      "Ġtid": 3643,
      "Ġtap": 3644,
      "Ġtill": 3645,
      "Ġtall": 3646,
      "Ġtang": 3647,
      "Ġtables": 3648,
      "Ġtank": 3649,
      "Ġtiss": 3650,
      "Ġtrees": 3651,
      "Ġaid": 3652,
      "Ġauth": 3653,
      "hea": 3654,
      "iny": 3655,
      "ination": 3656,
      "inches": 3657,
      "Ġsal": 3658,
      "Ġsack": 3659,
      "Ġsows": 3660,
      "Ġsizes": 3661,
      "Ġcit": 3662,
      "Ġcra": 3663,
      "Ġcel": 3664,
      "Ġcinches": 3665,
      "Ġyear": 3666,
      "Ġyoud": 3667,
      "real": 3668,
      "ressed": 3669,
      "ert": 3670,
      "atic": 3671,
      "atus": 3672,
      "Ġfaces": 3673,
      "Ġfair": 3674,
      "Ġfetch": 3675,
      "onn": 3676,
      "Ġple": 3677,
      "Ġpher": 3678,
      "Ġpep": 3679,
      "Ġperm": 3680,
      "Ġpoop": 3681,
      "Ġponys": 3682,
      "Ġhate": 3683,
      "Ġhood": 3684,
      "Ġhuts": 3685,
      "Ġbare": 3686,
      "Ġbaking": 3687,
      "Ġwow": 3688,
      "Ġwake": 3689,
      "Ġwip": 3690,
      "Ġwand": 3691,
      "Ġwary": 3692,
      "Ġwond": 3693,
      "Ġwarr": 3694,
      "oring": 3695,
      "ited": 3696,
      "itize": 3697,
      "itude": 3698,
      "Ġlin": 3699,
      "Ġlas": 3700,
      "Ġlose": 3701,
      "Ġlatch": 3702,
      "ingy": 3703,
      "Ġdim": 3704,
      "Ġdors": 3705,
      "Ġger": 3706,
      "Ġgar": 3707,
      "Ġgut": 3708,
      "Ġgap": 3709,
      "Ġgear": 3710,
      "Ġgates": 3711,
      "Ġgaps": 3712,
      "Ġgiggle": 3713,
      "Ġmach": 3714,
      "Ġmys": 3715,
      "Ġmental": 3716,
      "eter": 3717,
      "etic": 3718,
      "Ġinfect": 3719,
      "Ġhav": 3720,
      "sequ": 3721,
      "vels": 3722,
      "anation": 3723,
      "Ġir": 3724,
      "Ġnurt": 3725,
      "aced": 3726,
      "ached": 3727,
      "Ġeight": 3728,
      "Ġease": 3729,
      "oming": 3730,
      "Ġreb": 3731,
      "Ġrear": 3732,
      "Ġreve": 3733,
      "Ġrece": 3734,
      "Ġrect": 3735,
      "Ġrequ": 3736,
      "Ġfork": 3737,
      "Ġthumb": 3738,
      "igate": 3739,
      "Ġut": 3740,
      "Ġudder": 3741,
      "llet": 3742,
      "llhouse": 3743,
      "Ġstalk": 3744,
      "Ġstarch": 3745,
      "Ġstruct": 3746,
      "Ġstitch": 3747,
      "ism": 3748,
      "Ġconsequ": 3749,
      "Ġord": 3750,
      "Ġoral": 3751,
      "roduce": 3752,
      "Ġtrad": 3753,
      "Ġtrans": 3754,
      "Ġtrade": 3755,
      "Ġtruck": 3756,
      "uter": 3757,
      "Ġcav": 3758,
      "Ġcand": 3759,
      "Ġasp": 3760,
      "Ġassert": 3761,
      "Ġherself": 3762,
      "Ġplush": 3763,
      "Ġplacing": 3764,
      "shion": 3765,
      "Ġouter": 3766,
      "verse": 3767,
      "rum": 3768,
      "rus": 3769,
      "ruit": 3770,
      "ively": 3771,
      "Ġgullet": 3772,
      "Ġdoct": 3773,
      "Ġdocu": 3774,
      "Ġdollhouse": 3775,
      "ades": 3776,
      "Ġliqu": 3777,
      "Ġshot": 3778,
      "Ġshine": 3779,
      "Ġshred": 3780,
      "Ġshiny": 3781,
      "Ġabilities": 3782,
      "Ġrow": 3783,
      "Ġrad": 3784,
      "Ġras": 3785,
      "Ġrough": 3786,
      "Ġrather": 3787,
      "Ġrange": 3788,
      "Ġrib": 3789,
      "Ġspin": 3790,
      "Ġwhip": 3791,
      "Ġwhale": 3792,
      "Ġwhaling": 3793,
      "urch": 3794,
      "cellent": 3795,
      "Ġcomments": 3796,
      "Ġupd": 3797,
      "Ġexits": 3798,
      "Ġexcellent": 3799,
      "aming": 3800,
      "Ġchain": 3801,
      "Ġchri": 3802,
      "Ġchores": 3803,
      "Ġchurch": 3804,
      "rous": 3805,
      "Ġvie": 3806,
      "Ġvia": 3807,
      "Ġviol": 3808,
      "Ġteat": 3809,
      "quar": 3810,
      "Ġtiming": 3811,
      "Ġwaters": 3812,
      "Ġclub": 3813,
      "Ġsof": 3814,
      "Ġsoiled": 3815,
      "antas": 3816,
      "aph": 3817,
      "ects": 3818,
      "Ġdiarr": 3819,
      "Ġdiagn": 3820,
      "icking": 3821,
      "Ġpoints": 3822,
      "Ġknee": 3823,
      "Ġkneel": 3824,
      "Ġknife": 3825,
      "Ġbun": 3826,
      "Ġbuilt": 3827,
      "Ġbully": 3828,
      "allow": 3829,
      "Ġhorn": 3830,
      "Ġfinding": 3831,
      "Ġsomebody": 3832,
      "Ġsmart": 3833,
      "Ġpred": 3834,
      "Ġprey": 3835,
      "Ġprepar": 3836,
      "Ġhandy": 3837,
      "Ġlevels": 3838,
      "Ġliked": 3839,
      "ope": 3840,
      "Ġattitude": 3841,
      "ases": 3842,
      "Ġflap": 3843,
      "Ġflare": 3844,
      "Ġflaps": 3845,
      "Ġconsideration": 3846,
      "Ġalign": 3847,
      "Ġalert": 3848,
      "Ġappeal": 3849,
      "Ġperspective": 3850,
      "Ġquite": 3851,
      "Ġqueen": 3852,
      "mentos": 3853,
      "Ġscents": 3854,
      "Ġpersons": 3855,
      "Ġactors": 3856,
      "Ġstarted": 3857,
      "Ġoverly": 3858,
      "Ġloving": 3859,
      "Ġpry": 3860,
      "Ġconfirm": 3861,
      "Ġbrood": 3862,
      "Ġbright": 3863,
      "tenance": 3864,
      "Ġbother": 3865,
      "Ġtells": 3866,
      "Ġsaddles": 3867,
      "Ġdeg": 3868,
      "Ġdemon": 3869,
      "Ġbeds": 3870,
      "Ġmeals": 3871,
      "Ġmementos": 3872,
      "Ġtwine": 3873,
      "Ġdiss": 3874,
      "Ġdisapp": 3875,
      "Ġdecrease": 3876,
      "Ġmovement": 3877,
      "Ġreloc": 3878,
      "Ġrelatively": 3879,
      "Ġaccl": 3880,
      "Ġaccording": 3881,
      "sition": 3882,
      "wards": 3883,
      "Ġdetailed": 3884,
      "Ġeyeb": 3885,
      "ivate": 3886,
      "ivity": 3887,
      "Ġunlo": 3888,
      "Ġunfo": 3889,
      "Ġuneaten": 3890,
      "Ġstrings": 3891,
      "pensive": 3892,
      "Ġblind": 3893,
      "Ġpicking": 3894,
      "Ġmattress": 3895,
      "Ġapprox": 3896,
      "estive": 3897,
      "Ġpositives": 3898,
      "Ġroad": 3899,
      "Ġhealing": 3900,
      "Ġstaying": 3901,
      "ager": 3902,
      "agram": 3903,
      "Ġspends": 3904,
      "sume": 3905,
      "Ġwriting": 3906,
      "Ġlistening": 3907,
      "Ġpursu": 3908,
      "Ġpurpose": 3909,
      "Ġlearned": 3910,
      "Ġowners": 3911,
      "Ġmanner": 3912,
      "Ġmanufact": 3913,
      "Ġmovie": 3914,
      "Ġmovies": 3915,
      "Ġrooms": 3916,
      "Ġargu": 3917,
      "Ġinterru": 3918,
      "Ġpartners": 3919,
      "Ġcolour": 3920,
      "Ġkissable": 3921,
      "Ġglider": 3922,
      "Ġgliders": 3923,
      "Ġmeasurement": 3924,
      "Ġsquirt": 3925,
      "Ġperch": 3926,
      "Ġjob": 3927,
      "Ġdifference": 3928,
      "Ġbringing": 3929,
      "Ġhalves": 3930,
      "Ġpeoples": 3931,
      "Ġcalming": 3932,
      "Ġboyc": 3933,
      "Ġskirt": 3934,
      "Ġreality": 3935,
      "Ġstandard": 3936,
      "Ġbreakup": 3937,
      "Ġpositively": 3938,
      "Ġinstagram": 3939,
      "Ġinteracting": 3940,
      "Ġolder": 3941,
      "Ġmaintenance": 3942,
      "Ġveterinary": 3943,
      "Ġlimbs": 3944,
      "Ġcomputer": 3945,
      "Ġdrive": 3946,
      "Ġresort": 3947,
      "Ġrewards": 3948,
      "Ġsocks": 3949,
      "ricular": 3950,
      "Ġ12": 3951,
      "Ġcurb": 3952,
      "Ġcurios": 3953,
      "Ġcurved": 3954,
      "Ġbirds": 3955,
      "osite": 3956,
      "Ġwouldnt": 3957,
      "Ġreferences": 3958,
      "Ġsyst": 3959,
      "Ġbars": 3960,
      "Ġtexture": 3961,
      "Ġbuckles": 3962,
      "Ġsmelling": 3963,
      "Ġenter": 3964,
      "Ġentrance": 3965,
      "Ġgenuine": 3966,
      "Ġgenetic": 3967,
      "Ġtrustwort": 3968,
      "Ġkinds": 3969,
      "Ġkindness": 3970,
      "Ġsuitcase": 3971,
      "Ġprescribed": 3972,
      "Ġlimited": 3973,
      "Ġ30": 3974,
      "Ġboarding": 3975,
      "Ġdiscomfort": 3976,
      "Ġdistracted": 3977,
      "Ġsnap": 3978,
      "Ġclicking": 3979,
      "Ġneutered": 3980,
      "life": 3981,
      "ocked": 3982,
      "Ġsingles": 3983,
      "Ġwooden": 3984,
      "Ġtraffic": 3985,
      "Ġexplanation": 3986,
      "Ġshelters": 3987,
      "Ġopposite": 3988,
      "Ġreactions": 3989,
      "Ġboyfriends": 3990,
      "Ġfavors": 3991,
      "Ġimag": 3992,
      "Ġpasture": 3993,
      "Ġpassion": 3994,
      "Ġhydr": 3995,
      "Ġeats": 3996,
      "Ġinvestigate": 3997,
      "Ġtowels": 3998,
      "Ġjumping": 3999,
      "Ġfrequent": 4000,
      "apping": 4001,
      "Ġindoor": 4002,
      "Ġequal": 4003,
      "Ġusual": 4004,
      "Ġletters": 4005,
      "Ġloads": 4006,
      "Ġtightly": 4007,
      "Ġbraid": 4008,
      "Ġbraiding": 4009,
      "Ġscented": 4010,
      "Ġresponds": 4011,
      "Ġengag": 4012,
      "ribut": 4013,
      "Ġmoments": 4014,
      "Ġloudly": 4015,
      "Ġsongs": 4016,
      "Ġwindows": 4017,
      "Ġinjured": 4018,
      "Ġshapes": 4019,
      "Ġalternate": 4020,
      "Ġalternative": 4021,
      "Ġpromdance": 4022,
      "Ġblocks": 4023,
      "Ġresponsible": 4024,
      "Ġburmill": 4025,
      "Ġstrokes": 4026,
      "Ġsmoker": 4027,
      "Ġdefend": 4028,
      "Ġparrot": 4029,
      "Ġcheeks": 4030,
      "Ġprojects": 4031,
      "Ġraising": 4032,
      "Ġexcuses": 4033,
      "Ġscrub": 4034,
      "Ġmemory": 4035,
      "Ġconstantly": 4036,
      "Ġwildlife": 4037,
      "Ġdeterrent": 4038,
      "Ġrubber": 4039,
      "Ġminimum": 4040,
      "Ġescap": 4041,
      "Ġvaccinate": 4042,
      "Ġinjuries": 4043,
      "Ġpreferred": 4044,
      "Ġpreferably": 4045,
      "Ġresponsibly": 4046,
      "Ġresponsibility": 4047,
      "Ġdigestive": 4048,
      "Ġdifficulty": 4049,
      "view": 4050,
      "Ġcelebr": 4051,
      "Ġcelebrate": 4052,
      "Ġfashion": 4053,
      "Ġgotten": 4054,
      "Ġrequirements": 4055,
      "Ġanalyze": 4056,
      "Ġkeyboard": 4057,
      "Ġpersians": 4058,
      "Ġrecommend": 4059,
      "Ġrecommended": 4060,
      "Ġstudio": 4061,
      "Ġextremely": 4062,
      "Ġannoying": 4063,
      "Ġneighbor": 4064,
      "Ġneighbors": 4065,
      "Ġoverfeeding": 4066,
      "Ġautom": 4067,
      "Ġwarning": 4068,
      "Ġsharp": 4069,
      "Ġroutine": 4070,
      "Ġnewspaper": 4071,
      "Ġdecorate": 4072,
      "Ġembarrass": 4073,
      "phone": 4074,
      "print": 4075,
      "ĠâĢĶ": 4076,
      "Ġtalent": 4077,
      "Ġculture": 4078,
      "Ġstarters": 4079,
      "Ġanxiety": 4080,
      "Ġchalleng": 4081,
      "Ġoccupy": 4082,
      "Ġindependence": 4083,
      "Ġabscesses": 4084,
      "Ġintelligence": 4085,
      "Ġsuccessfully": 4086,
      "Ġsuddenly": 4087,
      "Ġaccommodate": 4088,
      "Ġerase": 4089,
      "Ġvelcro": 4090,
      "Ġsatis": 4091,
      "Ġskewers": 4092,
      "Ġgrieve": 4093,
      "Ġmesh": 4094,
      "Ġnapkin": 4095,
      "Ġbeauty": 4096,
      "Ġassemble": 4097,
      "Ġsports": 4098,
      "Ġexchange": 4099,
      "Ġwebsites": 4100,
      "Ġsqueeze": 4101,
      "Ġcrowd": 4102,
      "Ġabsorb": 4103,
      "Ġnetworking": 4104,
      "Ġconcerns": 4105,
      "Ġdampened": 4106,
      "Ġventilated": 4107,
      "Ġnickname": 4108,
      "Ġstrengths": 4109,
      "Ġinquisitive": 4110,
      "ograph": 4111,
      "Ġtissue": 4112,
      "Ġauthor": 4113,
      "Ġsalt": 4114,
      "Ġcitrus": 4115,
      "Ġcelery": 4116,
      "Ġpherom": 4117,
      "Ġperman": 4118,
      "Ġwarrant": 4119,
      "Ġdorsal": 4120,
      "Ġmachine": 4121,
      "Ġmyspace": 4122,
      "Ġinfections": 4123,
      "Ġnurture": 4124,
      "Ġrectang": 4125,
      "Ġrequest": 4126,
      "Ġconsequences": 4127,
      "Ġdocument": 4128,
      "Ġrasp": 4129,
      "Ġchrist": 4130,
      "Ġview": 4131,
      "Ġdiarrhea": 4132,
      "Ġdemonstrate": 4133,
      "Ġdecreased": 4134,
      "Ġrelocate": 4135,
      "Ġunload": 4136,
      "Ġunfollow": 4137,
      "Ġcuriosity": 4138,
      "Ġtrustworthy": 4139,
      "10": 4140,
      "aff": 4141,
      "azing": 4142,
      "bon": 4143,
      "bil": 4144,
      "bage": 4145,
      "cl": 4146,
      "cil": 4147,
      "cure": 4148,
      "come": 4149,
      "cles": 4150,
      "cerin": 4151,
      "cceed": 4152,
      "da": 4153,
      "de": 4154,
      "eally": 4155,
      "egr": 4156,
      "fl": 4157,
      "fts": 4158,
      "ging": 4159,
      "gir": 4160,
      "gings": 4161,
      "hood": 4162,
      "has": 4163,
      "ixt": 4164,
      "kish": 4165,
      "lace": 4166,
      "lind": 4167,
      "lry": 4168,
      "list": 4169,
      "lus": 4170,
      "lished": 4171,
      "mate": 4172,
      "made": 4173,
      "miss": 4174,
      "noon": 4175,
      "occ": 4176,
      "oppy": 4177,
      "put": 4178,
      "piec": 4179,
      "ront": 4180,
      "ries": 4181,
      "suring": 4182,
      "scular": 4183,
      "scent": 4184,
      "tation": 4185,
      "tub": 4186,
      "user": 4187,
      "uding": 4188,
      "vit": 4189,
      "vant": 4190,
      "xim": 4191,
      "xible": 4192,
      "zen": 4193,
      "Ġtu": 4194,
      "Ġter": 4195,
      "Ġten": 4196,
      "Ġtur": 4197,
      "Ġtact": 4198,
      "Ġtour": 4199,
      "Ġtum": 4200,
      "Ġtens": 4201,
      "Ġtired": 4202,
      "Ġaud": 4203,
      "Ġaquar": 4204,
      "heal": 4205,
      "hear": 4206,
      "heck": 4207,
      "hesp": 4208,
      "hetic": 4209,
      "inite": 4210,
      "inating": 4211,
      "inary": 4212,
      "inated": 4213,
      "Ġsent": 4214,
      "Ġsore": 4215,
      "Ġsolo": 4216,
      "Ġsiber": 4217,
      "Ġcoo": 4218,
      "Ġcust": 4219,
      "Ġcue": 4220,
      "Ġcud": 4221,
      "Ġtheat": 4222,
      "res": 4223,
      "reet": 4224,
      "resh": 4225,
      "ater": 4226,
      "Ġfed": 4227,
      "Ġfire": 4228,
      "Ġfancy": 4229,
      "Ġfantas": 4230,
      "ones": 4231,
      "Ġpin": 4232,
      "Ġpor": 4233,
      "Ġping": 4234,
      "Ġpic": 4235,
      "Ġpow": 4236,
      "Ġpee": 4237,
      "Ġpong": 4238,
      "Ġpark": 4239,
      "Ġpsy": 4240,
      "Ġpomm": 4241,
      "Ġpower": 4242,
      "Ġhar": 4243,
      "Ġhid": 4244,
      "Ġhut": 4245,
      "Ġhind": 4246,
      "Ġhall": 4247,
      "Ġhose": 4248,
      "Ġhiber": 4249,
      "Ġyours": 4250,
      "Ġbor": 4251,
      "Ġben": 4252,
      "Ġble": 4253,
      "Ġbake": 4254,
      "Ġbis": 4255,
      "Ġbru": 4256,
      "Ġbarn": 4257,
      "Ġwra": 4258,
      "Ġwink": 4259,
      "Ġwish": 4260,
      "Ġwicking": 4261,
      "itals": 4262,
      "itimate": 4263,
      "Ġtot": 4264,
      "Ġtoler": 4265,
      "Ġtooth": 4266,
      "Ġlate": 4267,
      "Ġlather": 4268,
      "Ġlined": 4269,
      "Ġlying": 4270,
      "Ġden": 4271,
      "Ġdome": 4272,
      "Ġdanc": 4273,
      "Ġgoo": 4274,
      "Ġgly": 4275,
      "Ġgend": 4276,
      "Ġgames": 4277,
      "str": 4278,
      "sty": 4279,
      "Ġmate": 4280,
      "Ġmur": 4281,
      "Ġmast": 4282,
      "Ġmention": 4283,
      "Ġmixt": 4284,
      "enge": 4285,
      "eness": 4286,
      "ency": 4287,
      "ese": 4288,
      "Ġins": 4289,
      "leg": 4290,
      "anor": 4291,
      "anus": 4292,
      "aneous": 4293,
      "Ġnut": 4294,
      "Ġbeat": 4295,
      "Ġbend": 4296,
      "Ġbeware": 4297,
      "Ġeuth": 4298,
      "Ġego": 4299,
      "Ġreh": 4300,
      "Ġrely": 4301,
      "Ġreint": 4302,
      "Ġrehear": 4303,
      "ident": 4304,
      "imed": 4305,
      "imeter": 4306,
      "igg": 4307,
      "Ġuses": 4308,
      "icate": 4309,
      "icious": 4310,
      "icipate": 4311,
      "outs": 4312,
      "Ġwithers": 4313,
      "otate": 4314,
      "Ġcateg": 4315,
      "ays": 4316,
      "Ġstru": 4317,
      "Ġstation": 4318,
      "Ġstage": 4319,
      "Ġstatus": 4320,
      "entrate": 4321,
      "sters": 4322,
      "isy": 4323,
      "isor": 4324,
      "Ġhamm": 4325,
      "Ġconj": 4326,
      "eable": 4327,
      "Ġfro": 4328,
      "Ġframes": 4329,
      "Ġorient": 4330,
      "Ġitch": 4331,
      "rop": 4332,
      "Ġtract": 4333,
      "ute": 4334,
      "Ġhey": 4335,
      "Ġheavi": 4336,
      "Ġcap": 4337,
      "Ġcase": 4338,
      "Ġcave": 4339,
      "Ġcamp": 4340,
      "Ġcapt": 4341,
      "Ġcamer": 4342,
      "Ġasked": 4343,
      "Ġassume": 4344,
      "Ġangle": 4345,
      "Ġplate": 4346,
      "Ġpluck": 4347,
      "Ġplaced": 4348,
      "Ġoutline": 4349,
      "Ġoutlet": 4350,
      "Ġmakeup": 4351,
      "eem": 4352,
      "iles": 4353,
      "urer": 4354,
      "Ġgun": 4355,
      "ateg": 4356,
      "eplace": 4357,
      "Ġlip": 4358,
      "Ġnothing": 4359,
      "Ġshake": 4360,
      "Ġshad": 4361,
      "Ġken": 4362,
      "Ġbob": 4363,
      "Ġboil": 4364,
      "Ġbored": 4365,
      "Ġrotate": 4366,
      "cket": 4367,
      "Ġspl": 4368,
      "Ġspent": 4369,
      "Ġspare": 4370,
      "Ġsperm": 4371,
      "Ġwhis": 4372,
      "Ġwhales": 4373,
      "Ġwhites": 4374,
      "ura": 4375,
      "pper": 4376,
      "pped": 4377,
      "Ġintake": 4378,
      "ction": 4379,
      "cturn": 4380,
      "Ġupside": 4381,
      "Ġexpensive": 4382,
      "Ġthemsel": 4383,
      "amb": 4384,
      "Ġchat": 4385,
      "Ġchop": 4386,
      "Ġchances": 4387,
      "Ġchasing": 4388,
      "Ġsomeplace": 4389,
      "Ġvul": 4390,
      "Ġcheap": 4391,
      "Ġcheating": 4392,
      "Ġchecked": 4393,
      "Ġprops": 4394,
      "Ġprogress": 4395,
      "Ġproced": 4396,
      "Ġproxim": 4397,
      "Ġtear": 4398,
      "Ġtelev": 4399,
      "ored": 4400,
      "Ġuseful": 4401,
      "Ġclin": 4402,
      "Ġclimate": 4403,
      "Ġclumping": 4404,
      "Ġclingy": 4405,
      "Ġsoda": 4406,
      "apura": 4407,
      "Ġchecking": 4408,
      "Ġgoal": 4409,
      "ipline": 4410,
      "Ġpoly": 4411,
      "Ġpocket": 4412,
      "Ġshed": 4413,
      "Ġsum": 4414,
      "Ġsuff": 4415,
      "Ġsuits": 4416,
      "Ġsuds": 4417,
      "Ġsuspect": 4418,
      "Ġsucceed": 4419,
      "Ġweather": 4420,
      "Ġhoriz": 4421,
      "Ġliterally": 4422,
      "Ġadvert": 4423,
      "Ġjer": 4424,
      "thy": 4425,
      "Ġconsump": 4426,
      "Ġconserv": 4427,
      "Ġconscious": 4428,
      "Ġcleaned": 4429,
      "Ġcleanings": 4430,
      "ras": 4431,
      "ght": 4432,
      "Ġhandw": 4433,
      "Ġknown": 4434,
      "Ġknows": 4435,
      "Ġknowledge": 4436,
      "erence": 4437,
      "Ġattent": 4438,
      "Ġattack": 4439,
      "Ġattribut": 4440,
      "asant": 4441,
      "ffee": 4442,
      "Ġflip": 4443,
      "Ġconsiderate": 4444,
      "Ġalarm": 4445,
      "Ġavoiding": 4446,
      "Ġlitters": 4447,
      "Ġquarant": 4448,
      "Ġscold": 4449,
      "Ġsciss": 4450,
      "Ġactions": 4451,
      "une": 4452,
      "unct": 4453,
      "Ġtheyll": 4454,
      "Ġvets": 4455,
      "ples": 4456,
      "play": 4457,
      "Ġoverall": 4458,
      "Ġpride": 4459,
      "Ġprong": 4460,
      "Ġprices": 4461,
      "duc": 4462,
      "Ġcoon": 4463,
      "Ġcost": 4464,
      "Ġcoast": 4465,
      "Ġcoffee": 4466,
      "Ġbreaking": 4467,
      "aves": 4468,
      "Ġconfined": 4469,
      "Ġconfront": 4470,
      "Ġbroom": 4471,
      "Ġworld": 4472,
      "spital": 4473,
      "Ġwanting": 4474,
      "welry": 4475,
      "Ġwatching": 4476,
      "Ġneedle": 4477,
      "Ġdeod": 4478,
      "Ġdeme": 4479,
      "Ġdebr": 4480,
      "Ġdemo": 4481,
      "Ġmeal": 4482,
      "Ġmeant": 4483,
      "Ġtwice": 4484,
      "Ġtwist": 4485,
      "Ġdisgu": 4486,
      "Ġdeck": 4487,
      "Ġdecent": 4488,
      "Ġadditional": 4489,
      "Ġrelated": 4490,
      "Ġunderlying": 4491,
      "ift": 4492,
      "Ġslanted": 4493,
      "Ġsloppy": 4494,
      "Ġfrench": 4495,
      "Ġgranted": 4496,
      "iving": 4497,
      "Ġunb": 4498,
      "Ġunsure": 4499,
      "Ġunsu": 4500,
      "Ġunheal": 4501,
      "Ġstrap": 4502,
      "Ġstrateg": 4503,
      "Ġruin": 4504,
      "Ġblot": 4505,
      "Ġblunt": 4506,
      "Ġholder": 4507,
      "Ġpester": 4508,
      "Ġsitter": 4509,
      "Ġsitting": 4510,
      "Ġmuzzle": 4511,
      "Ġtrainer": 4512,
      "Ġmats": 4513,
      "Ġmates": 4514,
      "Ġmatch": 4515,
      "Ġapproaches": 4516,
      "Ġpuff": 4517,
      "Ġafar": 4518,
      "Ġcream": 4519,
      "Ġcrepu": 4520,
      "Ġrole": 4521,
      "Ġfoil": 4522,
      "Ġallowing": 4523,
      "Ġrecent": 4524,
      "Ġrecruit": 4525,
      "Ġrecheck": 4526,
      "Ġdistress": 4527,
      "Ġreading": 4528,
      "cuits": 4529,
      "Ġwraps": 4530,
      "Ġnoises": 4531,
      "Ġnocturn": 4532,
      "Ġsetting": 4533,
      "Ġsetup": 4534,
      "Ġended": 4535,
      "Ġafternoon": 4536,
      "assion": 4537,
      "Ġhomemade": 4538,
      "Ġpursue": 4539,
      "Ġlearning": 4540,
      "Ġowning": 4541,
      "Ġmane": 4542,
      "Ġmanure": 4543,
      "Ġmanage": 4544,
      "Ġkitty": 4545,
      "Ġintroducing": 4546,
      "Ġopenings": 4547,
      "Ġbiting": 4548,
      "Ġbites": 4549,
      "irect": 4550,
      "Ġdiffuser": 4551,
      "Ġunderstanding": 4552,
      "Ġcord": 4553,
      "Ġcorn": 4554,
      "Ġmeasuring": 4555,
      "Ġbecomes": 4556,
      "Ġmaybe": 4557,
      "Ġdryer": 4558,
      "Ġgland": 4559,
      "Ġmeasured": 4560,
      "ume": 4561,
      "umes": 4562,
      "Ġsqueal": 4563,
      "Ġexpand": 4564,
      "Ġexposure": 4565,
      "Ġcomplimenting": 4566,
      "Ġideally": 4567,
      "Ġshoulders": 4568,
      "Ġjoints": 4569,
      "Ġpracticing": 4570,
      "ibly": 4571,
      "Ġfunky": 4572,
      "Ġincred": 4573,
      "Ġwashcl": 4574,
      "Ġdietary": 4575,
      "Ġawake": 4576,
      "Ġhospital": 4577,
      "Ġnicely": 4578,
      "Ġplanning": 4579,
      "Ġswings": 4580,
      "Ġswallow": 4581,
      "Ġleggings": 4582,
      "Ġlegitimate": 4583,
      "Ġbreaks": 4584,
      "Ġinstant": 4585,
      "Ġinstinct": 4586,
      "Ġspring": 4587,
      "Ġwalks": 4588,
      "Ġwalking": 4589,
      "Ġhappens": 4590,
      "Ġhappening": 4591,
      "Ġsticky": 4592,
      "udes": 4593,
      "Ġhook": 4594,
      "Ġhooks": 4595,
      "Ġencoura": 4596,
      "Ġbrushing": 4597,
      "Ġrepellent": 4598,
      "Ġtying": 4599,
      "Ġcalling": 4600,
      "Ġdesper": 4601,
      "Ġdesire": 4602,
      "Ġdesex": 4603,
      "Ġminor": 4604,
      "Ġfollows": 4605,
      "Ġfollowing": 4606,
      "Ġcompassion": 4607,
      "Ġextend": 4608,
      "Ġclothesp": 4609,
      "Ġdrain": 4610,
      "Ġdresses": 4611,
      "Ġeasier": 4612,
      "box": 4613,
      "Ġrepet": 4614,
      "Ġreport": 4615,
      "Ġrepairs": 4616,
      "Ġdoorway": 4617,
      "Ġlengths": 4618,
      "Ġ14": 4619,
      "Ġ15": 4620,
      "Ġsurpri": 4621,
      "Ġcurly": 4622,
      "Ġcurtain": 4623,
      "Ġboot": 4624,
      "Ġbooks": 4625,
      "Ġbridles": 4626,
      "Ġruns": 4627,
      "nerable": 4628,
      "osable": 4629,
      "Ġrefer": 4630,
      "Ġrefresh": 4631,
      "Ġthank": 4632,
      "Ġchews": 4633,
      "Ġlaughs": 4634,
      "Ġlaughing": 4635,
      "Ġbucks": 4636,
      "Ġfitted": 4637,
      "Ġhighlight": 4638,
      "Ġhardware": 4639,
      "Ġentice": 4640,
      "Ġaffect": 4641,
      "Ġaffirm": 4642,
      "Ġcovering": 4643,
      "Ġgroomer": 4644,
      "Ġvegetable": 4645,
      "Ġmothers": 4646,
      "Ġcaused": 4647,
      "Ġcaught": 4648,
      "Ġwarmer": 4649,
      "Ġlayout": 4650,
      "Ġlighting": 4651,
      "Ġdiscard": 4652,
      "Ġdiscreet": 4653,
      "Ġdiscipline": 4654,
      "Ġvision": 4655,
      "Ġvisits": 4656,
      "Ġtempor": 4657,
      "Ġtemptation": 4658,
      "Ġprotection": 4659,
      "Ġpositioning": 4660,
      "Ġsnugg": 4661,
      "Ġexpectations": 4662,
      "Ġteases": 4663,
      "Ġcircu": 4664,
      "Ġcircular": 4665,
      "Ġsingapura": 4666,
      "Ġmarking": 4667,
      "Ġmarkings": 4668,
      "Ġtraits": 4669,
      "Ġsoftly": 4670,
      "Ġfreely": 4671,
      "Ġfreeze": 4672,
      "Ġfreezer": 4673,
      "Ġcompleted": 4674,
      "Ġamazing": 4675,
      "Ġchanged": 4676,
      "Ġrolls": 4677,
      "Ġslender": 4678,
      "Ġestimate": 4679,
      "Ġesteem": 4680,
      "Ġcontaining": 4681,
      "Ġcommunity": 4682,
      "Ġemploy": 4683,
      "Ġemphas": 4684,
      "Ġteaching": 4685,
      "Ġsoapy": 4686,
      "Ġfemales": 4687,
      "Ġresponses": 4688,
      "Ġincluding": 4689,
      "Ġincludes": 4690,
      "Ġconnectors": 4691,
      "Ġhideout": 4692,
      "Ġgrease": 4693,
      "Ġsewing": 4694,
      "Ġstripes": 4695,
      "Ġgiven": 4696,
      "Ġgives": 4697,
      "Ġinvestments": 4698,
      "Ġrejected": 4699,
      "Ġsexual": 4700,
      "Ġsituations": 4701,
      "Ġ50": 4702,
      "Ġpencil": 4703,
      "Ġmixed": 4704,
      "Ġitem": 4705,
      "Ġromance": 4706,
      "Ġjumps": 4707,
      "Ġpellet": 4708,
      "Ġamounts": 4709,
      "Ġfleas": 4710,
      "Ġflexible": 4711,
      "Ġloading": 4712,
      "Ġproofing": 4713,
      "Ġbathtub": 4714,
      "Ġdesignated": 4715,
      "Ġyounger": 4716,
      "Ġoption": 4717,
      "Ġtrays": 4718,
      "Ġneglect": 4719,
      "Ġfriendships": 4720,
      "Ġadmire": 4721,
      "Ġadjustments": 4722,
      "Ġdrinks": 4723,
      "Ġprivacy": 4724,
      "Ġmilking": 4725,
      "Ġcloths": 4726,
      "Ġreputation": 4727,
      "Ġestablished": 4728,
      "Ġocicats": 4729,
      "Ġdeeply": 4730,
      "Ġmountain": 4731,
      "ensions": 4732,
      "Ġignoring": 4733,
      "Ġrelevant": 4734,
      "Ġconstruct": 4735,
      "Ġanti": 4736,
      "Ġanticipate": 4737,
      "Ġreminders": 4738,
      "Ġeventually": 4739,
      "Ġsuggestions": 4740,
      "Ġreturning": 4741,
      "Ġillnesses": 4742,
      "Ġspayed": 4743,
      "Ġsunny": 4744,
      "Ġsunlight": 4745,
      "Ġjewelry": 4746,
      "Ġpreferences": 4747,
      "Ġflatten": 4748,
      "Ġpromises": 4749,
      "Ġtigress": 4750,
      "Ġbalance": 4751,
      "Ġbury": 4752,
      "Ġexcessive": 4753,
      "Ġdefine": 4754,
      "Ġdefinite": 4755,
      "Ġpeanuts": 4756,
      "Ġparticipate": 4757,
      "Ġsupervisor": 4758,
      "Ġgentleman": 4759,
      "Ġjealousy": 4760,
      "ipping": 4761,
      "manship": 4762,
      "Ġpacking": 4763,
      "Ġpackages": 4764,
      "Ġnetwork": 4765,
      "Ġconcentrate": 4766,
      "Ġrounded": 4767,
      "Ġrugs": 4768,
      "Ġsimilarities": 4769,
      "Ġcreatively": 4770,
      "âĢĵ": 4771,
      "Ġmulti": 4772,
      "Ġinitial": 4773,
      "Ġnesting": 4774,
      "Ġscruff": 4775,
      "Ġscrunch": 4776,
      "Ġdisposable": 4777,
      "Ġrodents": 4778,
      "Ġcollected": 4779,
      "Ġextrem": 4780,
      "Ġtends": 4781,
      "Ġtender": 4782,
      "Ġacqu": 4783,
      "Ġwoman": 4784,
      "Ġshops": 4785,
      "Ġconfinement": 4786,
      "Ġaccidents": 4787,
      "Ġgrowth": 4788,
      "Ġprioritize": 4789,
      "Ġvaccinated": 4790,
      "Ġcylind": 4791,
      "Ġfacts": 4792,
      "Ġfactors": 4793,
      "Ġponytail": 4794,
      "Ġwounds": 4795,
      "Ġplatonic": 4796,
      "Ġbreeching": 4797,
      "Ġsurroundings": 4798,
      "Ġmonths": 4799,
      "Ġdressed": 4800,
      "Ġexciting": 4801,
      "Ġallergies": 4802,
      "Ġpossibility": 4803,
      "Ġpossibilities": 4804,
      "Ġcautiously": 4805,
      "Ġtunnel": 4806,
      "going": 4807,
      "Ġtabby": 4808,
      "Ġpanels": 4809,
      "Ġnewspapers": 4810,
      "Ġdevice": 4811,
      "Ġembarrassed": 4812,
      "www": 4813,
      "Ġcube": 4814,
      "Ġfeces": 4815,
      "Ġfecal": 4816,
      "Ġdrag": 4817,
      "Ġdepending": 4818,
      "Ġgolden": 4819,
      "Ġgestures": 4820,
      "Ġselling": 4821,
      "Ġconflict": 4822,
      "Ġmoderately": 4823,
      "Ġcompetition": 4824,
      "Ġorganization": 4825,
      "Ġorganizations": 4826,
      "Ġmystery": 4827,
      "Ġmysterious": 4828,
      "Ġobsessive": 4829,
      "Ġservice": 4830,
      "Ġhungry": 4831,
      "Ġtransp": 4832,
      "Ġintimacy": 4833,
      "Ġclippers": 4834,
      "Ġappointment": 4835,
      "Ġscatter": 4836,
      "Ġdelicious": 4837,
      "Ġcommitment": 4838,
      "Ġpeaceful": 4839,
      "Ġmoisture": 4840,
      "Ġsyringe": 4841,
      "Ġrestrictions": 4842,
      "Ġeffectively": 4843,
      "Ġhttpwww": 4844,
      "Ġdangerous": 4845,
      "Ġassociated": 4846,
      "Ġfamiliarize": 4847,
      "Ġlicensed": 4848,
      "Ġversion": 4849,
      "Ġtetanus": 4850,
      "Ġtidy": 4851,
      "onnect": 4852,
      "Ġwiping": 4853,
      "Ġdimensions": 4854,
      "Ġgerbil": 4855,
      "Ġgarbage": 4856,
      "Ġrebound": 4857,
      "Ġreveal": 4858,
      "Ġreceiving": 4859,
      "Ġthumbprint": 4860,
      "Ġutilize": 4861,
      "Ġstructure": 4862,
      "Ġtraditional": 4863,
      "Ġassertive": 4864,
      "Ġspinach": 4865,
      "Ġdiagnose": 4866,
      "Ġpredator": 4867,
      "Ġdissolve": 4868,
      "Ġdisappoint": 4869,
      "Ġacclimate": 4870,
      "Ġapproximate": 4871,
      "Ġpursuing": 4872,
      "Ġmanufacturer": 4873,
      "Ġargument": 4874,
      "Ġinterrupt": 4875,
      "Ġboycott": 4876,
      "Ġsystem": 4877,
      "Ġgenuinely": 4878,
      "Ġburmilla": 4879,
      "Ġrecommendations": 4880,
      "Ġembarrassing": 4881,
      "Ġabsorbent": 4882,
      "Ġpheromone": 4883,
      "Ġpermanently": 4884,
      "Ġwarranty": 4885,
      "Ġdocumentation": 4886,
      "piece": 4887,
      "Ġturkish": 4888,
      "Ġtension": 4889,
      "Ġsiberian": 4890,
      "Ġcustom": 4891,
      "Ġcuddle": 4892,
      "Ġporch": 4893,
      "Ġpicked": 4894,
      "Ġpowder": 4895,
      "Ġpommel": 4896,
      "Ġhibern": 4897,
      "Ġbiscuits": 4898,
      "Ġdomestic": 4899,
      "Ġdancing": 4900,
      "Ġgoogle": 4901,
      "Ġglycerin": 4902,
      "Ġgender": 4903,
      "Ġmural": 4904,
      "Ġmastitis": 4905,
      "Ġmixture": 4906,
      "Ġeuthan": 4907,
      "Ġreintroduce": 4908,
      "Ġrehearse": 4909,
      "Ġstrugg": 4910,
      "Ġcamera": 4911,
      "Ġthemselves": 4912,
      "Ġvulnerable": 4913,
      "Ġprocedure": 4914,
      "Ġproximity": 4915,
      "Ġsuffering": 4916,
      "Ġhorizont": 4917,
      "Ġadvertise": 4918,
      "Ġconsumption": 4919,
      "Ġattributes": 4920,
      "Ġquarantine": 4921,
      "Ġscissors": 4922,
      "Ġdeodor": 4923,
      "Ġdemeanor": 4924,
      "Ġdebris": 4925,
      "Ġdisguise": 4926,
      "Ġunhealthy": 4927,
      "Ġcrepuscular": 4928,
      "Ġnocturnal": 4929,
      "Ġincredibly": 4930,
      "Ġwashcloth": 4931,
      "Ġclothespin": 4932,
      "Ġaffirmations": 4933,
      "Ġsnuggle": 4934,
      "Ġemphasize": 4935,
      "00": 4936,
      "ash": 4937,
      "afts": 4938,
      "aimed": 4939,
      "bl": 4940,
      "bin": 4941,
      "bac": 4942,
      "bid": 4943,
      "bow": 4944,
      "brush": 4945,
      "ca": 4946,
      "con": 4947,
      "cut": 4948,
      "cad": 4949,
      "cra": 4950,
      "cies": 4951,
      "cas": 4952,
      "cast": 4953,
      "ched": 4954,
      "dre": 4955,
      "dom": 4956,
      "dry": 4957,
      "draw": 4958,
      "ees": 4959,
      "ext": 4960,
      "eograph": 4961,
      "fer": 4962,
      "fol": 4963,
      "foot": 4964,
      "falls": 4965,
      "fume": 4966,
      "gre": 4967,
      "gen": 4968,
      "gan": 4969,
      "gue": 4970,
      "hill": 4971,
      "hand": 4972,
      "hile": 4973,
      "iver": 4974,
      "iation": 4975,
      "iang": 4976,
      "iations": 4977,
      "iability": 4978,
      "iums": 4979,
      "kers": 4980,
      "lim": 4981,
      "late": 4982,
      "lers": 4983,
      "lass": 4984,
      "law": 4985,
      "laces": 4986,
      "lud": 4987,
      "lines": 4988,
      "lord": 4989,
      "ma": 4990,
      "mst": 4991,
      "mal": 4992,
      "mist": 4993,
      "mond": 4994,
      "no": 4995,
      "nings": 4996,
      "oss": 4997,
      "ods": 4998,
      "osition": 4999,
      "por": 5000,
      "pack": 5001,
      "pting": 5002,
      "pony": 5003,
      "poon": 5004,
      "rac": 5005,
      "rom": 5006,
      "rical": 5007,
      "riting": 5008,
      "rmal": 5009,
      "son": 5010,
      "sen": 5011,
      "sil": 5012,
      "shed": 5013,
      "tings": 5014,
      "ux": 5015,
      "und": 5016,
      "uly": 5017,
      "uge": 5018,
      "using": 5019,
      "uses": 5020,
      "usu": 5021,
      "ukew": 5022,
      "uction": 5023,
      "vable": 5024,
      "vised": 5025,
      "wise": 5026,
      "wool": 5027,
      "xter": 5028,
      "xide": 5029,
      "yl": 5030,
      "ym": 5031,
      "yal": 5032,
      "yard": 5033,
      "¶lt": 5034,
      "Ã¶lt": 5035,
      "Ġ9": 5036,
      "Ġess": 5037,
      "Ġta": 5038,
      "Ġtent": 5039,
      "Ġtut": 5040,
      "Ġties": 5041,
      "Ġtas": 5042,
      "Ġtough": 5043,
      "Ġtag": 5044,
      "ĠtÃ¶lt": 5045,
      "Ġamp": 5046,
      "Ġairt": 5047,
      "Ġauction": 5048,
      "heat": 5049,
      "hent": 5050,
      "oul": 5051,
      "ouch": 5052,
      "ounce": 5053,
      "inology": 5054,
      "Ġsor": 5055,
      "Ġsan": 5056,
      "Ġsoo": 5057,
      "Ġsoot": 5058,
      "Ġcd": 5059,
      "Ġcu": 5060,
      "Ġcity": 5061,
      "Ġcups": 5062,
      "Ġcott": 5063,
      "Ġthermal": 5064,
      "rel": 5065,
      "rest": 5066,
      "reux": 5067,
      "atib": 5068,
      "athetic": 5069,
      "Ġfat": 5070,
      "Ġfoo": 5071,
      "Ġfid": 5072,
      "Ġfly": 5073,
      "Ġfee": 5074,
      "Ġfain": 5075,
      "Ġfile": 5076,
      "Ġfist": 5077,
      "Ġfarm": 5078,
      "Ġfaint": 5079,
      "onate": 5080,
      "onia": 5081,
      "Ġpit": 5082,
      "Ġpant": 5083,
      "Ġpage": 5084,
      "Ġpadd": 5085,
      "Ġpages": 5086,
      "Ġpne": 5087,
      "Ġhur": 5088,
      "Ġhire": 5089,
      "Ġharm": 5090,
      "Ġhalls": 5091,
      "Ġhope": 5092,
      "Ġhuge": 5093,
      "Ġbi": 5094,
      "Ġbes": 5095,
      "Ġbul": 5096,
      "Ġbang": 5097,
      "Ġbible": 5098,
      "Ġburn": 5099,
      "Ġbio": 5100,
      "Ġbacter": 5101,
      "Ġbiod": 5102,
      "Ġwed": 5103,
      "Ġwool": 5104,
      "orter": 5105,
      "orters": 5106,
      "orpor": 5107,
      "itiv": 5108,
      "itting": 5109,
      "itches": 5110,
      "itives": 5111,
      "Ġtoed": 5112,
      "Ġtold": 5113,
      "Ġtopl": 5114,
      "Ġtobac": 5115,
      "ndry": 5116,
      "Ġlad": 5117,
      "Ġligh": 5118,
      "Ġlone": 5119,
      "Ġlink": 5120,
      "Ġlaces": 5121,
      "Ġlids": 5122,
      "Ġluck": 5123,
      "Ġlord": 5124,
      "Ġlater": 5125,
      "Ġlukew": 5126,
      "inger": 5127,
      "Ġdow": 5128,
      "Ġded": 5129,
      "Ġdru": 5130,
      "Ġdive": 5131,
      "Ġdur": 5132,
      "Ġdare": 5133,
      "Ġdump": 5134,
      "Ġdus": 5135,
      "Ġdead": 5136,
      "Ġdonate": 5137,
      "Ġgi": 5138,
      "Ġgru": 5139,
      "Ġgate": 5140,
      "Ġgone": 5141,
      "Ġgast": 5142,
      "Ġgoos": 5143,
      "Ġguts": 5144,
      "Ġgeograph": 5145,
      "Ġgym": 5146,
      "stick": 5147,
      "stitch": 5148,
      "stinate": 5149,
      "strum": 5150,
      "Ġmer": 5151,
      "Ġmen": 5152,
      "Ġmal": 5153,
      "Ġmic": 5154,
      "Ġmol": 5155,
      "Ġmap": 5156,
      "Ġmiss": 5157,
      "Ġmites": 5158,
      "Ġmunch": 5159,
      "Ġmamm": 5160,
      "etches": 5161,
      "ened": 5162,
      "enec": 5163,
      "enues": 5164,
      "encies": 5165,
      "esome": 5166,
      "alay": 5167,
      "aled": 5168,
      "alrous": 5169,
      "Ġinse": 5170,
      "Ġinver": 5171,
      "Ġinsp": 5172,
      "Ġinsu": 5173,
      "Ġinquire": 5174,
      "Ġinput": 5175,
      "arter": 5176,
      "arily": 5177,
      "arrow": 5178,
      "Ġhaired": 5179,
      "lephone": 5180,
      "vere": 5181,
      "ana": 5182,
      "ancial": 5183,
      "anese": 5184,
      "kend": 5185,
      "Ġnea": 5186,
      "Ġnur": 5187,
      "Ġnam": 5188,
      "Ġnas": 5189,
      "Ġnorth": 5190,
      "Ġnipp": 5191,
      "Ġnuts": 5192,
      "Ġnarrow": 5193,
      "ools": 5194,
      "ooking": 5195,
      "Ġbell": 5196,
      "Ġbeached": 5197,
      "ache": 5198,
      "acers": 5199,
      "Ġelev": 5200,
      "Ġeager": 5201,
      "Ġeduc": 5202,
      "omach": 5203,
      "Ġrent": 5204,
      "Ġreserve": 5205,
      "Ġreaches": 5206,
      "Ġreducing": 5207,
      "Ġreverse": 5208,
      "heral": 5209,
      "idence": 5210,
      "idates": 5211,
      "idual": 5212,
      "idays": 5213,
      "Ġforth": 5214,
      "Ġforms": 5215,
      "Ġforks": 5216,
      "Ġformed": 5217,
      "Ġforbid": 5218,
      "Ġthir": 5219,
      "Ġthigh": 5220,
      "Ġthreat": 5221,
      "Ġult": 5222,
      "ico": 5223,
      "icle": 5224,
      "icles": 5225,
      "ications": 5226,
      "icons": 5227,
      "iciency": 5228,
      "iceable": 5229,
      "owing": 5230,
      "lling": 5231,
      "Ġwithdraw": 5232,
      "ots": 5233,
      "othy": 5234,
      "Ġstab": 5235,
      "Ġstings": 5236,
      "Ġstack": 5237,
      "Ġstance": 5238,
      "Ġstif": 5239,
      "Ġstations": 5240,
      "Ġstories": 5241,
      "Ġstem": 5242,
      "Ġstitches": 5243,
      "Ġstomach": 5244,
      "iring": 5245,
      "isions": 5246,
      "isms": 5247,
      "Ġconv": 5248,
      "Ġconqu": 5249,
      "Ġconduct": 5250,
      "eared": 5251,
      "eaways": 5252,
      "Ġorca": 5253,
      "Ġitself": 5254,
      "roa": 5255,
      "roc": 5256,
      "roy": 5257,
      "rope": 5258,
      "roint": 5259,
      "roken": 5260,
      "rofo": 5261,
      "Ġtraces": 5262,
      "Ġtried": 5263,
      "Ġtriang": 5264,
      "Ġtruly": 5265,
      "Ġheard": 5266,
      "Ġhearing": 5267,
      "Ġcaps": 5268,
      "Ġcastrate": 5269,
      "Ġcastr": 5270,
      "Ġcabin": 5271,
      "Ġashes": 5272,
      "Ġang": 5273,
      "Ġanal": 5274,
      "Ġanger": 5275,
      "Ġanus": 5276,
      "Ġangry": 5277,
      "Ġherd": 5278,
      "chology": 5279,
      "tery": 5280,
      "teries": 5281,
      "Ġguards": 5282,
      "Ġguarant": 5283,
      "Ġhimalay": 5284,
      "Ġdose": 5285,
      "Ġloosen": 5286,
      "Ġissue": 5287,
      "Ġisland": 5288,
      "atest": 5289,
      "ateboard": 5290,
      "ads": 5291,
      "ader": 5292,
      "adle": 5293,
      "adable": 5294,
      "eping": 5295,
      "Ġwheat": 5296,
      "Ġlives": 5297,
      "Ġnoticeable": 5298,
      "Ġlookout": 5299,
      "Ġshade": 5300,
      "Ġshift": 5301,
      "Ġshipping": 5302,
      "Ġshafts": 5303,
      "Ġshorter": 5304,
      "Ġabdom": 5305,
      "Ġpigg": 5306,
      "Ġboar": 5307,
      "Ġguineas": 5308,
      "ideo": 5309,
      "Ġrake": 5310,
      "Ġrain": 5311,
      "Ġrap": 5312,
      "Ġrhy": 5313,
      "Ġramp": 5314,
      "Ġrabb": 5315,
      "Ġneop": 5316,
      "cks": 5317,
      "cker": 5318,
      "Ġspir": 5319,
      "Ġspill": 5320,
      "Ġspacers": 5321,
      "urity": 5322,
      "urricular": 5323,
      "cell": 5324,
      "cels": 5325,
      "Ġfriendliness": 5326,
      "abil": 5327,
      "esson": 5328,
      "Ġupwards": 5329,
      "Ġexh": 5330,
      "Ġexs": 5331,
      "Ġexact": 5332,
      "Ġexten": 5333,
      "Ġexude": 5334,
      "olute": 5335,
      "ama": 5336,
      "amond": 5337,
      "amins": 5338,
      "amber": 5339,
      "ssip": 5340,
      "Ġchin": 5341,
      "Ġchor": 5342,
      "Ġchap": 5343,
      "Ġchiv": 5344,
      "Ġcharm": 5345,
      "Ġchamber": 5346,
      "Ġcagemate": 5347,
      "Ġvirt": 5348,
      "Ġvans": 5349,
      "Ġvalu": 5350,
      "Ġvenues": 5351,
      "Ġvideo": 5352,
      "Ġcheer": 5353,
      "Ġpros": 5354,
      "Ġprogr": 5355,
      "Ġproceed": 5356,
      "Ġprocra": 5357,
      "Ġtears": 5358,
      "Ġtelephone": 5359,
      "Ġtimer": 5360,
      "Ġtimothy": 5361,
      "erside": 5362,
      "Ġclaw": 5363,
      "Ġclumps": 5364,
      "Ġclums": 5365,
      "Ġclaimed": 5366,
      "Ġsoaking": 5367,
      "antities": 5368,
      "Ġfeli": 5369,
      "apt": 5370,
      "apanese": 5371,
      "ults": 5372,
      "ulations": 5373,
      "Ġcrushing": 5374,
      "arting": 5375,
      "Ġdiamond": 5376,
      "Ġgod": 5377,
      "Ġgossip": 5378,
      "ipul": 5379,
      "ipants": 5380,
      "ipheral": 5381,
      "Ġpoor": 5382,
      "Ġpose": 5383,
      "Ġpops": 5384,
      "Ġpods": 5385,
      "Ġpoking": 5386,
      "Ġpoem": 5387,
      "ills": 5388,
      "Ġsheets": 5389,
      "Ġshearing": 5390,
      "Ġknocked": 5391,
      "Ġsusp": 5392,
      "Ġsung": 5393,
      "Ġsuffic": 5394,
      "Ġbus": 5395,
      "Ġbush": 5396,
      "Ġbunt": 5397,
      "Ġbuds": 5398,
      "Ġbunch": 5399,
      "Ġwebs": 5400,
      "Ġhormon": 5401,
      "Ġfinds": 5402,
      "Ġadults": 5403,
      "Ġjar": 5404,
      "Ġjaw": 5405,
      "Ġjapanese": 5406,
      "Ġallies": 5407,
      "Ġenric": 5408,
      "Ġenzy": 5409,
      "aching": 5410,
      "Ġconsist": 5411,
      "Ġotherwise": 5412,
      "ials": 5413,
      "ialize": 5414,
      "Ġcleaners": 5415,
      "ization": 5416,
      "Ġputs": 5417,
      "Ġtreating": 5418,
      "Ġtreatments": 5419,
      "Ġhandsh": 5420,
      "Ġleop": 5421,
      "ailing": 5422,
      "opreal": 5423,
      "Ġhowever": 5424,
      "Ġcontamin": 5425,
      "Ġcontemp": 5426,
      "Ġcontext": 5427,
      "ashes": 5428,
      "Ġsegre": 5429,
      "Ġsevere": 5430,
      "Ġflour": 5431,
      "Ġflag": 5432,
      "Ġflaws": 5433,
      "Ġflower": 5434,
      "Ġflash": 5435,
      "Ġconsidering": 5436,
      "Ġalmond": 5437,
      "Ġpetitions": 5438,
      "Ġappra": 5439,
      "Ġplayground": 5440,
      "Ġquot": 5441,
      "Ġquantities": 5442,
      "Ġtheirs": 5443,
      "Ġcancels": 5444,
      "Ġleading": 5445,
      "Ġscare": 5446,
      "Ġscary": 5447,
      "aken": 5448,
      "Ġhorsepony": 5449,
      "plants": 5450,
      "inky": 5451,
      "Ġgoods": 5452,
      "Ġoverweight": 5453,
      "Ġovercome": 5454,
      "ression": 5455,
      "Ġloyal": 5456,
      "mbles": 5457,
      "mbling": 5458,
      "Ġpray": 5459,
      "Ġprone": 5460,
      "Ġprint": 5461,
      "Ġpricing": 5462,
      "Ġcovers": 5463,
      "Ġcoons": 5464,
      "asting": 5465,
      "Ġbackd": 5466,
      "Ġbackside": 5467,
      "Ġbackup": 5468,
      "Ġbackyard": 5469,
      "Ġoffic": 5470,
      "Ġconfused": 5471,
      "Ġnews": 5472,
      "Ġbrim": 5473,
      "Ġbrace": 5474,
      "Ġbrother": 5475,
      "Ġbranc": 5476,
      "Ġworn": 5477,
      "Ġworms": 5478,
      "Ġwanted": 5479,
      "Ġcutter": 5480,
      "Ġcutting": 5481,
      "wear": 5482,
      "angers": 5483,
      "Ġwatchful": 5484,
      "Ġneeding": 5485,
      "Ġdeals": 5486,
      "Ġdeath": 5487,
      "Ġdeworm": 5488,
      "Ġdexter": 5489,
      "Ġwax": 5490,
      "Ġwaist": 5491,
      "Ġbedroom": 5492,
      "Ġmeat": 5493,
      "Ġmelt": 5494,
      "Ġmelo": 5495,
      "pervised": 5496,
      "Ġdispen": 5497,
      "Ġdisplay": 5498,
      "Ġunderside": 5499,
      "Ġsignal": 5500,
      "Ġdeclaw": 5501,
      "Ġaddition": 5502,
      "Ġadditives": 5503,
      "serv": 5504,
      "Ġmoved": 5505,
      "Ġrelative": 5506,
      "Ġreliable": 5507,
      "Ġconversational": 5508,
      "Ġdaydre": 5509,
      "Ġdetach": 5510,
      "Ġdetail": 5511,
      "Ġeyel": 5512,
      "Ġlisted": 5513,
      "Ġsomethings": 5514,
      "Ġunderne": 5515,
      "Ġclosest": 5516,
      "istically": 5517,
      "Ġsliding": 5518,
      "Ġslope": 5519,
      "Ġslots": 5520,
      "Ġgrows": 5521,
      "ivan": 5522,
      "ivitis": 5523,
      "ividual": 5524,
      "Ġunh": 5525,
      "Ġunple": 5526,
      "Ġunli": 5527,
      "Ġunatt": 5528,
      "Ġunscent": 5529,
      "Ġunlim": 5530,
      "Ġunusu": 5531,
      "Ġstray": 5532,
      "Ġstrict": 5533,
      "Ġstrangers": 5534,
      "Ġrum": 5535,
      "Ġblo": 5536,
      "Ġblame": 5537,
      "Ġblade": 5538,
      "Ġblush": 5539,
      "Ġblaming": 5540,
      "Ġbehave": 5541,
      "Ġbehaves": 5542,
      "Ġregain": 5543,
      "Ġregard": 5544,
      "Ġregret": 5545,
      "Ġregulations": 5546,
      "ours": 5547,
      "Ġconfidently": 5548,
      "Ġdownhill": 5549,
      "Ġtogethers": 5550,
      "Ġpicks": 5551,
      "Ġmuck": 5552,
      "Ġtrained": 5553,
      "Ġmath": 5554,
      "Ġmaturity": 5555,
      "estinal": 5556,
      "estrian": 5557,
      "Ġeverywhere": 5558,
      "Ġpuzz": 5559,
      "Ġpuzzle": 5560,
      "Ġflirty": 5561,
      "Ġsaw": 5562,
      "Ġsave": 5563,
      "Ġcomplications": 5564,
      "Ġworker": 5565,
      "Ġworkers": 5566,
      "Ġpositivity": 5567,
      "Ġrostrum": 5568,
      "Ġevidence": 5569,
      "Ġpays": 5570,
      "Ġagile": 5571,
      "Ġagrees": 5572,
      "Ġallows": 5573,
      "agers": 5574,
      "Ġhangs": 5575,
      "Ġhangouts": 5576,
      "Ġrecently": 5577,
      "Ġrecept": 5578,
      "Ġsocialized": 5579,
      "Ġsocializing": 5580,
      "Ġsupporters": 5581,
      "Ġbehaviour": 5582,
      "Ġwring": 5583,
      "Ġwrites": 5584,
      "Ġnod": 5585,
      "Ġnoisy": 5586,
      "Ġsets": 5587,
      "Ġsettings": 5588,
      "Ġlistens": 5589,
      "Ġhomework": 5590,
      "Ġhelping": 5591,
      "Ġhelpful": 5592,
      "Ġpurif": 5593,
      "Ġpatch": 5594,
      "Ġpatience": 5595,
      "Ġmanipul": 5596,
      "Ġbehavioral": 5597,
      "Ġhouseplants": 5598,
      "Ġbitter": 5599,
      "Ġinterview": 5600,
      "Ġimposs": 5601,
      "Ġnecess": 5602,
      "Ġpartially": 5603,
      "Ġcolle": 5604,
      "Ġcolost": 5605,
      "Ġcolored": 5606,
      "Ġweekend": 5607,
      "Ġcalcul": 5608,
      "Ġglad": 5609,
      "Ġglove": 5610,
      "Ġglass": 5611,
      "Ġglances": 5612,
      "umonia": 5613,
      "Ġuntie": 5614,
      "Ġexposed": 5615,
      "Ġperches": 5616,
      "Ġperfume": 5617,
      "Ġperipheral": 5618,
      "Ġemerg": 5619,
      "Ġjoking": 5620,
      "Ġshorth": 5621,
      "Ġshorts": 5622,
      "nesses": 5623,
      "Ġfunnel": 5624,
      "Ġgathering": 5625,
      "Ġincorpor": 5626,
      "Ġexample": 5627,
      "Ġexamined": 5628,
      "Ġexamples": 5629,
      "Ġwashable": 5630,
      "Ġfurry": 5631,
      "Ġpossess": 5632,
      "Ġawhile": 5633,
      "Ġawesome": 5634,
      "Ġhoards": 5635,
      "Ġspecially": 5636,
      "Ġsketches": 5637,
      "Ġskateboard": 5638,
      "Ġswapping": 5639,
      "Ġfins": 5640,
      "Ġfinancial": 5641,
      "Ġbatteries": 5642,
      "Ġelbow": 5643,
      "Ġrealistically": 5644,
      "Ġlegal": 5645,
      "Ġlegality": 5646,
      "Ġveil": 5647,
      "Ġtests": 5648,
      "Ġhappiness": 5649,
      "Ġlocations": 5650,
      "Ġflooring": 5651,
      "Ġrepeating": 5652,
      "Ġdifferently": 5653,
      "Ġdesk": 5654,
      "Ġdeser": 5655,
      "Ġdescrib": 5656,
      "Ġmineral": 5657,
      "Ġminivan": 5658,
      "Ġtrimming": 5659,
      "Ġassist": 5660,
      "Ġcompost": 5661,
      "Ġcompressed": 5662,
      "Ġcomprom": 5663,
      "Ġcompatib": 5664,
      "Ġextended": 5665,
      "Ġextrac": 5666,
      "Ġdrool": 5667,
      "Ġdrape": 5668,
      "Ġeasiest": 5669,
      "Ġresil": 5670,
      "Ġresolve": 5671,
      "Ġresident": 5672,
      "Ġquietly": 5673,
      "Ġmeetings": 5674,
      "onscious": 5675,
      "Ġlaundry": 5676,
      "Ġ18": 5677,
      "Ġcurves": 5678,
      "Ġcurricular": 5679,
      "Ġboost": 5680,
      "Ġclassic": 5681,
      "Ġclassified": 5682,
      "Ġactivated": 5683,
      "Ġoffering": 5684,
      "Ġbridges": 5685,
      "Ġrefuse": 5686,
      "Ġreference": 5687,
      "Ġcontinues": 5688,
      "Ġidentific": 5689,
      "ledg": 5690,
      "Ġnuc": 5691,
      "Ġsecurely": 5692,
      "Ġhighly": 5693,
      "Ġnature": 5694,
      "Ġdirected": 5695,
      "Ġdirections": 5696,
      "Ġattaching": 5697,
      "Ġattachments": 5698,
      "Ġentry": 5699,
      "Ġentering": 5700,
      "Ġschools": 5701,
      "Ġgenital": 5702,
      "Ġgenitals": 5703,
      "Ġmessy": 5704,
      "Ġpulling": 5705,
      "Ġsprays": 5706,
      "Ġspraying": 5707,
      "Ġ20": 5708,
      "Ġpressed": 5709,
      "Ġschooling": 5710,
      "Ġschoolwork": 5711,
      "Ġlayer": 5712,
      "Ġlaying": 5713,
      "Ġlighten": 5714,
      "Ġlightly": 5715,
      "Ġlightweight": 5716,
      "Ġreplies": 5717,
      "Ġdiscourage": 5718,
      "Ġdisconnect": 5719,
      "Ġneckline": 5720,
      "Ġnecklaces": 5721,
      "Ġelsewhere": 5722,
      "ptic": 5723,
      "ptly": 5724,
      "Ġcradle": 5725,
      "Ġpotent": 5726,
      "Ġpotting": 5727,
      "Ġpotted": 5728,
      "Ġholidays": 5729,
      "Ġbadly": 5730,
      "ifications": 5731,
      "Ġsnug": 5732,
      "Ġcards": 5733,
      "Ġfillings": 5734,
      "anket": 5735,
      "Ġresembles": 5736,
      "Ġguysgir": 5737,
      "Ġteam": 5738,
      "Ġcircles": 5739,
      "Ġdawn": 5740,
      "Ġscrape": 5741,
      "Ġmarker": 5742,
      "Ġsubmiss": 5743,
      "Ġpolit": 5744,
      "Ġpolice": 5745,
      "Ġrolling": 5746,
      "Ġmostly": 5747,
      "Ġmouthpiece": 5748,
      "Ġimage": 5749,
      "Ġstressful": 5750,
      "Ġrelaxing": 5751,
      "Ġenjoying": 5752,
      "Ġenvironments": 5753,
      "Ġforever": 5754,
      "Ġpaste": 5755,
      "Ġmindful": 5756,
      "Ġadvent": 5757,
      "Ġadvance": 5758,
      "Ġprett": 5759,
      "Ġresponding": 5760,
      "Ġbreaths": 5761,
      "Ġhumans": 5762,
      "Ġlesson": 5763,
      "Ġgreens": 5764,
      "Ġgreatest": 5765,
      "Ġeaten": 5766,
      "ructive": 5767,
      "Ġartistic": 5768,
      "Ġimpression": 5769,
      "Ġimpressive": 5770,
      "Ġemoticons": 5771,
      "inese": 5772,
      "Ġpairs": 5773,
      "Ġinvestment": 5774,
      "Ġsituate": 5775,
      "Ġsituated": 5776,
      "Ġcrust": 5777,
      "Ġcrump": 5778,
      "Ġcruel": 5779,
      "Ġcruises": 5780,
      "Ġoils": 5781,
      "Ġromances": 5782,
      "Ġjumpers": 5783,
      "Ġsends": 5784,
      "Ġwired": 5785,
      "Ġindirect": 5786,
      "Ġindividual": 5787,
      "Ġequitation": 5788,
      "Ġequestrian": 5789,
      "Ġeffects": 5790,
      "Ġformal": 5791,
      "Ġformation": 5792,
      "Ġpersonalities": 5793,
      "Ġloaded": 5794,
      "Ġcarrying": 5795,
      "Ġbaths": 5796,
      "Ġbathroom": 5797,
      "Ġdesignate": 5798,
      "Ġorganized": 5799,
      "lessness": 5800,
      "Ġtightrope": 5801,
      "Ġurge": 5802,
      "Ġurinate": 5803,
      "Ġpointed": 5804,
      "Ġdrinkers": 5805,
      "Ġprotector": 5806,
      "Ġprotected": 5807,
      "Ġprotective": 5808,
      "rows": 5809,
      "Ġsister": 5810,
      "Ġgravit": 5811,
      "Ġvarious": 5812,
      "Ġvarroa": 5813,
      "Ġdiscussion": 5814,
      "Ġcrying": 5815,
      "Ġprofiles": 5816,
      "Ġclosure": 5817,
      "Ġreminds": 5818,
      "Ġdeveloped": 5819,
      "Ġskinny": 5820,
      "Ġcompanions": 5821,
      "Ġpunishment": 5822,
      "Ġcantle": 5823,
      "Ġbands": 5824,
      "Ġabsolute": 5825,
      "Ġsunfl": 5826,
      "Ġprevious": 5827,
      "Ġalternatively": 5828,
      "Ġalternatives": 5829,
      "Ġscream": 5830,
      "Ġpromptly": 5831,
      "Ġblockage": 5832,
      "Ġhygienic": 5833,
      "Ġseriously": 5834,
      "Ġtigers": 5835,
      "Ġpraising": 5836,
      "Ġburial": 5837,
      "Ġbags": 5838,
      "Ġelectrical": 5839,
      "Ġavailability": 5840,
      "Ġplayfulness": 5841,
      "Ġmanxs": 5842,
      "Ġparticipants": 5843,
      "uckle": 5844,
      "Ġmotivate": 5845,
      "Ġmethods": 5846,
      "Ġcascad": 5847,
      "Ġcombine": 5848,
      "Ġjackets": 5849,
      "Ġinternal": 5850,
      "Ġinternship": 5851,
      "Ġperformance": 5852,
      "Ġpretending": 5853,
      "Ġoccasional": 5854,
      "Ġprofessionally": 5855,
      "âĢĶ": 5856,
      "Ġzip": 5857,
      "Ġtunic": 5858,
      "Ġcentimeter": 5859,
      "Ġiniti": 5860,
      "Ġstains": 5861,
      "Ġmemories": 5862,
      "Ġdisposition": 5863,
      "Ġgrades": 5864,
      "Ġtypical": 5865,
      "Ġtraveling": 5866,
      "Ġcontrolled": 5867,
      "cystic": 5868,
      "Ġtendencies": 5869,
      "Ġacro": 5870,
      "Ġfiling": 5871,
      "Ġgardening": 5872,
      "Ġthreadwool": 5873,
      "Ġstares": 5874,
      "Ġoutfits": 5875,
      "Ġisolated": 5876,
      "Ġrags": 5877,
      "Ġbutterf": 5878,
      "Ġcarried": 5879,
      "Ġbirthday": 5880,
      "Ġvaccinations": 5881,
      "Ġfleeces": 5882,
      "Ġresponsibilities": 5883,
      "Ġfarrier": 5884,
      "Ġdamage": 5885,
      "Ġtruthful": 5886,
      "Ġringworm": 5887,
      "Ġracks": 5888,
      "Ġvalues": 5889,
      "Ġunconscious": 5890,
      "Ġperfectly": 5891,
      "Ġsurrounding": 5892,
      "Ġhumane": 5893,
      "Ġpressured": 5894,
      "Ġcountry": 5895,
      "Ġfault": 5896,
      "Ġhouses": 5897,
      "Ġrequired": 5898,
      "Ġanalyzing": 5899,
      "Ġanswering": 5900,
      "Ġexcept": 5901,
      "Ġexclud": 5902,
      "Ġdividing": 5903,
      "Ġallergic": 5904,
      "Ġblowho": 5905,
      "Ġstudies": 5906,
      "Ġsquares": 5907,
      "Ġpossibly": 5908,
      "Ġannoyed": 5909,
      "Ġmirrors": 5910,
      "ney": 5911,
      "Ġtablets": 5912,
      "Ġterminology": 5913,
      "Ġauthent": 5914,
      "Ġseam": 5915,
      "Ġseason": 5916,
      "Ġportion": 5917,
      "Ġportions": 5918,
      "Ġportfol": 5919,
      "Ġhtm": 5920,
      "Ġwidely": 5921,
      "Ġtoxin": 5922,
      "Ġdangers": 5923,
      "Ġopinions": 5924,
      "Ġmornings": 5925,
      "Ġmissing": 5926,
      "Ġeggs": 5927,
      "Ġstylish": 5928,
      "Ġstyrofo": 5929,
      "Ġstyptic": 5930,
      "Ġstrawber": 5931,
      "Ġorigins": 5932,
      "Ġguidelines": 5933,
      "Ġsharpen": 5934,
      "Ġkidney": 5935,
      "Ġtexting": 5936,
      "Ġsociety": 5937,
      "Ġsociable": 5938,
      "Ġsociability": 5939,
      "Ġdiseases": 5940,
      "Ġweaned": 5941,
      "Ġremovable": 5942,
      "Ġobstacles": 5943,
      "Ġdevote": 5944,
      "Ġdecorative": 5945,
      "Ġphotograph": 5946,
      "Ġdisturbance": 5947,
      "Ġdisturbances": 5948,
      "Ġassociate": 5949,
      "Ġresists": 5950,
      "Ġgreeting": 5951,
      "Ġantibiotic": 5952,
      "Ġrandomly": 5953,
      "Ġvocalize": 5954,
      "ĠâĢĺ": 5955,
      "Ġtalents": 5956,
      "Ġsightings": 5957,
      "Ġcultivate": 5958,
      "Ġcubes": 5959,
      "Ġhugs": 5960,
      "Ġlicks": 5961,
      "Ġdraft": 5962,
      "Ġdarkness": 5963,
      "Ġgesture": 5964,
      "Ġstarter": 5965,
      "Ġanxious": 5966,
      "Ġchallenge": 5967,
      "Ġteenage": 5968,
      "Ġfluids": 5969,
      "Ġconflicts": 5970,
      "Ġbutton": 5971,
      "Ġbuttons": 5972,
      "Ġgrains": 5973,
      "Ġawkwardness": 5974,
      "Ġhappened": 5975,
      "Ġsleeve": 5976,
      "Ġsleeves": 5977,
      "Ġoccupied": 5978,
      "Ġscrews": 5979,
      "Ġsuccessful": 5980,
      "Ġaccommodations": 5981,
      "Ġunexpectedly": 5982,
      "backs": 5983,
      "Ġservices": 5984,
      "Ġpinching": 5985,
      "Ġlandlord": 5986,
      "Ġdepression": 5987,
      "Ġoven": 5988,
      "Ġoval": 5989,
      "Ġmask": 5990,
      "Ġmasks": 5991,
      "Ġinfection": 5992,
      "Ġreassure": 5993,
      "Ġreassuring": 5994,
      "Ġstimulation": 5995,
      "Ġtransition": 5996,
      "Ġspells": 5997,
      "Ġspelling": 5998,
      "Ġintimid": 5999,
      "Ġchartreux": 6000,
      "Ġappointments": 6001,
      "Ġbrowse": 6002,
      "Ġdestroy": 6003,
      "Ġdestructive": 6004,
      "Ġdelicate": 6005,
      "Ġmodest": 6006,
      "Ġsyringes": 6007,
      "Ġcracks": 6008,
      "Ġsneaking": 6009,
      "Ġexperiences": 6010,
      "Ġexperienced": 6011,
      "Ġsubstit": 6012,
      "Ġsubstance": 6013,
      "Ġcounter": 6014,
      "Ġmemorable": 6015,
      "Ġmemorialize": 6016,
      "Ġdreams": 6017,
      "Ġassociation": 6018,
      "Ġsincerely": 6019,
      "Ġlicense": 6020,
      "Ġtangles": 6021,
      "Ġtablespoon": 6022,
      "Ġyearly": 6023,
      "Ġfairly": 6024,
      "Ġpepper": 6025,
      "Ġwander": 6026,
      "Ġwonder": 6027,
      "Ġwondering": 6028,
      "Ġliner": 6029,
      "Ġlaser": 6030,
      "Ġlasers": 6031,
      "Ġhavent": 6032,
      "Ġhavana": 6033,
      "Ġirons": 6034,
      "Ġstalking": 6035,
      "Ġordinary": 6036,
      "Ġtransfer": 6037,
      "Ġcavesson": 6038,
      "Ġcandy": 6039,
      "Ġcandidates": 6040,
      "Ġaspects": 6041,
      "Ġdoctor": 6042,
      "Ġdoctors": 6043,
      "Ġliquid": 6044,
      "Ġliquids": 6045,
      "Ġradio": 6046,
      "Ġribbon": 6047,
      "Ġwhipstitch": 6048,
      "Ġupdate": 6049,
      "Ġviolent": 6050,
      "Ġsofter": 6051,
      "Ġsoften": 6052,
      "Ġbullying": 6053,
      "Ġpreparation": 6054,
      "Ġpreparations": 6055,
      "Ġappealing": 6056,
      "Ġdegree": 6057,
      "Ġdegrees": 6058,
      "Ġeyebrows": 6059,
      "Ġimagine": 6060,
      "Ġhydrated": 6061,
      "Ġengaging": 6062,
      "Ġengaged": 6063,
      "Ġescaped": 6064,
      "Ġcelebrity": 6065,
      "Ġautomated": 6066,
      "Ġchallenging": 6067,
      "Ġchallenges": 6068,
      "Ġsatisfy": 6069,
      "Ġauthority": 6070,
      "Ġrectangle": 6071,
      "Ġrasping": 6072,
      "Ġchristian": 6073,
      "egradable": 6074,
      "lusion": 6075,
      "occlusion": 6076,
      "Ġtucked": 6077,
      "Ġterms": 6078,
      "Ġtactics": 6079,
      "Ġtumors": 6080,
      "Ġaquariums": 6081,
      "Ġsentence": 6082,
      "Ġsoreness": 6083,
      "Ġtheatre": 6084,
      "Ġpsychology": 6085,
      "Ġpowerful": 6086,
      "Ġhideaways": 6087,
      "Ġborn": 6088,
      "Ġbench": 6089,
      "Ġbruised": 6090,
      "Ġwrapping": 6091,
      "Ġtotally": 6092,
      "Ġtolerate": 6093,
      "Ġtoothbrush": 6094,
      "Ġinsist": 6095,
      "Ġnutr": 6096,
      "Ġcategories": 6097,
      "Ġhammy": 6098,
      "Ġconjunct": 6099,
      "Ġfrozen": 6100,
      "Ġheavier": 6101,
      "Ġcaptivity": 6102,
      "Ġkennel": 6103,
      "Ġbobtail": 6104,
      "Ġwhiskers": 6105,
      "Ġtelevision": 6106,
      "Ġclinical": 6107,
      "Ġpolycystic": 6108,
      "Ġsucceeded": 6109,
      "Ġjerk": 6110,
      "rasonic": 6111,
      "Ġhandwriting": 6112,
      "Ġattentive": 6113,
      "Ġscolding": 6114,
      "Ġprongs": 6115,
      "Ġcostumes": 6116,
      "Ġunbuckle": 6117,
      "Ġunsupervised": 6118,
      "Ġpestering": 6119,
      "Ġglands": 6120,
      "Ġinstincts": 6121,
      "Ġencouraging": 6122,
      "Ġdesperate": 6123,
      "Ġrepetition": 6124,
      "Ġsurprise": 6125,
      "Ġcurtains": 6126,
      "Ġdiscarded": 6127,
      "Ġtemporary": 6128,
      "Ġcircumst": 6129,
      "Ġdefinitely": 6130,
      "Ġextremes": 6131,
      "Ġacquaint": 6132,
      "Ġcylinder": 6133,
      "Ġtransport": 6134,
      "Ġdisappointed": 6135,
      "Ġapproximately": 6136,
      "Ġmanufacturers": 6137,
      "Ġhibernating": 6138,
      "Ġhorizontal": 6139,
      "Ġadvertisements": 6140,
      "Ġdeodorize": 6141,
      "blanket": 6142,
      "lasses": 6143,
      "Ġessential": 6144,
      "Ġtutor": 6145,
      "Ġairtight": 6146,
      "Ġsorry": 6147,
      "Ġsoothing": 6148,
      "Ġsoothe": 6149,
      "Ġfidget": 6150,
      "Ġfainting": 6151,
      "Ġpitfalls": 6152,
      "Ġpaddock": 6153,
      "Ġpneumonia": 6154,
      "Ġbeside": 6155,
      "Ġbulk": 6156,
      "Ġbacteria": 6157,
      "Ġbiodegradable": 6158,
      "Ġwedge": 6159,
      "itiveness": 6160,
      "Ġtopline": 6161,
      "Ġtobacco": 6162,
      "Ġlighter": 6163,
      "Ġlukewarm": 6164,
      "Ġdowel": 6165,
      "Ġdedicate": 6166,
      "Ġdurable": 6167,
      "Ġdusk": 6168,
      "Ġgastroint": 6169,
      "Ġgoosenec": 6170,
      "Ġmalocclusion": 6171,
      "Ġmolars": 6172,
      "Ġinsecure": 6173,
      "Ġinverted": 6174,
      "Ġinsuffic": 6175,
      "Ġnearest": 6176,
      "Ġnurse": 6177,
      "Ġnasal": 6178,
      "Ġelevation": 6179,
      "Ġeducate": 6180,
      "Ġrenting": 6181,
      "Ġthreatening": 6182,
      "Ġultrasonic": 6183,
      "Ġstabilize": 6184,
      "Ġstifle": 6185,
      "Ġconquer": 6186,
      "Ġcastration": 6187,
      "Ġhimalayan": 6188,
      "Ġabdomen": 6189,
      "Ġrapid": 6190,
      "Ġrhyming": 6191,
      "Ġrabbits": 6192,
      "Ġneopopreal": 6193,
      "Ġexactly": 6194,
      "Ġchapter": 6195,
      "Ġchivalrous": 6196,
      "Ġvirtually": 6197,
      "Ġvaluable": 6198,
      "Ġprogram": 6199,
      "Ġprocrastinate": 6200,
      "Ġfeliway": 6201,
      "Ġsuspicious": 6202,
      "Ġsunglasses": 6203,
      "Ġwebsite": 6204,
      "Ġconsistently": 6205,
      "Ġcontamination": 6206,
      "Ġcontemplate": 6207,
      "Ġsegreg": 6208,
      "Ġflags": 6209,
      "Ġbranches": 6210,
      "Ġdexterity": 6211,
      "Ġmelody": 6212,
      "Ġdispenser": 6213,
      "Ġunderneath": 6214,
      "Ġunpleasant": 6215,
      "Ġunattended": 6216,
      "Ġunscented": 6217,
      "Ġunlimited": 6218,
      "Ġpuzzles": 6219,
      "Ġreceptive": 6220,
      "Ġimpossible": 6221,
      "Ġcolostrum": 6222,
      "Ġcalculate": 6223,
      "Ġemergency": 6224,
      "Ġskateboarding": 6225,
      "Ġdescribe": 6226,
      "Ġcompatibility": 6227,
      "Ġextracurricular": 6228,
      "Ġidentification": 6229,
      "Ġguysgirls": 6230,
      "Ġsubmission": 6231,
      "Ġabsolutely": 6232,
      "Ġsunflower": 6233,
      "Ġexcluder": 6234,
      "Ġblowhole": 6235,
      "Ġauthentic": 6236,
      "Ġstyrofoam": 6237,
      "Ġconjunctivitis": 6238,
      "Ġcircumstances": 6239,
      "Ġgastrointestinal": 6240,
      "Ġneopoprealist": 6241
    },
    "merges": [
      [
        "Ġ",
        "t"
      ],
      [
        "Ġ",
        "a"
      ],
      [
        "h",
        "e"
      ],
      [
        "o",
        "u"
      ],
      [
        "i",
        "n"
      ],
      [
        "Ġ",
        "s"
      ],
      [
        "Ġ",
        "c"
      ],
      [
        "Ġ",
        "y"
      ],
      [
        "Ġy",
        "ou"
      ],
      [
        "Ġt",
        "he"
      ],
      [
        "r",
        "e"
      ],
      [
        "e",
        "r"
      ],
      [
        "a",
        "t"
      ],
      [
        "Ġ",
        "f"
      ],
      [
        "o",
        "n"
      ],
      [
        "Ġ",
        "p"
      ],
      [
        "Ġ",
        "h"
      ],
      [
        "Ġyou",
        "r"
      ],
      [
        "Ġ",
        "b"
      ],
      [
        "Ġ",
        "w"
      ],
      [
        "o",
        "r"
      ],
      [
        "i",
        "t"
      ],
      [
        "Ġt",
        "o"
      ],
      [
        "n",
        "d"
      ],
      [
        "Ġ",
        "l"
      ],
      [
        "in",
        "g"
      ],
      [
        "Ġ",
        "d"
      ],
      [
        "Ġ",
        "g"
      ],
      [
        "s",
        "t"
      ],
      [
        "Ġ",
        "o"
      ],
      [
        "Ġ",
        "m"
      ],
      [
        "e",
        "t"
      ],
      [
        "e",
        "n"
      ],
      [
        "e",
        "s"
      ],
      [
        "a",
        "l"
      ],
      [
        "Ġ",
        "in"
      ],
      [
        "a",
        "r"
      ],
      [
        "Ġh",
        "a"
      ],
      [
        "s",
        "e"
      ],
      [
        "l",
        "e"
      ],
      [
        "Ġ",
        ","
      ],
      [
        "v",
        "e"
      ],
      [
        "a",
        "n"
      ],
      [
        "k",
        "e"
      ],
      [
        "Ġ",
        "i"
      ],
      [
        "Ġ",
        "n"
      ],
      [
        "o",
        "o"
      ],
      [
        "Ġo",
        "f"
      ],
      [
        "Ġa",
        "nd"
      ],
      [
        "Ġb",
        "e"
      ],
      [
        "a",
        "c"
      ],
      [
        "Ġ",
        "e"
      ],
      [
        "o",
        "m"
      ],
      [
        "Ġ",
        "re"
      ],
      [
        "he",
        "r"
      ],
      [
        "i",
        "d"
      ],
      [
        "i",
        "m"
      ],
      [
        "Ġf",
        "or"
      ],
      [
        "Ġt",
        "h"
      ],
      [
        "i",
        "g"
      ],
      [
        "Ġ",
        "u"
      ],
      [
        "i",
        "c"
      ],
      [
        "i",
        "on"
      ],
      [
        "ou",
        "t"
      ],
      [
        "o",
        "w"
      ],
      [
        "Ġw",
        "it"
      ],
      [
        "l",
        "l"
      ],
      [
        "Ġwit",
        "h"
      ],
      [
        "o",
        "t"
      ],
      [
        "Ġc",
        "at"
      ],
      [
        "a",
        "y"
      ],
      [
        "e",
        "d"
      ],
      [
        "l",
        "y"
      ],
      [
        "Ġs",
        "t"
      ],
      [
        "Ġ",
        "on"
      ],
      [
        "en",
        "t"
      ],
      [
        "a",
        "ke"
      ],
      [
        "st",
        "er"
      ],
      [
        "i",
        "r"
      ],
      [
        "i",
        "s"
      ],
      [
        "Ġha",
        "m"
      ],
      [
        "Ġham",
        "ster"
      ],
      [
        "Ġc",
        "on"
      ],
      [
        "e",
        "a"
      ],
      [
        "g",
        "e"
      ],
      [
        "Ġf",
        "r"
      ],
      [
        "Ġ",
        "or"
      ],
      [
        "Ġ",
        "it"
      ],
      [
        "Ġi",
        "f"
      ],
      [
        "r",
        "o"
      ],
      [
        "e",
        "c"
      ],
      [
        "Ġt",
        "r"
      ],
      [
        "u",
        "t"
      ],
      [
        "Ġ",
        "he"
      ],
      [
        "Ġc",
        "a"
      ],
      [
        "Ġa",
        "s"
      ],
      [
        "e",
        "nd"
      ],
      [
        "Ġth",
        "at"
      ],
      [
        "Ġa",
        "n"
      ],
      [
        "Ġ",
        "her"
      ],
      [
        "Ġp",
        "l"
      ],
      [
        "s",
        "h"
      ],
      [
        "c",
        "h"
      ],
      [
        "Ġ",
        "out"
      ],
      [
        "t",
        "er"
      ],
      [
        "Ġm",
        "ake"
      ],
      [
        "e",
        "e"
      ],
      [
        "v",
        "er"
      ],
      [
        "r",
        "u"
      ],
      [
        "Ġa",
        "t"
      ],
      [
        "i",
        "l"
      ],
      [
        "u",
        "re"
      ],
      [
        "i",
        "ve"
      ],
      [
        "Ġg",
        "u"
      ],
      [
        "Ġh",
        "im"
      ],
      [
        "Ġd",
        "o"
      ],
      [
        "Ġl",
        "oo"
      ],
      [
        "Ġi",
        "s"
      ],
      [
        "Ġg",
        "et"
      ],
      [
        "at",
        "e"
      ],
      [
        "a",
        "d"
      ],
      [
        "e",
        "p"
      ],
      [
        "on",
        "t"
      ],
      [
        "Ġw",
        "he"
      ],
      [
        "Ġl",
        "i"
      ],
      [
        "Ġn",
        "ot"
      ],
      [
        "Ġloo",
        "k"
      ],
      [
        "Ġs",
        "h"
      ],
      [
        "Ġ",
        "k"
      ],
      [
        "i",
        "end"
      ],
      [
        "Ġa",
        "b"
      ],
      [
        "Ġp",
        "ig"
      ],
      [
        "Ġb",
        "o"
      ],
      [
        "in",
        "ea"
      ],
      [
        "Ġgu",
        "inea"
      ],
      [
        "Ġa",
        "re"
      ],
      [
        "id",
        "e"
      ],
      [
        "Ġ",
        "r"
      ],
      [
        "Ġn",
        "e"
      ],
      [
        "ac",
        "e"
      ],
      [
        "c",
        "k"
      ],
      [
        "Ġs",
        "p"
      ],
      [
        "Ġw",
        "h"
      ],
      [
        "u",
        "r"
      ],
      [
        "ig",
        "h"
      ],
      [
        "oo",
        "d"
      ],
      [
        "c",
        "e"
      ],
      [
        "at",
        "ion"
      ],
      [
        "p",
        "p"
      ],
      [
        "Ġd",
        "ont"
      ],
      [
        "a",
        "in"
      ],
      [
        "Ġfr",
        "iend"
      ],
      [
        "Ġ",
        "-"
      ],
      [
        "Ġin",
        "t"
      ],
      [
        "Ġab",
        "out"
      ],
      [
        "l",
        "f"
      ],
      [
        "a",
        "b"
      ],
      [
        "Ġc",
        "om"
      ],
      [
        "es",
        "s"
      ],
      [
        "c",
        "t"
      ],
      [
        "Ġu",
        "p"
      ],
      [
        "Ġe",
        "x"
      ],
      [
        "o",
        "l"
      ],
      [
        "Ġthe",
        "m"
      ],
      [
        "a",
        "m"
      ],
      [
        "s",
        "s"
      ],
      [
        "Ġc",
        "h"
      ],
      [
        "in",
        "d"
      ],
      [
        "Ġca",
        "ge"
      ],
      [
        "Ġs",
        "om"
      ],
      [
        "al",
        "k"
      ],
      [
        "igh",
        "t"
      ],
      [
        "r",
        "ou"
      ],
      [
        "Ġha",
        "ve"
      ],
      [
        "ru",
        "sh"
      ],
      [
        "Ġ",
        "v"
      ],
      [
        "Ġc",
        "he"
      ],
      [
        "Ġp",
        "ro"
      ],
      [
        "Ġt",
        "e"
      ],
      [
        "q",
        "u"
      ],
      [
        "o",
        "re"
      ],
      [
        "Ġ",
        "ke"
      ],
      [
        "Ġt",
        "im"
      ],
      [
        "er",
        "s"
      ],
      [
        "Ġu",
        "se"
      ],
      [
        "se",
        "lf"
      ],
      [
        "ac",
        "t"
      ],
      [
        "Ġke",
        "ep"
      ],
      [
        "Ġas",
        "k"
      ],
      [
        "n",
        "t"
      ],
      [
        "Ġw",
        "at"
      ],
      [
        "Ġc",
        "l"
      ],
      [
        "Ġs",
        "o"
      ],
      [
        "Ġwhe",
        "n"
      ],
      [
        "Ġyour",
        "self"
      ],
      [
        "an",
        "t"
      ],
      [
        "t",
        "her"
      ],
      [
        "Ġf",
        "e"
      ],
      [
        "a",
        "p"
      ],
      [
        "Ġt",
        "alk"
      ],
      [
        "re",
        "at"
      ],
      [
        "u",
        "l"
      ],
      [
        "Ġc",
        "rush"
      ],
      [
        "Ġtim",
        "e"
      ],
      [
        "ar",
        "d"
      ],
      [
        "Ġfr",
        "om"
      ],
      [
        "Ġt",
        "ake"
      ],
      [
        "o",
        "ve"
      ],
      [
        "ec",
        "t"
      ],
      [
        "ar",
        "t"
      ],
      [
        "Ġd",
        "i"
      ],
      [
        "ic",
        "k"
      ],
      [
        "Ġtr",
        "y"
      ],
      [
        "Ġcat",
        "s"
      ],
      [
        "Ġh",
        "is"
      ],
      [
        "ic",
        "e"
      ],
      [
        "ing",
        "s"
      ],
      [
        "Ġg",
        "ive"
      ],
      [
        "Ġche",
        "ck"
      ],
      [
        "Ġg",
        "o"
      ],
      [
        "i",
        "p"
      ],
      [
        "or",
        "t"
      ],
      [
        "Ġp",
        "o"
      ],
      [
        "i",
        "ll"
      ],
      [
        "Ġs",
        "he"
      ],
      [
        "Ġk",
        "n"
      ],
      [
        "Ġc",
        "le"
      ],
      [
        "Ġs",
        "u"
      ],
      [
        "Ġb",
        "u"
      ],
      [
        "al",
        "l"
      ],
      [
        "Ġw",
        "e"
      ],
      [
        "Ġfriend",
        "s"
      ],
      [
        "in",
        "e"
      ],
      [
        "on",
        "e"
      ],
      [
        "Ġh",
        "or"
      ],
      [
        "rou",
        "nd"
      ],
      [
        "Ġl",
        "it"
      ],
      [
        "ac",
        "k"
      ],
      [
        "Ġf",
        "ind"
      ],
      [
        "Ġpl",
        "ace"
      ],
      [
        "Ġa",
        "d"
      ],
      [
        "Ġ",
        "j"
      ],
      [
        "Ġa",
        "ll"
      ],
      [
        "Ġsom",
        "e"
      ],
      [
        "t",
        "h"
      ],
      [
        "Ġ",
        "en"
      ],
      [
        "ac",
        "h"
      ],
      [
        "Ġcon",
        "s"
      ],
      [
        "Ġs",
        "ee"
      ],
      [
        "Ġs",
        "ure"
      ],
      [
        "Ġs",
        "m"
      ],
      [
        "Ġo",
        "ther"
      ],
      [
        "i",
        "al"
      ],
      [
        "Ġcle",
        "an"
      ],
      [
        "i",
        "z"
      ],
      [
        "Ġp",
        "re"
      ],
      [
        "a",
        "re"
      ],
      [
        "r",
        "a"
      ],
      [
        "Ġhamster",
        "s"
      ],
      [
        "Ġp",
        "ut"
      ],
      [
        "g",
        "h"
      ],
      [
        "i",
        "es"
      ],
      [
        "y",
        "s"
      ],
      [
        "Ġt",
        "reat"
      ],
      [
        "Ġha",
        "nd"
      ],
      [
        "Ġkn",
        "ow"
      ],
      [
        "Ġl",
        "e"
      ],
      [
        "ee",
        "l"
      ],
      [
        "Ġli",
        "ke"
      ],
      [
        "m",
        "p"
      ],
      [
        "Ġf",
        "eel"
      ],
      [
        "Ġa",
        "v"
      ],
      [
        "a",
        "il"
      ],
      [
        "Ġbo",
        "x"
      ],
      [
        "o",
        "p"
      ],
      [
        "Ġh",
        "ow"
      ],
      [
        "Ġcon",
        "t"
      ],
      [
        "e",
        "re"
      ],
      [
        "id",
        "er"
      ],
      [
        "Ġa",
        "round"
      ],
      [
        "Ġat",
        "t"
      ],
      [
        "r",
        "i"
      ],
      [
        "Ġf",
        "ood"
      ],
      [
        "a",
        "nd"
      ],
      [
        "Ġre",
        "m"
      ],
      [
        "a",
        "s"
      ],
      [
        "Ġwh",
        "at"
      ],
      [
        "f",
        "f"
      ],
      [
        "Ġs",
        "e"
      ],
      [
        "Ġf",
        "l"
      ],
      [
        "Ġcons",
        "ider"
      ],
      [
        "o",
        "id"
      ],
      [
        "Ġl",
        "et"
      ],
      [
        "Ġa",
        "l"
      ],
      [
        "Ġav",
        "oid"
      ],
      [
        "Ġwat",
        "er"
      ],
      [
        "Ġlit",
        "ter"
      ],
      [
        "Ġp",
        "et"
      ],
      [
        "Ġe",
        "y"
      ],
      [
        "ab",
        "le"
      ],
      [
        "al",
        "ly"
      ],
      [
        "Ġa",
        "pp"
      ],
      [
        "Ġp",
        "ers"
      ],
      [
        "g",
        "et"
      ],
      [
        "iz",
        "e"
      ],
      [
        "ion",
        "s"
      ],
      [
        "Ġpl",
        "ay"
      ],
      [
        "Ġ",
        "qu"
      ],
      [
        "m",
        "ent"
      ],
      [
        "Ġthe",
        "ir"
      ],
      [
        "Ġfe",
        "ed"
      ],
      [
        "Ġc",
        "an"
      ],
      [
        "w",
        "ay"
      ],
      [
        "Ġl",
        "ea"
      ],
      [
        "d",
        "y"
      ],
      [
        "o",
        "se"
      ],
      [
        "l",
        "d"
      ],
      [
        "u",
        "st"
      ],
      [
        "Ġs",
        "c"
      ],
      [
        "Ġpers",
        "on"
      ],
      [
        "a",
        "k"
      ],
      [
        "Ġa",
        "ct"
      ],
      [
        "Ġint",
        "o"
      ],
      [
        "u",
        "n"
      ],
      [
        "Ġpig",
        "s"
      ],
      [
        "Ġthe",
        "y"
      ],
      [
        "Ġst",
        "art"
      ],
      [
        "Ġhor",
        "se"
      ],
      [
        "Ġit",
        "s"
      ],
      [
        "Ġv",
        "et"
      ],
      [
        "p",
        "l"
      ],
      [
        "i",
        "le"
      ],
      [
        "in",
        "k"
      ],
      [
        "Ġg",
        "ood"
      ],
      [
        "Ġo",
        "ver"
      ],
      [
        "et",
        "h"
      ],
      [
        "re",
        "ss"
      ],
      [
        "Ġl",
        "o"
      ],
      [
        "m",
        "b"
      ],
      [
        "Ġp",
        "r"
      ],
      [
        "d",
        "u"
      ],
      [
        "a",
        "ge"
      ],
      [
        "Ġw",
        "ill"
      ],
      [
        "oo",
        "se"
      ],
      [
        "Ġon",
        "e"
      ],
      [
        "Ġc",
        "o"
      ],
      [
        "ir",
        "t"
      ],
      [
        "Ġch",
        "oose"
      ],
      [
        "Ġyou",
        "re"
      ],
      [
        "it",
        "e"
      ],
      [
        "Ġan",
        "y"
      ],
      [
        "a",
        "se"
      ],
      [
        "Ġb",
        "re"
      ],
      [
        "a",
        "st"
      ],
      [
        "Ġs",
        "ay"
      ],
      [
        "a",
        "v"
      ],
      [
        "it",
        "y"
      ],
      [
        "Ġth",
        "is"
      ],
      [
        "Ġb",
        "ack"
      ],
      [
        "ol",
        "d"
      ],
      [
        "c",
        "c"
      ],
      [
        "Ġof",
        "f"
      ],
      [
        "ig",
        "n"
      ],
      [
        "Ġcon",
        "f"
      ],
      [
        "ad",
        "d"
      ],
      [
        "Ġne",
        "w"
      ],
      [
        "Ġpro",
        "v"
      ],
      [
        "r",
        "y"
      ],
      [
        "Ġprov",
        "ide"
      ],
      [
        "Ġb",
        "r"
      ],
      [
        "t",
        "en"
      ],
      [
        "Ġw",
        "or"
      ],
      [
        "s",
        "p"
      ],
      [
        "Ġbo",
        "dy"
      ],
      [
        "Ġw",
        "ant"
      ],
      [
        "Ġc",
        "ut"
      ],
      [
        "Ġint",
        "ere"
      ],
      [
        "ul",
        "ar"
      ],
      [
        "Ġintere",
        "st"
      ],
      [
        "Ġb",
        "ot"
      ],
      [
        "ent",
        "ion"
      ],
      [
        "b",
        "le"
      ],
      [
        "Ġr",
        "ight"
      ],
      [
        "f",
        "e"
      ],
      [
        "Ġo",
        "b"
      ],
      [
        "w",
        "e"
      ],
      [
        "ou",
        "s"
      ],
      [
        "Ġf",
        "ir"
      ],
      [
        "Ġte",
        "ll"
      ],
      [
        "an",
        "g"
      ],
      [
        "Ġs",
        "add"
      ],
      [
        "on",
        "g"
      ],
      [
        "ver",
        "y"
      ],
      [
        "Ġwat",
        "ch"
      ],
      [
        "Ġatt",
        "ention"
      ],
      [
        "Ġb",
        "y"
      ],
      [
        "Ġm",
        "ore"
      ],
      [
        "Ġne",
        "ed"
      ],
      [
        "Ġcont",
        "act"
      ],
      [
        "Ġd",
        "e"
      ],
      [
        "Ġw",
        "a"
      ],
      [
        "ou",
        "gh"
      ],
      [
        "Ġto",
        "ys"
      ],
      [
        "Ġbe",
        "d"
      ],
      [
        "Ġbe",
        "f"
      ],
      [
        "om",
        "e"
      ],
      [
        "ver",
        "s"
      ],
      [
        "Ġm",
        "e"
      ],
      [
        "Ġth",
        "ink"
      ],
      [
        "Ġca",
        "re"
      ],
      [
        "Ġb",
        "ut"
      ],
      [
        "ow",
        "n"
      ],
      [
        "p",
        "er"
      ],
      [
        "s",
        "ing"
      ],
      [
        "Ġt",
        "w"
      ],
      [
        "Ġa",
        "way"
      ],
      [
        "Ġd",
        "is"
      ],
      [
        "Ġu",
        "nd"
      ],
      [
        "Ġfir",
        "st"
      ],
      [
        "Ġsadd",
        "le"
      ],
      [
        "ar",
        "n"
      ],
      [
        "oo",
        "m"
      ],
      [
        "Ġbef",
        "ore"
      ],
      [
        "Ġs",
        "ign"
      ],
      [
        "Ġd",
        "ec"
      ],
      [
        "Ġad",
        "d"
      ],
      [
        "s",
        "er"
      ],
      [
        "s",
        "ure"
      ],
      [
        "an",
        "ce"
      ],
      [
        "Ġnot",
        "ice"
      ],
      [
        "Ġsh",
        "ow"
      ],
      [
        "n",
        "g"
      ],
      [
        "Ġm",
        "ove"
      ],
      [
        "i",
        "se"
      ],
      [
        "ou",
        "ld"
      ],
      [
        "Ġto",
        "o"
      ],
      [
        "Ġre",
        "l"
      ],
      [
        "Ġcon",
        "vers"
      ],
      [
        "Ġcom",
        "m"
      ],
      [
        "Ġconvers",
        "ation"
      ],
      [
        "Ġa",
        "cc"
      ],
      [
        "Ġd",
        "ay"
      ],
      [
        "am",
        "e"
      ],
      [
        "s",
        "it"
      ],
      [
        "w",
        "ard"
      ],
      [
        "Ġc",
        "ar"
      ],
      [
        "Ġd",
        "et"
      ],
      [
        "Ġey",
        "e"
      ],
      [
        "mb",
        "er"
      ],
      [
        "u",
        "e"
      ],
      [
        "Ġth",
        "ings"
      ],
      [
        "Ġli",
        "st"
      ],
      [
        "Ġsom",
        "eth"
      ],
      [
        "Ġbu",
        "y"
      ],
      [
        "Ġund",
        "er"
      ],
      [
        "i",
        "f"
      ],
      [
        "p",
        "e"
      ],
      [
        "Ġcl",
        "ose"
      ],
      [
        "d",
        "ing"
      ],
      [
        "i",
        "st"
      ],
      [
        "l",
        "p"
      ],
      [
        "s",
        "es"
      ],
      [
        "Ġs",
        "l"
      ],
      [
        "Ġf",
        "re"
      ],
      [
        "Ġg",
        "r"
      ],
      [
        "Ġsometh",
        "ing"
      ],
      [
        "t",
        "le"
      ],
      [
        "at",
        "her"
      ],
      [
        "Ġg",
        "ir"
      ],
      [
        "i",
        "v"
      ],
      [
        "Ġu",
        "n"
      ],
      [
        "Ġst",
        "r"
      ],
      [
        "p",
        "en"
      ],
      [
        "Ġ",
        "ru"
      ],
      [
        "Ġb",
        "l"
      ],
      [
        "Ġbe",
        "h"
      ],
      [
        "Ġre",
        "g"
      ],
      [
        "Ġdo",
        "es"
      ],
      [
        "ou",
        "r"
      ],
      [
        "Ġh",
        "old"
      ],
      [
        "Ġconf",
        "id"
      ],
      [
        "l",
        "es"
      ],
      [
        "ou",
        "se"
      ],
      [
        "Ġp",
        "e"
      ],
      [
        "Ġs",
        "it"
      ],
      [
        "t",
        "ing"
      ],
      [
        "Ġto",
        "get"
      ],
      [
        "Ġd",
        "own"
      ],
      [
        "Ġtw",
        "o"
      ],
      [
        "Ġtoget",
        "her"
      ],
      [
        "c",
        "ial"
      ],
      [
        "Ġp",
        "ick"
      ],
      [
        "or",
        "s"
      ],
      [
        "Ġm",
        "u"
      ],
      [
        "Ġtr",
        "ain"
      ],
      [
        "Ġm",
        "at"
      ],
      [
        "Ġrem",
        "ove"
      ],
      [
        "Ġapp",
        "ro"
      ],
      [
        "e",
        "st"
      ],
      [
        "g",
        "n"
      ],
      [
        "m",
        "s"
      ],
      [
        "Ġha",
        "s"
      ],
      [
        "Ġe",
        "very"
      ],
      [
        "Ġp",
        "u"
      ],
      [
        "Ġare",
        "a"
      ],
      [
        "Ġreg",
        "ular"
      ],
      [
        "Ġa",
        "f"
      ],
      [
        "Ġc",
        "re"
      ],
      [
        "Ġfl",
        "irt"
      ],
      [
        "s",
        "ide"
      ],
      [
        "Ġs",
        "a"
      ],
      [
        "Ġe",
        "ach"
      ],
      [
        "Ġcom",
        "pl"
      ],
      [
        "Ġj",
        "ust"
      ],
      [
        "Ġtreat",
        "s"
      ],
      [
        "Ġwor",
        "k"
      ],
      [
        "he",
        "s"
      ],
      [
        "Ġre",
        "sp"
      ],
      [
        "il",
        "d"
      ],
      [
        "Ġpo",
        "sit"
      ],
      [
        "Ġ",
        "ro"
      ],
      [
        "Ġf",
        "o"
      ],
      [
        "Ġp",
        "h"
      ],
      [
        "Ġe",
        "v"
      ],
      [
        "k",
        "es"
      ],
      [
        "l",
        "s"
      ],
      [
        "Ġp",
        "ay"
      ],
      [
        "Ġhe",
        "al"
      ],
      [
        "Ġfeel",
        "ings"
      ],
      [
        "Ġa",
        "g"
      ],
      [
        "Ġst",
        "ay"
      ],
      [
        "sh",
        "ip"
      ],
      [
        "Ġwe",
        "ar"
      ],
      [
        "Ġall",
        "ow"
      ],
      [
        "Ġey",
        "es"
      ],
      [
        "Ġlo",
        "c"
      ],
      [
        "du",
        "ce"
      ],
      [
        "av",
        "i"
      ],
      [
        "a",
        "g"
      ],
      [
        "Ġha",
        "ng"
      ],
      [
        "Ġre",
        "c"
      ],
      [
        "Ġdi",
        "st"
      ],
      [
        "p",
        "are"
      ],
      [
        "v",
        "es"
      ],
      [
        "er",
        "m"
      ],
      [
        "en",
        "ce"
      ],
      [
        "Ġre",
        "ad"
      ],
      [
        "Ġso",
        "cial"
      ],
      [
        "Ġsm",
        "all"
      ],
      [
        "an",
        "ge"
      ],
      [
        "Ġsp",
        "end"
      ],
      [
        "Ġsu",
        "pp"
      ],
      [
        "Ġbeh",
        "avi"
      ],
      [
        "c",
        "u"
      ],
      [
        "s",
        "u"
      ],
      [
        "t",
        "s"
      ],
      [
        "w",
        "n"
      ],
      [
        "Ġw",
        "r"
      ],
      [
        "Ġw",
        "ay"
      ],
      [
        "Ġn",
        "o"
      ],
      [
        "Ġheal",
        "th"
      ],
      [
        "Ġs",
        "et"
      ],
      [
        "it",
        "s"
      ],
      [
        "Ġm",
        "ed"
      ],
      [
        "Ġk",
        "is"
      ],
      [
        "Ġhor",
        "ses"
      ],
      [
        "Ġlist",
        "en"
      ],
      [
        "p",
        "s"
      ],
      [
        "Ġe",
        "nd"
      ],
      [
        "Ġwhe",
        "re"
      ],
      [
        "Ġwe",
        "ll"
      ],
      [
        "Ġbed",
        "ding"
      ],
      [
        "Ġsign",
        "s"
      ],
      [
        "Ġaf",
        "ter"
      ],
      [
        "a",
        "ss"
      ],
      [
        "Ġh",
        "ome"
      ],
      [
        "Ġhe",
        "lp"
      ],
      [
        "Ġnot",
        "e"
      ],
      [
        "Ġp",
        "ur"
      ],
      [
        "le",
        "ct"
      ],
      [
        "Ġe",
        "ar"
      ],
      [
        "Ġpre",
        "pare"
      ],
      [
        "Ġle",
        "arn"
      ],
      [
        "Ġdec",
        "ide"
      ],
      [
        "f",
        "ul"
      ],
      [
        "Ġp",
        "at"
      ],
      [
        "Ġo",
        "wn"
      ],
      [
        "Ġbre",
        "ed"
      ],
      [
        "ser",
        "ve"
      ],
      [
        "a",
        "u"
      ],
      [
        "i",
        "e"
      ],
      [
        "i",
        "ly"
      ],
      [
        "or",
        "m"
      ],
      [
        "Ġm",
        "an"
      ],
      [
        "ot",
        "her"
      ],
      [
        "is",
        "h"
      ],
      [
        "Ġk",
        "it"
      ],
      [
        "Ġsp",
        "ace"
      ],
      [
        "Ġint",
        "ro"
      ],
      [
        "i",
        "an"
      ],
      [
        "u",
        "age"
      ],
      [
        "Ġl",
        "ang"
      ],
      [
        "Ġm",
        "o"
      ],
      [
        "Ġr",
        "oom"
      ],
      [
        "Ġlea",
        "ve"
      ],
      [
        "Ġcre",
        "ate"
      ],
      [
        "Ġbehavi",
        "or"
      ],
      [
        "Ġlang",
        "uage"
      ],
      [
        "Ġt",
        "ou"
      ],
      [
        "Ġo",
        "pen"
      ],
      [
        "ent",
        "ly"
      ],
      [
        "Ġwhe",
        "ther"
      ],
      [
        "Ġob",
        "serve"
      ],
      [
        "f",
        "t"
      ],
      [
        "f",
        "ort"
      ],
      [
        "Ġa",
        "r"
      ],
      [
        "Ġh",
        "ouse"
      ],
      [
        "Ġb",
        "it"
      ],
      [
        "st",
        "and"
      ],
      [
        "Ġu",
        "sing"
      ],
      [
        "Ġsm",
        "ile"
      ],
      [
        "i",
        "re"
      ],
      [
        "Ġin",
        "ter"
      ],
      [
        "Ġi",
        "mp"
      ],
      [
        "Ġn",
        "ec"
      ],
      [
        "Ġdi",
        "ff"
      ],
      [
        "k",
        "s"
      ],
      [
        "at",
        "ing"
      ],
      [
        "Ġp",
        "art"
      ],
      [
        "Ġhe",
        "ad"
      ],
      [
        "Ġunder",
        "stand"
      ],
      [
        "e",
        "mber"
      ],
      [
        "Ġc",
        "ol"
      ],
      [
        "Ġb",
        "et"
      ],
      [
        "Ġw",
        "ee"
      ],
      [
        "Ġto",
        "y"
      ],
      [
        "im",
        "al"
      ],
      [
        "Ġon",
        "ce"
      ],
      [
        "Ġan",
        "imal"
      ],
      [
        "Ġconfid",
        "ent"
      ],
      [
        "i",
        "ec"
      ],
      [
        "x",
        "t"
      ],
      [
        "ou",
        "nd"
      ],
      [
        "Ġc",
        "or"
      ],
      [
        "ar",
        "y"
      ],
      [
        "ic",
        "al"
      ],
      [
        "Ġwh",
        "ile"
      ],
      [
        "ul",
        "t"
      ],
      [
        "Ġgo",
        "at"
      ],
      [
        "Ġen",
        "ough"
      ],
      [
        "Ġrem",
        "ember"
      ],
      [
        "Ġth",
        "rou"
      ],
      [
        "Ġregular",
        "ly"
      ],
      [
        "Ġthrou",
        "gh"
      ],
      [
        "i",
        "ble"
      ],
      [
        "i",
        "ous"
      ],
      [
        "v",
        "ing"
      ],
      [
        "Ġthe",
        "re"
      ],
      [
        "Ġm",
        "ea"
      ],
      [
        "Ġbe",
        "c"
      ],
      [
        "Ġdet",
        "erm"
      ],
      [
        "Ġtou",
        "ch"
      ],
      [
        "j",
        "ect"
      ],
      [
        "t",
        "ain"
      ],
      [
        "ou",
        "nt"
      ],
      [
        "Ġthe",
        "n"
      ],
      [
        "Ġp",
        "iec"
      ],
      [
        "ve",
        "l"
      ],
      [
        "Ġkit",
        "ten"
      ],
      [
        "Ġintro",
        "duce"
      ],
      [
        "Ġdeterm",
        "ine"
      ],
      [
        "e",
        "ll"
      ],
      [
        "Ġc",
        "al"
      ],
      [
        "Ġl",
        "ar"
      ],
      [
        "Ġm",
        "ay"
      ],
      [
        "Ġha",
        "ir"
      ],
      [
        "oo",
        "l"
      ],
      [
        "Ġst",
        "u"
      ],
      [
        "ap",
        "er"
      ],
      [
        "Ġkis",
        "s"
      ],
      [
        "Ġs",
        "ec"
      ],
      [
        "re",
        "ct"
      ],
      [
        "on",
        "d"
      ],
      [
        "Ġto",
        "p"
      ],
      [
        "Ġd",
        "ry"
      ],
      [
        "Ġst",
        "op"
      ],
      [
        "ation",
        "ship"
      ],
      [
        "ak",
        "ing"
      ],
      [
        "Ġrel",
        "ationship"
      ],
      [
        "Ġpur",
        "ch"
      ],
      [
        "e",
        "l"
      ],
      [
        "i",
        "et"
      ],
      [
        "Ġg",
        "l"
      ],
      [
        "im",
        "ent"
      ],
      [
        "ap",
        "e"
      ],
      [
        "ail",
        "s"
      ],
      [
        "Ġmea",
        "sure"
      ],
      [
        "u",
        "m"
      ],
      [
        "Ġs",
        "qu"
      ],
      [
        "Ġs",
        "ize"
      ],
      [
        "en",
        "g"
      ],
      [
        "Ġu",
        "nt"
      ],
      [
        "Ġli",
        "kes"
      ],
      [
        "Ġcom",
        "fort"
      ],
      [
        "Ġex",
        "p"
      ],
      [
        "Ġch",
        "ange"
      ],
      [
        "Ġco",
        "at"
      ],
      [
        "Ġmu",
        "ch"
      ],
      [
        "Ġcompl",
        "iment"
      ],
      [
        "i",
        "ent"
      ],
      [
        "p",
        "le"
      ],
      [
        "Ġs",
        "ide"
      ],
      [
        "Ġp",
        "er"
      ],
      [
        "Ġb",
        "ab"
      ],
      [
        "Ġl",
        "ong"
      ],
      [
        "Ġi",
        "d"
      ],
      [
        "Ġe",
        "m"
      ],
      [
        "Ġsh",
        "ould"
      ],
      [
        "Ġj",
        "o"
      ],
      [
        "i",
        "a"
      ],
      [
        "o",
        "or"
      ],
      [
        "ra",
        "w"
      ],
      [
        "Ġpr",
        "act"
      ],
      [
        "a",
        "w"
      ],
      [
        "t",
        "om"
      ],
      [
        "Ġs",
        "ep"
      ],
      [
        "Ġp",
        "aper"
      ],
      [
        "it",
        "ies"
      ],
      [
        "Ġbe",
        "st"
      ],
      [
        "Ġsh",
        "ort"
      ],
      [
        "Ġsome",
        "one"
      ],
      [
        "Ġhand",
        "s"
      ],
      [
        "Ġsa",
        "fe"
      ],
      [
        "Ġdiff",
        "ere"
      ],
      [
        "Ġunt",
        "il"
      ],
      [
        "i",
        "b"
      ],
      [
        "n",
        "ess"
      ],
      [
        "er",
        "c"
      ],
      [
        "Ġf",
        "un"
      ],
      [
        "Ġl",
        "ove"
      ],
      [
        "Ġg",
        "ather"
      ],
      [
        "Ġin",
        "c"
      ],
      [
        "Ġbe",
        "ing"
      ],
      [
        "Ġhe",
        "s"
      ],
      [
        "Ġex",
        "am"
      ],
      [
        "Ġbu",
        "ild"
      ],
      [
        "Ġqu",
        "est"
      ],
      [
        "Ġbr",
        "ing"
      ],
      [
        "Ġwa",
        "it"
      ],
      [
        "Ġwa",
        "sh"
      ],
      [
        "Ġread",
        "y"
      ],
      [
        "Ġpurch",
        "ase"
      ],
      [
        "c",
        "es"
      ],
      [
        "in",
        "t"
      ],
      [
        "Ġf",
        "ur"
      ],
      [
        "Ġdi",
        "et"
      ],
      [
        "Ġpo",
        "ss"
      ],
      [
        "Ġpet",
        "s"
      ],
      [
        "Ġev",
        "en"
      ],
      [
        "Ġear",
        "s"
      ],
      [
        "Ġsep",
        "ar"
      ],
      [
        "Ġh",
        "al"
      ],
      [
        "Ġm",
        "on"
      ],
      [
        "id",
        "ing"
      ],
      [
        "Ġdo",
        "g"
      ],
      [
        "Ġlit",
        "tle"
      ],
      [
        "Ġpe",
        "op"
      ],
      [
        "Ġmat",
        "er"
      ],
      [
        "Ġag",
        "ain"
      ],
      [
        "Ġcal",
        "m"
      ],
      [
        "Ġlar",
        "ge"
      ],
      [
        "Ġpract",
        "ice"
      ],
      [
        "Ġsepar",
        "ate"
      ],
      [
        "r",
        "iend"
      ],
      [
        "u",
        "b"
      ],
      [
        "Ġa",
        "w"
      ],
      [
        "Ġh",
        "o"
      ],
      [
        "Ġn",
        "ice"
      ],
      [
        "Ġof",
        "ten"
      ],
      [
        "ac",
        "es"
      ],
      [
        "Ġfr",
        "ont"
      ],
      [
        "Ġpl",
        "an"
      ],
      [
        "Ġbo",
        "y"
      ],
      [
        "Ġsp",
        "ec"
      ],
      [
        "Ġex",
        "erc"
      ],
      [
        "Ġcomm",
        "on"
      ],
      [
        "Ġcomfort",
        "able"
      ],
      [
        "Ġmater",
        "ial"
      ],
      [
        "r",
        "act"
      ],
      [
        "Ġs",
        "k"
      ],
      [
        "Ġs",
        "w"
      ],
      [
        "re",
        "d"
      ],
      [
        "Ġf",
        "in"
      ],
      [
        "Ġb",
        "at"
      ],
      [
        "Ġin",
        "side"
      ],
      [
        "Ġe",
        "l"
      ],
      [
        "Ġre",
        "al"
      ],
      [
        "ll",
        "ow"
      ],
      [
        "Ġst",
        "and"
      ],
      [
        "Ġli",
        "fe"
      ],
      [
        "Ġsp",
        "ot"
      ],
      [
        "Ġpro",
        "per"
      ],
      [
        "Ġle",
        "g"
      ],
      [
        "way",
        "s"
      ],
      [
        "Ġbre",
        "ak"
      ],
      [
        "Ġposit",
        "ive"
      ],
      [
        "c",
        "ess"
      ],
      [
        "Ġ",
        "ve"
      ],
      [
        "er",
        "in"
      ],
      [
        "Ġin",
        "st"
      ],
      [
        "Ġsp",
        "r"
      ],
      [
        "Ġwh",
        "o"
      ],
      [
        "Ġte",
        "st"
      ],
      [
        "Ġexerc",
        "ise"
      ],
      [
        "p",
        "ri"
      ],
      [
        "Ġs",
        "im"
      ],
      [
        "re",
        "ad"
      ],
      [
        "Ġw",
        "alk"
      ],
      [
        "al",
        "e"
      ],
      [
        "ar",
        "ch"
      ],
      [
        "Ġha",
        "pp"
      ],
      [
        "Ġst",
        "ick"
      ],
      [
        "th",
        "ing"
      ],
      [
        "Ġal",
        "ways"
      ],
      [
        "Ġsl",
        "ow"
      ],
      [
        "Ġloc",
        "ation"
      ],
      [
        "Ġinter",
        "act"
      ],
      [
        "Ġpeop",
        "le"
      ],
      [
        "u",
        "d"
      ],
      [
        "u",
        "ll"
      ],
      [
        "Ġh",
        "oo"
      ],
      [
        "Ġo",
        "ld"
      ],
      [
        "Ġn",
        "ame"
      ],
      [
        "Ġen",
        "c"
      ],
      [
        "ri",
        "er"
      ],
      [
        "Ġfl",
        "oor"
      ],
      [
        "Ġappro",
        "ach"
      ],
      [
        "Ġt",
        "ie"
      ],
      [
        "at",
        "ed"
      ],
      [
        "Ġb",
        "rush"
      ],
      [
        "it",
        "ion"
      ],
      [
        "Ġl",
        "ot"
      ],
      [
        "Ġm",
        "ain"
      ],
      [
        "Ġre",
        "pe"
      ],
      [
        "ur",
        "ing"
      ],
      [
        "Ġfe",
        "w"
      ],
      [
        "ment",
        "s"
      ],
      [
        "Ġvet",
        "erin"
      ],
      [
        "we",
        "en"
      ],
      [
        "Ġwr",
        "ite"
      ],
      [
        "Ġbet",
        "ween"
      ],
      [
        "Ġdiffere",
        "nt"
      ],
      [
        "o",
        "gn"
      ],
      [
        "Ġt",
        "y"
      ],
      [
        "Ġc",
        "all"
      ],
      [
        "re",
        "e"
      ],
      [
        "Ġd",
        "es"
      ],
      [
        "Ġd",
        "raw"
      ],
      [
        "Ġm",
        "in"
      ],
      [
        "al",
        "ity"
      ],
      [
        "ar",
        "m"
      ],
      [
        "Ġtr",
        "im"
      ],
      [
        "Ġas",
        "s"
      ],
      [
        "ur",
        "n"
      ],
      [
        "ation",
        "s"
      ],
      [
        "Ġpro",
        "ble"
      ],
      [
        "Ġpo",
        "st"
      ],
      [
        "Ġinterest",
        "s"
      ],
      [
        "Ġtrain",
        "ing"
      ],
      [
        "Ġfo",
        "llow"
      ],
      [
        "Ġexam",
        "ine"
      ],
      [
        "pri",
        "ate"
      ],
      [
        "f",
        "orm"
      ],
      [
        "Ġf",
        "ace"
      ],
      [
        "Ġl",
        "im"
      ],
      [
        "Ġcom",
        "p"
      ],
      [
        "Ġex",
        "t"
      ],
      [
        "Ġcl",
        "ot"
      ],
      [
        "Ġgo",
        "ing"
      ],
      [
        "if",
        "y"
      ],
      [
        "Ġrec",
        "ogn"
      ],
      [
        "Ġrecogn",
        "ize"
      ],
      [
        "Ġf",
        "am"
      ],
      [
        "Ġd",
        "r"
      ],
      [
        "Ġd",
        "ate"
      ],
      [
        "Ġd",
        "ress"
      ],
      [
        "Ġg",
        "ently"
      ],
      [
        "Ġha",
        "b"
      ],
      [
        "Ġe",
        "as"
      ],
      [
        "Ġre",
        "s"
      ],
      [
        "Ġre",
        "ward"
      ],
      [
        "Ġtr",
        "ail"
      ],
      [
        "ter",
        "n"
      ],
      [
        "Ġal",
        "one"
      ],
      [
        "Ġbot",
        "h"
      ],
      [
        "Ġph",
        "ys"
      ],
      [
        "Ġhealth",
        "y"
      ],
      [
        "Ġmed",
        "ia"
      ],
      [
        "Ġposs",
        "ible"
      ],
      [
        "b",
        "o"
      ],
      [
        "u",
        "mp"
      ],
      [
        "Ġb",
        "reat"
      ],
      [
        "Ġb",
        "all"
      ],
      [
        "ar",
        "ian"
      ],
      [
        "Ġha",
        "y"
      ],
      [
        "Ġre",
        "p"
      ],
      [
        "Ġdo",
        "ing"
      ],
      [
        "ess",
        "ary"
      ],
      [
        "Ġso",
        "ck"
      ],
      [
        "Ġbox",
        "es"
      ],
      [
        "Ġqu",
        "iet"
      ],
      [
        "Ġbot",
        "tle"
      ],
      [
        "Ġme",
        "et"
      ],
      [
        "Ġdoes",
        "nt"
      ],
      [
        "Ġquest",
        "ions"
      ],
      [
        "Ġveterin",
        "arian"
      ],
      [
        "b",
        "b"
      ],
      [
        "o",
        "y"
      ],
      [
        "z",
        "e"
      ],
      [
        "on",
        "s"
      ],
      [
        "it",
        "or"
      ],
      [
        "Ġl",
        "au"
      ],
      [
        "Ġl",
        "eng"
      ],
      [
        "et",
        "s"
      ],
      [
        "Ġdo",
        "or"
      ],
      [
        "Ġne",
        "ar"
      ],
      [
        "Ġse",
        "lect"
      ],
      [
        "Ġacc",
        "ess"
      ],
      [
        "Ġgir",
        "ls"
      ],
      [
        "Ġleng",
        "th"
      ],
      [
        "r",
        "ic"
      ],
      [
        "Ġ",
        "1"
      ],
      [
        "ou",
        "ra"
      ],
      [
        "in",
        "s"
      ],
      [
        "Ġs",
        "ur"
      ],
      [
        "Ġc",
        "ur"
      ],
      [
        "Ġh",
        "one"
      ],
      [
        "Ġb",
        "oo"
      ],
      [
        "Ġb",
        "ir"
      ],
      [
        "ar",
        "f"
      ],
      [
        "Ġcl",
        "ass"
      ],
      [
        "Ġshe",
        "l"
      ],
      [
        "Ġact",
        "iv"
      ],
      [
        "Ġoff",
        "er"
      ],
      [
        "Ġbr",
        "id"
      ],
      [
        "Ġfre",
        "sh"
      ],
      [
        "Ġru",
        "n"
      ],
      [
        "Ġpiec",
        "e"
      ],
      [
        "Ġmon",
        "itor"
      ],
      [
        "Ġrepe",
        "at"
      ],
      [
        "d",
        "o"
      ],
      [
        "e",
        "ar"
      ],
      [
        "h",
        "ing"
      ],
      [
        "n",
        "er"
      ],
      [
        "n",
        "ip"
      ],
      [
        "o",
        "s"
      ],
      [
        "t",
        "y"
      ],
      [
        "w",
        "arf"
      ],
      [
        "Ġw",
        "ould"
      ],
      [
        "Ġd",
        "uring"
      ],
      [
        "Ġd",
        "warf"
      ],
      [
        "ar",
        "k"
      ],
      [
        "Ġre",
        "f"
      ],
      [
        "Ġth",
        "an"
      ],
      [
        "Ġcat",
        "nip"
      ],
      [
        "Ġan",
        "other"
      ],
      [
        "Ġche",
        "w"
      ],
      [
        "ect",
        "ion"
      ],
      [
        "Ġcont",
        "in"
      ],
      [
        "Ġfo",
        "cu"
      ],
      [
        "Ġid",
        "ent"
      ],
      [
        "Ġtrail",
        "er"
      ],
      [
        "Ġlau",
        "gh"
      ],
      [
        "d",
        "s"
      ],
      [
        "l",
        "ine"
      ],
      [
        "Ġt",
        "ail"
      ],
      [
        "Ġs",
        "y"
      ],
      [
        "Ġf",
        "ig"
      ],
      [
        "Ġb",
        "ar"
      ],
      [
        "Ġb",
        "ow"
      ],
      [
        "Ġm",
        "aking"
      ],
      [
        "le",
        "d"
      ],
      [
        "Ġn",
        "u"
      ],
      [
        "Ġst",
        "ir"
      ],
      [
        "Ġgu",
        "y"
      ],
      [
        "Ġne",
        "ver"
      ],
      [
        "ab",
        "les"
      ],
      [
        "Ġte",
        "xt"
      ],
      [
        "Ġtalk",
        "ing"
      ],
      [
        "Ġbu",
        "ck"
      ],
      [
        "Ġsm",
        "ell"
      ],
      [
        "Ġappro",
        "priate"
      ],
      [
        "Ġanimal",
        "s"
      ],
      [
        "Ġstu",
        "ff"
      ],
      [
        "Ġsec",
        "ure"
      ],
      [
        "Ġaw",
        "are"
      ],
      [
        "Ġfocu",
        "s"
      ],
      [
        "Ġfig",
        "ure"
      ],
      [
        "a",
        "ir"
      ],
      [
        "Ġt",
        "ub"
      ],
      [
        "at",
        "ive"
      ],
      [
        "Ġf",
        "it"
      ],
      [
        "Ġh",
        "igh"
      ],
      [
        "Ġh",
        "ard"
      ],
      [
        "Ġn",
        "at"
      ],
      [
        "ea",
        "k"
      ],
      [
        "Ġte",
        "eth"
      ],
      [
        "Ġcrush",
        "s"
      ],
      [
        "Ġdi",
        "rect"
      ],
      [
        "Ġatt",
        "ach"
      ],
      [
        "Ġsc",
        "he"
      ],
      [
        "Ġbot",
        "tom"
      ],
      [
        "Ġnec",
        "essary"
      ],
      [
        "Ġfam",
        "ily"
      ],
      [
        "Ġcontin",
        "ue"
      ],
      [
        "Ġ",
        "ent"
      ],
      [
        "Ġa",
        "ff"
      ],
      [
        "Ġs",
        "ch"
      ],
      [
        "Ġb",
        "ig"
      ],
      [
        "Ġg",
        "en"
      ],
      [
        "Ġg",
        "rou"
      ],
      [
        "Ġm",
        "ess"
      ],
      [
        "Ġin",
        "v"
      ],
      [
        "Ġcon",
        "d"
      ],
      [
        "Ġtr",
        "ust"
      ],
      [
        "Ġca",
        "su"
      ],
      [
        "ep",
        "t"
      ],
      [
        "Ġk",
        "ind"
      ],
      [
        "Ġsu",
        "it"
      ],
      [
        "Ġlea",
        "d"
      ],
      [
        "ak",
        "es"
      ],
      [
        "du",
        "le"
      ],
      [
        "Ġco",
        "ver"
      ],
      [
        "Ġgr",
        "oom"
      ],
      [
        "Ġpu",
        "ll"
      ],
      [
        "Ġph",
        "one"
      ],
      [
        "Ġpat",
        "ient"
      ],
      [
        "Ġman",
        "y"
      ],
      [
        "Ġve",
        "get"
      ],
      [
        "Ġslow",
        "ly"
      ],
      [
        "Ġass",
        "ess"
      ],
      [
        "oura",
        "ge"
      ],
      [
        "Ġident",
        "ify"
      ],
      [
        "Ġstir",
        "ru"
      ],
      [
        "Ġsche",
        "dule"
      ],
      [
        "o",
        "d"
      ],
      [
        "Ġs",
        "we"
      ],
      [
        "Ġs",
        "ame"
      ],
      [
        "Ġd",
        "ro"
      ],
      [
        "Ġm",
        "ight"
      ],
      [
        "Ġm",
        "other"
      ],
      [
        "an",
        "c"
      ],
      [
        "Ġn",
        "ow"
      ],
      [
        "Ġbe",
        "g"
      ],
      [
        "ic",
        "h"
      ],
      [
        "Ġst",
        "ep"
      ],
      [
        "Ġca",
        "u"
      ],
      [
        "Ġfriend",
        "ly"
      ],
      [
        "Ġad",
        "op"
      ],
      [
        "Ġinterest",
        "ed"
      ],
      [
        "Ġwee",
        "k"
      ],
      [
        "Ġbec",
        "ome"
      ],
      [
        "Ġsqu",
        "ir"
      ],
      [
        "Ġmaterial",
        "s"
      ],
      [
        "Ġspr",
        "ay"
      ],
      [
        "Ġproble",
        "ms"
      ],
      [
        "Ġphys",
        "ical"
      ],
      [
        "Ġnu",
        "mber"
      ],
      [
        "Ġnat",
        "ur"
      ],
      [
        "Ġ",
        "2"
      ],
      [
        "Ġa",
        "p"
      ],
      [
        "at",
        "ch"
      ],
      [
        "Ġb",
        "ase"
      ],
      [
        "an",
        "s"
      ],
      [
        "Ġre",
        "st"
      ],
      [
        "Ġout",
        "side"
      ],
      [
        "Ġhim",
        "her"
      ],
      [
        "Ġsh",
        "o"
      ],
      [
        "Ġwh",
        "ich"
      ],
      [
        "Ġpre",
        "s"
      ],
      [
        "Ġhand",
        "le"
      ],
      [
        "Ġstr",
        "ing"
      ],
      [
        "Ġgoat",
        "s"
      ],
      [
        "Ġhal",
        "ter"
      ],
      [
        "Ġlim",
        "it"
      ],
      [
        "Ġsch",
        "ool"
      ],
      [
        "Ġbeg",
        "in"
      ],
      [
        "Ġsquir",
        "re"
      ],
      [
        "i",
        "x"
      ],
      [
        "l",
        "ies"
      ],
      [
        "Ġ",
        "3"
      ],
      [
        "Ġw",
        "arm"
      ],
      [
        "Ġl",
        "ay"
      ],
      [
        "Ġl",
        "ight"
      ],
      [
        "Ġre",
        "pl"
      ],
      [
        "Ġon",
        "ly"
      ],
      [
        "Ġget",
        "ting"
      ],
      [
        "Ġbo",
        "ard"
      ],
      [
        "Ġuse",
        "d"
      ],
      [
        "Ġfood",
        "s"
      ],
      [
        "Ġdis",
        "c"
      ],
      [
        "Ġday",
        "s"
      ],
      [
        "Ġdist",
        "ance"
      ],
      [
        "Ġnec",
        "k"
      ],
      [
        "Ġwee",
        "ks"
      ],
      [
        "Ġel",
        "se"
      ],
      [
        "Ġhapp",
        "y"
      ],
      [
        "ull",
        "y"
      ],
      [
        "Ġbrid",
        "le"
      ],
      [
        "Ġveget",
        "ables"
      ],
      [
        "e",
        "al"
      ],
      [
        "f",
        "ully"
      ],
      [
        "g",
        "es"
      ],
      [
        "p",
        "t"
      ],
      [
        "u",
        "p"
      ],
      [
        "u",
        "ally"
      ],
      [
        "Ġ",
        "es"
      ],
      [
        "he",
        "d"
      ],
      [
        "Ġc",
        "r"
      ],
      [
        "at",
        "es"
      ],
      [
        "Ġp",
        "ot"
      ],
      [
        "Ġh",
        "ol"
      ],
      [
        "Ġb",
        "ad"
      ],
      [
        "Ġto",
        "ward"
      ],
      [
        "se",
        "d"
      ],
      [
        "Ġn",
        "ails"
      ],
      [
        "Ġcon",
        "n"
      ],
      [
        "Ġsh",
        "are"
      ],
      [
        "Ġv",
        "is"
      ],
      [
        "Ġte",
        "mp"
      ],
      [
        "Ġcle",
        "ar"
      ],
      [
        "Ġen",
        "j"
      ],
      [
        "Ġen",
        "sure"
      ],
      [
        "Ġse",
        "lf"
      ],
      [
        "Ġpr",
        "ot"
      ],
      [
        "Ġneed",
        "s"
      ],
      [
        "if",
        "ic"
      ],
      [
        "Ġgir",
        "l"
      ],
      [
        "Ġposit",
        "ion"
      ],
      [
        "Ġdist",
        "ract"
      ],
      [
        "o",
        "ck"
      ],
      [
        "Ġ",
        "very"
      ],
      [
        "Ġa",
        "ge"
      ],
      [
        "Ġs",
        "n"
      ],
      [
        "Ġc",
        "ard"
      ],
      [
        "Ġf",
        "ill"
      ],
      [
        "Ġp",
        "ri"
      ],
      [
        "an",
        "k"
      ],
      [
        "Ġre",
        "se"
      ],
      [
        "Ġre",
        "ally"
      ],
      [
        "Ġst",
        "ore"
      ],
      [
        "ent",
        "s"
      ],
      [
        "Ġgu",
        "ys"
      ],
      [
        "Ġsh",
        "irt"
      ],
      [
        "Ġr",
        "iding"
      ],
      [
        "Ġex",
        "per"
      ],
      [
        "am",
        "es"
      ],
      [
        "Ġv",
        "ac"
      ],
      [
        "Ġtim",
        "es"
      ],
      [
        "Ġcl",
        "ick"
      ],
      [
        "Ġacc",
        "ept"
      ],
      [
        "Ġconfid",
        "ence"
      ],
      [
        "Ġresp",
        "ect"
      ],
      [
        "Ġsupp",
        "lies"
      ],
      [
        "Ġcol",
        "or"
      ],
      [
        "Ġexp",
        "ect"
      ],
      [
        "Ġleg",
        "s"
      ],
      [
        "Ġty",
        "pe"
      ],
      [
        "Ġhab",
        "it"
      ],
      [
        "bo",
        "ard"
      ],
      [
        "Ġbow",
        "l"
      ],
      [
        "a",
        "x"
      ],
      [
        "d",
        "er"
      ],
      [
        "y",
        "le"
      ],
      [
        "Ġt",
        "ea"
      ],
      [
        "Ġc",
        "ir"
      ],
      [
        "er",
        "v"
      ],
      [
        "er",
        "al"
      ],
      [
        "or",
        "y"
      ],
      [
        "Ġl",
        "ine"
      ],
      [
        "Ġd",
        "a"
      ],
      [
        "Ġwith",
        "out"
      ],
      [
        "il",
        "ity"
      ],
      [
        "Ġwhe",
        "el"
      ],
      [
        "Ġsh",
        "ape"
      ],
      [
        "Ġne",
        "ut"
      ],
      [
        "Ġcom",
        "e"
      ],
      [
        "am",
        "in"
      ],
      [
        "Ġpro",
        "cess"
      ],
      [
        "Ġwe",
        "ight"
      ],
      [
        "Ġqu",
        "ick"
      ],
      [
        "Ġsc",
        "r"
      ],
      [
        "Ġbreed",
        "er"
      ],
      [
        "Ġbab",
        "y"
      ],
      [
        "Ġadop",
        "t"
      ],
      [
        "Ġhol",
        "es"
      ],
      [
        "Ġhabit",
        "at"
      ],
      [
        "h",
        "y"
      ],
      [
        "i",
        "ate"
      ],
      [
        "k",
        "ing"
      ],
      [
        "l",
        "i"
      ],
      [
        "o",
        "c"
      ],
      [
        "t",
        "o"
      ],
      [
        "he",
        "re"
      ],
      [
        "Ġs",
        "ing"
      ],
      [
        "er",
        "tain"
      ],
      [
        "Ġb",
        "as"
      ],
      [
        "Ġw",
        "ood"
      ],
      [
        "Ġw",
        "all"
      ],
      [
        "Ġm",
        "ark"
      ],
      [
        "al",
        "s"
      ],
      [
        "Ġn",
        "ose"
      ],
      [
        "id",
        "es"
      ],
      [
        "Ġth",
        "ough"
      ],
      [
        "out",
        "h"
      ],
      [
        "ent",
        "y"
      ],
      [
        "Ġtr",
        "a"
      ],
      [
        "Ġex",
        "pl"
      ],
      [
        "Ġv",
        "it"
      ],
      [
        "Ġso",
        "ft"
      ],
      [
        "Ġsu",
        "b"
      ],
      [
        "ial",
        "ly"
      ],
      [
        "Ġfre",
        "e"
      ],
      [
        "Ġcompl",
        "et"
      ],
      [
        "Ġro",
        "pe"
      ],
      [
        "aw",
        "s"
      ],
      [
        "Ġho",
        "bb"
      ],
      [
        "Ġmain",
        "tain"
      ],
      [
        "Ġshel",
        "ter"
      ],
      [
        "Ġrepl",
        "ace"
      ],
      [
        "Ġrese",
        "arch"
      ],
      [
        "f",
        "riend"
      ],
      [
        "g",
        "y"
      ],
      [
        "i",
        "en"
      ],
      [
        "p",
        "u"
      ],
      [
        "Ġa",
        "m"
      ],
      [
        "Ġc",
        "ou"
      ],
      [
        "Ġp",
        "ol"
      ],
      [
        "Ġh",
        "ive"
      ],
      [
        "Ġo",
        "pp"
      ],
      [
        "Ġha",
        "ving"
      ],
      [
        "Ġre",
        "act"
      ],
      [
        "Ġre",
        "as"
      ],
      [
        "ic",
        "s"
      ],
      [
        "ion",
        "al"
      ],
      [
        "Ġon",
        "to"
      ],
      [
        "Ġtr",
        "ick"
      ],
      [
        "Ġpl",
        "enty"
      ],
      [
        "ee",
        "p"
      ],
      [
        "Ġdo",
        "lp"
      ],
      [
        "Ġget",
        "s"
      ],
      [
        "ad",
        "e"
      ],
      [
        "Ġsp",
        "eak"
      ],
      [
        "Ġwh",
        "y"
      ],
      [
        "Ġch",
        "ang"
      ],
      [
        "ap",
        "s"
      ],
      [
        "Ġclean",
        "ing"
      ],
      [
        "Ġle",
        "vel"
      ],
      [
        "Ġal",
        "read"
      ],
      [
        "Ġapp",
        "ear"
      ],
      [
        "Ġlea",
        "st"
      ],
      [
        "Ġact",
        "ive"
      ],
      [
        "ast",
        "ic"
      ],
      [
        "Ġro",
        "ll"
      ],
      [
        "Ġpat",
        "tern"
      ],
      [
        "au",
        "se"
      ],
      [
        "Ġmo",
        "st"
      ],
      [
        "Ġimp",
        "ort"
      ],
      [
        "Ġboy",
        "friend"
      ],
      [
        "Ġproper",
        "ly"
      ],
      [
        "Ġenc",
        "ourage"
      ],
      [
        "Ġgrou",
        "p"
      ],
      [
        "Ġcond",
        "ition"
      ],
      [
        "Ġsuit",
        "able"
      ],
      [
        "Ġsquirre",
        "l"
      ],
      [
        "Ġdolp",
        "h"
      ],
      [
        "Ġalread",
        "y"
      ],
      [
        "c",
        "le"
      ],
      [
        "l",
        "t"
      ],
      [
        "l",
        "ing"
      ],
      [
        "v",
        "ir"
      ],
      [
        "Ġt",
        "ar"
      ],
      [
        "Ġs",
        "le"
      ],
      [
        "Ġs",
        "ound"
      ],
      [
        "Ġf",
        "av"
      ],
      [
        "Ġm",
        "outh"
      ],
      [
        "Ġi",
        "m"
      ],
      [
        "Ġe",
        "st"
      ],
      [
        "Ġre",
        "ach"
      ],
      [
        "id",
        "s"
      ],
      [
        "Ġst",
        "ress"
      ],
      [
        "Ġpl",
        "aces"
      ],
      [
        "Ġpl",
        "astic"
      ],
      [
        "Ġlook",
        "s"
      ],
      [
        "ant",
        "s"
      ],
      [
        "Ġen",
        "vir"
      ],
      [
        "Ġpre",
        "gn"
      ],
      [
        "Ġcont",
        "ain"
      ],
      [
        "Ġrel",
        "ax"
      ],
      [
        "Ġcomm",
        "un"
      ],
      [
        "Ġcar",
        "rier"
      ],
      [
        "ag",
        "es"
      ],
      [
        "Ġsupp",
        "ort"
      ],
      [
        "Ġbec",
        "ause"
      ],
      [
        "Ġsim",
        "ple"
      ],
      [
        "ud",
        "e"
      ],
      [
        "Ġeas",
        "y"
      ],
      [
        "Ġhone",
        "st"
      ],
      [
        "do",
        "ors"
      ],
      [
        "Ġenj",
        "oy"
      ],
      [
        "Ġvit",
        "amin"
      ],
      [
        "Ġimport",
        "ant"
      ],
      [
        "Ġtar",
        "get"
      ],
      [
        "Ġenvir",
        "on"
      ],
      [
        "g",
        "g"
      ],
      [
        "l",
        "ish"
      ],
      [
        "m",
        "ed"
      ],
      [
        "Ġs",
        "en"
      ],
      [
        "Ġf",
        "ore"
      ],
      [
        "Ġf",
        "ast"
      ],
      [
        "Ġp",
        "ast"
      ],
      [
        "Ġp",
        "ass"
      ],
      [
        "Ġl",
        "ast"
      ],
      [
        "Ġd",
        "one"
      ],
      [
        "Ġg",
        "round"
      ],
      [
        "Ġm",
        "ind"
      ],
      [
        "Ġin",
        "form"
      ],
      [
        "Ġn",
        "orm"
      ],
      [
        "oo",
        "f"
      ],
      [
        "Ġe",
        "mp"
      ],
      [
        "Ġe",
        "ating"
      ],
      [
        "Ġlook",
        "ing"
      ],
      [
        "Ġne",
        "xt"
      ],
      [
        "Ġte",
        "ach"
      ],
      [
        "Ġso",
        "ap"
      ],
      [
        "Ġfe",
        "m"
      ],
      [
        "ip",
        "e"
      ],
      [
        "Ġkn",
        "ot"
      ],
      [
        "Ġad",
        "v"
      ],
      [
        "Ġpre",
        "t"
      ],
      [
        "Ġle",
        "ather"
      ],
      [
        "Ġse",
        "ed"
      ],
      [
        "du",
        "ct"
      ],
      [
        "Ġneed",
        "ed"
      ],
      [
        "Ġcare",
        "fully"
      ],
      [
        "Ġmu",
        "s"
      ],
      [
        "Ġevery",
        "thing"
      ],
      [
        "Ġresp",
        "on"
      ],
      [
        "Ġcor",
        "rect"
      ],
      [
        "Ġpiec",
        "es"
      ],
      [
        "Ġbab",
        "ies"
      ],
      [
        "Ġinc",
        "l"
      ],
      [
        "Ġbreat",
        "h"
      ],
      [
        "Ġswe",
        "at"
      ],
      [
        "Ġdro",
        "p"
      ],
      [
        "Ġsho",
        "es"
      ],
      [
        "Ġconn",
        "ect"
      ],
      [
        "Ġda",
        "ily"
      ],
      [
        "Ġcomplet",
        "e"
      ],
      [
        "c",
        "hes"
      ],
      [
        "u",
        "al"
      ],
      [
        "Ġt",
        "urn"
      ],
      [
        "Ġc",
        "ool"
      ],
      [
        "Ġh",
        "y"
      ],
      [
        "Ġh",
        "ide"
      ],
      [
        "Ġh",
        "um"
      ],
      [
        "Ġw",
        "ont"
      ],
      [
        "Ġl",
        "ess"
      ],
      [
        "Ġg",
        "re"
      ],
      [
        "Ġm",
        "a"
      ],
      [
        "ve",
        "st"
      ],
      [
        "ke",
        "d"
      ],
      [
        "Ġe",
        "at"
      ],
      [
        "Ġst",
        "ill"
      ],
      [
        "Ġon",
        "line"
      ],
      [
        "ge",
        "st"
      ],
      [
        "Ġor",
        "g"
      ],
      [
        "ru",
        "ct"
      ],
      [
        "Ġother",
        "s"
      ],
      [
        "Ġle",
        "ft"
      ],
      [
        "Ġse",
        "w"
      ],
      [
        "Ġqu",
        "ality"
      ],
      [
        "Ġfeed",
        "ing"
      ],
      [
        "Ġstr",
        "ip"
      ],
      [
        "Ġflirt",
        "ing"
      ],
      [
        "Ġar",
        "t"
      ],
      [
        "Ġimp",
        "ress"
      ],
      [
        "Ġem",
[...]
