{
  "version": "1.0",
  "truncation": null,
  "padding": null,
  "added_tokens": [
    {
      "id": 0,
      "content": "<pad>",
      "single_word": false,
      "lstrip": false,
      "rstrip": false,
      "normalized": false,
      "special": true
    },
    {
      "id": 1,
      "content": "<mask>",
      "single_word": false,
      "lstrip": false,
      "rstrip": false,
      "normalized": false,
      "special": true
    },
    {
      "id": 2,
      "content": "<unk>",
      "single_word": false,
      "lstrip": false,
      "rstrip": false,
      "normalized": false,
      "special": true
    },
    {
      "id": 3,
      "content": "<bos>",
      "single_word": false,
      "lstrip": false,
      "rstrip": false,
      "normalized": false,
      "special": true
    },
    {
      "id": 4,
      "content": "<eos>",
      "single_word": false,
      "lstrip": false,
      "rstrip": false,
      "normalized": false,
      "special": true
    }
  ],
  "normalizer": null,
  "pre_tokenizer": {
    "type": "ByteLevel",
    "add_prefix_space": true,
    "trim_offsets": true,
    "use_regex": true
  },
  "post_processor": {
    "type": "ByteLevel",
    "add_prefix_space": true,
    "trim_offsets": false,
    "use_regex": true
  },
  "decoder": null,
  "model": {
    "type": "BPE",
    "dropout": null,
    "unk_token": "<unk>",
    "continuing_subword_prefix": null,
    "end_of_word_suffix": null,
    "fuse_unk": false,
    "byte_fallback": false,
    "ignore_merges": false,
    "vocab": {
      "<pad>": 0,
      "<mask>": 1,
      "<unk>": 2,
      "<bos>": 3,
      "<eos>": 4,
      "\t": 5,
      " ": 6,
      "!": 7,
      "\"": 8,
      "#": 9,
      "$": 10,
      "%": 11,
      "&": 12,
      "'": 13,
      "(": 14,
      ")": 15,
      "*": 16,
      "+": 17,
      ",": 18,
      "-": 19,
      ".": 20,
      "/": 21,
      "0": 22,
      "1": 23,
      "2": 24,
      "3": 25,
      "4": 26,
      "5": 27,
      "6": 28,
      "7": 29,
      "8": 30,
      "9": 31,
      ":": 32,
      ";": 33,
      "<": 34,
      "=": 35,
      ">": 36,
      "?": 37,
      "@": 38,
      "A": 39,
      "B": 40,
      "C": 41,
      "D": 42,
      "E": 43,
      "F": 44,
      "G": 45,
      "H": 46,
      "I": 47,
      "J": 48,
      "K": 49,
      "L": 50,
      "M": 51,
      "N": 52,
      "O": 53,
      "P": 54,
      "Q": 55,
      "R": 56,
      "S": 57,
      "T": 58,
      "U": 59,
      "V": 60,
      "W": 61,
      "X": 62,
      "Y": 63,
      "Z": 64,
      "[": 65,
      "\\": 66,
      "]": 67,
      "^": 68,
      "_": 69,
      "`": 70,
      "a": 71,
      "b": 72,
      "c": 73,
      "d": 74,
      "e": 75,
      "f": 76,
      "g": 77,
      "h": 78,
      "i": 79,
      "j": 80,
      "k": 81,
      "l": 82,
      "m": 83,
      "n": 84,
      "o": 85,
      "p": 86,
      "q": 87,
      "r": 88,
      "s": 89,
      "t": 90,
      "u": 91,
      "v": 92,
      "w": 93,
      "x": 94,
      "y": 95,
      "z": 96,
      "{": 97,
      "|": 98,
      "}": 99,
      "~": 100,
      "¡": 101,
      "¢": 102,
      "£": 103,
      "¤": 104,
      "¥": 105,
      "¦": 106,
      "§": 107,
      "¨": 108,
      "©": 109,
      "ª": 110,
      "«": 111,
      "¬": 112,
      "®": 113,
      "¯": 114,
      "°": 115,
      "±": 116,
      "²": 117,
      "³": 118,
      "´": 119,
      "µ": 120,
      "¶": 121,
      "·": 122,
      "¸": 123,
      "¹": 124,
      "º": 125,
      "»": 126,
      "¼": 127,
      "½": 128,
      "¾": 129,
      "¿": 130,
      "Â": 131,
      "Ã": 132,
      "Ä": 133,
      "Å": 134,
      "Æ": 135,
      "Ç": 136,
      "È": 137,
      "É": 138,
      "Ê": 139,
      "Ì": 140,
      "Î": 141,
      "Ï": 142,
      "Ð": 143,
      "Ñ": 144,
      "×": 145,
      "Ø": 146,
      "Ù": 147,
      "Ü": 148,
      "à": 149,
      "á": 150,
      "â": 151,
      "ã": 152,
      "ä": 153,
      "å": 154,
      "æ": 155,
      "ç": 156,
      "è": 157,
      "é": 158,
      "ë": 159,
      "ì": 160,
      "í": 161,
      "ï": 162,
      "ð": 163,
      "Ġ": 164,
      "Ģ": 165,
      "ģ": 166,
      "Ĥ": 167,
      "ĥ": 168,
      "Ħ": 169,
      "ħ": 170,
      "Ĩ": 171,
      "ĩ": 172,
      "Ī": 173,
      "ī": 174,
      "Ĭ": 175,
      "ĭ": 176,
      "Į": 177,
      "į": 178,
      "İ": 179,
      "ı": 180,
      "Ĳ": 181,
      "ĳ": 182,
      "Ĵ": 183,
      "ĵ": 184,
      "Ķ": 185,
      "ķ": 186,
      "ĸ": 187,
      "Ĺ": 188,
      "ĺ": 189,
      "Ļ": 190,
      "ļ": 191,
      "Ľ": 192,
      "ľ": 193,
      "Ŀ": 194,
      "ŀ": 195,
      "Ł": 196,
      "ł": 197,
      "Ń": 198,
      "Ġt": 199,
      "Ġa": 200,
      "he": 201,
      "in": 202,
      "Ġthe": 203,
      "er": 204,
      "on": 205,
      "re": 206,
      "Ġo": 207,
      "at": 208,
      "Ġs": 209,
      "en": 210,
      "ed": 211,
      "an": 212,
      "is": 213,
      "Ġw": 214,
      "Ġc": 215,
      "es": 216,
      "it": 217,
      "Ġof": 218,
      "Ġan": 219,
      "or": 220,
      "al": 221,
      "ar": 222,
      "Ġin": 223,
      "Ġb": 224,
      "Ġf": 225,
      "ic": 226,
      "Ġp": 227,
      "Ġand": 228,
      "ĠA": 229,
      "ro": 230,
      "ion": 231,
      "Ġm": 232,
      "ing": 233,
      "as": 234,
      "Ġto": 235,
      "Ġd": 236,
      "le": 237,
      "Ġh": 238,
      "us": 239,
      "ent": 240,
      "ĠT": 241,
      "om": 242,
      "Ġe": 243,
      "ly": 244,
      "ct": 245,
      "Ġre": 246,
      "ou": 247,
      "Ġth": 248,
      "Ġl": 249,
      "il": 250,
      "Ġn": 251,
      "st": 252,
      "ol": 253,
      "ĠS": 254,
      "el": 255,
      "ur": 256,
      "id": 257,
      "Ġis": 258,
      "et": 259,
      "ĠThe": 260,
      "im": 261,
      "ch": 262,
      "am": 263,
      "ation": 264,
      "ĠC": 265,
      "iv": 266,
      "Ġ1": 267,
      "ce": 268,
      "Ġas": 269,
      "ad": 270,
      "Ġbe": 271,
      "ĠI": 272,
      "ot": 273,
      "ut": 274,
      "Ġfor": 275,
      "ig": 276,
      "un": 277,
      "Ġg": 278,
      "ir": 279,
      "ĠM": 280,
      "ith": 281,
      "Ġon": 282,
      "Ġ(": 283,
      "ul": 284,
      "ist": 285,
      "Ġwas": 286,
      "Ġal": 287,
      "ra": 288,
      "ĠB": 289,
      "ow": 290,
      "Ġst": 291,
      "ers": 292,
      "her": 293,
      "Ġcon": 294,
      "Ġwith": 295,
      "os": 296,
      "um": 297,
      "em": 298,
      "ĠP": 299,
      "Ġthat": 300,
      "ĠH": 301,
      "Ġby": 302,
      "th": 303,
      "ter": 304,
      "ver": 305,
      "Ġwh": 306,
      "Ġpro": 307,
      "op": 308,
      "and": 309,
      "ĠE": 310,
      "'s": 311,
      "Ġor": 312,
      "od": 313,
      "est": 314,
      "ay": 315,
      "if": 316,
      "Ġare": 317,
      "av": 318,
      "Ġde": 319,
      "ri": 320,
      "ĠIn": 321,
      "ate": 322,
      "ĠG": 323,
      "Ġv": 324,
      "ag": 325,
      "Ġit": 326,
      "rom": 327,
      "Ġat": 328,
      "ĠF": 329,
      "res": 330,
      "Ġex": 331,
      "Ġcom": 332,
      "ab": 333,
      "ĠR": 334,
      "Ġsu": 335,
      "Ġ2": 336,
      "ies": 337,
      "pe": 338,
      "ĠL": 339,
      "ain": 340,
      "Ġ19": 341,
      "ĠW": 342,
      "ĠD": 343,
      "Ġfrom": 344,
      "ud": 345,
      "Ġ\"": 346,
      "ac": 347,
      "Ġhe": 348,
      "oun": 349,
      "ity": 350,
      "ian": 351,
      "ĠN": 352,
      "ical": 353,
      "qu": 354,
      "ive": 355,
      "ld": 356,
      "ich": 357,
      "ort": 358,
      "Ġhis": 359,
      "oc": 360,
      "ess": 361,
      "Ġr": 362,
      "Ġmo": 363,
      "ant": 364,
      "Ġse": 365,
      "ia": 366,
      "00": 367,
      "ial": 368,
      "ated": 369,
      "pp": 370,
      "ĠO": 371,
      "pt": 372,
      "ill": 373,
      "art": 374,
      "Ġus": 375,
      "og": 376,
      "Ġun": 377,
      "ment": 378,
      "gh": 379,
      "igh": 380,
      "ĠAn": 381,
      "ĠJ": 382,
      "Ġwhich": 383,
      "ous": 384,
      "se": 385,
      "ction": 386,
      "ere": 387,
      "Ġch": 388,
      "ave": 389,
      "ther": 390,
      "ure": 391,
      "all": 392,
      "ak": 393,
      "ber": 394,
      "ĠU": 395,
      "ew": 396,
      "âĢ": 397,
      "end": 398,
      "ard": 399,
      "ge": 400,
      "ĠAl": 401,
      "Ġnot": 402,
      "Ġwere": 403,
      "ine": 404,
      "ell": 405,
      "cl": 406,
      "Ġar": 407,
      "ary": 408,
      "Ġwor": 409,
      "ip": 410,
      "Ġle": 411,
      "per": 412,
      "Ġab": 413,
      "ong": 414,
      "ph": 415,
      "ast": 416,
      "ust": 417,
      "Ġcomp": 418,
      "ect": 419,
      "Ġhave": 420,
      "du": 421,
      "ran": 422,
      "ide": 423,
      "cc": 424,
      "our": 425,
      "ome": 426,
      "so": 427,
      "red": 428,
      "ĠK": 429,
      "ult": 430,
      "Ġcont": 431,
      "âĢĵ": 432,
      "rit": 433,
      "ear": 434,
      "Ġk": 435,
      "iz": 436,
      "Ġpl": 437,
      "ame": 438,
      "ish": 439,
      "ition": 440,
      "Ġhas": 441,
      "up": 442,
      "ov": 443,
      "Ġint": 444,
      "der": 445,
      "Ġsh": 446,
      "ight": 447,
      "ass": 448,
      "mer": 449,
      "ence": 450,
      "Ġalso": 451,
      "ub": 452,
      "ry": 453,
      "hen": 454,
      "),": 455,
      "Ġits": 456,
      "ally": 457,
      "ĠAr": 458,
      "ap": 459,
      "ations": 460,
      "ater": 461,
      "Ġhad": 462,
      "Ġad": 463,
      "ign": 464,
      "Ġ20": 465,
      "Ġbut": 466,
      "irst": 467,
      "ff": 468,
      "ĠCh": 469,
      "ore": 470,
      "pl": 471,
      "ĠSt": 472,
      "Ġother": 473,
      "ory": 474,
      "Ġtheir": 475,
      "age": 476,
      "ok": 477,
      "ĠTh": 478,
      "ru": 479,
      "Ġy": 480,
      "ib": 481,
      "Ġall": 482,
      "act": 483,
      "Ġres": 484,
      "ould": 485,
      "ree": 486,
      "ie": 487,
      "Ġcl": 488,
      "ates": 489,
      "ang": 490,
      "ions": 491,
      "Ġfirst": 492,
      "ism": 493,
      "ire": 494,
      "Ġcan": 495,
      "Ġpart": 496,
      "Ġim": 497,
      "oll": 498,
      "fer": 499,
      "ount": 500,
      "Ġthis": 501,
      "clud": 502,
      "Ġen": 503,
      "con": 504,
      ").": 505,
      "out": 506,
      "Ġbec": 507,
      "erm": 508,
      "ord": 509,
      "any": 510,
      "Ġdis": 511,
      "ound": 512,
      "ĠUn": 513,
      "ron": 514,
      "Ġone": 515,
      "ace": 516,
      "Ġbeen": 517,
      "over": 518,
      "Ġsp": 519,
      "ren": 520,
      "tern": 521,
      "ric": 522,
      "Ġform": 523,
      "ost": 524,
      "Ġ18": 525,
      "fter": 526,
      "able": 527,
      "ĠIt": 528,
      "ĠV": 529,
      "Ġne": 530,
      "ime": 531,
      "Ġinclud": 532,
      "Ġper": 533,
      "ue": 534,
      "hed": 535,
      "ced": 536,
      "ks": 537,
      "own": 538,
      "und": 539,
      "uring": 540,
      "Ġro": 541,
      "ugh": 542,
      "Ġused": 543,
      "ces": 544,
      "ile": 545,
      "ĠAs": 546,
      "Ġcons": 547,
      "lic": 548,
      "ĠHe": 549,
      "ium": 550,
      "wo": 551,
      "orm": 552,
      "Ġam": 553,
      "Ġele": 554,
      "ens": 555,
      "Ġsuch": 556,
      "vel": 557,
      "Ġsy": 558,
      "ach": 559,
      "Ġte": 560,
      "olog": 561,
      "ik": 562,
      "Ġmost": 563,
      "ose": 564,
      "Ġspe": 565,
      "Ġcomm": 566,
      "Ġmore": 567,
      "Ġcent": 568,
      "Ġwho": 569,
      "te": 570,
      "ough": 571,
      "erv": 572,
      "ep": 573,
      "ress": 574,
      "als": 575,
      "Ġag": 576,
      "we": 577,
      "ans": 578,
      "port": 579,
      "ts": 580,
      "Ġprodu": 581,
      "Ġsc": 582,
      "Ġthey": 583,
      "Ġrel": 584,
      "Ġthan": 585,
      "Ġinto": 586,
      "Ġdes": 587,
      "Ġyear": 588,
      "ite": 589,
      "Ġme": 590,
      "Ġind": 591,
      "ents": 592,
      "aus": 593,
      "ance": 594,
      "Ġgro": 595,
      "ack": 596,
      "ors": 597,
      "Ġev": 598,
      "ied": 599,
      "land": 600,
      "Ġtwo": 601,
      "Ġac": 602,
      "ice": 603,
      "Ġph": 604,
      "Ġpre": 605,
      "les": 606,
      "Ġ201": 607,
      "ited": 608,
      "meric": 609,
      "ari": 610,
      "amp": 611,
      "Ġapp": 612,
      "ational": 613,
      "reat": 614,
      "ade": 615,
      "ular": 616,
      "Ġlar": 617,
      "Ġbet": 618,
      "ĠAt": 619,
      "Ġmet": 620,
      "ted": 621,
      "Ġj": 622,
      "ĠThis": 623,
      "Ġ200": 624,
      "ys": 625,
      "Ġsome": 626,
      "rough": 627,
      "rib": 628,
      "Ġsub": 629,
      "ics": 630,
      "ific": 631,
      "ener": 632,
      "Ġafter": 633,
      "Ġkn": 634,
      "Ġover": 635,
      "Ġ3": 636,
      "Ġnum": 637,
      "Ġrec": 638,
      "ase": 639,
      "aw": 640,
      "ark": 641,
      "ĠâĢĵ": 642,
      "ath": 643,
      "Ġreg": 644,
      "ob": 645,
      "ĠAmeric": 646,
      "ons": 647,
      "ative": 648,
      "here": 649,
      "one": 650,
      "Ġass": 651,
      "ween": 652,
      "ten": 653,
      "old": 654,
      "Ġacc": 655,
      "Ġear": 656,
      "Ġmod": 657,
      "ury": 658,
      "Ġwould": 659,
      "rans": 660,
      "ased": 661,
      "iss": 662,
      "\".": 663,
      "ings": 664,
      "ual": 665,
      "hes": 666,
      "Ġatt": 667,
      "Ġonly": 668,
      "Ġdif": 669,
      "Ġher": 670,
      "oth": 671,
      "Ġhim": 672,
      "ond": 673,
      "Ġbetween": 674,
      "Ġra": 675,
      "Ġout": 676,
      "Ġtime": 677,
      "Ġmany": 678,
      "ĠAp": 679,
      "Ġpr": 680,
      "Ġpe": 681,
      "arch": 682,
      "Ġpo": 683,
      "ists": 684,
      "Ġunder": 685,
      "ities": 686,
      "Ġso": 687,
      "Ġmay": 688,
      "ars": 689,
      "angu": 690,
      "ject": 691,
      "are": 692,
      "cre": 693,
      "ever": 694,
      "ne": 695,
      "ind": 696,
      "form": 697,
      "ood": 698,
      "ral": 699,
      "Ġem": 700,
      "gan": 701,
      "uro": 702,
      "19": 703,
      "Ġwork": 704,
      "Ġspec": 705,
      "Ġfound": 706,
      "Ġcount": 707,
      "Ġwhen": 708,
      "Ġqu": 709,
      "ug": 710,
      "ook": 711,
      "stem": 712,
      "wn": 713,
      "ient": 714,
      "uc": 715,
      "Ġthere": 716,
      "ĠEn": 717,
      "Ġob": 718,
      "Ġup": 719,
      "ivers": 720,
      "Ġdef": 721,
      "Ġinter": 722,
      "ower": 723,
      "Ġthrough": 724,
      "ved": 725,
      "ton": 726,
      "ve": 727,
      "very": 728,
      "Ġpos": 729,
      "Ġtr": 730,
      "Ġpub": 731,
      "Ġabout": 732,
      "ution": 733,
      "Ġuse": 734,
      "Ġthem": 735,
      "ished": 736,
      "Ġknown": 737,
      "ild": 738,
      "Ġtrans": 739,
      "Ġfl": 740,
      "ern": 741,
      "ince": 742,
      "ĠAm": 743,
      "ause": 744,
      "oy": 745,
      "Ġact": 746,
      "outh": 747,
      "iet": 748,
      "Ġduring": 749,
      "Ġpres": 750,
      "Ġlangu": 751,
      "urn": 752,
      "ider": 753,
      "velop": 754,
      "ike": 755,
      "Ġwhere": 756,
      "hem": 757,
      "ail": 758,
      "ram": 759,
      "ious": 760,
      "Ġnew": 761,
      "ures": 762,
      "ilm": 763,
      "ĠSe": 764,
      "Ġrem": 765,
      "ating": 766,
      "Ġpop": 767,
      "Ġset": 768,
      "ural": 769,
      "ins": 770,
      "Ġcall": 771,
      "ict": 772,
      "Ġdo": 773,
      "inc": 774,
      "ically": 775,
      "Ġinv": 776,
      "ft": 777,
      "Ġthese": 778,
      "ĠArm": 779,
      "Ġsystem": 780,
      "ae": 781,
      "ai": 782,
      "ays": 783,
      "Ġwe": 784,
      "Ġgener": 785,
      "Ġchar": 786,
      "gy": 787,
      "Ġwrit": 788,
      "Ġ4": 789,
      "ward": 790,
      "ife": 791,
      "ĠCon": 792,
      "ake": 793,
      "ople": 794,
      "Ġyears": 795,
      "Ġelect": 796,
      "ized": 797,
      "Ġco": 798,
      "overn": 799,
      "ĠWar": 800,
      "owever": 801,
      "Ġdiffer": 802,
      "cept": 803,
      "Ġap": 804,
      "ually": 805,
      "Ġart": 806,
      "Ġext": 807,
      "Ġcol": 808,
      "ology": 809,
      "Ġ199": 810,
      "Ġoff": 811,
      "Ġsur": 812,
      "Ġstud": 813,
      "Ġpol": 814,
      "Ġdevelop": 815,
      "Ġinst": 816,
      "inal": 817,
      "Ġsign": 818,
      "Ġprov": 819,
      "\",": 820,
      "fore": 821,
      "tain": 822,
      "ster": 823,
      "Ġstate": 824,
      "lex": 825,
      "rop": 826,
      "ident": 827,
      "Ġcentury": 828,
      "ll": 829,
      "Ġworld": 830,
      "Ġtra": 831,
      "cess": 832,
      "Ġdist": 833,
      "oh": 834,
      "ments": 835,
      "ix": 836,
      "Ġwhile": 837,
      "Ġsupp": 838,
      "ined": 839,
      "ians": 840,
      "gest": 841,
      "uch": 842,
      "round": 843,
      "Ġfilm": 844,
      "000": 845,
      "ature": 846,
      "Ġman": 847,
      "Ġvari": 848,
      "ollow": 849,
      "Ġbel": 850,
      "Ġimp": 851,
      "tle": 852,
      "Ġdec": 853,
      "Ġ5": 854,
      "ract": 855,
      "ĠRe": 856,
      "Ġlater": 857,
      "Ġgroup": 858,
      "Ġsm": 859,
      "emb": 860,
      "ĠY": 861,
      "Ġhigh": 862,
      "Ġbeing": 863,
      "Ġnumber": 864,
      "ax": 865,
      "ĠAmerican": 866,
      "aj": 867,
      "Ġrep": 868,
      "orth": 869,
      "Ġhist": 870,
      "Ġwell": 871,
      "ages": 872,
      "zer": 873,
      "Ġcar": 874,
      "cond": 875,
      "hip": 876,
      "elf": 877,
      "Ġaut": 878,
      "other": 879,
      "ĠEng": 880,
      "int": 881,
      "ĠSp": 882,
      "Ġsim": 883,
      "Ġno": 884,
      "ĠAng": 885,
      "Ġbu": 886,
      "Ġbecame": 887,
      "ĠFor": 888,
      "Ġincluding": 889,
      "Ġexp": 890,
      "ible": 891,
      "ines": 892,
      "Ġboth": 893,
      "Ġcalled": 894,
      "ially": 895,
      "Ġpartic": 896,
      "ctions": 897,
      "Ġpeople": 898,
      "ĠDe": 899,
      "Ġinf": 900,
      "Ġloc": 901,
      "ise": 902,
      "Ġfam": 903,
      "Ġend": 904,
      "ĠAf": 905,
      "ty": 906,
      "atic": 907,
      "Ġfe": 908,
      "ley": 909,
      "ger": 910,
      "Ġgovern": 911,
      "ily": 912,
      "Ġest": 913,
      "ital": 914,
      "Ġeff": 915,
      "ĠCom": 916,
      "Ġmade": 917,
      "Ġlarge": 918,
      "Ġterm": 919,
      "Ġdire": 920,
      "ock": 921,
      "led": 922,
      "imes": 923,
      "ement": 924,
      "yp": 925,
      "ived": 926,
      "rist": 927,
      "Ġmain": 928,
      "dition": 929,
      "lished": 930,
      "ier": 931,
      "its": 932,
      "Ġthree": 933,
      "orn": 934,
      "til": 935,
      "Ġthen": 936,
      "Ġconst": 937,
      "ĠAd": 938,
      "ather": 939,
      "ĠUnited": 940,
      "ros": 941,
      "aur": 942,
      "Ġresult": 943,
      "the": 944,
      "Ġcity": 945,
      "Ġany": 946,
      "Ġcre": 947,
      "lect": 948,
      "Ġorig": 949,
      "Ġwar": 950,
      "illion": 951,
      "Ġent": 952,
      "ah": 953,
      "Ġappe": 954,
      "ids": 955,
      "ĠNew": 956,
      "Ġant": 957,
      "Ġfollow": 958,
      "Ġoften": 959,
      "ruct": 960,
      "lish": 961,
      "Ġconsider": 962,
      "ulation": 963,
      "Ġearly": 964,
      "urope": 965,
      "Ġshe": 966,
      "ĠInd": 967,
      "Ġmon": 968,
      "ues": 969,
      "Ġpers": 970,
      "ĠOn": 971,
      "cy": 972,
      "Ġdesc": 973,
      "io": 974,
      "iel": 975,
      "ĠBrit": 976,
      "ample": 977,
      "Ġocc": 978,
      "Ġsl": 979,
      "Ġmat": 980,
      "raph": 981,
      "Ġdep": 982,
      "oph": 983,
      "ĠGree": 984,
      "Ġserv": 985,
      "Ġdisc": 986,
      "Ġagain": 987,
      "ility": 988,
      "conom": 989,
      "ĠAust": 990,
      "chn": 991,
      "Ġsever": 992,
      "Ġcould": 993,
      "Ġlong": 994,
      "pect": 995,
      "Ġsmall": 996,
      "ajor": 997,
      "Ġ17": 998,
      "ember": 999,
      "Ġcontin": 1000,
      "ides": 1001,
      "ĠChrist": 1002,
      "ollo": 1003,
      "iod": 1004,
      "Ġser": 1005,
      "Ġ197": 1006,
      "az": 1007,
      "ful": 1008,
      "though": 1009,
      "Ġcommon": 1010,
      "osed": 1011,
      "ĠEurope": 1012,
      "ĠStates": 1013,
      "yd": 1014,
      "Ġ6": 1015,
      "iew": 1016,
      "Ġhum": 1017,
      "ains": 1018,
      "Ġbl": 1019,
      "Ġname": 1020,
      "Ġdifferent": 1021,
      "Ġsch": 1022,
      "Ġplay": 1023,
      "ick": 1024,
      "ĠPro": 1025,
      "ants": 1026,
      "Ġsecond": 1027,
      "Ġbecause": 1028,
      "xt": 1029,
      "oman": 1030,
      "Ġref": 1031,
      "rab": 1032,
      "Ġexample": 1033,
      "ording": 1034,
      "ĠLe": 1035,
      "ĠAnd": 1036,
      "Ġmed": 1037,
      "Ġsame": 1038,
      "Ġincre": 1039,
      "Ġcharact": 1040,
      "ged": 1041,
      "ander": 1042,
      "ann": 1043,
      "Ġ196": 1044,
      "ange": 1045,
      "ĠZ": 1046,
      "bert": 1047,
      "ared": 1048,
      "cent": 1049,
      "ool": 1050,
      "Ġeach": 1051,
      "Ġsol": 1052,
      "Ġmin": 1053,
      "ĠHowever": 1054,
      "ute": 1055,
      "ds": 1056,
      "Ġ198": 1057,
      "ĠApollo": 1058,
      "Ġ.": 1059,
      "Ġfour": 1060,
      "Ġdirect": 1061,
      "iqu": 1062,
      "air": 1063,
      "Ġed": 1064,
      "Ġmajor": 1065,
      "gen": 1066,
      "ives": 1067,
      "mon": 1068,
      "Ġlike": 1069,
      "row": 1070,
      "ilit": 1071,
      "Ġbefore": 1072,
      "20": 1073,
      "jan": 1074,
      "ting": 1075,
      "els": 1076,
      "ius": 1077,
      "uss": 1078,
      "ript": 1079,
      "Ġlead": 1080,
      "Ġdet": 1081,
      "ĠThere": 1082,
      "Ġ7": 1083,
      "omet": 1084,
      "Ġ,": 1085,
      "ey": 1086,
      "iver": 1087,
      "ck": 1088,
      "âĢĶ": 1089,
      "Ġcountry": 1090,
      "Ġimport": 1091,
      "ash": 1092,
      "Ġrev": 1093,
      "Ġeconom": 1094,
      "Ġseveral": 1095,
      "enn": 1096,
      "ision": 1097,
      "ries": 1098,
      "Ġown": 1099,
      "aking": 1100,
      "Ġexper": 1101,
      "Ġins": 1102,
      "Ġequ": 1103,
      "osaur": 1104,
      "Ġ8": 1105,
      "Ġwater": 1106,
      "ĠWor": 1107,
      "ĠAg": 1108,
      "par": 1109,
      "imate": 1110,
      "Ġsoc": 1111,
      "lem": 1112,
      "Ġland": 1113,
      "yl": 1114,
      "ale": 1115,
      "ban": 1116,
      "vent": 1117,
      "ĠPh": 1118,
      "Ġval": 1119,
      "Ġtrad": 1120,
      "ivid": 1121,
      "Ġtechn": 1122,
      "apt": 1123,
      "lu": 1124,
      "Ġcontro": 1125,
      "Ġlanguage": 1126,
      "ĠAlex": 1127,
      "Ã©": 1128,
      "ĠThey": 1129,
      "Ġprob": 1130,
      "Ġleg": 1131,
      "rent": 1132,
      "iversity": 1133,
      "ised": 1134,
      "Ġrequ": 1135,
      "ĠAzer": 1136,
      "Ġret": 1137,
      "ĠIs": 1138,
      "bai": 1139,
      "Ġcult": 1140,
      "Ġgovernment": 1141,
      "ĠJoh": 1142,
      "baijan": 1143,
      "Ġthough": 1144,
      "Ġatom": 1145,
      "Ġinclude": 1146,
      "Ġsince": 1147,
      "Ġcor": 1148,
      "Ġmus": 1149,
      "Ġaround": 1150,
      "Ġthose": 1151,
      "Ġwill": 1152,
      "Ġanim": 1153,
      "urch": 1154,
      "Ġstr": 1155,
      "ĠAzerbaijan": 1156,
      "ĠGerm": 1157,
      "ilar": 1158,
      "ĠSch": 1159,
      "Ġuntil": 1160,
      "ization": 1161,
      "ĠWh": 1162,
      "ccess": 1163,
      "Ġlife": 1164,
      "ified": 1165,
      "inn": 1166,
      "Ġperiod": 1167,
      "ued": 1168,
      "ĠMar": 1169,
      "ĠArab": 1170,
      "Ġsupport": 1171,
      "Ġbook": 1172,
      "ases": 1173,
      "Ġnam": 1174,
      "Ġ10": 1175,
      "Ġdeath": 1176,
      "Ġclass": 1177,
      "ec": 1178,
      "Ġposs": 1179,
      "Ġnear": 1180,
      "ull": 1181,
      "ilos": 1182,
      "resent": 1183,
      "Ġprop": 1184,
      "ĠFran": 1185,
      "Ġexpl": 1186,
      "Ġdid": 1187,
      "Ġeffect": 1188,
      "ĠEm": 1189,
      "arm": 1190,
      "Ġpublic": 1191,
      "Ġagainst": 1192,
      "pen": 1193,
      "ional": 1194,
      "ograph": 1195,
      "ork": 1196,
      "Ġamong": 1197,
      "ĠSh": 1198,
      "Ġdesign": 1199,
      "ĠAthen": 1200,
      "ĠBritish": 1201,
      "Ġprog": 1202,
      "ĠAll": 1203,
      "to": 1204,
      "Ġbelie": 1205,
      "Ġconsidered": 1206,
      "Ġdescrib": 1207,
      "Ġbased": 1208,
      "Ġif": 1209,
      "Ġcap": 1210,
      "Ġmillion": 1211,
      "Ġnon": 1212,
      "Ġpower": 1213,
      "Ġmuch": 1214,
      "Ġseries": 1215,
      "ĠEar": 1216,
      "ugust": 1217,
      "ĠThese": 1218,
      "Ġrad": 1219,
      "Ġauth": 1220,
      "Ġtem": 1221,
      "ĠAfter": 1222,
      "Ġlit": 1223,
      "Ġmodern": 1224,
      "ĠWorld": 1225,
      "ĠJohn": 1226,
      "Ġair": 1227,
      "ank": 1228,
      "ired": 1229,
      "Ġarea": 1230,
      "Ġpolit": 1231,
      "ĠArmen": 1232,
      "aid": 1233,
      "ene": 1234,
      "ience": 1235,
      "Ġsk": 1236,
      "Ġperson": 1237,
      "Ġtyp": 1238,
      "Ġback": 1239,
      "ize": 1240,
      "Ġtradition": 1241,
      "ple": 1242,
      "oci": 1243,
      "iving": 1244,
      "Ġorder": 1245,
      "Ġ194": 1246,
      "Ġmov": 1247,
      "Ġelectron": 1248,
      "Ġappro": 1249,
      "eder": 1250,
      "ĠOr": 1251,
      "Ġarm": 1252,
      "iam": 1253,
      "ĠAugust": 1254,
      "Ġallow": 1255,
      "rodu": 1256,
      "istic": 1257,
      "Ġorgan": 1258,
      "ained": 1259,
      "ven": 1260,
      "Ġast": 1261,
      "ody": 1262,
      "Ġbro": 1263,
      "ets": 1264,
      "Ġpopulation": 1265,
      "ĠSc": 1266,
      "ĠGreek": 1267,
      "Ġdue": 1268,
      "ĠSome": 1269,
      "eg": 1270,
      "ences": 1271,
      "Ġwithin": 1272,
      "Ġvery": 1273,
      "ina": 1274,
      "ission": 1275,
      "Ġcharacter": 1276,
      "ox": 1277,
      "Ġoper": 1278,
      "Ġmar": 1279,
      "Ġprocess": 1280,
      "ently": 1281,
      "Ġrefer": 1282,
      "ental": 1283,
      "Ġ16": 1284,
      "Ġbegan": 1285,
      "ternational": 1286,
      "Ġsing": 1287,
      "Ġcommun": 1288,
      "ony": 1289,
      "ĠCl": 1290,
      "ological": 1291,
      "ield": 1292,
      "ex": 1293,
      "Ġinc": 1294,
      "ross": 1295,
      "ĠBy": 1296,
      "aving": 1297,
      "Ġsuccess": 1298,
      "Ġcur": 1299,
      "Ġshow": 1300,
      "ĠApp": 1301,
      "aced": 1302,
      "ring": 1303,
      "Ġestab": 1304,
      "ĠAb": 1305,
      "aim": 1306,
      "Ġpar": 1307,
      "ĠSouth": 1308,
      "Ġarg": 1309,
      "Ġsimilar": 1310,
      "ydro": 1311,
      "Ġconf": 1312,
      "Ġusing": 1313,
      "Ġinflu": 1314,
      "ilitary": 1315,
      "man": 1316,
      "me": 1317,
      "por": 1318,
      "Ġpresent": 1319,
      "Ġlanguages": 1320,
      "au": 1321,
      "ane": 1322,
      "iety": 1323,
      "ove": 1324,
      "ĠEnglish": 1325,
      "Ġfamily": 1326,
      "ried": 1327,
      "ness": 1328,
      "ask": 1329,
      "Ġhuman": 1330,
      "ĠBC": 1331,
      "ouse": 1332,
      "Ġeven": 1333,
      "Ġoffic": 1334,
      "Ġ'": 1335,
      "Ġ9": 1336,
      "Ġes": 1337,
      "Ġgr": 1338,
      "estern": 1339,
      "ival": 1340,
      "ĠAustral": 1341,
      "way": 1342,
      "Ġcour": 1343,
      "ĠAnt": 1344,
      "ĠUniversity": 1345,
      "Ġhig": 1346,
      "iven": 1347,
      "Ġstat": 1348,
      "epend": 1349,
      "cing": 1350,
      "min": 1351,
      "Ġproduction": 1352,
      "Ġright": 1353,
      "omin": 1354,
      "rench": 1355,
      "osaurus": 1356,
      "Ġann": 1357,
      "ories": 1358,
      "Ġ15": 1359,
      "af": 1360,
      "18": 1361,
      "arn": 1362,
      "Ġfact": 1363,
      "ended": 1364,
      "ublic": 1365,
      "ales": 1366,
      "Ġcomple": 1367,
      "tic": 1368,
      "ĠNorth": 1369,
      "Ġmag": 1370,
      "Ġphilos": 1371,
      "gypt": 1372,
      "Ġstill": 1373,
      "ality": 1374,
      "ĠUnion": 1375,
      "Ġvis": 1376,
      "pec": 1377,
      "Ġoccur": 1378,
      "Ġimportant": 1379,
      "hod": 1380,
      "ĠEgypt": 1381,
      "cient": 1382,
      "yn": 1383,
      "ively": 1384,
      "ris": 1385,
      "Ġter": 1386,
      "ential": 1387,
      "Ġlargest": 1388,
      "Ġparticular": 1389,
      "Ġprogram": 1390,
      "sen": 1391,
      "Ġstates": 1392,
      "Ġ193": 1393,
      "ches": 1394,
      "Ġpublished": 1395,
      "Ġhistory": 1396,
      "anes": 1397,
      "Ġ195": 1398,
      "Ġaff": 1399,
      "read": 1400,
      "ĠHis": 1401,
      "Ġproper": 1402,
      "Ġbuild": 1403,
      "ele": 1404,
      "arian": 1405,
      "Ġobs": 1406,
      "Ġvarious": 1407,
      "ided": 1408,
      "Ġstand": 1409,
      "ĠRoman": 1410,
      "Ġrelig": 1411,
      "ĠAfric": 1412,
      "ĠFrench": 1413,
      "Ġperform": 1414,
      "Ġgl": 1415,
      "Ġadv": 1416,
      "Ġless": 1417,
      "ĠCar": 1418,
      "Ġeng": 1419,
      "attle": 1420,
      "Ġcer": 1421,
      "ason": 1422,
      "Ġgreat": 1423,
      "ird": 1424,
      "Ġstruct": 1425,
      "ĠGe": 1426,
      "ĠAlexander": 1427,
      "Ġnow": 1428,
      "Ġmean": 1429,
      "Ġfore": 1430,
      "omen": 1431,
      "Ġrest": 1432,
      "Ġphys": 1433,
      "Ġmark": 1434,
      "ĠAcc": 1435,
      "Ġhand": 1436,
      "ably": 1437,
      "Ġspecies": 1438,
      "Ġax": 1439,
      "Ġfun": 1440,
      "Ġhal": 1441,
      "ama": 1442,
      "Ġsignific": 1443,
      "Ġalong": 1444,
      "Ġrepresent": 1445,
      "Ġschool": 1446,
      "Ġcontrol": 1447,
      "ergy": 1448,
      "ivil": 1449,
      "iron": 1450,
      "Ġpat": 1451,
      "oss": 1452,
      "Ġdem": 1453,
      "Ġread": 1454,
      "Ġauthor": 1455,
      "Ġtheory": 1456,
      "Ġopp": 1457,
      "ilt": 1458,
      "Ġorigin": 1459,
      "Ġrele": 1460,
      "Ġshort": 1461,
      "Ġlaw": 1462,
      "Ġwhat": 1463,
      "ĠWhen": 1464,
      "lands": 1465,
      "Ġhistor": 1466,
      "Ġexist": 1467,
      "Ġanother": 1468,
      "ĠRuss": 1469,
      "Ġspace": 1470,
      "Ġsym": 1471,
      "Ġadd": 1472,
      "Ġsomet": 1473,
      "ense": 1474,
      "ĠCol": 1475,
      "raft": 1476,
      "Ġprot": 1477,
      "br": 1478,
      "tal": 1479,
      "ste": 1480,
      "ves": 1481,
      "Ġmilitary": 1482,
      "Ġworks": 1483,
      "Ġide": 1484,
      "Ġfew": 1485,
      "uted": 1486,
      "Ġhead": 1487,
      "Ġcrit": 1488,
      "ĠCan": 1489,
      "ĠUS": 1490,
      "Ġpract": 1491,
      "bers": 1492,
      "Ġav": 1493,
      "oln": 1494,
      "akes": 1495,
      "overed": 1496,
      "Ġgrow": 1497,
      "alth": 1498,
      "ĠArabic": 1499,
      "ĠAccording": 1500,
      "ner": 1501,
      "ices": 1502,
      "Ġhydro": 1503,
      "Ġbecome": 1504,
      "ĠApple": 1505,
      "get": 1506,
      "Ġold": 1507,
      "eth": 1508,
      "ĠAsh": 1509,
      "incoln": 1510,
      "Ġmass": 1511,
      "Ġlim": 1512,
      "Ġvol": 1513,
      "Ġchild": 1514,
      "Ġproduced": 1515,
      "Ġindivid": 1516,
      "Ġanarch": 1517,
      "Ġled": 1518,
      "Ġview": 1519,
      "ĠLincoln": 1520,
      "cer": 1521,
      "eng": 1522,
      "olution": 1523,
      "ither": 1524,
      "Ġreport": 1525,
      "ĠII": 1526,
      "Ġstart": 1527,
      "Ġindust": 1528,
      "Ġgeneral": 1529,
      "wards": 1530,
      "urther": 1531,
      "ister": 1532,
      "ogn": 1533,
      "Ġanal": 1534,
      "Ġdeveloped": 1535,
      "rote": 1536,
      "Ġmater": 1537,
      "Ġalm": 1538,
      "ior": 1539,
      "ĠPar": 1540,
      "ĠDuring": 1541,
      "Ġclaim": 1542,
      "son": 1543,
      "Ġrece": 1544,
      "ĠRep": 1545,
      "Ġline": 1546,
      "Ġplace": 1547,
      "Ġ186": 1548,
      "eb": 1549,
      "less": 1550,
      "Ġcaus": 1551,
      "Ġstudy": 1552,
      "Ġevery": 1553,
      "Ġ12": 1554,
      "Ġbeg": 1555,
      "Ġcomput": 1556,
      "Ġresp": 1557,
      "ured": 1558,
      "Ġarch": 1559,
      "ucle": 1560,
      "Ġobserv": 1561,
      "Ġaddition": 1562,
      "Ġbody": 1563,
      "Ġhel": 1564,
      "com": 1565,
      "Ġ$": 1566,
      "alt": 1567,
      "ĠMus": 1568,
      "Ġpopular": 1569,
      "Ġlast": 1570,
      "Ġnov": 1571,
      "ination": 1572,
      "Ġopen": 1573,
      "Ġusually": 1574,
      "pire": 1575,
      "Ġmake": 1576,
      "Ġtook": 1577,
      "Ġlight": 1578,
      "Ġalk": 1579,
      "Ġstrong": 1580,
      "Ġfin": 1581,
      "Ġgre": 1582,
      "ray": 1583,
      "day": 1584,
      "ration": 1585,
      "Ġpass": 1586,
      "empt": 1587,
      "ude": 1588,
      "Ġmeas": 1589,
      "aut": 1590,
      "inium": 1591,
      "Ġbas": 1592,
      "Ġalg": 1593,
      "Ġcomb": 1594,
      "ink": 1595,
      "etic": 1596,
      "Ġlet": 1597,
      "Ġproduct": 1598,
      "Ġcountries": 1599,
      "ention": 1600,
      "Ġgo": 1601,
      "Ġsug": 1602,
      "Ġprim": 1603,
      "Ġsignificant": 1604,
      "med": 1605,
      "idd": 1606,
      "Ġlevel": 1607,
      "Ġpolitical": 1608,
      "stit": 1609,
      "Ġothers": 1610,
      "Ġassoci": 1611,
      "bit": 1612,
      "Ġpot": 1613,
      "Ġenergy": 1614,
      "Ġmemb": 1615,
      "Ġword": 1616,
      "Ġmy": 1617,
      "Ġmult": 1618,
      "ĠPl": 1619,
      "ruction": 1620,
      "vers": 1621,
      "olic": 1622,
      "ithm": 1623,
      "Ġdr": 1624,
      "Ġder": 1625,
      ".,": 1626,
      "ĠGerman": 1627,
      "ones": 1628,
      "Ġlow": 1629,
      "Ġindepend": 1630,
      "Ġrecord": 1631,
      "ean": 1632,
      "Ġtit": 1633,
      "Ġnat": 1634,
      "Ġvers": 1635,
      "Ġredu": 1636,
      "Ġintrodu": 1637,
      "Ġmethod": 1638,
      "Ġport": 1639,
      "Ġwide": 1640,
      "Ġabs": 1641,
      "Ġobject": 1642,
      "Ġproblem": 1643,
      "Ġway": 1644,
      "Ġalthough": 1645,
      "ĠPo": 1646,
      "ĠEarth": 1647,
      "Ġident": 1648,
      "une": 1649,
      "Ġnamed": 1650,
      "mit": 1651,
      "adem": 1652,
      "ĠArist": 1653,
      "Ġfre": 1654,
      "Ġregion": 1655,
      "Ġmaterial": 1656,
      "app": 1657,
      "Ġ190": 1658,
      "Ġinvol": 1659,
      "ke": 1660,
      "Ġer": 1661,
      "Ġwrote": 1662,
      "Ġnucle": 1663,
      "ĠAlbert": 1664,
      "atter": 1665,
      "Ġsour": 1666,
      "Ġreal": 1667,
      "Ġnational": 1668,
      "ĠOct": 1669,
      "ata": 1670,
      "Ġgod": 1671,
      "rag": 1672,
      "Ġneed": 1673,
      "Ġevent": 1674,
      "Ġsingle": 1675,
      "ator": 1676,
      "ĠQ": 1677,
      "ĠAlban": 1678,
      "Ġreturn": 1679,
      "ril": 1680,
      "Ġwithout": 1681,
      "Ġacid": 1682,
      "Ġsuggest": 1683,
      "ĠAch": 1684,
      "Ġpoint": 1685,
      "Ġsou": 1686,
      "astern": 1687,
      "ivity": 1688,
      "Ġincluded": 1689,
      "Ġsepar": 1690,
      "isc": 1691,
      "ends": 1692,
      "ploy": 1693,
      "ĠJap": 1694,
      "Ġwritten": 1695,
      "Ġlate": 1696,
      "ames": 1697,
      "Ġdecl": 1698,
      "de": 1699,
      "Ġtimes": 1700,
      "Ġ14": 1701,
      "Ġgiven": 1702,
      "side": 1703,
      "Ġdev": 1704,
      "Ġ192": 1705,
      "ĠKing": 1706,
      "ters": 1707,
      "Ġsocial": 1708,
      "Ġcase": 1709,
      "arb": 1710,
      "aster": 1711,
      "ĠOther": 1712,
      "ĠOne": 1713,
      "Ġposition": 1714,
      "Ġcr": 1715,
      "ites": 1716,
      "udi": 1717,
      "Ġfive": 1718,
      "Ġla": 1719,
      "cul": 1720,
      "Ġnorth": 1721,
      "Ġiss": 1722,
      "oviet": 1723,
      "Ġprev": 1724,
      "ĠConf": 1725,
      "iation": 1726,
      "oid": 1727,
      "ope": 1728,
      "ipp": 1729,
      "Ġforms": 1730,
      "Ġdescribed": 1731,
      "ĠArmenia": 1732,
      "ĠAshok": 1733,
      "oot": 1734,
      "sc": 1735,
      "Ġpur": 1736,
      "Ġrun": 1737,
      "Ġleft": 1738,
      "dom": 1739,
      "ky": 1740,
      "ino": 1741,
      "ining": 1742,
      "ered": 1743,
      "ats": 1744,
      "Ġbi": 1745,
      "ĠHit": 1746,
      "ĠNational": 1747,
      "ĠJew": 1748,
      "ĠEngland": 1749,
      "self": 1750,
      "Ġpred": 1751,
      "berg": 1752,
      "Ġdoes": 1753,
      "ĠAc": 1754,
      "ĠBe": 1755,
      "ĠHist": 1756,
      "ops": 1757,
      "ler": 1758,
      "atures": 1759,
      "Ġ11": 1760,
      "ricult": 1761,
      "hol": 1762,
      "Ġ13": 1763,
      "ards": 1764,
      "pecially": 1765,
      "nel": 1766,
      "Ġinit": 1767,
      "ĠCent": 1768,
      "sequ": 1769,
      "Ġhome": 1770,
      "ĠBl": 1771,
      "Ġsaid": 1772,
      "ances": 1773,
      "Ġang": 1774,
      "Ġancient": 1775,
      "Ġchang": 1776,
      "Ġkill": 1777,
      "Ġ202": 1778,
      "Ġjust": 1779,
      "Ġbuilt": 1780,
      "Ġlocal": 1781,
      "Ġfollowing": 1782,
      "Ġsometimes": 1783,
      "Ġhelp": 1784,
      "Ġmembers": 1785,
      "anc": 1786,
      "itive": 1787,
      "Ġhaving": 1788,
      "abor": 1789,
      "Ġnumbers": 1790,
      "Ġturn": 1791,
      "Ġdevelopment": 1792,
      "dam": 1793,
      "Ġtreat": 1794,
      "Ġox": 1795,
      "Ġmot": 1796,
      "ĠWhile": 1797,
      "Ġprof": 1798,
      "Ġheld": 1799,
      "Ġdiff": 1800,
      "rated": 1801,
      "Ġsold": 1802,
      "rod": 1803,
      "Ġelements": 1804,
      "Ġtele": 1805,
      "Ġestablished": 1806,
      "Ġhowever": 1807,
      "used": 1808,
      "Ġrese": 1809,
      "idence": 1810,
      "Ġastron": 1811,
      "Ġbo": 1812,
      "Ġday": 1813,
      "ĠSoviet": 1814,
      "incip": 1815,
      "face": 1816,
      "ule": 1817,
      "Ġsouth": 1818,
      "Ġdown": 1819,
      "Ġel": 1820,
      "Ġalph": 1821,
      "Ġcondition": 1822,
      "ĠAmerica": 1823,
      "formation": 1824,
      "Ġoil": 1825,
      "utions": 1826,
      "ĠAar": 1827,
      "rian": 1828,
      "rial": 1829,
      "by": 1830,
      "Ġareas": 1831,
      "Ġmusic": 1832,
      "now": 1833,
      "ĠHer": 1834,
      "ests": 1835,
      "thern": 1836,
      "lor": 1837,
      "ĠAlthough": 1838,
      "ĠEuropean": 1839,
      "ape": 1840,
      "uary": 1841,
      "Ġoriginal": 1842,
      "ype": 1843,
      "ĠGeor": 1844,
      "augh": 1845,
      "Ġson": 1846,
      "asing": 1847,
      "ots": 1848,
      "ument": 1849,
      "ched": 1850,
      "Ġeither": 1851,
      "urg": 1852,
      "ability": 1853,
      "Ġhalf": 1854,
      "ĠRepublic": 1855,
      "Ġearl": 1856,
      "Ġattempt": 1857,
      "ĠShe": 1858,
      "Ġlower": 1859,
      "ghan": 1860,
      "ification": 1861,
      "sterdam": 1862,
      "ophy": 1863,
      "ert": 1864,
      "Ġcare": 1865,
      "Ġchem": 1866,
      "ĠTur": 1867,
      "Ġgen": 1868,
      "Ġalc": 1869,
      "acy": 1870,
      "Ġshould": 1871,
      "Ġformed": 1872,
      "reme": 1873,
      "ali": 1874,
      "Ġalum": 1875,
      "ĠRo": 1876,
      "ĠWill": 1877,
      "Ġrecogn": 1878,
      "Ġespecially": 1879,
      "cle": 1880,
      "ze": 1881,
      "Ġgu": 1882,
      "istan": 1883,
      "emit": 1884,
      "ĠJu": 1885,
      "Ġsyn": 1886,
      "iber": 1887,
      "Ġver": 1888,
      "ret": 1889,
      "Ġforces": 1890,
      "rap": 1891,
      "ĠEx": 1892,
      "ached": 1893,
      "ĠChurch": 1894,
      "Ġrelations": 1895,
      "ĠEd": 1896,
      "The": 1897,
      "enced": 1898,
      "Ġcame": 1899,
      "hern": 1900,
      "ĠPr": 1901,
      "ĠJan": 1902,
      "craft": 1903,
      "ingu": 1904,
      "Ġformer": 1905,
      "aken": 1906,
      "ym": 1907,
      "Ġcal": 1908,
      "Ġsystems": 1909,
      "ĠAshoka": 1910,
      "of": 1911,
      "oub": 1912,
      "ĠGod": 1913,
      "Ġrul": 1914,
      "inning": 1915,
      "Ġarsen": 1916,
      "imately": 1917,
      "like": 1918,
      "Ġsent": 1919,
      "Ġpri": 1920,
      "ĠAmsterdam": 1921,
      "ode": 1922,
      "ĠWith": 1923,
      "Ġconsist": 1924,
      "ĠAustralia": 1925,
      "ela": 1926,
      "utes": 1927,
      "ĠAngol": 1928,
      "for": 1929,
      "ara": 1930,
      "Ġexperim": 1931,
      "Ġfree": 1932,
      "Ġbeh": 1933,
      "ĠMany": 1934,
      "ĠBell": 1935,
      "Ġ191": 1936,
      "ounds": 1937,
      "ĠCanad": 1938,
      "udd": 1939,
      "orthern": 1940,
      "ĠAlask": 1941,
      "ĠApril": 1942,
      "cil": 1943,
      "Ġrepl": 1944,
      "eter": 1945,
      "Ġsee": 1946,
      "bs": 1947,
      "ique": 1948,
      "ĠEmpire": 1949,
      "Ġcir": 1950,
      "osp": 1951,
      "ĠFrance": 1952,
      "Ġcapital": 1953,
      "Ġterrit": 1954,
      "ĠConfeder": 1955,
      "Ġappear": 1956,
      "hus": 1957,
      "Ġtake": 1958,
      "orithm": 1959,
      "Ġmust": 1960,
      "ths": 1961,
      "Ġleast": 1962,
      "Ġthought": 1963,
      "Ġnatural": 1964,
      "Ġwon": 1965,
      "Ġthroughout": 1966,
      "iction": 1967,
      "ĠAfghan": 1968,
      "rad": 1969,
      "Ġheav": 1970,
      "Ġeconomic": 1971,
      "Ġpossible": 1972,
      "Ġhigher": 1973,
      "Ġdiv": 1974,
      "ĠMed": 1975,
      "ĠNe": 1976,
      "ected": 1977,
      "Ġhimself": 1978,
      "reen": 1979,
      "ĠCal": 1980,
      "ĠNov": 1981,
      "ĠAss": 1982,
      "ĠAnglic": 1983,
      "Ġcreated": 1984,
      ".\"": 1985,
      "ps": 1986,
      "ads": 1987,
      "Ġcentral": 1988,
      "Ġmeans": 1989,
      "Ġsix": 1990,
      "Ġcamp": 1991,
      "Ġbre": 1992,
      "aves": 1993,
      "ĠNo": 1994,
      "Ġaster": 1995,
      "ency": 1996,
      "ĠMay": 1997,
      "ending": 1998,
      "Ġgroups": 1999,
      "Ġsuff": 2000,
      "Ġjo": 2001,
      "Ġgenerally": 2002,
      "ored": 2003,
      "aries": 2004,
      "ĠTo": 2005,
      "Ġclose": 2006,
      "Ġspecial": 2007,
      "Ġage": 2008,
      "Ġside": 2009,
      "ols": 2010,
      "Ġprincip": 2011,
      "ĠChristian": 2012,
      "Ġcurrent": 2013,
      "II": 2014,
      "Ġthird": 2015,
      "ements": 2016,
      "Ġrather": 2017,
      "ternal": 2018,
      "Ġaccept": 2019,
      "ĠAristot": 2020,
      "ĠSw": 2021,
      "Ġrange": 2022,
      "stein": 2023,
      "ĠJuly": 2024,
      "ead": 2025,
      "Ġhow": 2026,
      "ott": 2027,
      "ĠYork": 2028,
      "line": 2029,
      "not": 2030,
      "Ġsum": 2031,
      "ety": 2032,
      "ĠCam": 2033,
      "ĠCong": 2034,
      "Ġnext": 2035,
      "Ġmathem": 2036,
      "ĠWest": 2037,
      "Ġabort": 2038,
      "Ġrole": 2039,
      "ĠAthens": 2040,
      "50": 2041,
      "atin": 2042,
      "Ġtotal": 2043,
      "Ġbecom": 2044,
      "Ġmetal": 2045,
      "Ġpriv": 2046,
      "ĠWarhol": 2047,
      "ĠComm": 2048,
      "Ġliter": 2049,
      "Ġtop": 2050,
      "ung": 2051,
      "ĠBer": 2052,
      "Ġke": 2053,
      "ĠAsia": 2054,
      "Ġcarb": 2055,
      "Ġindividual": 2056,
      "iddle": 2057,
      "Ġtro": 2058,
      "hest": 2059,
      "Ġfinal": 2060,
      "phrod": 2061,
      "Ġeduc": 2062,
      "Ġtemper": 2063,
      "..": 2064,
      "iate": 2065,
      "sh": 2066,
      "ison": 2067,
      "Ġmen": 2068,
      "atively": 2069,
      "ling": 2070,
      "Ġren": 2071,
      "Ġforce": 2072,
      "rain": 2073,
      "hers": 2074,
      "Ġmeaning": 2075,
      "ĠJanuary": 2076,
      "lam": 2077,
      "wh": 2078,
      "Ġparts": 2079,
      "yle": 2080,
      "Ġdel": 2081,
      "Ġscript": 2082,
      "Ġindic": 2083,
      "Ġdefe": 2084,
      "Ġcertain": 2085,
      "Ġnovel": 2086,
      "ctor": 2087,
      "ĠMin": 2088,
      "ula": 2089,
      "Ġprom": 2090,
      "Ġchange": 2091,
      "Ġnever": 2092,
      "ĠAchill": 2093,
      "rew": 2094,
      "Ġfarm": 2095,
      "Ġep": 2096,
      "ĠCrow": 2097,
      "Ġyoun": 2098,
      "ĠComp": 2099,
      "ĠAlaska": 2100,
      "hib": 2101,
      "aly": 2102,
      "Ġbus": 2103,
      "icult": 2104,
      "Ġpa": 2105,
      "Ġge": 2106,
      "ify": 2107,
      "ĠChar": 2108,
      "ondon": 2109,
      "ography": 2110,
      "Ġcourt": 2111,
      "iers": 2112,
      "ways": 2113,
      "lection": 2114,
      "aining": 2115,
      "ressed": 2116,
      "Ġterms": 2117,
      "iness": 2118,
      "ĠGener": 2119,
      "Ġagricult": 2120,
      "Ġimpro": 2121,
      "Ġcontinued": 2122,
      "itude": 2123,
      "Ġalb": 2124,
      "ĠAlab": 2125,
      "Ġmodel": 2126,
      "Ġsymb": 2127,
      "phrodite": 2128,
      "Ġbr": 2129,
      "Ġdest": 2130,
      "ĠGr": 2131,
      "Ġwords": 2132,
      "ples": 2133,
      "arily": 2134,
      "Ġtw": 2135,
      "anish": 2136,
      "Ġfather": 2137,
      "Ġproject": 2138,
      "Ġcho": 2139,
      "Ġitself": 2140,
      "Ġacross": 2141,
      "Ġemploy": 2142,
      "ĠSept": 2143,
      "monia": 2144,
      "Ġsw": 2145,
      "orph": 2146,
      "Ġbir": 2147,
      "ĠInternational": 2148,
      "Ġcomplete": 2149,
      "Ġengine": 2150,
      "Ġalgorithm": 2151,
      "uddh": 2152,
      "Ġpost": 2153,
      "Ġassemb": 2154,
      "Ġfunction": 2155,
      "itu": 2156,
      "Ġfield": 2157,
      "omy": 2158,
      "Ġeth": 2159,
      "igu": 2160,
      "ĠPart": 2161,
      "ĠLondon": 2162,
      "Ġsurface": 2163,
      "Ġreligious": 2164,
      "ĠAfrica": 2165,
      "Ġalmost": 2166,
      "ĠTurk": 2167,
      "action": 2168,
      "Ġmaking": 2169,
      "Ġcomplex": 2170,
      "10": 2171,
      "oon": 2172,
      "iter": 2173,
      "ĠAudi": 2174,
      "Ġhold": 2175,
      "Ġenc": 2176,
      "Ġschol": 2177,
      "Ġbuilding": 2178,
      "ĠAlabama": 2179,
      "Ġseen": 2180,
      "ĠAlger": 2181,
      "Ġtax": 2182,
      "Ġfood": 2183,
      "Ġfurther": 2184,
      "ĠCrowley": 2185,
      "inct": 2186,
      "ĠAphrodite": 2187,
      "ĠSince": 2188,
      "Ġsubject": 2189,
      "ĠMarch": 2190,
      "Ġtransl": 2191,
      "ĠAristotle": 2192,
      "ĠMost": 2193,
      "raw": 2194,
      "ands": 2195,
      "Ġabove": 2196,
      "Ġscient": 2197,
      "Ġprevious": 2198,
      "eum": 2199,
      "ourn": 2200,
      "awa": 2201,
      "ĠSeptember": 2202,
      "ham": 2203,
      "inted": 2204,
      "Ġwhe": 2205,
      "Ġfri": 2206,
      "oms": 2207,
      "Ġstory": 2208,
      "Ġcompany": 2209,
      "viron": 2210,
      "Ġmount": 2211,
      "ĠPers": 2212,
      "rict": 2213,
      "Ġelement": 2214,
      "Ġteam": 2215,
      "Ġlocated": 2216,
      "ties": 2217,
      "rel": 2218,
      "Ġinternational": 2219,
      "ades": 2220,
      "ĠIf": 2221,
      "ĠBr": 2222,
      "throp": 2223,
      "Ġdeterm": 2224,
      "ĠWilliam": 2225,
      "ma": 2226,
      "Ġtype": 2227,
      "Ġsal": 2228,
      "Ġfind": 2229,
      "Ġfollowed": 2230,
      "Ġchildren": 2231,
      "Ġaluminium": 2232,
      "mber": 2233,
      "Ġess": 2234,
      "Ġcivil": 2235,
      "Ġden": 2236,
      "chie": 2237,
      "Ġsuper": 2238,
      "Ġcontrib": 2239,
      "ĠSea": 2240,
      "Ġknow": 2241,
      "Ġapprox": 2242,
      "Ġdied": 2243,
      "leg": 2244,
      "ceed": 2245,
      "cember": 2246,
      "osition": 2247,
      "ption": 2248,
      "Ġquant": 2249,
      "Ġstructure": 2250,
      "val": 2251,
      "Ġaver": 2252,
      "enh": 2253,
      "Ġdi": 2254,
      "Ġthus": 2255,
      "ĠWestern": 2256,
      "ĠJune": 2257,
      "Ġrespect": 2258,
      "Ġ30": 2259,
      "Ġbelieved": 2260,
      "Ġdifficult": 2261,
      "Ġresearch": 2262,
      "ĠBattle": 2263,
      "Ġregard": 2264,
      "Ġstandard": 2265,
      "Ġcop": 2266,
      "Ġbest": 2267,
      "Ġfig": 2268,
      "Ġdata": 2269,
      "Ġconcent": 2270,
      "Ġplan": 2271,
      "Ġdiscovered": 2272,
      "Ġeconomy": 2273,
      "Ġfar": 2274,
      "rot": 2275,
      "assi": 2276,
      "ront": 2277,
      "Ġcoast": 2278,
      "Ġmach": 2279,
      "ĠBuddh": 2280,
      "ĠPe": 2281,
      "ĠPres": 2282,
      "aps": 2283,
      "Ġground": 2284,
      "ĠAnglican": 2285,
      "Â°": 2286,
      "Ġcle": 2287,
      "Ġcapt": 2288,
      "Ġ(\"": 2289,
      "Ġvict": 2290,
      "antic": 2291,
      "Ġneg": 2292,
      "cript": 2293,
      "oids": 2294,
      "itect": 2295,
      "ours": 2296,
      "ĠDecember": 2297,
      "Ġassociated": 2298,
      "Ġversion": 2299,
      "erous": 2300,
      "ĠAct": 2301,
      "ote": 2302,
      "Ġgood": 2303,
      "Ġconcept": 2304,
      "umb": 2305,
      "Ġexcept": 2306,
      "Ġmetals": 2307,
      "Ġinterest": 2308,
      "Ġentire": 2309,
      "Ġmultip": 2310,
      "cial": 2311,
      "Ġfall": 2312,
      "ington": 2313,
      "chan": 2314,
      "aint": 2315,
      "oyal": 2316,
      "ĠArmy": 2317,
      "Ġofficial": 2318,
      "Ġmagn": 2319,
      "ĠX": 2320,
      "Ġ[": 2321,
      "Ġfac": 2322,
      "ĠPat": 2323,
      "Ġdisp": 2324,
      "ĠAthena": 2325,
      "ĠGreat": 2326,
      "Ġadop": 2327,
      "ression": 2328,
      "Ġ2010": 2329,
      "Ġassist": 2330,
      "Ġwriting": 2331,
      "Ġbroad": 2332,
      "Ġreleased": 2333,
      "elaide": 2334,
      "bo": 2335,
      "cock": 2336,
      "lin": 2337,
      "rast": 2338,
      "Ġtour": 2339,
      "Ġ24": 2340,
      "uros": 2341,
      "Ġintroduced": 2342,
      "ĠCongress": 2343,
      "Ġcause": 2344,
      "alk": 2345,
      "Ġgas": 2346,
      "Ġfilms": 2347,
      "ĠPhil": 2348,
      "Ġbooks": 2349,
      "instein": 2350,
      "Ġbor": 2351,
      "ĠAD": 2352,
      "Ġdays": 2353,
      "uries": 2354,
      "resp": 2355,
      "orts": 2356,
      "tained": 2357,
      "Ġestim": 2358,
      "ĠHitch": 2359,
      "Ġmathemat": 2360,
      "ef": 2361,
      "ta": 2362,
      "Ġwin": 2363,
      "resnel": 2364,
      "ounced": 2365,
      "Ġabb": 2366,
      "ĠAdelaide": 2367,
      "ĠAgassi": 2368,
      "upp": 2369,
      "Ġcoll": 2370,
      "ĠMon": 2371,
      "ĠEl": 2372,
      "Ġspok": 2373,
      "Ġmovement": 2374,
      "Ġbit": 2375,
      "Ġfund": 2376,
      "Ġmother": 2377,
      "let": 2378,
      "ĠSpe": 2379,
      "Ġdeb": 2380,
      "Ġamount": 2381,
      "ĠAarhus": 2382,
      "Ġ0": 2383,
      "Ġsize": 2384,
      "Ġwomen": 2385,
      "Ġ()": 2386,
      "ĠPol": 2387,
      "ĠDav": 2388,
      "Ġacids": 2389,
      "Ġcolon": 2390,
      "Ġreported": 2391,
      "bra": 2392,
      "uf": 2393,
      "Ġfoc": 2394,
      "Ġfail": 2395,
      "ĠAir": 2396,
      "Ġet": 2397,
      "Ġ100": 2398,
      "Ġaccording": 2399,
      "ĠNovember": 2400,
      "ĠHitchcock": 2401,
      "ole": 2402,
      "atory": 2403,
      "Ġtoget": 2404,
      "Ġhard": 2405,
      "ĠCath": 2406,
      "Ġdeg": 2407,
      "Ġincludes": 2408,
      "ensive": 2409,
      "Ġevidence": 2410,
      "Ġvalue": 2411,
      "Ġtogether": 2412,
      "Ġoffer": 2413,
      "Ġgave": 2414,
      "Ġconc": 2415,
      "ĠDes": 2416,
      "Ġrelated": 2417,
      "ysis": 2418,
      "Ġill": 2419,
      "Ġlay": 2420,
      "Ġ21": 2421,
      "ĠArt": 2422,
      "Ġtypically": 2423,
      "Ġlaun": 2424,
      "ober": 2425,
      "Ġproduce": 2426,
      "Ġattack": 2427,
      "Ġrelationship": 2428,
      "aign": 2429,
      "pite": 2430,
      "vision": 2431,
      "Ã¶": 2432,
      "ising": 2433,
      "Ġmix": 2434,
      "ulf": 2435,
      "ĠBook": 2436,
      "Ġord": 2437,
      "ĠFresnel": 2438,
      "Ġlearn": 2439,
      "Ġphot": 2440,
      "Ġtrade": 2441,
      "anese": 2442,
      "Ġtitle": 2443,
      "Ġfrequ": 2444,
      "Ġcy": 2445,
      "unic": 2446,
      "ĠHar": 2447,
      "Ġvow": 2448,
      "ĠLatin": 2449,
      "Ġwidely": 2450,
      "Ġarsenic": 2451,
      "ery": 2452,
      "Ġcases": 2453,
      "Ġlost": 2454,
      "ĠSy": 2455,
      "ĠEinstein": 2456,
      "ria": 2457,
      "Ġcommer": 2458,
      "ĠRiver": 2459,
      "Ġmoved": 2460,
      "ĠChina": 2461,
      "ĠAtl": 2462,
      "Ġanimals": 2463,
      "ĠAngola": 2464,
      "urosawa": 2465,
      "respond": 2466,
      "Ġfull": 2467,
      "stand": 2468,
      "Ġisland": 2469,
      "ague": 2470,
      "cret": 2471,
      "Ġtre": 2472,
      "Ġtest": 2473,
      "Ġtri": 2474,
      "ering": 2475,
      "Ġbran": 2476,
      "Ġexam": 2477,
      "ĠAnton": 2478,
      "ĠKurosawa": 2479,
      "Ġcomputer": 2480,
      "ming": 2481,
      "ators": 2482,
      "ĠCa": 2483,
      "Ġ189": 2484,
      "Ġupon": 2485,
      "Ġculture": 2486,
      "\")": 2487,
      "ux": 2488,
      "Ġi": 2489,
      "ĠAB": 2490,
      "Ġdomin": 2491,
      "Ġorbit": 2492,
      "ĠFeb": 2493,
      "aces": 2494,
      "Ġplayed": 2495,
      "Ġavail": 2496,
      "Ġreceived": 2497,
      "ĠOctober": 2498,
      "ĠAcadem": 2499,
      "Ġprivate": 2500,
      "reg": 2501,
      "ĠAS": 2502,
      "Ġdoub": 2503,
      "umen": 2504,
      "ift": 2505,
      "clus": 2506,
      "ĠVol": 2507,
      "Ġprec": 2508,
      "Ġarchitect": 2509,
      "Ġcarbon": 2510,
      "ĠGeneral": 2511,
      "ee": 2512,
      "ica": 2513,
      "ruary": 2514,
      "Ġapplic": 2515,
      "ĠCont": 2516,
      "Ġanti": 2517,
      "Ġtypes": 2518,
      "Ġarmy": 2519,
      "sel": 2520,
      "Ġsat": 2521,
      "ilities": 2522,
      "ĠEast": 2523,
      "Ġaccount": 2524,
      "Ġremains": 2525,
      "lected": 2526,
      "Ġindustry": 2527,
      "ĠAfghanistan": 2528,
      "Ġaverage": 2529,
      "sp": 2530,
      "Ġtaken": 2531,
      "Ġmem": 2532,
      "Ġtown": 2533,
      "ĠSoc": 2534,
      "Ġgra": 2535,
      "Ġrate": 2536,
      "Ġsea": 2537,
      "ĠRussian": 2538,
      "ĠAlbania": 2539,
      "ened": 2540,
      "Ġnature": 2541,
      "Ġreferred": 2542,
      "iol": 2543,
      "Ġwhose": 2544,
      "Ġkey": 2545,
      "Ġsubst": 2546,
      "ength": 2547,
      "ush": 2548,
      "ĠPer": 2549,
      "openh": 2550,
      "Ġable": 2551,
      "ĠIts": 2552,
      "rought": 2553,
      "Ġdefin": 2554,
      "Ġfeatures": 2555,
      "Ġproperties": 2556,
      "Ġprofess": 2557,
      "ream": 2558,
      "Ġself": 2559,
      "Ġfav": 2560,
      "Ġlive": 2561,
      "Ġliving": 2562,
      "ateg": 2563,
      "agn": 2564,
      "anted": 2565,
      "ĠAnn": 2566,
      "ief": 2567,
      "ĠChristie": 2568,
      "Ġgrowth": 2569,
      "Ġalkali": 2570,
      "Man": 2571,
      "work": 2572,
      "Ġanch": 2573,
      "Ġbillion": 2574,
      "Ġreason": 2575,
      "Ġagre": 2576,
      "ĠSpider": 2577,
      "Ġatoms": 2578,
      "Ġparticularly": 2579,
      "ĠKingdom": 2580,
      "vironment": 2581,
      "15": 2582,
      "ires": 2583,
      "sy": 2584,
      "Ġhealth": 2585,
      "ĠAnat": 2586,
      "Ġprovide": 2587,
      "ĠIndian": 2588,
      "Ġlittle": 2589,
      "ĠHistory": 2590,
      "ĠFebruary": 2591,
      "ald": 2592,
      "Ġbase": 2593,
      "Ġmer": 2594,
      "istry": 2595,
      "ume": 2596,
      "aged": 2597,
      "rug": 2598,
      "Ġinstit": 2599,
      "Ġconstit": 2600,
      "Ġrequired": 2601,
      "Ġtraditional": 2602,
      "Ġnorm": 2603,
      "ĠMod": 2604,
      "ĠFrom": 2605,
      "play": 2606,
      "ĠState": 2607,
      "Ġammonia": 2608,
      "ought": 2609,
      "Ġremained": 2610,
      "Ġinstead": 2611,
      "ĠRev": 2612,
      "Ġfeature": 2613,
      "Ġatomic": 2614,
      "Ġproposed": 2615,
      "BA": 2616,
      "ÃŃ": 2617,
      "Ġachie": 2618,
      "Ġmid": 2619,
      "uth": 2620,
      "Ġste": 2621,
      "ouncil": 2622,
      "Ġaccord": 2623,
      "Ġincreasing": 2624,
      "Ġtechnology": 2625,
      "att": 2626,
      "Ġperm": 2627,
      "Ġunivers": 2628,
      "Ġtext": 2629,
      "obal": 2630,
      "Ġspecific": 2631,
      "Ġcorrespond": 2632,
      "Ġsuccessful": 2633,
      "ving": 2634,
      "ware": 2635,
      "ises": 2636,
      "Ġcompet": 2637,
      "duct": 2638,
      "Ġlarger": 2639,
      "Ġservice": 2640,
      "auer": 2641,
      "Ġphilosophy": 2642,
      "cular": 2643,
      "Ġcell": 2644,
      "Ġinterp": 2645,
      "Ġincreased": 2646,
      "Ġalphab": 2647,
      "Ġcat": 2648,
      "Ġinformation": 2649,
      "ĠPort": 2650,
      "Ġcompounds": 2651,
      "Ġtransport": 2652,
      "Ġsmaller": 2653,
      "ĠZe": 2654,
      "Ġeventually": 2655,
      "Ġyoung": 2656,
      "ĠAcademy": 2657,
      "Ġhost": 2658,
      "Ġ25": 2659,
      "Ġadapt": 2660,
      "Ġextreme": 2661,
      "Ġstarted": 2662,
      "aul": 2663,
      "go": 2664,
      "Ġeast": 2665,
      "Ġlog": 2666,
      "raction": 2667,
      "ems": 2668,
      "Ġ50": 2669,
      "Ġrights": 2670,
      "ĠAlberta": 2671,
      "SA": 2672,
      "ges": 2673,
      "xiety": 2674,
      "Ġsqu": 2675,
      "Ġanthrop": 2676,
      "Ġking": 2677,
      "Ġpercent": 2678,
      "Ġactiv": 2679,
      "Ġinvest": 2680,
      "ĠEgyptian": 2681,
      "Ġconditions": 2682,
      "Ġalchem": 2683,
      "Ġavailable": 2684,
      "icient": 2685,
      "rog": 2686,
      "asi": 2687,
      "ĠPark": 2688,
      "elling": 2689,
      "Ġneut": 2690,
      "Ġworking": 2691,
      "Ġsource": 2692,
      "Ġabortion": 2693,
      "ĠCatholic": 2694,
      "200": 2695,
      "lim": 2696,
      "ints": 2697,
      "iting": 2698,
      "Ġpast": 2699,
      "Ġreached": 2700,
      "imal": 2701,
      "oses": 2702,
      "ĠPress": 2703,
      "Ġrank": 2704,
      "ects": 2705,
      "Ġspeak": 2706,
      "Ġincrease": 2707,
      "ĠAchilles": 2708,
      "ball": 2709,
      "Ġ&": 2710,
      "Ġsem": 2711,
      "Ġcost": 2712,
      "uture": 2713,
      "ĠMan": 2714,
      "istics": 2715,
      "ĠGu": 2716,
      "Ġpoly": 2717,
      "ĠPresident": 2718,
      "17": 2719,
      "lement": 2720,
      "ĠTe": 2721,
      "omb": 2722,
      "Ġonce": 2723,
      "Ġstar": 2724,
      "acks": 2725,
      "Ġevents": 2726,
      "Ġvariety": 2727,
      "ĠIndia": 2728,
      "ĠAugustus": 2729,
      "Ġhighest": 2730,
      "Ġmarket": 2731,
      "mediate": 2732,
      "put": 2733,
      "year": 2734,
      "Ġsil": 2735,
      "Ġwent": 2736,
      "ĠMet": 2737,
      "Ġaltern": 2738,
      "ĠRes": 2739,
      "ĠKar": 2740,
      "Ġconstruction": 2741,
      "Ġallowed": 2742,
      "Ġapproximately": 2743,
      "ĠSpeer": 2744,
      "co": 2745,
      "iest": 2746,
      "uk": 2747,
      "yr": 2748,
      "ĠAv": 2749,
      "ĠTuring": 2750,
      "Ġleading": 2751,
      "12": 2752,
      "Ġfem": 2753,
      "onds": 2754,
      "Ġoutside": 2755,
      "Ġradio": 2756,
      "Ġphysical": 2757,
      "Ġproblems": 2758,
      "Ġbirth": 2759,
      "Ġbrought": 2760,
      "icism": 2761,
      "Ġmight": 2762,
      "Ġhouse": 2763,
      "Ġlack": 2764,
      "oted": 2765,
      "ocr": 2766,
      "Ġcannot": 2767,
      "Ġdefined": 2768,
      "ĠAndor": 2769,
      "Ġinfluence": 2770,
      "openhauer": 2771,
      "Ġur": 2772,
      "Ġsong": 2773,
      "ĠMe": 2774,
      "ogen": 2775,
      "Ġmechan": 2776,
      "Ġanalysis": 2777,
      "ĠParis": 2778,
      "ĠJews": 2779,
      "Ġearlier": 2780,
      "Ġconcern": 2781,
      "Ġpress": 2782,
      "Ġreb": 2783,
      "ille": 2784,
      "ilies": 2785,
      "ulated": 2786,
      "Ġsubsequ": 2787,
      "ledge": 2788,
      "ĠBritain": 2789,
      "Ġmatter": 2790,
      "Ġhydrogen": 2791,
      "Ġcaused": 2792,
      "ĠCanada": 2793,
      "Ġcampaign": 2794,
      "uel": 2795,
      "Ġwave": 2796,
      "Ġcreat": 2797,
      "Ġborn": 2798,
      "Ġemer": 2799,
      "Ġnet": 2800,
      "ourt": 2801,
      "Ġmostly": 2802,
      "Ġregions": 2803,
      "Ġaccom": 2804,
      "Ġprovided": 2805,
      "Ġnames": 2806,
      "ĠJapanese": 2807,
      "ana": 2808,
      "Ġmember": 2809,
      "Ġnorthern": 2810,
      "ĠCor": 2811,
      "Ġgold": 2812,
      "Ġconson": 2813,
      "Ġscience": 2814,
      "Ġaccess": 2815,
      "Ġquest": 2816,
      "Ġstudies": 2817,
      "Ġdirectly": 2818,
      "Ġwhether": 2819,
      "30": 2820,
      "arc": 2821,
      "Ġrelatively": 2822,
      "Ġ2009": 2823,
      "Ġ1990": 2824,
      "Ġfamous": 2825,
      "Ġmonths": 2826,
      "ĠSchopenhauer": 2827,
      "Ġz": 2828,
      "eds": 2829,
      "Ġwest": 2830,
      "icle": 2831,
      "Ġlo": 2832,
      "Ġ2014": 2833,
      "ney": 2834,
      "Ġcommonly": 2835,
      "Ġmajority": 2836,
      "ashington": 2837,
      "Ġelectrons": 2838,
      "Ġterritory": 2839,
      "Ġtroops": 2840,
      "Ġeducation": 2841,
      "Ġspoken": 2842,
      "ufact": 2843,
      "light": 2844,
      "lied": 2845,
      "Ġdig": 2846,
      "Ġlist": 2847,
      "ĠCivil": 2848,
      "Ġuses": 2849,
      "Ġfounded": 2850,
      "Ġcrew": 2851,
      "Ġcharacters": 2852,
      "Ġadded": 2853,
      "Ġpotential": 2854,
      "selves": 2855,
      "ios": 2856,
      "Ġtrib": 2857,
      "hel": 2858,
      "ĠThom": 2859,
      "Ġdistinct": 2860,
      "Ġsouthern": 2861,
      "Ġangle": 2862,
      "Ġscholars": 2863,
      "ford": 2864,
      "off": 2865,
      "Ġ-": 2866,
      "roy": 2867,
      "ĠSou": 2868,
      "idge": 2869,
      "ows": 2870,
      "ĠWashington": 2871,
      "Ġpresident": 2872,
      "Ġlargely": 2873,
      "ĠAfrican": 2874,
      "Ġproducts": 2875,
      "Ġderived": 2876,
      "Ġsaw": 2877,
      "Ġcities": 2878,
      "que": 2879,
      "Ġmole": 2880,
      "Ġcommand": 2881,
      "Ġsett": 2882,
      "Ġresults": 2883,
      "Ġlimited": 2884,
      "ĠGeorge": 2885,
      "isl": 2886,
      "Ġ2000": 2887,
      "Ġsurv": 2888,
      "Ġ1960": 2889,
      "Ġdesigned": 2890,
      "Ġforeign": 2891,
      "16": 2892,
      "met": 2893,
      "Ġwife": 2894,
      "Ġdial": 2895,
      "ĠMount": 2896,
      "Ġstyle": 2897,
      "ĠRand": 2898,
      "ipl": 2899,
      "uba": 2900,
      "Ġ187": 2901,
      "Ġrock": 2902,
      "Ġappears": 2903,
      "ĠGermany": 2904,
      "Ġaxi": 2905,
      "bor": 2906,
      "cur": 2907,
      "Ã¼": 2908,
      "Ġaction": 2909,
      "Ġsound": 2910,
      "itzer": 2911,
      "Ġeas": 2912,
      "ĠMor": 2913,
      "Ġadmin": 2914,
      "ibility": 2915,
      "Ġpolic": 2916,
      "Ġtravel": 2917,
      "axim": 2918,
      "Ġrequire": 2919,
      "eh": 2920,
      "nown": 2921,
      "uals": 2922,
      "van": 2923,
      "atives": 2924,
      "Ġcele": 2925,
      "Ġmouth": 2926,
      "Ġmention": 2927,
      "Ġprote": 2928,
      "ounter": 2929,
      "ĠSpanish": 2930,
      "Ġantim": 2931,
      "Ġprimary": 2932,
      "Ġchanges": 2933,
      "hing": 2934,
      "Ġaway": 2935,
      "Ġput": 2936,
      "Ġtowards": 2937,
      "uments": 2938,
      "Ġchurch": 2939,
      "itions": 2940,
      "Ġseparate": 2941,
      "Ġestimated": 2942,
      "ias": 2943,
      "Ġsitu": 2944,
      "ston": 2945,
      "ibr": 2946,
      "insberg": 2947,
      "Ġweight": 2948,
      "Ġbelow": 2949,
      "Ġbeginning": 2950,
      "Ġobjects": 2951,
      "ection": 2952,
      "rown": 2953,
      "Ġdoc": 2954,
      "lying": 2955,
      "ĠInstit": 2956,
      "ously": 2957,
      "Ġship": 2958,
      "rick": 2959,
      "Ġappo": 2960,
      "Ġ177": 2961,
      "Ġ1980": 2962,
      "porary": 2963,
      "Ġchemical": 2964,
      "asiatic": 2965,
      "su": 2966,
      "icles": 2967,
      "roasiatic": 2968,
      "utch": 2969,
      "Ġalways": 2970,
      "ĠGinsberg": 2971,
      "ference": 2972,
      "Ġwestern": 2973,
      "Ġfuture": 2974,
      "Ġlength": 2975,
      "Ġautom": 2976,
      "enna": 2977,
      "Ġletters": 2978,
      "Ġbusiness": 2979,
      "Ġchoice": 2980,
      "aff": 2981,
      "Ġtend": 2982,
      "inary": 2983,
      "Ġanxiety": 2984,
      "Ġfa": 2985,
      "Ġfight": 2986,
      "Ġhom": 2987,
      "Ġred": 2988,
      "ĠDem": 2989,
      "Ġunit": 2990,
      "Ġarr": 2991,
      "Ġ2020": 2992,
      "Ġmeet": 2993,
      "Ġthemselves": 2994,
      "Ġsolution": 2995,
      "iques": 2996,
      "Ġmeasure": 2997,
      "ĠABBA": 2998,
      "ĠAnatol": 2999,
      "gin": 3000,
      "mp": 3001,
      "Ġir": 3002,
      "Ġtru": 3003,
      "het": 3004,
      "Ġsens": 3005,
      "Ġcross": 3006,
      "aring": 3007,
      "Ġfish": 3008,
      "Ġdivid": 3009,
      "ĠMc": 3010,
      "ĠMiss": 3011,
      "ĠPri": 3012,
      "Ġcompan": 3013,
      "Ġeffects": 3014,
      "Ġaircraft": 3015,
      "Ġcit": 3016,
      "asion": 3017,
      "Ġtoo": 3018,
      "Ġreact": 3019,
      "str": 3020,
      "ĠCity": 3021,
      "Ġconn": 3022,
      "ellig": 3023,
      "Ġ2008": 3024,
      "Ġoccup": 3025,
      "Ġcontinu": 3026,
      "Ġanimation": 3027,
      "ĠArmenian": 3028,
      "Ġindependent": 3029,
      "emitic": 3030,
      "cap": 3031,
      "ning": 3032,
      "wide": 3033,
      "ĠMy": 3034,
      "uls": 3035,
      "Ġalt": 3036,
      "owers": 3037,
      "ĠHouse": 3038,
      "Ġcontains": 3039,
      "Ġ2013": 3040,
      "Ġrail": 3041,
      "Ġmanufact": 3042,
      "Ġcultural": 3043,
      "iences": 3044,
      "Ġisot": 3045,
      "ĠHen": 3046,
      "Ġvill": 3047,
      "ĠFirst": 3048,
      "Ġsex": 3049,
      "ĠAnother": 3050,
      "Ġenvironment": 3051,
      "Ġcenturies": 3052,
      "Ġsociety": 3053,
      "Ġprobably": 3054,
      "Ġpersonal": 3055,
      "Ġestablish": 3056,
      "ĠAustralian": 3057,
      "Ġrespons": 3058,
      "ĠAlgeria": 3059,
      "Ġcelebr": 3060,
      "life": 3061,
      "âĪ": 3062,
      "Ġspect": 3063,
      "Ġpurp": 3064,
      "Ġalbum": 3065,
      "irot": 3066,
      "known": 3067,
      "Äģ": 3068,
      "Ġfell": 3069,
      "icated": 3070,
      "iles": 3071,
      "ether": 3072,
      "irit": 3073,
      "Ġrat": 3074,
      "Ġ2017": 3075,
      "Ġparticip": 3076,
      "Ġresulting": 3077,
      "Ġserved": 3078,
      "Ġdiscover": 3079,
      "Ġnearly": 3080,
      "Ġproperty": 3081,
      "Ġperformed": 3082,
      "Ġkilled": 3083,
      "Ġcareer": 3084,
      "ĠAtlantic": 3085,
      "11": 3086,
      "80": 3087,
      "ares": 3088,
      "avery": 3089,
      "isation": 3090,
      "Ġlatter": 3091,
      "ĠDel": 3092,
      "Ġclimate": 3093,
      "ĠVal": 3094,
      "Ġrecent": 3095,
      "ields": 3096,
      "Ġlegal": 3097,
      "Ġidea": 3098,
      "Ġclaimed": 3099,
      "ĠJapan": 3100,
      "ĠRobert": 3101,
      "Ġmachine": 3102,
      "eff": 3103,
      "pir": 3104,
      "Ġopt": 3105,
      "Ġfoot": 3106,
      "ented": 3107,
      "ĠCo": 3108,
      "ĠCourt": 3109,
      "Ġexpect": 3110,
      "oney": 3111,
      "Ġhighly": 3112,
      "Ġappeared": 3113,
      "Ġ1970": 3114,
      "Ġinfluenced": 3115,
      "ĠRussia": 3116,
      "ĠPoirot": 3117,
      "ĠCharles": 3118,
      "Ġcommercial": 3119,
      "sych": 3120,
      "bed": 3121,
      "nd": 3122,
      "sky": 3123,
      "ĠBra": 3124,
      "ĠEastern": 3125,
      "elled": 3126,
      "ĠKh": 3127,
      "Ġcontain": 3128,
      "izing": 3129,
      "Ġprevent": 3130,
      "Ġ2011": 3131,
      "Ġletter": 3132,
      "Ġindependence": 3133,
      "Ġcalcul": 3134,
      "oe": 3135,
      "onic": 3136,
      "rest": 3137,
      "oral": 3138,
      "ĠBut": 3139,
      "opes": 3140,
      "Ġnecess": 3141,
      "Ġcommit": 3142,
      "Ġparticles": 3143,
      "Ġoriginally": 3144,
      "Ġobserved": 3145,
      "aughter": 3146,
      "ĠÃ": 3147,
      "itation": 3148,
      "ĠMoon": 3149,
      "opher": 3150,
      "Ġplant": 3151,
      "Ġ2012": 3152,
      "Ġjud": 3153,
      "Ġconflic": 3154,
      "Ġreturned": 3155,
      "Ġastronom": 3156,
      "can": 3157,
      "hood": 3158,
      "west": 3159,
      "Ġion": 3160,
      "atine": 3161,
      "Ġcry": 3162,
      "Ġpron": 3163,
      "Ġstage": 3164,
      "phib": 3165,
      "Ġimm": 3166,
      "Ġdiss": 3167,
      "aching": 3168,
      "Ġbetter": 3169,
      "Ġfamilies": 3170,
      "Ġcreate": 3171,
      "ĠGreece": 3172,
      "ĠIslam": 3173,
      "be": 3174,
      "Ġten": 3175,
      "roup": 3176,
      "Ġhon": 3177,
      "Ġwhom": 3178,
      "Ġunits": 3179,
      "Ġspread": 3180,
      "Ġscreen": 3181,
      "Ġdistrib": 3182,
      "ecause": 3183,
      "Ġbrother": 3184,
      "Ġmultiple": 3185,
      "iated": 3186,
      "Ġiron": 3187,
      "isions": 3188,
      "Ġgive": 3189,
      "ĠLov": 3190,
      "Ġcontrast": 3191,
      "Ġrot": 3192,
      "Ġmedia": 3193,
      "13": 3194,
      "arct": 3195,
      "Ġpain": 3196,
      "Ġmic": 3197,
      "Ġeight": 3198,
      "cean": 3199,
      "Ġwhite": 3200,
      "Ġviol": 3201,
      "Ġ23": 3202,
      "Ġdise": 3203,
      "Ġ2006": 3204,
      "Ġtherefore": 3205,
      "Ġglobal": 3206,
      "Ġhistorical": 3207,
      "Ġsources": 3208,
      "Ġsoul": 3209,
      "ĠConfederate": 3210,
      "Ġbecomes": 3211,
      "ician": 3212,
      "Ġnit": 3213,
      "ĠMiddle": 3214,
      "Ġconduct": 3215,
      "Ġorb": 3216,
      "Ġparty": 3217,
      "Ġformal": 3218,
      "Ġ40": 3219,
      "Ġannounced": 3220,
      "Ġinvolved": 3221,
      "Ġera": 3222,
      "Ġcirc": 3223,
      "Ġbitumen": 3224,
      "ĠDavid": 3225,
      "unicip": 3226,
      ");": 3227,
      "based": 3228,
      "Ã¨": 3229,
      "Ġtar": 3230,
      "itor": 3231,
      "Ġinj": 3232,
      "Ġbattle": 3233,
      "eles": 3234,
      "Ġseason": 3235,
      "ills": 3236,
      "Ġearth": 3237,
      "Ġmethods": 3238,
      "lo": 3239,
      "Ġbur": 3240,
      "ett": 3241,
      "Ġexec": 3242,
      "Ġexhib": 3243,
      "Ġamb": 3244,
      "Ġ2007": 3245,
      "Ġflu": 3246,
      "Ġexperience": 3247,
      "ĠEarly": 3248,
      "Ġlevels": 3249,
      "Ġtelevision": 3250,
      "14": 3251,
      "tical": 3252,
      "Ġaward": 3253,
      "Ġconvent": 3254,
      "ĠLa": 3255,
      "ĠDutch": 3256,
      "ĠJames": 3257,
      "Ġinteg": 3258,
      "Ġneigh": 3259,
      "Ġassum": 3260,
      "Ġwee": 3261,
      "Ġhumans": 3262,
      "Ġreview": 3263,
      "ĠAzerbaijani": 3264,
      "Ġreplaced": 3265,
      "Ġaccepted": 3266,
      "Ġclear": 3267,
      "Ġmakes": 3268,
      "urs": 3269,
      "urches": 3270,
      "Ġsurround": 3271,
      "Ġprovince": 3272,
      "Ġlikely": 3273,
      "rin": 3274,
      "ĠTrans": 3275,
      "Ġey": 3276,
      "Ġlabor": 3277,
      "iding": 3278,
      "Ġconver": 3279,
      "ĠRome": 3280,
      "Ġ22": 3281,
      "Ġplants": 3282,
      "Ġemph": 3283,
      "dess": 3284,
      "rich": 3285,
      "writ": 3286,
      "Ġcover": 3287,
      "Ġreaction": 3288,
      "ĠSer": 3289,
      "ĠCount": 3290,
      "ĠBecause": 3291,
      "Ġstated": 3292,
      "ĠPaul": 3293,
      "akh": 3294,
      "Ġplaced": 3295,
      "Ġamino": 3296,
      "Ġ2015": 3297,
      "Ġtechniques": 3298,
      "Ġargued": 3299,
      "Ġschools": 3300,
      "Ġsymbol": 3301,
      "Ġalphabet": 3302,
      "nam": 3303,
      "och": 3304,
      "pro": 3305,
      "Ġbound": 3306,
      "ĠSim": 3307,
      "alled": 3308,
      "Ġ2016": 3309,
      "Ġnumerous": 3310,
      "arkov": 3311,
      "Ġremov": 3312,
      "Ġconstruct": 3313,
      "Ġblack": 3314,
      "Ġtemperature": 3315,
      "Ġadopted": 3316,
      "Ġdivided": 3317,
      "heast": 3318,
      "ĠTest": 3319,
      "Ġnation": 3320,
      "ĠBel": 3321,
      "ĠFurther": 3322,
      "Ġshown": 3323,
      "ferred": 3324,
      "Ġrap": 3325,
      "Ġpoor": 3326,
      "Ġunderstand": 3327,
      "Ġworked": 3328,
      "Ġactive": 3329,
      "Ġmainly": 3330,
      "anned": 3331,
      "Ġbelief": 3332,
      "ĠThomas": 3333,
      "ĠInstitute": 3334,
      "ras": 3335,
      "ĠMac": 3336,
      "Ġcome": 3337,
      "pped": 3338,
      "Ġcompared": 3339,
      "igned": 3340,
      "Ġenough": 3341,
      "Ġ2018": 3342,
      "Ġregular": 3343,
      "Ġpoints": 3344,
      "Ġlonger": 3345,
      "Ġknowledge": 3346,
      "ĠPortug": 3347,
      "ĠAndorra": 3348,
      "actions": 3349,
      "cast": 3350,
      "Ġtoday": 3351,
      "Ġded": 3352,
      "Ġreject": 3353,
      "olved": 3354,
      "Ġgame": 3355,
      "Ġconqu": 3356,
      "osing": 3357,
      "astic": 3358,
      "Ġcompar": 3359,
      "Ġcontem": 3360,
      "Ġplays": 3361,
      "ibly": 3362,
      "rents": 3363,
      "Ġsubs": 3364,
      "hesis": 3365,
      "Ġsoft": 3366,
      "Ġpresence": 3367,
      "Ġforest": 3368,
      "Ġgreater": 3369,
      "Ġbehav": 3370,
      "Ġagricultural": 3371,
      "ging": 3372,
      "inus": 3373,
      "eral": 3374,
      "Ġdraw": 3375,
      "Ġhous": 3376,
      "Ġlines": 3377,
      "amb": 3378,
      "ĠMary": 3379,
      "Ġ26": 3380,
      "ĠWe": 3381,
      "uda": 3382,
      "Ġrule": 3383,
      "Ġ184": 3384,
      "ĠItaly": 3385,
      "Ġacadem": 3386,
      "Ġrare": 3387,
      "199": 3388,
      "Ġservices": 3389,
      "Ġminor": 3390,
      "airs": 3391,
      "Ġnuclear": 3392,
      "Ġbreak": 3393,
      "Ġvictory": 3394,
      "âĪĴ": 3395,
      "Ġsense": 3396,
      "Ġcateg": 3397,
      "Ġdom": 3398,
      "imens": 3399,
      "erson": 3400,
      "Ġdeep": 3401,
      "ables": 3402,
      "Ġresist": 3403,
      "Ġmedical": 3404,
      "Ġissues": 3405,
      "Ġanchor": 3406,
      "Ġcitiz": 3407,
      "Ġaud": 3408,
      "atosaurus": 3409,
      "aled": 3410,
      "Ġmission": 3411,
      "Ġdyn": 3412,
      "ĠTheir": 3413,
      "ership": 3414,
      "ĠPre": 3415,
      "Ġpromin": 3416,
      "Ġsequ": 3417,
      "ights": 3418,
      "ĠAruba": 3419,
      "ĠStud": 3420,
      "inese": 3421,
      "Ġdetail": 3422,
      "Ġcommunity": 3423,
      "ready": 3424,
      "Ġpractice": 3425,
      "ev": 3426,
      "icted": 3427,
      "Ġlab": 3428,
      "ĠSu": 3429,
      "urder": 3430,
      "Ġstep": 3431,
      "estival": 3432,
      "ĠOld": 3433,
      "peror": 3434,
      "Ġ185": 3435,
      "Ġconsists": 3436,
      "Ġcenter": 3437,
      "Ġcharge": 3438,
      "Ġincor": 3439,
      "Ġdemon": 3440,
      "Ġindustrial": 3441,
      "Ġbasis": 3442,
      "Ġasteroids": 3443,
      "Ġliterature": 3444,
      "Ġassembly": 3445,
      "ĠAvic": 3446,
      "men": 3447,
      "ont": 3448,
      "Ġcode": 3449,
      "Ġlove": 3450,
      "ĠSam": 3451,
      "Ġaspect": 3452,
      "Ġalready": 3453,
      "ĠHigh": 3454,
      "iff": 3455,
      "Ġvia": 3456,
      "ĠRich": 3457,
      "Ġris": 3458,
      "Ġcontract": 3459,
      "aceae": 3460,
      "Ġremain": 3461,
      "Ġcollection": 3462,
      "Ġslavery": 3463,
      "Ġdirector": 3464,
      "Ġgoddess": 3465,
      "ĠParty": 3466,
      "Ġanime": 3467,
      "aling": 3468,
      "Ġstri": 3469,
      "oper": 3470,
      "anded": 3471,
      "iforn": 3472,
      "Ġvary": 3473,
      "ĠChinese": 3474,
      "Ġresour": 3475,
      "Ġ182": 3476,
      "Ġdiscuss": 3477,
      "ĠSchool": 3478,
      "ĠAntarct": 3479,
      "Ġreligion": 3480,
      "ĠCentral": 3481,
      "Ġtreatment": 3482,
      "ĠCaliforn": 3483,
      "aph": 3484,
      "ech": 3485,
      "king": 3486,
      "tt": 3487,
      "Ġeastern": 3488,
      "Ġlook": 3489,
      "ament": 3490,
      "ested": 3491,
      "Ġarran": 3492,
      "Ġwhole": 3493,
      "Ġquick": 3494,
      "ĠAda": 3495,
      "ĠProt": 3496,
      "Ġsupported": 3497,
      "Ġgrad": 3498,
      "Ġprimarily": 3499,
      "Ġfocus": 3500,
      "ĠRevolution": 3501,
      "oly": 3502,
      "itic": 3503,
      "Ġhyp": 3504,
      "Ġislands": 3505,
      "Ġstable": 3506,
      "Ġconv": 3507,
      "Ġyet": 3508,
      "Ġcentre": 3509,
      "196": 3510,
      "Ġsigned": 3511,
      "Ġdistingu": 3512,
      "Ġmatch": 3513,
      "ĠOctav": 3514,
      "Ġturned": 3515,
      "Ġjoined": 3516,
      "Ġsummer": 3517,
      "upper": 3518,
      "capital": 3519,
      "ĠCalifornia": 3520,
      "ĠMil": 3521,
      "odium": 3522,
      "ĠGl": 3523,
      "artment": 3524,
      "reng": 3525,
      "Ġpoet": 3526,
      "vey": 3527,
      "Ġinstr": 3528,
      "Ġdecided": 3529,
      "ĠMuseum": 3530,
      "ĠJewish": 3531,
      "Ġpaper": 3532,
      "ĠAvicenna": 3533,
      "ores": 3534,
      "ror": 3535,
      "Ġsac": 3536,
      "anced": 3537,
      "Ġhours": 3538,
      "Ġloss": 3539,
      "Ġvir": 3540,
      "Ġriver": 3541,
      "Ġ2005": 3542,
      "Ġequal": 3543,
      "ederal": 3544,
      "Ġsuggested": 3545,
      "Ġissue": 3546,
      "emitism": 3547,
      "ĠSouthern": 3548,
      "Ġtrue": 3549,
      "most": 3550,
      "pan": 3551,
      "Ġfront": 3552,
      "ĠTwo": 3553,
      "Ġvarian": 3554,
      "ĠRoyal": 3555,
      "Ġ188": 3556,
      "ĠVir": 3557,
      "Ġslow": 3558,
      "Ġtemple": 3559,
      "ĠAntigu": 3560,
      "Ġideas": 3561,
      "Ġadditional": 3562,
      "mitted": 3563,
      "Ġrespectively": 3564,
      "ĠModern": 3565,
      "well": 3566,
      "Ġcrop": 3567,
      "ĠAri": 3568,
      "Ġever": 3569,
      "ĠSm": 3570,
      "ĠSun": 3571,
      "ĠCur": 3572,
      "Ġalge": 3573,
      "ĠBab": 3574,
      "ĠNA": 3575,
      "antine": 3576,
      "Ġcompon": 3577,
      "ĠArch": 3578,
      "cont": 3579,
      "Ġround": 3580,
      "Ġpolar": 3581,
      "Ġsimple": 3582,
      "Ġanimal": 3583,
      "ĠAllosaurus": 3584,
      "Ġrepresented": 3585,
      "Ġbasic": 3586,
      "Ġmyth": 3587,
      "ĠCommun": 3588,
      "Ġscientific": 3589,
      "Ġanthropology": 3590,
      "Ġadminist": 3591,
      "BC": 3592,
      "ya": 3593,
      "Ã¡": 3594,
      "Ġwall": 3595,
      "Ġche": 3596,
      "Ġinn": 3597,
      "Ġinternal": 3598,
      "Ġpen": 3599,
      "Ġthous": 3600,
      "irm": 3601,
      "Ġstreng": 3602,
      "ĠOpen": 3603,
      "Ġcomposed": 3604,
      "Ġintellig": 3605,
      "Ġ183": 3606,
      "Ġlegisl": 3607,
      "Ġstructures": 3608,
      "Ġauthority": 3609,
      "Ġanarchism": 3610,
      "ĠQu": 3611,
      "Ġasteroid": 3612,
      "ournal": 3613,
      "li": 3614,
      "Ġwind": 3615,
      "Ġwood": 3616,
      "Ġbar": 3617,
      "Ġfer": 3618,
      "Ġpay": 3619,
      "ĠAster": 3620,
      "Ġdaughter": 3621,
      "Ġstories": 3622,
      "Ġability": 3623,
      "izes": 3624,
      "Ġdirection": 3625,
      "Ġnucleus": 3626,
      "Ġmountain": 3627,
      "\"),": 3628,
      "part": 3629,
      "ss": 3630,
      "Ġtakes": 3631,
      "onse": 3632,
      "anks": 3633,
      "alle": 3634,
      "Ġbene": 3635,
      "road": 3636,
      "asons": 3637,
      "Ġhapp": 3638,
      "omer": 3639,
      "lymp": 3640,
      "ĠCouncil": 3641,
      "ĠGovern": 3642,
      "ĠDay": 3643,
      "illa": 3644,
      "Ġchurches": 3645,
      "Ġemb": 3646,
      "ĠAmaz": 3647,
      "Ġsets": 3648,
      "Ġdistance": 3649,
      "Ġimpact": 3650,
      "Ġshell": 3651,
      "Ġmarried": 3652,
      "ĠBlack": 3653,
      "Ġsoldiers": 3654,
      "Ġdegree": 3655,
      "Ġquestion": 3656,
      "ĠHenry": 3657,
      "che": 3658,
      "ked": 3659,
      "onian": 3660,
      "Ġfrag": 3661,
      "Ġlived": 3662,
      "otic": 3663,
      "ĠHol": 3664,
      "Ġdecre": 3665,
      "ĠLater": 3666,
      "ĠOlymp": 3667,
      "Ġchlor": 3668,
      "Ġ2019": 3669,
      "ampions": 3670,
      "Ġsoon": 3671,
      "Ġclassical": 3672,
      "iament": 3673,
      "Ġcompleted": 3674,
      "Ġaxon": 3675,
      "Ġearliest": 3676,
      "Ġkeep": 3677,
      ".)": 3678,
      "arent": 3679,
      "burg": 3680,
      "Ġult": 3681,
      "Ġband": 3682,
      "Ġget": 3683,
      "odies": 3684,
      "Ġhero": 3685,
      "Ġspirit": 3686,
      "ĠApatosaurus": 3687,
      "Ġpositive": 3688,
      "ĠArmin": 3689,
      "Ġoffice": 3690,
      "Ġrecorded": 3691,
      "Ġ2021": 3692,
      "ĠZeus": 3693,
      "ĠAnatolia": 3694,
      "Ġrapid": 3695,
      "mark": 3696,
      "oes": 3697,
      "Ġupper": 3698,
      "atch": 3699,
      "Ġcut": 3700,
      "ico": 3701,
      "Ġpric": 3702,
      "unar": 3703,
      "uman": 3704,
      "ĠPeter": 3705,
      "Ġnoted": 3706,
      "Ġens": 3707,
      "Ġ2001": 3708,
      "ĠSpain": 3709,
      "Ġoccurs": 3710,
      "Ġdefeated": 3711,
      "Ġemphas": 3712,
      "ha": 3713,
      "rim": 3714,
      "Ã§": 3715,
      "Ã³": 3716,
      "rev": 3717,
      "Ġop": 3718,
      "ici": 3719,
      "ĠAe": 3720,
      "Ġreve": 3721,
      "Ġnar": 3722,
      "Ġstars": 3723,
      "Ġchall": 3724,
      "ĠAlps": 3725,
      "ĠUnder": 3726,
      "ĠAmericans": 3727,
      "ĠSecond": 3728,
      "Ġelected": 3729,
      "Ġ1999": 3730,
      "Ġstatus": 3731,
      "stitution": 3732,
      "ĠGeorg": 3733,
      "Ġdestroy": 3734,
      "Ġfriend": 3735,
      "ĠDespite": 3736,
      "Ġdefinition": 3737,
      "Ġactivities": 3738,
      "ES": 3739,
      "cks": 3740,
      "hab": 3741,
      "ply": 3742,
      "Ġdam": 3743,
      "ĠTer": 3744,
      "ĠIran": 3745,
      "ĠMore": 3746,
      "ully": 3747,
      "Ġ27": 3748,
      "Ġsector": 3749,
      "ĠSte": 3750,
      "ĠThus": 3751,
      "Ġdisplay": 3752,
      "undred": 3753,
      "Ġacqu": 3754,
      "Ġpreserv": 3755,
      "Ġlocation": 3756,
      "Ġappointed": 3757,
      "Al": 3758,
      "ael": 3759,
      "aud": 3760,
      "win": 3761,
      "erc": 3762,
      "Ġcou": 3763,
      "Ġpsych": 3764,
      "ĠAI": 3765,
      "ĠTreat": 3766,
      "ĠTarkov": 3767,
      "unt": 3768,
      "Ġseven": 3769,
      "ective": 3770,
      "Ġimmediate": 3771,
      "Ġtex": 3772,
      "Ġattract": 3773,
      "Ġelectric": 3774,
      "Ġstudents": 3775,
      "ixed": 3776,
      "Ġcarried": 3777,
      "Ġreflect": 3778,
      "Ġoperations": 3779,
      "Ġvisit": 3780,
      "Ġ1950": 3781,
      "Ġexistence": 3782,
      "Ġidentified": 3783,
      "Ġcompanies": 3784,
      "mod": 3785,
      "wor": 3786,
      "ĠMars": 3787,
      "Ġdead": 3788,
      "obel": 3789,
      "Ġsettle": 3790,
      "Ġmaintain": 3791,
      "Ġvalues": 3792,
      "Ġapproach": 3793,
      "Ġpattern": 3794,
      "Ġopened": 3795,
      "Ġbecoming": 3796,
      "Ġfriends": 3797,
      "Ġfigure": 3798,
      "lers": 3799,
      "uge": 3800,
      "Ġtaking": 3801,
      "ishes": 3802,
      "itan": 3803,
      "ĠBarb": 3804,
      "avy": 3805,
      "ĠGra": 3806,
      "ĠFort": 3807,
      "illed": 3808,
      "Ġclos": 3809,
      "isms": 3810,
      "ensity": 3811,
      "Ġ2002": 3812,
      "197": 3813,
      "Ġwriter": 3814,
      "Ġresulted": 3815,
      "Ġinscript": 3816,
      "Ġpossess": 3817,
      "ĠClass": 3818,
      "Ġreading": 3819,
      "ĠMuslim": 3820,
      "Ġneeded": 3821,
      "Ġethn": 3822,
      "ĠSociety": 3823,
      "Ġalgebra": 3824,
      "liament": 3825,
      "mar": 3826,
      "ship": 3827,
      "Ġtable": 3828,
      "inem": 3829,
      "Ġsay": 3830,
      "orial": 3831,
      "lege": 3832,
      "ĠMich": 3833,
      "rier": 3834,
      "ĠForm": 3835,
      "Ġexact": 3836,
      "ĠDep": 3837,
      "aker": 3838,
      "Ġshape": 3839,
      "overty": 3840,
      "ensus": 3841,
      "Ġapplied": 3842,
      "Ġpeace": 3843,
      "Ġquar": 3844,
      "Ġdecay": 3845,
      "Ġdecision": 3846,
      "Ġastatine": 3847,
      "Ġindividuals": 3848,
      "Ġresponse": 3849,
      "Ġagriculture": 3850,
      "curity": 3851,
      "Ġincorpor": 3852,
      "Ġquickly": 3853,
      "ĠTarkovsky": 3854,
      "ground": 3855,
      "ygen": 3856,
      "inate": 3857,
      "Ġmel": 3858,
      "Ġmunicip": 3859,
      "ump": 3860,
      "ĠArg": 3861,
      "Ġ2004": 3862,
      "Ġattrib": 3863,
      "Ġflight": 3864,
      "Ġtraining": 3865,
      "Ġshows": 3866,
      "Ġcerem": 3867,
      "Ġbenef": 3868,
      "Ġaim": 3869,
      "Ġpun": 3870,
      "Ġthings": 3871,
      "ĠJul": 3872,
      "ideo": 3873,
      "Ġcontact": 3874,
      "Ġamphib": 3875,
      "obs": 3876,
      "Ġbelong": 3877,
      "Ġcommunic": 3878,
      "Ġmaterials": 3879,
      "board": 3880,
      "Ġinterpret": 3881,
      "Ġaxiom": 3882,
      "Ġpolicy": 3883,
      "oz": 3884,
      "Ġsite": 3885,
      "Ġsaf": 3886,
      "Ġfully": 3887,
      "Ġpoll": 3888,
      "Ġhar": 3889,
      "use": 3890,
      "enth": 3891,
      "Ġlif": 3892,
      "Ġforced": 3893,
      "aches": 3894,
      "iance": 3895,
      "Ġrise": 3896,
      "ĠAnk": 3897,
      "Ġelection": 3898,
      "ports": 3899,
      "Ġsoil": 3900,
      "Ġequival": 3901,
      "Ġannual": 3902,
      "Ġoldest": 3903,
      "which": 3904,
      "Ġquantum": 3905,
      "Ġwinter": 3906,
      "more": 3907,
      "rid": 3908,
      "Ġwoman": 3909,
      "itable": 3910,
      "order": 3911,
      "alian": 3912,
      "Ġpoverty": 3913,
      "Ġliqu": 3914,
      "ithium": 3915,
      "ĠBoth": 3916,
      "ĠRom": 3917,
      "Ġrang": 3918,
      "ĠThat": 3919,
      "Ġworldwide": 3920,
      "Ġdecades": 3921,
      "Ġmedic": 3922,
      "ĠIsland": 3923,
      "Ġbuildings": 3924,
      "ĠASL": 3925,
      "Ġsemi": 3926,
      "esium": 3927,
      "rogen": 3928,
      "ĠSl": 3929,
      "ĠBo": 3930,
      "rons": 3931,
      "Ġ2003": 3932,
      "Ġactivity": 3933,
      "aeus": 3934,
      "Ġstudied": 3935,
      "Ġdepos": 3936,
      "Ġ178": 3937,
      "ĠJohnston": 3938,
      "rison": 3939,
      "Ġsynt": 3940,
      "Ġinstitutions": 3941,
      "Ġaccordion": 3942,
      "Ġconflict": 3943,
      "ĠAntigua": 3944,
      "na": 3945,
      "yg": 3946,
      "era": 3947,
      "Ġdram": 3948,
      "ĠBet": 3949,
      "estic": 3950,
      "iform": 3951,
      "rief": 3952,
      "ĠNobel": 3953,
      "ishop": 3954,
      "ception": 3955,
      "Ġextens": 3956,
      "Ġantis": 3957,
      "ophical": 3958,
      "Ġfourth": 3959,
      "ographic": 3960,
      "Ġinitial": 3961,
      "Ġexperiment": 3962,
      "ĠCamus": 3963,
      "ĠPhilip": 3964,
      "uxley": 3965,
      "Ġsteel": 3966,
      "ocratic": 3967,
      "Ġtexts": 3968,
      "ext": 3969,
      "ns": 3970,
      "oor": 3971,
      "pass": 3972,
      "rate": 3973,
      "view": 3974,
      "ĠÎ": 3975,
      "Ġtheore": 3976,
      "rol": 3977,
      "otes": 3978,
      "ĠMass": 3979,
      "Ġ(),": 3980,
      "Ġvan": 3981,
      "ĠLaw": 3982,
      "ĠOf": 3983,
      "cles": 3984,
      "Ġadult": 3985,
      "Ġformation": 3986,
      "wood": 3987,
      "Ġpeak": 3988,
      "Ġdoct": 3989,
      "Ġlaws": 3990,
      "ĠHistor": 3991,
      "Ġalcoh": 3992,
      "Ġprior": 3993,
      "ĠPersian": 3994,
      "Ġnegative": 3995,
      "Ġmathematics": 3996,
      "Ġprofessional": 3997,
      "25": 3998,
      "cest": 3999,
      "ki": 4000,
      "Ġ#": 4001,
      "Ġsus": 4002,
      "Ġca": 4003,
      "Ġstation": 4004,
      "ĠHuxley": 4005,
      "ĠFollow": 4006,
      "Ġ29": 4007,
      "ograp": 4008,
      "pha": 4009,
      "assium": 4010,
      "rying": 4011,
      "Ġrob": 4012,
      "Ġconsum": 4013,
      "Ġmanag": 4014,
      "Ġmagaz": 4015,
      "Ġgrowing": 4016,
      "Ġanarcho": 4017,
      "Ġalgorithms": 4018,
      "Ġborder": 4019,
      "Ġconstitution": 4020,
      "Ġpurpose": 4021,
      "ao": 4022,
      "inces": 4023,
      "rect": 4024,
      "ita": 4025,
      "Ġburn": 4026,
      "Ġdate": 4027,
      "Ġdivers": 4028,
      "Ġreform": 4029,
      "ĠSan": 4030,
      "ĠSemitic": 4031,
      "ĠInter": 4032,
      "Ġsearch": 4033,
      "Ġaband": 4034,
      "Ġkind": 4035,
      "ova": 4036,
      "Ġreserv": 4037,
      "Ġspent": 4038,
      "Ġmodels": 4039,
      "Ġweap": 4040,
      "Ġextended": 4041,
      "Ġinstance": 4042,
      "Ġshowed": 4043,
      "Ġrelease": 4044,
      "Ġcauses": 4045,
      "Ġcombined": 4046,
      "Ġ2022": 4047,
      "Ġoxid": 4048,
      "Ġalpha": 4049,
      "Ġbroadcast": 4050,
      "Ġmathematical": 4051,
      "Ġlaunched": 4052,
      "ĠSystem": 4053,
      "Ġsquare": 4054,
      "Ġdocument": 4055,
      "ĠAmazing": 4056,
      "Am": 4057,
      "ca": 4058,
      "haps": 4059,
      "inated": 4060,
      "Ġcred": 4061,
      "Ġfire": 4062,
      "amm": 4063,
      "ams": 4064,
      "ulate": 4065,
      "agram": 4066,
      "ieval": 4067,
      "lled": 4068,
      "ĠReg": 4069,
      "Ġenter": 4070,
      "Ġslight": 4071,
      "Ġ60": 4072,
      "ĠSchwe": 4073,
      "Ġperformance": 4074,
      "ĠColumb": 4075,
      "Ġreduced": 4076,
      "Ġfreed": 4077,
      "ĠAlbanian": 4078,
      "Ġbehind": 4079,
      "Ġclosely": 4080,
      "ĠBuddhist": 4081,
      "Ġetc": 4082,
      "Ġapplications": 4083,
      "Ġcitizens": 4084,
      "rine": 4085,
      "head": 4086,
      "Ġspl": 4087,
      "icit": 4088,
      "Ġpp": 4089,
      "Ġpath": 4090,
      "Ġmoney": 4091,
      "iment": 4092,
      "change": 4093,
      "uter": 4094,
      "Ġcomes": 4095,
      "ĠNorthern": 4096,
      "Ġund": 4097,
      "Ġsyll": 4098,
      "anguage": 4099,
      "Ġremaining": 4100,
      "ropol": 4101,
      "Ġserious": 4102,
      "Ġskull": 4103,
      "Ġallows": 4104,
      "Ġcritical": 4105,
      "Ġastronaut": 4106,
      "aught": 4107,
      "iterran": 4108,
      "Ġfailed": 4109,
      "ibrary": 4110,
      "Ġcryst": 4111,
      "Ġresources": 4112,
      "ĠOctavian": 4113,
      "ampionship": 4114,
      "ĠFollowing": 4115,
      "rical": 4116,
      "time": 4117,
      "with": 4118,
      "Ġpet": 4119,
      "Ġphen": 4120,
      "Ġmill": 4121,
      "entially": 4122,
      "ĠTV": 4123,
      "ouis": 4124,
      "ĠSever": 4125,
      "urd": 4126,
      "ĠMex": 4127,
      "Ġstop": 4128,
      "osis": 4129,
      "ĠUN": 4130,
      "Ġimpl": 4131,
      "tee": 4132,
      "Ġended": 4133,
      "Ġrefers": 4134,
      "Ġleader": 4135,
      "Ġ80": 4136,
      "Ġbelieve": 4137,
      "Ġauthors": 4138,
      "Ġcritic": 4139,
      "Ġprinciple": 4140,
      "ĠTurkey": 4141,
      "Ġpreviously": 4142,
      "Ġoffered": 4143,
      "Ġvowel": 4144,
      "Ġhypot": 4145,
      "vement": 4146,
      "Ġour": 4147,
      "Ġsnow": 4148,
      "enz": 4149,
      "Ġbodies": 4150,
      "Ġdone": 4151,
      "ĠTro": 4152,
      "Ġthreat": 4153,
      "ĠIm": 4154,
      "ĠMart": 4155,
      "ĠPal": 4156,
      "ĠEach": 4157,
      "ods": 4158,
      "odes": 4159,
      "riage": 4160,
      "Ġveh": 4161,
      "Ġcollect": 4162,
      "Ġgovernor": 4163,
      "Ġpresented": 4164,
      "Ġoccurred": 4165,
      "Ġdetermined": 4166,
      "Ġmentioned": 4167,
      "\").": 4168,
      "',": 4169,
      "ien": 4170,
      "Ġmom": 4171,
      "olf": 4172,
      "ĠSen": 4173,
      "amples": 4174,
      "ĠDis": 4175,
      "ĠAncient": 4176,
      "ĠJose": 4177,
      "Ġnotable": 4178,
      "Ġadj": 4179,
      "ĠStand": 4180,
      "acter": 4181,
      "ictions": 4182,
      "Ġblood": 4183,
      "Ġdirected": 4184,
      "Ġfactors": 4185,
      "Ġ1930": 4186,
      "Ġdeclared": 4187,
      "Ġinitially": 4188,
      "Ġchanged": 4189,
      "Ġoxygen": 4190,
      "Ġurban": 4191,
      "Ġpressure": 4192,
      "ĠAnkara": 4193,
      "ĠSchweitzer": 4194,
      "47": 4195,
      "hat": 4196,
      "such": 4197,
      "Ġnative": 4198,
      "ĠGreen": 4199,
      "ĠOtt": 4200,
      "Ġresid": 4201,
      "cons": 4202,
      "Ġwritings": 4203,
      "Ġimplement": 4204,
      "ĠDef": 4205,
      "Ġconstant": 4206,
      "Ġcreation": 4207,
      "century": 4208,
      "Ġeffective": 4209,
      "ĠCompany": 4210,
      "Ġfemale": 4211,
      "Ġabandon": 4212,
      ",\"": 4213,
      "mission": 4214,
      "ned": 4215,
      "Ġmale": 4216,
      "Ġhundred": 4217,
      "Ġeg": 4218,
      "Ġgraph": 4219,
      "Ġstay": 4220,
      "ĠFl": 4221,
      "sec": 4222,
      "Ġchief": 4223,
      "arden": 4224,
      "Ġclosed": 4225,
      "outheast": 4226,
      "Ġneur": 4227,
      "Ġjur": 4228,
      "issions": 4229,
      "Ġracing": 4230,
      "Ġcommunities": 4231,
      "Ġmarked": 4232,
      "ĠMediterran": 4233,
      "Ġregarded": 4234,
      "Ġfavor": 4235,
      "ĠIslamic": 4236,
      "ĠVirgin": 4237,
      "ĠAege": 4238,
      "ĠMediterranean": 4239,
      "rus": 4240,
      "rative": 4241,
      "uff": 4242,
      "water": 4243,
      "yond": 4244,
      "Ġx": 4245,
      "Ġmiddle": 4246,
      "Ġbeyond": 4247,
      "ĠMal": 4248,
      "Ġconclud": 4249,
      "ĠGold": 4250,
      "ĠFilm": 4251,
      "Ġmove": 4252,
      "Ġsecret": 4253,
      "Ġchain": 4254,
      "orders": 4255,
      "Ġamate": 4256,
      "Ġdifference": 4257,
      "ĠSpace": 4258,
      "Ġfeed": 4259,
      "Ġdepend": 4260,
      "Ġtechnique": 4261,
      "ĠFranc": 4262,
      "Ġmoving": 4263,
      "Ġfunctions": 4264,
      "Ġspacecraft": 4265,
      "Ġolder": 4266,
      "Ġfinanc": 4267,
      "Ġpassed": 4268,
      "Ġabsor": 4269,
      "Ġheavy": 4270,
      "ĠGrand": 4271,
      "ceeded": 4272,
      "Ġorders": 4273,
      "Ġcells": 4274,
      "NA": 4275,
      "bell": 4276,
      "field": 4277,
      "oir": 4278,
      "war": 4279,
      "Ġice": 4280,
      "ancy": 4281,
      "Ġfif": 4282,
      "Ġdon": 4283,
      "Ġdipl": 4284,
      "Ġnav": 4285,
      "ulations": 4286,
      "ĠHel": 4287,
      "ĠHun": 4288,
      "Ġ28": 4289,
      "see": 4290,
      "Ġleaving": 4291,
      "Ġshare": 4292,
      "Ġ180": 4293,
      "Ġspeech": 4294,
      "198": 4295,
      "Ġdescript": 4296,
      "Ġserve": 4297,
      "Ġplayer": 4298,
      "Ġmuseum": 4299,
      "Ġnovels": 4300,
      "ĠSwed": 4301,
      "Ġfrequently": 4302,
      "Ġfaith": 4303,
      "Ġacademic": 4304,
      "Ġprominent": 4305,
      "Ġsalt": 4306,
      "Ġsodium": 4307,
      "Ġinhab": 4308,
      "ils": 4309,
      "utive": 4310,
      "Ġstre": 4311,
      "Ġconsequ": 4312,
      "Ġproport": 4313,
      "ĠUl": 4314,
      "ector": 4315,
      "izations": 4316,
      "Ġspeed": 4317,
      "Ġprem": 4318,
      "Ġwhereas": 4319,
      "Ġartists": 4320,
      "Ġparticle": 4321,
      "Ġrevolution": 4322,
      "Ġequip": 4323,
      "ĠMarc": 4324,
      "Ġskin": 4325,
      "Ġmotor": 4326,
      "force": 4327,
      "Ġvowels": 4328,
      "Ġbranches": 4329,
      "Ġexamples": 4330,
      "Ġsubsequently": 4331,
      "Ġdiscovery": 4332,
      "Ġdisease": 4333,
      "Ġorbital": 4334,
      "ĠProtest": 4335,
      "40": 4336,
      "band": 4337,
      "inental": 4338,
      "Ġcounter": 4339,
      "Ġfields": 4340,
      "Ġmis": 4341,
      "level": 4342,
      "igation": 4343,
      "ĠMaced": 4344,
      "ifically": 4345,
      "Ġexc": 4346,
      "ĠNaz": 4347,
      "ĠItalian": 4348,
      "obe": 4349,
      "Ġexpress": 4350,
      "Ġentered": 4351,
      "ĠByz": 4352,
      "ĠBCE": 4353,
      "Ġofficially": 4354,
      "Ġmotion": 4355,
      "Ġrecognized": 4356,
      "Ġverte": 4357,
      "ĠCanadian": 4358,
      "ospital": 4359,
      "Ġlearning": 4360,
      "Ġbranch": 4361,
      "Ġrejected": 4362,
      "ĠSeveral": 4363,
      "ĠAegean": 4364,
      "DP": 4365,
      "ken": 4366,
      "xic": 4367,
      "Ġtried": 4368,
      "ato": 4369,
      "ena": 4370,
      "Ġcovered": 4371,
      "Ġbrief": 4372,
      "Ġfiction": 4373,
      "Ġreasons": 4374,
      "olar": 4375,
      "ida": 4376,
      "imb": 4377,
      "ĠAlso": 4378,
      "earch": 4379,
      "Ġimper": 4380,
      "ĠVen": 4381,
      "aily": 4382,
      "Ġsimply": 4383,
      "Ġprocesses": 4384,
      "ĠAssoci": 4385,
      "ĠCaes": 4386,
      "Ġspeakers": 4387,
      "Ġalternative": 4388,
      "Ġaltru": 4389,
      "Ġexpected": 4390,
      "Ġcontemporary": 4391,
      "Ġrisk": 4392,
      "22": 4393,
      "bour": 4394,
      "born": 4395,
      "iable": 4396,
      "Ġcust": 4397,
      "Ġancest": 4398,
      "Ġpie": 4399,
      "Ġdra": 4400,
      "Ġhor": 4401,
      "ĠTra": 4402,
      "elt": 4403,
      "ĠBi": 4404,
      "Ġconne": 4405,
      "ately": 4406,
      "ĠDen": 4407,
      "ĠOver": 4408,
      "Ġresemb": 4409,
      "Ġapparent": 4410,
      "Ġcolor": 4411,
      "Ġprovides": 4412,
      "Ġprovinces": 4413,
      "ĠYear": 4414,
      "anning": 4415,
      "Ġrequires": 4416,
      "onym": 4417,
      "Ġclaims": 4418,
      "Ġantimony": 4419,
      "Ġweeks": 4420,
      "Americ": 4421,
      "lies": 4422,
      "set": 4423,
      "ĠAst": 4424,
      "oles": 4425,
      "olute": 4426,
      "osen": 4427,
      "ĠHall": 4428,
      "ĠDan": 4429,
      "ocks": 4430,
      "Ġsection": 4431,
      "ĠUK": 4432,
      "Ġplaces": 4433,
      "ructions": 4434,
      "Ġrace": 4435,
      "Ġappeal": 4436,
      "parag": 4437,
      "Ġcontrovers": 4438,
      "Ġpossibly": 4439,
      "ĠIII": 4440,
      "Ġappearance": 4441,
      "Ġdouble": 4442,
      "Ġconsonants": 4443,
      "ĠRichard": 4444,
      "%.": 4445,
      "gn": 4446,
      "pr": 4447,
      "rm": 4448,
      "atre": 4449,
      "aters": 4450,
      "edy": 4451,
      "Ġways": 4452,
      "Ġcars": 4453,
      "Ġbott": 4454,
      "Ġthink": 4455,
      "olk": 4456,
      "ellect": 4457,
      "ĠCer": 4458,
      "ĠBar": 4459,
      "thod": 4460,
      "ĠEth": 4461,
      "ĠGre": 4462,
      "Ġvideo": 4463,
      "Ġcontext": 4464,
      "active": 4465,
      "Ġrough": 4466,
      "Ġteeth": 4467,
      "Ġ1998": 4468,
      "Ġexpressed": 4469,
      "Ġsevere": 4470,
      "Ġpropag": 4471,
      "ĠShah": 4472,
      "Ġprograms": 4473,
      "Ġgreatest": 4474,
      "Ġopposed": 4475,
      "Ġavoid": 4476,
      "Ġalgae": 4477,
      "Ġcompletely": 4478,
      "Ġfigures": 4479,
      "Ġcaptured": 4480,
      "Ġranked": 4481,
      "ĠTreaty": 4482,
      "sl": 4483,
      "Ġ+": 4484,
      "Ġ=": 4485,
      "Ġpure": 4486,
      "Ġdiam": 4487,
      "Ġreach": 4488,
      "Ġlink": 4489,
      "Ġisol": 4490,
      "Ġgiving": 4491,
      "Ġstone": 4492,
      "anda": 4493,
      "ĠEven": 4494,
      "ologist": 4495,
      "Ġdespite": 4496,
      "Ġwrite": 4497,
      "ĠConst": 4498,
      "Ġsecondary": 4499,
      "Ġminutes": 4500,
      "Ġallowing": 4501,
      "verse": 4502,
      "Ġdefeat": 4503,
      "Ġmagnitude": 4504,
      "Ġdialects": 4505,
      "Ġunderstanding": 4506,
      "allel": 4507,
      "oys": 4508,
      "indu": 4509,
      "Ġanat": 4510,
      "orage": 4511,
      "Ġbank": 4512,
      "Ġfear": 4513,
      "Ġfixed": 4514,
      "Ġpowers": 4515,
      "ĠTr": 4516,
      "Ġrecon": 4517,
      "Ġlingu": 4518,
      "Ġlunar": 4519,
      "Ġnine": 4520,
      "adic": 4521,
      "ĠMark": 4522,
      "thing": 4523,
      "Ġseg": 4524,
      "phone": 4525,
      "Ġintended": 4526,
      "Ġshared": 4527,
      "aped": 4528,
      "Ġ35": 4529,
      "Ġqual": 4530,
      "ĠAngu": 4531,
      "Ġslaves": 4532,
      "ĠAustrian": 4533,
      "Ġedition": 4534,
      "Ġinside": 4535,
      "Ġdescribe": 4536,
      "Ġtraditions": 4537,
      "ĠCollege": 4538,
      "Ġabbrev": 4539,
      "Ġillust": 4540,
      "Ġorbitals": 4541,
      "Ġtarget": 4542,
      "Ġequipment": 4543,
      "cies": 4544,
      "hi": 4545,
      "lar": 4546,
      "mosp": 4547,
      "Ã«": 4548,
      "isd": 4549,
      "Ġwaves": 4550,
      "Ġbring": 4551,
      "ĠAK": 4552,
      "Ġnight": 4553,
      "Ġnerv": 4554,
      "igen": 4555,
      "Ġgives": 4556,
      "ĠInt": 4557,
      "ĠRed": 4558,
      "ĠNap": 4559,
      "ĠNavy": 4560,
      "Ġrates": 4561,
      "Ġyou": 4562,
      "irect": 4563,
      "Ġenj": 4564,
      "teen": 4565,
      "Ġphase": 4566,
      "formed": 4567,
      "Ġactually": 4568,
      "Ġmonth": 4569,
      "uese": 4570,
      "Ġcontinue": 4571,
      "Ġblock": 4572,
      "ĠLee": 4573,
      "Ġphilosophical": 4574,
      "Ġalchemy": 4575,
      "Ġresponsible": 4576,
      "pired": 4577,
      "where": 4578,
      "yst": 4579,
      "Ġameric": 4580,
      "iny": 4581,
      "Ġcos": 4582,
      "oric": 4583,
      "orus": 4584,
      "Ġbond": 4585,
      "Ġfrog": 4586,
      "ĠAge": 4587,
      "Ġmig": 4588,
      "Ġec": 4589,
      "Ġlives": 4590,
      "Ġliber": 4591,
      "urally": 4592,
      "Ġgames": 4593,
      "ĠBak": 4594,
      "Ġproved": 4595,
      "Ġvoc": 4596,
      "udes": 4597,
      "acus": 4598,
      "iant": 4599,
      "ĠAlg": 4600,
      "phal": 4601,
      "Ġroad": 4602,
      "Ġworkers": 4603,
      "Ġweak": 4604,
      "Ġwealth": 4605,
      "Ġ1991": 4606,
      "Ġincreases": 4607,
      "Ġpowerful": 4608,
      "bridge": 4609,
      "Ġanalog": 4610,
      "Ġsignificantly": 4611,
      "Ġpotassium": 4612,
      "Ġportray": 4613,
      "Ġexperiments": 4614,
      "Ġtwent": 4615,
      "Ġplanet": 4616,
      "Ġnecessary": 4617,
      "Ġslightly": 4618,
      "Ġphenomen": 4619,
      "Ġamericium": 4620,
      "TO": 4621,
      "Ġsom": 4622,
      "Ġfoss": 4623,
      "ĠAld": 4624,
      "ĠSal": 4625,
      "Ġasked": 4626,
      "ĠBay": 4627,
      "Ġ1920": 4628,
      "ĠNic": 4629,
      "ender": 4630,
      "Ġnotes": 4631,
      "phalt": 4632,
      "ĠKore": 4633,
      "Ġcontent": 4634,
      "Ġago": 4635,
      "Ġefforts": 4636,
      "Ġdevice": 4637,
      "Ġcurrently": 4638,
      "Ġtranslated": 4639,
      "Ġmixed": 4640,
      "Ġstrength": 4641,
      "ĠMichael": 4642,
      "brew": 4643,
      "pread": 4644,
      "atal": 4645,
      "Ġsites": 4646,
      "Ġsulf": 4647,
      "Ġbra": 4648,
      "Ġfle": 4649,
      "Ġpra": 4650,
      "Ġmurder": 4651,
      "elace": 4652,
      "ĠCamp": 4653,
      "Ġones": 4654,
      "Ġproced": 4655,
      "aging": 4656,
      "Ġheat": 4657,
      "Ġheart": 4658,
      "ĠNether": 4659,
      "Ġcontaining": 4660,
      "cluding": 4661,
      "Ġscale": 4662,
      "Ġprep": 4663,
      "Ġraised": 4664,
      "Ġuseful": 4665,
      "Ġmedieval": 4666,
      "Ġsolid": 4667,
      "Ġ70": 4668,
      "Ġreference": 4669,
      "Ġgrew": 4670,
      "Ġ1901": 4671,
      "Ġrules": 4672,
      "ĠBerlin": 4673,
      "Ġkept": 4674,
      "Ġdeliver": 4675,
      "Ġagreed": 4676,
      "Ġsexual": 4677,
      "ĠPortuguese": 4678,
      "Ġliquid": 4679,
      "fl": 4680,
      "Ġions": 4681,
      "Ġactions": 4682,
      "Ġinner": 4683,
      "ĠAk": 4684,
      "Ġmort": 4685,
      "Ġmaxim": 4686,
      "usion": 4687,
      "ĠTex": 4688,
      "iled": 4689,
      "amental": 4690,
      "ĠBest": 4691,
      "Ġwithd": 4692,
      "ĠHow": 4693,
      "ĠFour": 4694,
      "abilities": 4695,
      "ĠWil": 4696,
      "ĠDr": 4697,
      "Ġseem": 4698,
      "ĠUp": 4699,
      "ĠAlp": 4700,
      "apers": 4701,
      "ibb": 4702,
      "Ġregional": 4703,
      "Ġattention": 4704,
      "idespread": 4705,
      "Ġrefused": 4706,
      "Ġreven": 4707,
      "ĠPhilos": 4708,
      "ĠOrgan": 4709,
      "ĠScience": 4710,
      "Ġphysics": 4711,
      "Ġdevices": 4712,
      "Ġtemperatures": 4713,
      "ĠPeople": 4714,
      "ĠTechn": 4715,
      "ĠKarp": 4716,
      "Ġarrived": 4717,
      "ĠValley": 4718,
      "Ġsurrounding": 4719,
      "Ġspiritual": 4720,
      "Ġimmediately": 4721,
      "Ġegg": 4722,
      "24": 4723,
      "An": 4724,
      "ients": 4725,
      "ying": 4726,
      "Ġtail": 4727,
      "Ġsn": 4728,
      "Ġcov": 4729,
      "itch": 4730,
      "ora": 4731,
      "Ġfast": 4732,
      "ĠAN": 4733,
      "Ġmac": 4734,
      "Ġmind": 4735,
      "Ġmoral": 4736,
      "Ġtold": 4737,
      "ĠTenn": 4738,
      "ĠCE": 4739,
      "ĠIr": 4740,
      "ĠMag": 4741,
      "ulpt": 4742,
      "ĠEconom": 4743,
      "Ġatmosp": 4744,
      "ĠFore": 4745,
      "abul": 4746,
      "ĠRad": 4747,
      "ĠNot": 4748,
      "Ġuns": 4749,
      "Ġnotably": 4750,
      "ificial": 4751,
      "Ġempire": 4752,
      "Ġobtained": 4753,
      "insula": 4754,
      "Ġdifferences": 4755,
      "Ġeffort": 4756,
      "ĠNewton": 4757,
      "Ġcourts": 4758,
      "Ġadvanced": 4759,
      "Ġcomputers": 4760,
      "ipped": 4761,
      "Ġkilling": 4762,
      "Ġboard": 4763,
      "Ġattempted": 4764,
      "ifying": 4765,
      "Ġencou": 4766,
      "Ġsalam": 4767,
      "Ġnetwork": 4768,
      "Ġeasily": 4769,
      "ĠLovelace": 4770,
      "Ġambigu": 4771,
      "Ġawarded": 4772,
      "Ġdedicated": 4773,
      "Ġsoftware": 4774,
      "Ġbehavior": 4775,
      "Ġjurisd": 4776,
      "TA": 4777,
      "cop": 4778,
      "den": 4779,
      "fred": 4780,
      "ij": 4781,
      "ville": 4782,
      "atically": 4783,
      "enes": 4784,
      "ening": 4785,
      "oration": 4786,
      "Ġbones": 4787,
      "Ġface": 4788,
      "icial": 4789,
      "Ġdro": 4790,
      "omm": 4791,
      "Ġstra": 4792,
      "osal": 4793,
      "Ġproton": 4794,
      "ĠEr": 4795,
      "ĠEv": 4796,
      "Ġunique": 4797,
      "ĠAsian": 4798,
      "Ġconserv": 4799,
      "Ġelections": 4800,
      "Ġagg": 4801,
      "Ġ1996": 4802,
      "Ġsignal": 4803,
      "Ġexpans": 4804,
      "Ġsolutions": 4805,
      "Ġimportance": 4806,
      "Ġrevol": 4807,
      "Ġclassified": 4808,
      "Ġarms": 4809,
      "ĠAbb": 4810,
      "Ġinfluential": 4811,
      "Ġvolume": 4812,
      "ĠCenter": 4813,
      "...": 4814,
      "Ġindicate": 4815,
      "Ġemployed": 4816,
      "Ġlaunch": 4817,
      "ĠAntoninus": 4818,
      "Ġsubstant": 4819,
      "Ġagreement": 4820,
      "Ġnormal": 4821,
      "Ġeyes": 4822,
      "Ġvirt": 4823,
      "ĠDepartment": 4824,
      "Ġequivalent": 4825,
      "Ġmagazine": 4826,
      "23": 4827,
      "fin": 4828,
      "hold": 4829,
      "ienced": 4830,
      "wise": 4831,
      "Ġut": 4832,
      "edo": 4833,
      "isf": 4834,
      "Ġbig": 4835,
      "Ġple": 4836,
      "Ġmut": 4837,
      "Ġtoward": 4838,
      "Ġdry": 4839,
      "ĠTele": 4840,
      "Ġrepe": 4841,
      "ĠSat": 4842,
      "ĠSum": 4843,
      "ĠSup": 4844,
      "ĠServ": 4845,
      "Ġgained": 4846,
      "irmed": 4847,
      "ĠHerm": 4848,
      "ĠHuman": 4849,
      "ĠDon": 4850,
      "Ġsec": 4851,
      "ĠJust": 4852,
      "Ġmeant": 4853,
      "ĠAmong": 4854,
      "Ġincome": 4855,
      "Ġesc": 4856,
      "Ġphilosopher": 4857,
      "Ġaddress": 4858,
      "Ġfinally": 4859,
      "Ġabsolute": 4860,
      "ĠAaron": 4861,
      "Ġmemory": 4862,
      "Ġcreating": 4863,
      "Ġconsonant": 4864,
      "Ġhouses": 4865,
      "Ġintelligence": 4866,
      "ĠKarpov": 4867,
      "60": 4868,
      "uz": 4869,
      "rec": 4870,
      "Ġwanted": 4871,
      "ese": 4872,
      "itness": 4873,
      "Ġreactions": 4874,
      "ĠSuch": 4875,
      "ĠSaint": 4876,
      "eties": 4877,
      "ĠCons": 4878,
      "ĠMat": 4879,
      "Ġvess": 4880,
      "Ġsuc": 4881,
      "acing": 4882,
      "ortun": 4883,
      "ĠOff": 4884,
      "Ġintellect": 4885,
      "ĠHebrew": 4886,
      "Ġproducing": 4887,
      "Ġjournal": 4888,
      "Ġprime": 4889,
      "Ġartist": 4890,
      "Ġ1994": 4891,
      "ĠCommon": 4892,
      "ĠIslands": 4893,
      "eget": 4894,
      "Ġgreatly": 4895,
      "Ġmeasured": 4896,
      "ĠQue": 4897,
      "Ġhelped": 4898,
      "Ġcolonial": 4899,
      "Ġapplication": 4900,
      "Ġperman": 4901,
      "ĠResearch": 4902,
      "Ġmeeting": 4903,
      "Ġnitrogen": 4904,
      "ĠVirginia": 4905,
      "ĠCaesar": 4906,
      "thodox": 4907,
      "ees": 4908,
      "nost": 4909,
      "Ġwidespread": 4910,
      "Ġbrain": 4911,
      "Ġfru": 4912,
      "Ġhy": 4913,
      "Ġhot": 4914,
      "ĠSpec": 4915,
      "ido": 4916,
      "Ġalone": 4917,
      "ĠHell": 4918,
      "Ġpros": 4919,
      "ĠEp": 4920,
      "Ġvac": 4921,
      "Ġvast": 4922,
      "Ġarc": 4923,
      "asty": 4924,
      "Ġ33": 4925,
      "Ġsigns": 4926,
      "Ġvalid": 4927,
      "Ġanaly": 4928,
      "Ġgoal": 4929,
      "Ġreduce": 4930,
      "ĠGrant": 4931,
      "Ġprojects": 4932,
      "Ġextremely": 4933,
      "Ġsubsequent": 4934,
      "Ġhonor": 4935,
      "Ġcircum": 4936,
      "Ġremoved": 4937,
      "Ġamphibians": 4938,
      "ĠSenate": 4939,
      "aper": 4940,
      "gar": 4941,
      "ka": 4942,
      "rations": 4943,
      "Åį": 4944,
      "Ġtiss": 4945,
      "Ġtaught": 4946,
      "Ġaid": 4947,
      "Ġaard": 4948,
      "Ġsought": 4949,
      "alone": 4950,
      "Ġbal": 4951,
      "Ġbomb": 4952,
      "Ġpair": 4953,
      "utation": 4954,
      "ĠMa": 4955,
      "ĠBas": 4956,
      "ĠBank": 4957,
      "Ġcond": 4958,
      "ĠPet": 4959,
      "ĠDue": 4960,
      "Ġrich": 4961,
      "ĠJean": 4962,
      "ronze": 4963,
      "Ġevolution": 4964,
      "Ġappell": 4965,
      "Ġarticle": 4966,
      "Ġextra": 4967,
      "Ġ1997": 4968,
      "ĠGreeks": 4969,
      "rows": 4970,
      "Ġadvoc": 4971,
      "Ġprotect": 4972,
      "Ġviews": 4973,
      "Ġsuggests": 4974,
      "Ġentirely": 4975,
      "Ġfeatured": 4976,
      "Ġamateur": 4977,
      "Ġenjoy": 4978,
      "'t": 4979,
      "75": 4980,
      "equ": 4981,
      "present": 4982,
      "Ġtree": 4983,
      "Ġfuel": 4984,
      "roc": 4985,
      "Ġhab": 4986,
      "ĠTod": 4987,
      "ĠCas": 4988,
      "ĠBen": 4989,
      "osite": 4990,
      "ĠGroup": 4991,
      "ago": 4992,
      "ĠFried": 4993,
      "acity": 4994,
      "Ġrub": 4995,
      "Ġabund": 4996,
      "duc": 4997,
      "Ġplanned": 4998,
      "Ġshot": 4999,
      "Ġperf": 5000,
      "ĠAshes": 5001,
      "ĠAsparag": 5002,
      "Ġsupply": 5003,
      "ĠAddition": 5004,
      "Ġantip": 5005,
      "Ġdepending": 5006,
      "ĠAndes": 5007,
      "Ġmedium": 5008,
      "Ġsolar": 5009,
      "Ġinspired": 5010,
      "Ġclassification": 5011,
      "Ġprogress": 5012,
      "ĠOrder": 5013,
      "Ġvisited": 5014,
      "Ġpractical": 5015,
      "Ġcausing": 5016,
      "Ġbegins": 5017,
      "Ġruns": 5018,
      "ĠConfederacy": 5019,
      "Ġdivision": 5020,
      "ĠTurkish": 5021,
      "Ġcopper": 5022,
      "Ġconcentration": 5023,
      "ĠAntony": 5024,
      "Ġneutral": 5025,
      "Ġdigital": 5026,
      "Ġsituation": 5027,
      "Ġratio": 5028,
      "Ġforests": 5029,
      "ĠGeorgia": 5030,
      "Ġdeposits": 5031,
      "ĠNapole": 5032,
      "ĠNetherlands": 5033,
      "bl": 5034,
      "ii": 5035,
      "know": 5036,
      "ls": 5037,
      "ture": 5038,
      "yth": 5039,
      "itt": 5040,
      "Ġfr": 5041,
      "Ġfederal": 5042,
      "Ġpurch": 5043,
      "ĠAut": 5044,
      "Ġmilit": 5045,
      "ĠSa": 5046,
      "ĠSub": 5047,
      "Ġasc": 5048,
      "uting": 5049,
      "iring": 5050,
      "ĠBro": 5051,
      "ĠFarm": 5052,
      "ĠDi": 5053,
      "ĠOx": 5054,
      "ĠOcean": 5055,
      "allic": 5056,
      "Ġabacus": 5057,
      "Ġpregn": 5058,
      "Ġmeth": 5059,
      "Ġaccur": 5060,
      "195": 5061,
      "Ġquality": 5062,
      "Ġobtain": 5063,
      "Ġflat": 5064,
      "Ġ1995": 5065,
      "Ġpolice": 5066,
      "Ġdeveloping": 5067,
      "Ġfeel": 5068,
      "ĠWhite": 5069,
      "ĠFrank": 5070,
      "Ġradiation": 5071,
      "Ġ1945": 5072,
      "Ġorganization": 5073,
      "Ġgranted": 5074,
      "Ġgods": 5075,
      "ĠMinister": 5076,
      "ĠCounty": 5077,
      "ĠBarbuda": 5078,
      "As": 5079,
      "oice": 5080,
      "yles": 5081,
      "Ġly": 5082,
      "Ġcast": 5083,
      "orter": 5084,
      "ĠAward": 5085,
      "ĠSur": 5086,
      "ada": 5087,
      "ĠMel": 5088,
      "anders": 5089,
      "Ġleave": 5090,
      "Ġperhaps": 5091,
      "Ġroom": 5092,
      "Ġroot": 5093,
      "Ġcommission": 5094,
      "Ġsculpt": 5095,
      "Ġspecifically": 5096,
      "uck": 5097,
      "ĠConstitution": 5098,
      "Ġextensive": 5099,
      "ropri": 5100,
      "zero": 5101,
      "ĠForces": 5102,
      "ĠLeg": 5103,
      "gency": 5104,
      "Ġparallel": 5105,
      "Ġcourse": 5106,
      "Ġcombination": 5107,
      "Ġheavily": 5108,
      "ĠCambridge": 5109,
      "Ġexception": 5110,
      "Ġsequence": 5111,
      "Ġthousands": 5112,
      "ĠClassical": 5113,
      "Ġmoment": 5114,
      "ĠJoseph": 5115,
      "Ġfinancial": 5116,
      "ĠByzantine": 5117,
      "nom": 5118,
      "uit": 5119,
      "Ġ;": 5120,
      "ĠÂ°": 5121,
      "icon": 5122,
      "Ġhit": 5123,
      "ĠCre": 5124,
      "Ġfort": 5125,
      "Ġalter": 5126,
      "resents": 5127,
      "ĠLet": 5128,
      "ĠLibrary": 5129,
      "ĠDer": 5130,
      "ĠNor": 5131,
      "ĠOs": 5132,
      "apes": 5133,
      "Ġimage": 5134,
      "ords": 5135,
      "ologies": 5136,
      "Ġrelative": 5137,
      "Ġnewsp": 5138,
      "Ġ1992": 5139,
      "ĠPhys": 5140,
      "ĠScot": 5141,
      "Ġsomething": 5142,
      "Ġarchae": 5143,
      "Ġpositions": 5144,
      "ĠRepublican": 5145,
      "ĠAssemb": 5146,
      "Ġimprove": 5147,
      "Ġessential": 5148,
      "Ġ[#": 5149,
      "rugg": 5150,
      "Ġsilver": 5151,
      "Ġdistribution": 5152,
      "Ġaspects": 5153,
      "Ġchallen": 5154,
      "Ġcaesium": 5155,
      "ĠColumbia": 5156,
      "Ġsplit": 5157,
      "Ġdiplom": 5158,
      "mat": 5159,
      "Ã¤": 5160,
      "erg": 5161,
      "encies": 5162,
      "oul": 5163,
      "Ġnomin": 5164,
      "amed": 5165,
      "otion": 5166,
      "uther": 5167,
      "unc": 5168,
      "ĠMos": 5169,
      "Ġconvers": 5170,
      "umes": 5171,
      "ĠPac": 5172,
      "iful": 5173,
      "Ġvon": 5174,
      "Ġexists": 5175,
      "ĠRock": 5176,
      "ĠLouis": 5177,
      "ĠNum": 5178,
      "ĠOd": 5179,
      "seud": 5180,
      "ĠKourn": 5181,
      "appe": 5182,
      "Ġsports": 5183,
      "Ġformula": 5184,
      "ikova": 5185,
      "Ġphon": 5186,
      "Ġwriters": 5187,
      "Ġvarieties": 5188,
      "Ġrepresents": 5189,
      "ructure": 5190,
      "Ġplayers": 5191,
      "Ġexplain": 5192,
      "ĠOrthodox": 5193,
      "Ġ90": 5194,
      "Ġhydrox": 5195,
      "cules": 5196,
      "Ġholds": 5197,
      "Ġdiverse": 5198,
      "ĠStandard": 5199,
      "Ġabandoned": 5200,
      "American": 5201,
      "ĠTexas": 5202,
      "CA": 5203,
      "book": 5204,
      "carb": 5205,
      "ek": 5206,
      "from": 5207,
      "iations": 5208,
      "nal": 5209,
      "pet": 5210,
      "produ": 5211,
      "vant": 5212,
      "Ġtrial": 5213,
      "atural": 5214,
      "Ġsales": 5215,
      "also": 5216,
      "Ġdaily": 5217,
      "Ġnor": 5218,
      "Ġnoun": 5219,
      "ĠSk": 5220,
      "ĠSel": 5221,
      "ivation": 5222,
      "Ġstrugg": 5223,
      "ĠFre": 5224,
      "ĠFred": 5225,
      "ĠRel": 5226,
      "ĠLife": 5227,
      "ĠDo": 5228,
      "Ġrural": 5229,
      "Ġchart": 5230,
      "Ġarts": 5231,
      "duction": 5232,
      "ĠThrough": 5233,
      "Ġroots": 5234,
      "ikido": 5235,
      "Ġ31": 5236,
      "Ġ1968": 5237,
      "Ġexperienced": 5238,
      "Ġorganic": 5239,
      "Ġmarriage": 5240,
      "Ġprogramming": 5241,
      "Ġaffected": 5242,
      "Ġhistorian": 5243,
      "Ġstrongly": 5244,
      "Ġseparated": 5245,
      "ĠHitler": 5246,
      "Ġresearc": 5247,
      "Ġsufficient": 5248,
      "Ġcollabor": 5249,
      "Ġgrav": 5250,
      "Ġmicro": 5251,
      "Ġethnic": 5252,
      "Ġmedicine": 5253,
      "ĠMexico": 5254,
      "ĠProtestant": 5255,
      "ĠKournikova": 5256,
      "33": 5257,
      "OV": 5258,
      "gian": 5259,
      "hm": 5260,
      "po": 5261,
      "spe": 5262,
      "tes": 5263,
      "Ã¸": 5264,
      "Ġtens": 5265,
      "inite": 5266,
      "inosaur": 5267,
      "ona": 5268,
      "Ġsen": 5269,
      "Ġsister": 5270,
      "itted": 5271,
      "Ġinput": 5272,
      "Ġpray": 5273,
      "ĠAqu": 5274,
      "Ġdark": 5275,
      "Ġhun": 5276,
      "Ġrein": 5277,
      "aded": 5278,
      "oting": 5279,
      "ĠPan": 5280,
      "Ġveget": 5281,
      "Ġexternal": 5282,
      "ianism": 5283,
      "Ġcomposition": 5284,
      "ologists": 5285,
      "Ġdefend": 5286,
      "Ġinvasion": 5287,
      "Ġgeneration": 5288,
      "Ġmaintained": 5289,
      "tila": 5290,
      "theless": 5291,
      "ĠAlexand": 5292,
      "Ġtypical": 5293,
      "Ġalkanes": 5294,
      "Ġversions": 5295,
      "Ġruled": 5296,
      "Ġsymbols": 5297,
      "Ġfundamental": 5298,
      "Ġfocused": 5299,
      "Ġtrees": 5300,
      "Ġprecip": 5301,
      "Ġisotopes": 5302,
      "Ġcrops": 5303,
      "Ġceremony": 5304,
      "ĠAssociation": 5305,
      "Ġsomew": 5306,
      "ĠSupreme": 5307,
      "27": 5308,
      "CII": 5309,
      "inth": 5310,
      "oring": 5311,
      "entions": 5312,
      "rael": 5313,
      "Ġexclus": 5314,
      "ĠLiber": 5315,
      "ĠNag": 5316,
      "ĠJobs": 5317,
      "ĠAlfred": 5318,
      "ishing": 5319,
      "ube": 5320,
      "Ġspring": 5321,
      "Ġforming": 5322,
      "obile": 5323,
      "Ġattacks": 5324,
      "ucas": 5325,
      "ĠSecret": 5326,
      "Ġextent": 5327,
      "Ġexpanded": 5328,
      "Ġpersons": 5329,
      "Ġslave": 5330,
      "Ġcorrect": 5331,
      "Ġmusical": 5332,
      "Ġ1940": 5333,
      "stead": 5334,
      "Ġcriticism": 5335,
      "Ġmassive": 5336,
      "Ġanarchist": 5337,
      "Ġidentity": 5338,
      "ippi": 5339,
      "Ġgenus": 5340,
      "III": 5341,
      "Ġalbedo": 5342,
      "taic": 5343,
      "Ġincreasingly": 5344,
      "Ġinterpre": 5345,
      "Ġships": 5346,
      "Ġfighting": 5347,
      "elesc": 5348,
      "ĠSuper": 5349,
      "Ġdemonst": 5350,
      "ĠNASA": 5351,
      "'.": 5352,
      "90": 5353,
      "bal": 5354,
      "een": 5355,
      "ucl": 5356,
      "Ġ)": 5357,
      "Ġtask": 5358,
      "alism": 5359,
      "Ġpack": 5360,
      "Ġreign": 5361,
      "amin": 5362,
      "ĠMad": 5363,
      "ĠMah": 5364,
      "osure": 5365,
      "vert": 5366,
      "ophers": 5367,
      "ĠGaud": 5368,
      "ĠGDP": 5369,
      "agon": 5370,
      "arters": 5371,
      "Ġalloy": 5372,
      "Ġdispl": 5373,
      "ĠVog": 5374,
      "Ġacts": 5375,
      "Ġ1993": 5376,
      "Ġ500": 5377,
      "Ġoccasion": 5378,
      "ĠAnders": 5379,
      "Ġnearby": 5380,
      "ographical": 5381,
      "Ġdescribes": 5382,
      "Ġmovements": 5383,
      "Ġorganized": 5384,
      "Ġoperating": 5385,
      "Ġfactor": 5386,
      "Ġopposition": 5387,
      "Ġpractices": 5388,
      "Ġlimit": 5389,
      "Ġ1862": 5390,
      "Ġpredomin": 5391,
      "Ġscientists": 5392,
      "ĠBuddhism": 5393,
      "Ġadapted": 5394,
      "Ġlogic": 5395,
      "ĠPrize": 5396,
      "Ġresistance": 5397,
      "ographer": 5398,
      "Ġroughly": 5399,
      "ĠAnguilla": 5400,
      "70": 5401,
      "Ar": 5402,
      "ms": 5403,
      "pre": 5404,
      "Ġsun": 5405,
      "Ġcand": 5406,
      "itarian": 5407,
      "Ġfran": 5408,
      "Ġpig": 5409,
      "Ġpaint": 5410,
      "Ġlithium": 5411,
      "urb": 5412,
      "uration": 5413,
      "iders": 5414,
      "ĠIll": 5415,
      "Ġgal": 5416,
      "Ġstress": 5417,
      "Ġexchange": 5418,
      "ession": 5419,
      "Ġmob": 5420,
      "ells": 5421,
      "Ġworship": 5422,
      "hens": 5423,
      "Ġadm": 5424,
      "rupt": 5425,
      "Ġclub": 5426,
      "Ġcanon": 5427,
      "ĠAttila": 5428,
      "Ġoverall": 5429,
      "Ġpoison": 5430,
      "Ġcharged": 5431,
      "Ġsurren": 5432,
      "ĠChristians": 5433,
      "Ġ1976": 5434,
      "Ġminim": 5435,
      "Ġrevers": 5436,
      "ĠIsrael": 5437,
      "Ġordered": 5438,
      "Ġstarting": 5439,
      "Ġreceive": 5440,
      "Ġ2023": 5441,
      "Ġconsistent": 5442,
      "Ġliterary": 5443,
      "ĠMinistry": 5444,
      "Ġgeomet": 5445,
      "Ġamounts": 5446,
      "Ġsettled": 5447,
      "Ġmouthw": 5448,
      "Ġconducted": 5449,
      "Ġfertil": 5450,
      "Ġmunicipal": 5451,
      "ĠOttoman": 5452,
      "Ġexpansion": 5453,
      "bage": 5454,
      "cule": 5455,
      "nce": 5456,
      "Ġign": 5457,
      "Ġtherm": 5458,
      "anth": 5459,
      "Ġwild": 5460,
      "Ġwinning": 5461,
      "iced": 5462,
      "Ġdensity": 5463,
      "ĠTri": 5464,
      "oud": 5465,
      "Ġnob": 5466,
      "aved": 5467,
      "ĠRob": 5468,
      "ĠLand": 5469,
      "antly": 5470,
      "ĠAnarch": 5471,
      "Ġchosen": 5472,
      "uble": 5473,
      "ĠChampionship": 5474,
      "Ġphr": 5475,
      "Ġmodified": 5476,
      "Ġoutput": 5477,
      "Ġsetting": 5478,
      "Ġinvented": 5479,
      "Ġcolum": 5480,
      "Ġending": 5481,
      "Ġ1969": 5482,
      "Ġarmed": 5483,
      "Ġvisual": 5484,
      "Ġstandards": 5485,
      "ĠCarl": 5486,
      "ĠCarol": 5487,
      "Ġlowest": 5488,
      "Ġexperimental": 5489,
      "Ġprincipal": 5490,
      "ĠChristianity": 5491,
      "Ġconcentrated": 5492,
      "Ġtreated": 5493,
      "Ã¨re": 5494,
      "Ġantisemitism": 5495,
      "Ġweapons": 5496,
      "Ġbottom": 5497,
      "ĠNapoleon": 5498,
      "ĠGaudÃŃ": 5499,
      "SI": 5500,
      "gl": 5501,
      "hydro": 5502,
      "log": 5503,
      "mond": 5504,
      "rd": 5505,
      "rum": 5506,
      "inet": 5507,
      "erals": 5508,
      "isher": 5509,
      "Ġwid": 5510,
      "Ġcru": 5511,
      "Ġcouncil": 5512,
      "ala": 5513,
      "Ġbul": 5514,
      "Ġpict": 5515,
      "Ġmorph": 5516,
      "ĠTop": 5517,
      "ĠTime": 5518,
      "iling": 5519,
      "olid": 5520,
      "ĠCult": 5521,
      "Ġvel": 5522,
      "Ġatax": 5523,
      "ounder": 5524,
      "Ġunknown": 5525,
      "Ġcontained": 5526,
      "ĠArth": 5527,
      "ĠVari": 5528,
      "Ġ32": 5529,
      "Ġquite": 5530,
      "Ġcool": 5531,
      "Ġcooper": 5532,
      "Ġcolle": 5533,
      "Ġsimpl": 5534,
      "Ġexped": 5535,
      "ĠAustroasiatic": 5536,
      "Ġ1974": 5537,
      "ĠAndre": 5538,
      "Ġperiods": 5539,
      "Ġincom": 5540,
      "Ġphysic": 5541,
      "Ġopportun": 5542,
      "Ġlinear": 5543,
      "Ġ1861": 5544,
      "ĠBefore": 5545,
      "Ġelse": 5546,
      "ĠContinental": 5547,
      "Ġnormally": 5548,
      "Ġcorresponding": 5549,
      "ĠSimilar": 5550,
      "ĠGovernment": 5551,
      "Ġprice": 5552,
      "Ġstraight": 5553,
      "ĠPacific": 5554,
      "%,": 5555,
      "ped": 5556,
      "ĠÂ": 5557,
      "inks": 5558,
      "Ġtheories": 5559,
      "Ġmaster": 5560,
      "asy": 5561,
      "cts": 5562,
      "Ġretain": 5563,
      "ilis": 5564,
      "ĠMilitary": 5565,
      "ĠFound": 5566,
      "ĠLord": 5567,
      "ĠDiv": 5568,
      "Ġhere": 5569,
      "ocry": 5570,
      "Ġrival": 5571,
      "Ġusage": 5572,
      "Ġunable": 5573,
      "ĠJac": 5574,
      "Ġabalone": 5575,
      "Ġneuro": 5576,
      "Ġroy": 5577,
      "Ġelev": 5578,
      "achus": 5579,
      "ampion": 5580,
      "Ġrecently": 5581,
      "Ġskele": 5582,
      "Ġcharacterized": 5583,
      "Ġcharacteristics": 5584,
      "Ġoperation": 5585,
      "Ġprocessing": 5586,
      "Ġ160": 5587,
      "Ġargues": 5588,
      "Ġgrand": 5589,
      "Ġstatement": 5590,
      "Ġauthorities": 5591,
      "Ġreduction": 5592,
      "Ġinvolves": 5593,
      "Ġcrim": 5594,
      "Ġtwice": 5595,
      "Ġtranslation": 5596,
      "Ġmountains": 5597,
      "Ġsubstance": 5598,
      "Ġconverted": 5599,
      "Ġconstructed": 5600,
      "ĠAntarctic": 5601,
      "ĠBabbage": 5602,
      "works": 5603,
      "ĠBetween": 5604,
      "Ġastronauts": 5605,
      "Ġdescription": 5606,
      "Ġresearchers": 5607,
      "63": 5608,
      "ding": 5609,
      "tion": 5610,
      "Ġaqu": 5611,
      "inity": 5612,
      "inction": 5613,
      "inally": 5614,
      "atus": 5615,
      "ani": 5616,
      "Ġwear": 5617,
      "Ġwalk": 5618,
      "Ġcensus": 5619,
      "Ġbow": 5620,
      "Ġmental": 5621,
      "ashes": 5622,
      "Ġdut": 5623,
      "leep": 5624,
      "Ġhus": 5625,
      "stood": 5626,
      "Ġgram": 5627,
      "Ġonto": 5628,
      "osph": 5629,
      "emen": 5630,
      "ĠHam": 5631,
      "ĠHindu": 5632,
      "ĠElect": 5633,
      "Ġcomment": 5634,
      "essee": 5635,
      "Ġyield": 5636,
      "angle": 5637,
      "Ġacknow": 5638,
      "Ġrain": 5639,
      "crete": 5640,
      "Ġdefense": 5641,
      "Ġnewly": 5642,
      "Ġstudio": 5643,
      "Ġinstructions": 5644,
      "Ġmanner": 5645,
      "type": 5646,
      "ĠOnly": 5647,
      "ĠProject": 5648,
      "Ġdeaths": 5649,
      "rising": 5650,
      "Ġadvance": 5651,
      "Ġprotons": 5652,
      "Ġvolcan": 5653,
      "certain": 5654,
      "Ġpriest": 5655,
      "ĠPatri": 5656,
      "Ġcolonies": 5657,
      "Ġarchitecture": 5658,
      "Ġmolecules": 5659,
      "Ġconnected": 5660,
      "Ġvillage": 5661,
      "Ġcategory": 5662,
      "Ġfreedom": 5663,
      "ĠTennessee": 5664,
      "ĠVogt": 5665,
      "%),": 5666,
      "ault": 5667,
      "after": 5668,
      "rarian": 5669,
      "wa": 5670,
      "Ġtet": 5671,
      "Ġsides": 5672,
      "Ġcam": 5673,
      "Ġcra": 5674,
      "itudes": 5675,
      "Ġfolk": 5676,
      "roph": 5677,
      "Ġdates": 5678,
      "Ġdrug": 5679,
      "omic": 5680,
      "ola": 5681,
      "ĠCy": 5682,
      "isters": 5683,
      "racy": 5684,
      "ĠBu": 5685,
      "Ġstream": 5686,
      "ĠHomer": 5687,
      "ĠRog": 5688,
      "ĠWars": 5689,
      "Ġusers": 5690,
      "allow": 5691,
      "claim": 5692,
      "rance": 5693,
      "Ġplans": 5694,
      "Ġrelation": 5695,
      "Ġappropri": 5696,
      "issippi": 5697,
      "ĠAmes": 5698,
      "Ġartificial": 5699,
      "Ġproviding": 5700,
      "Ġrepublic": 5701,
      "tym": 5702,
      "lishing": 5703,
      "Ġplaying": 5704,
      "Ġ1962": 5705,
      "Ġminister": 5706,
      "Ġ1989": 5707,
      "Ġleaders": 5708,
      "Ġcultures": 5709,
      "Ġpublication": 5710,
      "Ġelectronic": 5711,
      "ĠCaribb": 5712,
      "Ġreducing": 5713,
      "Ġintroduction": 5714,
      "Ġangles": 5715,
      "Ġchemistry": 5716,
      "Ġconsisting": 5717,
      "ĠMont": 5718,
      "Ġmixture": 5719,
      "ĠiP": 5720,
      "Ġdominated": 5721,
      "Ġachieved": 5722,
      "Ġemerged": 5723,
      "Ġaudience": 5724,
      "Ġpoetry": 5725,
      "Ġinscriptions": 5726,
      "Ġquarter": 5727,
      "Ġdoctrine": 5728,
      "Ġinhabit": 5729,
      "Ġproportion": 5730,
      "ĠCaribbean": 5731,
      "ih": 5732,
      "iy": 5733,
      "mers": 5734,
      "right": 5735,
      "inter": 5736,
      "ativity": 5737,
      "aria": 5738,
      "Ġbox": 5739,
      "Ġpal": 5740,
      "Ġpaid": 5741,
      "ĠAF": 5742,
      "ione": 5743,
      "Ġmor": 5744,
      "ĠTal": 5745,
      "Ġthr": 5746,
      "amic": 5747,
      "amma": 5748,
      "ceived": 5749,
      "Ġasphalt": 5750,
      "Ġ(,": 5751,
      "raged": 5752,
      "romatic": 5753,
      "Ġseems": 5754,
      "Ġarithm": 5755,
      "Ġabol": 5756,
      "ĠThree": 5757,
      "Ġrow": 5758,
      "Ġroute": 5759,
      "Ġmoder": 5760,
      "Ġray": 5761,
      "Ġexpression": 5762,
      "Ġ1986": 5763,
      "inner": 5764,
      "Ġexplicit": 5765,
      "Ġargument": 5766,
      "Ġaffect": 5767,
      "Ġdemand": 5768,
      "Ġanarchists": 5769,
      "Ġviewed": 5770,
      "Ġalmond": 5771,
      "Ġobservations": 5772,
      "Ġneeds": 5773,
      "Ġfarming": 5774,
      "Ġscholar": 5775,
      "ĠAlgerian": 5776,
      "Ġcapture": 5777,
      "ricket": 5778,
      "Ġastronomers": 5779,
      "ĠStudies": 5780,
      "Ġrapidly": 5781,
      "Ġrevealed": 5782,
      "Ġdestroyed": 5783,
      "Ġattributed": 5784,
      "ĠHellen": 5785,
      "Ġsurrender": 5786,
      "ĠArthur": 5787,
      "500": 5788,
      "ble": 5789,
      "bard": 5790,
      "called": 5791,
      "eric": 5792,
      "onia": 5793,
      "Ġod": 5794,
      "Ġocean": 5795,
      "Ġsa": 5796,
      "Ġcold": 5797,
      "Ġtourn": 5798,
      "Ġdang": 5799,
      "Ġdiver": 5800,
      "eler": 5801,
      "ady": 5802,
      "under": 5803,
      "ĠBir": 5804,
      "ĠBill": 5805,
      "Ġconcer": 5806,
      "emis": 5807,
      "ĠGal": 5808,
      "ĠGulf": 5809,
      "ĠLos": 5810,
      "ĠJes": 5811,
      "ĠArtic": 5812,
      "Ġteaching": 5813,
      "193": 5814,
      "Ġposit": 5815,
      "Ġactual": 5816,
      "Ġmonaster": 5817,
      "Ġeffectively": 5818,
      "ĠEmperor": 5819,
      "Ġtraditionally": 5820,
      "ĠScott": 5821,
      "Ġargon": 5822,
      "Ġglass": 5823,
      "Ġpatent": 5824,
      "Ġcritics": 5825,
      "Ġrespond": 5826,
      "Ġgreen": 5827,
      "Ġrecognition": 5828,
      "ĠEdward": 5829,
      "Ġgoods": 5830,
      "Ġcycl": 5831,
      "Ġtribes": 5832,
      "ĠMountains": 5833,
      "strong": 5834,
      "Ġfootball": 5835,
      "Ġcomponents": 5836,
      "Ġwalls": 5837,
      "Ġultimately": 5838,
      "Ġalgebraic": 5839,
      "ropolitan": 5840,
      "ĠMartin": 5841,
      "igenous": 5842,
      "Ġrepeated": 5843,
      "ĠAdditionally": 5844,
      "nomial": 5845,
      "):": 5846,
      "66": 5847,
      "ID": 5848,
      "In": 5849,
      "ois": 5850,
      "power": 5851,
      "sw": 5852,
      "Ġtelesc": 5853,
      "Ġaer": 5854,
      "hetic": 5855,
      "iner": 5856,
      "Ġwound": 5857,
      "Ġcinem": 5858,
      "organ": 5859,
      "Ġball": 5860,
      "Ġfine": 5861,
      "Ġfought": 5862,
      "icts": 5863,
      "omorph": 5864,
      "Ġlaid": 5865,
      "uran": 5866,
      "Ġstrict": 5867,
      "ĠPop": 5868,
      "ĠHy": 5869,
      "ĠDist": 5870,
      "Ġuniversity": 5871,
      "Ġuncle": 5872,
      "Ġplane": 5873,
      "rone": 5874,
      "Ġteac": 5875,
      "Ġrecover": 5876,
      "Ġprison": 5877,
      "194": 5878,
      "Ġinterview": 5879,
      "Ġstudent": 5880,
      "ĠDevelop": 5881,
      "Ġ1975": 5882,
      "ĠProg": 5883,
      "ĠLeague": 5884,
      "Ġ...": 5885,
      "ĠAgricult": 5886,
      "Ġexplained": 5887,
      "Ġcharacteristic": 5888,
      "Ġphilosophers": 5889,
      "Ġbegin": 5890,
      "ĠMusic": 5891,
      "Ġterritories": 5892,
      "Ġdebate": 5893,
      "Ġfrequency": 5894,
      "ĠASCII": 5895,
      "Ġmanufactur": 5896,
      "Ġarrang": 5897,
      "Ġinstrument": 5898,
      "Ġsettlement": 5899,
      "Ġcommunication": 5900,
      "ĠAssembly": 5901,
      "Ġsomewhat": 5902,
      "aic": 5903,
      "eed": 5904,
      "iary": 5905,
      "zil": 5906,
      "Ä«": 5907,
      "Ġzero": 5908,
      "ini": 5909,
      "onn": 5910,
      "Ġcore": 5911,
      "itis": 5912,
      "Ġfestival": 5913,
      "ĠAM": 5914,
      "ĠAwards": 5915,
      "Ġlies": 5916,
      "Ġnut": 5917,
      "ĠSil": 5918,
      "adium": 5919,
      "ĠPen": 5920,
      "Ġdeal": 5921,
      "ĠInstead": 5922,
      "ĠFestival": 5923,
      "ĠNations": 5924,
      "Ġrif": 5925,
      "ĠOl": 5926,
      "Ġlect": 5927,
      "ĠKent": 5928,
      "Ġagent": 5929,
      "Ġacous": 5930,
      "Ġrecomm": 5931,
      "Ġemperor": 5932,
      "Ġtransition": 5933,
      "Ġflower": 5934,
      "ĠArmstrong": 5935,
      "Ġfollows": 5936,
      "ĠProto": 5937,
      "vention": 5938,
      "Ġcontrolled": 5939,
      "Ġ1944": 5940,
      "ĠEgyptians": 5941,
      "Ġopening": 5942,
      "Ġmeasures": 5943,
      "Ġrecords": 5944,
      "ĠAngolan": 5945,
      "ĠPeace": 5946,
      "Ġconcepts": 5947,
      "Ġuniverse": 5948,
      "going": 5949,
      "Ġsongs": 5950,
      "ĠDemocratic": 5951,
      "Ġisotope": 5952,
      "Ġcelebrated": 5953,
      "ĠSeries": 5954,
      "ĠAntarctica": 5955,
      "ĠSmith": 5956,
      "Ġanatomy": 5957,
      "eign": 5958,
      "fall": 5959,
      "vin": 5960,
      "herent": 5961,
      "Ġwaters": 5962,
      "Ġanagram": 5963,
      "alog": 5964,
      "Ġtoxic": 5965,
      "Ġnom": 5966,
      "ivals": 5967,
      "ĠMr": 5968,
      "ĠMes": 5969,
      "ĠMic": 5970,
      "ĠMajor": 5971,
      "ĠBur": 5972,
      "ĠHor": 5973,
      "Ġproceed": 5974,
      "opl": 5975,
      "Ġorient": 5976,
      "rie": 5977,
      "abakh": 5978,
      "ĠDanish": 5979,
      "ĠNear": 5980,
      "Ġring": 5981,
      "ella": 5982,
      "ellow": 5983,
      "ĠKn": 5984,
      "rence": 5985,
      "Ġevolved": 5986,
      "Ġ300": 5987,
      "atha": 5988,
      "urop": 5989,
      "Ġflow": 5990,
      "Ġfloor": 5991,
      "Ġcollected": 5992,
      "Ġvariable": 5993,
      "Ġcarry": 5994,
      "aurus": 5995,
      "Ġ1973": 5996,
      "Ã©e": 5997,
      "ĠAbout": 5998,
      "aneous": 5999,
      "Ġ150": 6000,
      "Ġportion": 6001,
      "ĠBerber": 6002,
      "Ġholding": 6003,
      "related": 6004,
      "Ġdetermine": 6005,
      "Ġessay": 6006,
      "Ġcontributed": 6007,
      "Ġlearned": 6008,
      "Ġsatisf": 6009,
      "Ġpolynomial": 6010,
      "Ġconcerned": 6011,
      "Ġassumed": 6012,
      "Ġdomestic": 6013,
      "ĠMilne": 6014,
      "Ġcomponent": 6015,
      "Ġmanagement": 6016,
      "Ġoxidation": 6017,
      "Ġfifth": 6018,
      "Ġmaximum": 6019,
      "%)": 6020,
      "Ch": 6021,
      "LA": 6022,
      "cium": 6023,
      "ibert": 6024,
      "wing": 6025,
      "Ġsan": 6026,
      "Ġsail": 6027,
      "Ġbonds": 6028,
      "ĠArian": 6029,
      "Ġmess": 6030,
      "leth": 6031,
      "ĠTim": 6032,
      "Ġnations": 6033,
      "stream": 6034,
      "ĠSo": 6035,
      "idium": 6036,
      "imen": 6037,
      "Ġbeaut": 6038,
      "ira": 6039,
      "ĠMot": 6040,
      "Ġstations": 6041,
      "ĠHay": 6042,
      "ĠGer": 6043,
      "ĠLanguage": 6044,
      "Ġunlike": 6045,
      "Ġuncertain": 6046,
      "ĠAnimal": 6047,
      "ĠUr": 6048,
      "class": 6049,
      "Ġplot": 6050,
      "Ġimages": 6051,
      "Ġformally": 6052,
      "Ġconsult": 6053,
      "Ġpref": 6054,
      "Ġassigned": 6055,
      "Ġpoem": 6056,
      "ucky": 6057,
      "Ġcoord": 6058,
      "Ġinstruction": 6059,
      "Ġfeat": 6060,
      "Ġcontinental": 6061,
      "Ġ1977": 6062,
      "Ġleads": 6063,
      "Ġexplo": 6064,
      "Ġadvant": 6065,
      "Ġhands": 6066,
      "Ġrepresenting": 6067,
      "Ġalmonds": 6068,
      "ĠParliament": 6069,
      "Ġnaturally": 6070,
      "ĠAlbertosaurus": 6071,
      "Ġattempts": 6072,
      "Ġprinciples": 6073,
      "Ġparents": 6074,
      "Ġimproved": 6075,
      "Ġcopies": 6076,
      "Ġdominant": 6077,
      "Ġcompetition": 6078,
      "Ġsurvived": 6079,
      "Ġproteins": 6080,
      "Ġenvironmental": 6081,
      "Ġinnov": 6082,
      "ĠMarsh": 6083,
      "Ġvehicles": 6084,
      "Ġcosm": 6085,
      "ĠBaku": 6086,
      "Ġeggs": 6087,
      "Ġescape": 6088,
      "Ġhusband": 6089,
      "Ġacknowled": 6090,
      ".),": 6091,
      "EM": 6092,
      "hire": 6093,
      "western": 6094,
      "hell": 6095,
      "erted": 6096,
      "rey": 6097,
      "Ġsand": 6098,
      "Ġinse": 6099,
      "Ġintern": 6100,
      "Ġbone": 6101,
      "Ġbacter": 6102,
      "Ġmere": 6103,
      "asc": 6104,
      "Ġdog": 6105,
      "ĠSar": 6106,
      "ĠThen": 6107,
      "aments": 6108,
      "Ġforward": 6109,
      "ĠMill": 6110,
      "Ġalleg": 6111,
      "ĠBern": 6112,
      "ĠPublic": 6113,
      "ĠEduc": 6114,
      "Ġdeaf": 6115,
      "ĠGo": 6116,
      "resh": 6117,
      "ĠLu": 6118,
      "ĠDur": 6119,
      "ĠDig": 6120,
      "ĠDoub": 6121,
      "Ġrivers": 6122,
      "ighter": 6123,
      "ipher": 6124,
      "Ġcompound": 6125,
      "ruption": 6126,
      "angel": 6127,
      "overeign": 6128,
      "ĠVan": 6129,
      "ikh": 6130,
      "Ġcommem": 6131,
      "Ġproduces": 6132,
      "Ġpreferred": 6133,
      "Ġapart": 6134,
      "Ġartistic": 6135,
      "Ġvariation": 6136,
      "ĠAfroasiatic": 6137,
      "roscop": 6138,
      "Ġ1972": 6139,
      "Ġargue": 6140,
      "Ġrestrict": 6141,
      "Ġhistorians": 6142,
      "Ġexisting": 6143,
      "Ġreports": 6144,
      "Ġabscess": 6145,
      "ĠAristoph": 6146,
      "Ġpredicted": 6147,
      "ĠExamples": 6148,
      "while": 6149,
      "Ġfarmers": 6150,
      "ĠPolit": 6151,
      "Ġinvestig": 6152,
      "piration": 6153,
      "Ġburied": 6154,
      "Ġneighbor": 6155,
      "iciency": 6156,
      "Ġconcluded": 6157,
      "ĠNazi": 6158,
      "ĠService": 6159,
      "ĠQueen": 6160,
      "Ġpermanent": 6161,
      "Ġataxia": 6162,
      "CO": 6163,
      "gu": 6164,
      "kes": 6165,
      "uct": 6166,
      "vard": 6167,
      "vements": 6168,
      "xual": 6169,
      "Ġtren": 6170,
      "Ġwars": 6171,
      "Ġfair": 6172,
      "Ġfounder": 6173,
      "Ġpark": 6174,
      "asks": 6175,
      "Ġtools": 6176,
      "ĠTw": 6177,
      "ĠTor": 6178,
      "Ġlat": 6179,
      "ĠSir": 6180,
      "ĠSant": 6181,
      "eless": 6182,
      "elve": 6183,
      "ĠMer": 6184,
      "Ġonline": 6185,
      "Ġ().": 6186,
      "Ġstyles": 6187,
      "ĠPost": 6188,
      "term": 6189,
      "agle": 6190,
      "abil": 6191,
      "Ġabst": 6192,
      "ĠArama": 6193,
      "ĠStat": 6194,
      "ĠVict": 6195,
      "Ġcommander": 6196,
      "ribed": 6197,
      "Ġsubt": 6198,
      "Ġ38": 6199,
      "Ġmodulation": 6200,
      "Ġunderstood": 6201,
      "Ġfounding": 6202,
      "Ġdistrict": 6203,
      "ĠAngeles": 6204,
      "Ġexpand": 6205,
      "Ġeditor": 6206,
      "Ġleadership": 6207,
      "Ġlegs": 6208,
      "Ġapproved": 6209,
      "Ġoperated": 6210,
      "Ġsuccessor": 6211,
      "Ġheadqu": 6212,
      "Ġpopularity": 6213,
      "Ġgoing": 6214,
      "Ġdrink": 6215,
      "Ġtitled": 6216,
      "mittee": 6217,
      "Ġreplace": 6218,
      "ĠSwitzer": 6219,
      "Ġabortions": 6220,
      "Ġdifficulty": 6221,
      "Ġcycle": 6222,
      "ĠMississippi": 6223,
      "Ġastronomical": 6224,
      "Ġincorporated": 6225,
      "ĠGolden": 6226,
      "Ġimperial": 6227,
      "Ġconnection": 6228,
      "Ġappellate": 6229,
      "ĠOxford": 6230,
      "ĠAramaic": 6231,
      "21": 6232,
      "62": 6233,
      "99": 6234,
      "IS": 6235,
      "PA": 6236,
      "col": 6237,
      "la": 6238,
      "rates": 6239,
      "Ġsust": 6240,
      "Ġcris": 6241,
      "alse": 6242,
      "roid": 6243,
      "Ġdism": 6244,
      "Ġreaching": 6245,
      "ĠCup": 6246,
      "igr": 6247,
      "osh": 6248,
      "oples": 6249,
      "ategy": 6250,
      "ĠLil": 6251,
      "ĠLate": 6252,
      "ĠLike": 6253,
      "ĠLake": 6254,
      "ĠWater": 6255,
      "Ġheight": 6256,
      "ptoms": 6257,
      "ĠAnch": 6258,
      "akers": 6259,
      "ipation": 6260,
      "Ġplague": 6261,
      "Ġshif": 6262,
      "ĠThough": 6263,
      "Ġimag": 6264,
      "ĠUnivers": 6265,
      "Ġroads": 6266,
      "Ġoverl": 6267,
      "Ġattached": 6268,
      "Ġinterior": 6269,
      "Ġtransmission": 6270,
      "Ġflag": 6271,
      "hemical": 6272,
      "Ġcalls": 6273,
      "Ġtrav": 6274,
      "ĠIndepend": 6275,
      "fully": 6276,
      "Ġblue": 6277,
      "Ġ1981": 6278,
      "Ġ1984": 6279,
      "Ġ1988": 6280,
      "Ġlands": 6281,
      "Ġtechnical": 6282,
      "Ġstrategy": 6283,
      "ĠMarple": 6284,
      "tolem": 6285,
      "Ġoppon": 6286,
      "Ġopposite": 6287,
      "Ġhistorically": 6288,
      "istered": 6289,
      "idden": 6290,
      "Ġtitles": 6291,
      "Ġissued": 6292,
      "Ġcircle": 6293,
      "Ġencounter": 6294,
      "rastructure": 6295,
      "ĠAirport": 6296,
      "Ġprecise": 6297,
      "Ġalchemical": 6298,
      "Ġrebell": 6299,
      "Ġprotection": 6300,
      "ĠBrazil": 6301,
      "Ġearthqu": 6302,
      "Ġneighbour": 6303,
      "capitalism": 6304,
      "Ġchloride": 6305,
      "Ġsucceeded": 6306,
      "ĠFriedrich": 6307,
      "ĠDerleth": 6308,
      "Ġarithmetic": 6309,
      "ĠArticles": 6310,
      "ĠSwitzerland": 6311,
      "Europe": 6312,
      "bur": 6313,
      "Ġawards": 6314,
      "including": 6315,
      "Ġtherap": 6316,
      "Ġswe": 6317,
      "Ġsample": 6318,
      "Ġsovereign": 6319,
      "Ġcere": 6320,
      "Ġcogn": 6321,
      "ĠAES": 6322,
      "ilation": 6323,
      "olis": 6324,
      "ĠSign": 6325,
      "ĠSaf": 6326,
      "ĠSoutheast": 6327,
      "ivated": 6328,
      "ceae": 6329,
      "ĠIl": 6330,
      "ĠMen": 6331,
      "ĠMur": 6332,
      "ĠMack": 6333,
      "istical": 6334,
      "ĠBurg": 6335,
      "owa": 6336,
      "Ġprol": 6337,
      "abled": 6338,
      "Ġhearing": 6339,
      "ques": 6340,
      "lder": 6341,
      "Ġrational": 6342,
      "Ġsecurity": 6343,
      "ĠOran": 6344,
      "Ġunus": 6345,
      "ĠJeff": 6346,
      "Ġcomplic": 6347,
      "ĠArsen": 6348,
      "ĠUnlike": 6349,
      "ĠViet": 6350,
      "Ġroof": 6351,
      "Ġampl": 6352,
      "Ġagree": 6353,
      "Ġprefer": 6354,
      "Ġjob": 6355,
      "issance": 6356,
      "Ġsole": 6357,
      "Ġtruth": 6358,
      "Ġactinium": 6359,
      "Ġ44": 6360,
      "Ġsurf": 6361,
      "Ġlocations": 6362,
      "Ġconsiderable": 6363,
      "Ġcontinent": 6364,
      "Ġ1979": 6365,
      "Ġmineral": 6366,
      "Ġexperiences": 6367,
      "Ġmovie": 6368,
      "Ġparam": 6369,
      "Ġconfirmed": 6370,
      "Ġvisible": 6371,
      "Ġpatron": 6372,
      "Ġseparation": 6373,
      "Ġrunning": 6374,
      "Ġastronomy": 6375,
      "ĠRoad": 6376,
      "Ġheavier": 6377,
      "Ġepit": 6378,
      "Ġcoastal": 6379,
      "Ġmagnetic": 6380,
      "ĠAnnales": 6381,
      "Ġmechanical": 6382,
      "Ġdialect": 6383,
      "ĠMcC": 6384,
      "Ġdistinguish": 6385,
      "ĠAriet": 6386,
      "Ġadministration": 6387,
      "Ġnarrow": 6388,
      "Ġcloser": 6389,
      "Ġinterpretation": 6390,
      "ĠFrancisc": 6391,
      "Ġaltruism": 6392,
      "Ġisolated": 6393,
      "Ġtwenty": 6394,
      "ĠAristophanes": 6395,
      "bre": 6396,
      "eor": 6397,
      "gart": 6398,
      "gence": 6399,
      "ni": 6400,
      "ping": 6401,
      "uum": 6402,
      "hered": 6403,
      "onomy": 6404,
      "atform": 6405,
      "isot": 6406,
      "Ġcel": 6407,
      "itors": 6408,
      "Ġfelt": 6409,
      "ĠAth": 6410,
      "Ġdated": 6411,
      "idae": 6412,
      "imony": 6413,
      "ado": 6414,
      "ĠMong": 6415,
      "isted": 6416,
      "ĠGall": 6417,
      "Ġexerc": 6418,
      "ĠLar": 6419,
      "iana": 6420,
      "iak": 6421,
      "ĠOsc": 6422,
      "ĠUs": 6423,
      "ĠAlum": 6424,
      "Ġnote": 6425,
      "iph": 6426,
      "ishment": 6427,
      "Ġshoot": 6428,
      "ignment": 6429,
      "Ġotherwise": 6430,
      "Ġalloys": 6431,
      "Ġconsc": 6432,
      "Ġelectrical": 6433,
      "ropical": 6434,
      "Ġtrack": 6435,
      "Ġdepart": 6436,
      "Ġrefuge": 6437,
      "Ġvalley": 6438,
      "Ġperiodic": 6439,
      "Ġpolitics": 6440,
      "Ġmagic": 6441,
      "comm": 6442,
      "Ġdecline": 6443,
      "Ġelim": 6444,
      "ĠExp": 6445,
      "Ġconsisted": 6446,
      "Ġparent": 6447,
      "Ġregarding": 6448,
      "Ġfailure": 6449,
      "ĠSocial": 6450,
      "Ġadaptation": 6451,
      "Ġalternate": 6452,
      "Ġaccommod": 6453,
      "Ġaxioms": 6454,
      "Ġoccupied": 6455,
      "Ġrarely": 6456,
      "aphys": 6457,
      "Ġdamage": 6458,
      "Ġharmon": 6459,
      "ĠDenmark": 6460,
      "Ġprepared": 6461,
      "Ġdemonstrated": 6462,
      "Ġcandid": 6463,
      "back": 6464,
      "cers": 6465,
      "mas": 6466,
      "pus": 6467,
      "sis": 6468,
      "inations": 6469,
      "reland": 6470,
      "Ġsed": 6471,
      "Ġsays": 6472,
      "ittle": 6473,
      "alent": 6474,
      "Ġbad": 6475,
      "ĠAries": 6476,
      "Ġmist": 6477,
      "Ġhier": 6478,
      "Ġhair": 6479,
      "Ġhospital": 6480,
      "ĠTag": 6481,
      "ĠSamp": 6482,
      "eland": 6483,
      "char": 6484,
      "ĠCrit": 6485,
      "ĠColl": 6486,
      "adel": 6487,
      "ĠIowa": 6488,
      "iger": 6489,
      "unction": 6490,
      "Ġgain": 6491,
      "ĠPak": 6492,
      "Ġwhy": 6493,
      "agen": 6494,
      "Ġexport": 6495,
      "ĠLew": 6496,
      "ĠLuc": 6497,
      "ĠWrit": 6498,
      "ache": 6499,
      "Ġselect": 6500,
      "ĠOm": 6501,
      "Ġchap": 6502,
      "usted": 6503,
      "ĠChic": 6504,
      "Ġparties": 6505,
      "aceous": 6506,
      "ĠHealth": 6507,
      "Ġprepar": 6508,
      "arius": 6509,
      "Ġaccident": 6510,
      "Ġemission": 6511,
      "Ġtheme": 6512,
      "Ġmanaged": 6513,
      "Ġexposure": 6514,
      "Ġefficient": 6515,
      "ĠCommittee": 6516,
      "ahar": 6517,
      "Ġmatches": 6518,
      "Ġcontinues": 6519,
      "Ġ1971": 6520,
      "ĠMarvel": 6521,
      "ĠScient": 6522,
      "Ġofficers": 6523,
      "Ġrestric": 6524,
      "Ġoriginated": 6525,
      "Ġexisted": 6526,
      "ethyst": 6527,
      "Ġtelephone": 6528,
      "Ġquantities": 6529,
      "Ġborrow": 6530,
      "Ġantimatter": 6531,
      "Ġfellow": 6532,
      "Ġconventional": 6533,
      "ĠFurthermore": 6534,
      "Ġopin": 6535,
      "ĠTerrit": 6536,
      "Ġhypothesis": 6537,
      "enzie": 6538,
      "Ġatmosphere": 6539,
      "Ġsalamanders": 6540,
      "unciation": 6541,
      "Ġinhabitants": 6542,
      "ĠJesus": 6543,
      "AA": 6544,
      "fam": 6545,
      "rand": 6546,
      "tons": 6547,
      "rees": 6548,
      "Ġbishop": 6549,
      "icide": 6550,
      "lywood": 6551,
      "Ġthick": 6552,
      "state": 6553,
      "olith": 6554,
      "ĠSher": 6555,
      "ĠCle": 6556,
      "adow": 6557,
      "ĠIreland": 6558,
      "otton": 6559,
      "unte": 6560,
      "ĠMem": 6561,
      "ĠBBC": 6562,
      "Ġproof": 6563,
      "ĠGames": 6564,
      "ĠFer": 6565,
      "ĠFeder": 6566,
      "ĠLind": 6567,
      "Ġrig": 6568,
      "Ġselected": 6569,
      "ĠOut": 6570,
      "Ġuser": 6571,
      "ĠAlan": 6572,
      "ĠKe": 6573,
      "apse": 6574,
      "Ġyouth": 6575,
      "erman": 6576,
      "Ġdisag": 6577,
      "Ġproducer": 6578,
      "Ġmetallic": 6579,
      "Ġafterlife": 6580,
      "Ġaccused": 6581,
      "hess": 6582,
      "Ġouter": 6583,
      "Ġspecimen": 6584,
      "Ġgenera": 6585,
      "Ġcoal": 6586,
      "Ġarticles": 6587,
      "Ġcarrier": 6588,
      "Ġinfrastructure": 6589,
      "Ġorigins": 6590,
      "ĠChristopher": 6591,
      "ĠAges": 6592,
      "Ġcorpor": 6593,
      "Ġpossibility": 6594,
      "Ġradical": 6595,
      "Ġshowing": 6596,
      "Ġabsence": 6597,
      "Ġinvolving": 6598,
      "inois": 6599,
      "Ġjoint": 6600,
      "Ġtourism": 6601,
      "Ġanchors": 6602,
      "Ġuniversities": 6603,
      "aximander": 6604,
      "Ġestablishment": 6605,
      "Ġcomparison": 6606,
      "ĠCommunion": 6607,
      "Ġranging": 6608,
      "Ġalcohol": 6609,
      "Ġcovers": 6610,
      "ĠIrish": 6611,
      "ĠKentucky": 6612,
      "Ġfeaturing": 6613,
      "43": 6614,
      "45": 6615,
      "house": 6616,
      "iop": 6617,
      "jection": 6618,
      "vest": 6619,
      "wan": 6620,
      "Ġbud": 6621,
      "Ġfram": 6622,
      "icks": 6623,
      "Ġpil": 6624,
      "ĠAff": 6625,
      "role": 6626,
      "Ġtom": 6627,
      "Ġhyd": 6628,
      "ushed": 6629,
      "Ġlie": 6630,
      "stances": 6631,
      "eline": 6632,
      "urt": 6633,
      "Ġgar": 6634,
      "ĠMo": 6635,
      "Ġstret": 6636,
      "Ġstaff": 6637,
      "ĠEvery": 6638,
      "avel": 6639,
      "ĠLabor": 6640,
      "Ġ1900": 6641,
      "ĠNa": 6642,
      "ĠNon": 6643,
      "ĠNative": 6644,
      "Ġrising": 6645,
      "illing": 6646,
      "Ġunsu": 6647,
      "Ġchron": 6648,
      "Ġchose": 6649,
      "ips": 6650,
      "rann": 6651,
      "ĠThird": 6652,
      "Ġpartner": 6653,
      "orman": 6654,
      "Ġgrown": 6655,
      "Ġpreced": 6656,
      "aws": 6657,
      "archy": 6658,
      "Ġtrig": 6659,
      "Ġacting": 6660,
      "Ġgenerate": 6661,
      "Ġ45": 6662,
      "ĠYoun": 6663,
      "Ġfeet": 6664,
      "Ġserves": 6665,
      "ĠAndy": 6666,
      "Ġ1963": 6667,
      "Ġsolve": 6668,
      "Ġ1985": 6669,
      "Ġlanding": 6670,
      "Ġstrateg": 6671,
      "Ġexplos": 6672,
      "ĠJohnson": 6673,
      "Ġarmies": 6674,
      "Ġbroke": 6675,
      "Ġparliament": 6676,
      "Ġstatue": 6677,
      "Ġengines": 6678,
      "Ġsymptoms": 6679,
      "Ġdeclined": 6680,
      "Ġpriests": 6681,
      "Ġsuffered": 6682,
      "Ġepis": 6683,
      "Ġfacilities": 6684,
      "ĠCaucas": 6685,
      "Ġconnect": 6686,
      "Ġrotation": 6687,
      "Ġdynasty": 6688,
      "Ġlabel": 6689,
      "Ġdemonstr": 6690,
      "Ġarranged": 6691,
      "Ġgradually": 6692,
      "Ġpolarization": 6693,
      "Ġadministrative": 6694,
      "ĠArgon": 6695,
      "ĠSweden": 6696,
      "ĠAlpine": 6697,
      "Ġaardv": 6698,
      "ĠAsparagales": 6699,
      "ĠAlexandria": 6700,
      "Ġgalax": 6701,
      "Ġphrase": 6702,
      "Ġroyal": 6703,
      "Ġcriminal": 6704,
      "tymology": 6705,
      "ĠDevelopment": 6706,
      "ĠEducation": 6707,
      "Ġcommemor": 6708,
      "ĠFrancisco": 6709,
      "48": 6710,
      "aug": 6711,
      "bu": 6712,
      "lines": 6713,
      "uing": 6714,
      "yer": 6715,
      "Ãł": 6716,
      "Ġtherop": 6717,
      "onom": 6718,
      "Ġfirm": 6719,
      "Ġfalse": 6720,
      "ĠpH": 6721,
      "Ġlic": 6722,
      "stad": 6723,
      "struction": 6724,
      "ĠCush": 6725,
      "ĠIra": 6726,
      "ulating": 6727,
      "rage": 6728,
      "ĠBible": 6729,
      "Ġstock": 6730,
      "Ġstability": 6731,
      "Ġcong": 6732,
      "emon": 6733,
      "ĠEle": 6734,
      "ĠGide": 6735,
      "ĠFlor": 6736,
      "Ġexports": 6737,
      "ĠRoth": 6738,
      "Ġchampion": 6739,
      "Ġadvent": 6740,
      "Ġdisappe": 6741,
      "Ġneither": 6742,
      "Ġteach": 6743,
      "Ġsciences": 6744,
      "ifications": 6745,
      "Ġattend": 6746,
      "inding": 6747,
      "stery": 6748,
      "Ġtrain": 6749,
      "ĠRec": 6750,
      "pective": 6751,
      "Ġexplan": 6752,
      "Ġcapable": 6753,
      "Ġ1943": 6754,
      "ĠOrig": 6755,
      "Ġorganizations": 6756,
      "Ġoccurring": 6757,
      "Ġalongside": 6758,
      "ossible": 6759,
      "Ġerror": 6760,
      "Ġruling": 6761,
      "Ġdivine": 6762,
      "Ġrenew": 6763,
      "Ġethics": 6764,
      "Ġteams": 6765,
      "Ġsalts": 6766,
      "Ġnegot": 6767,
      "Ġlayer": 6768,
      "clusion": 6769,
      "Ġmemoir": 6770,
      "Ġcosts": 6771,
      "Ġdocuments": 6772,
      "Ġviolence": 6773,
      "ĠOlympic": 6774,
      "Ġensure": 6775,
      "Ġacquired": 6776,
      "ĠFormation": 6777,
      "Ġexactly": 6778,
      "ĠJulius": 6779,
      "Ġsafe": 6780,
      "ĠRomans": 6781,
      "Ġadults": 6782,
      "Ġfrogs": 6783,
      "Ġfossil": 6784,
      "ĠAndersson": 6785,
      "ĠIllinois": 6786,
      "ĠRoger": 6787,
      "Ġadvantage": 6788,
      "ĠSampras": 6789,
      "ĠPakistan": 6790,
      "28": 6791,
      "35": 6792,
      "36": 6793,
      "39": 6794,
      "65": 6795,
      "78": 6796,
      "CC": 6797,
      "IA": 6798,
      "MP": 6799,
      "St": 6800,
      "ait": 6801,
      "bes": 6802,
      "bury": 6803,
      "hal": 6804,
      "iac": 6805,
      "rors": 6806,
      "sch": 6807,
      "upt": 6808,
      "vis": 6809,
      "vious": 6810,
      "Ġil": 6811,
      "Ġtim": 6812,
      "itage": 6813,
      "Ġindu": 6814,
      "Ġfilled": 6815,
      "Ġhop": 6816,
      "ĠTem": 6817,
      "Ġlov": 6818,
      "Ġlibert": 6819,
      "eters": 6820,
      "etts": 6821,
      "ĠTheatre": 6822,
      "ĠMir": 6823,
      "ĠBost": 6824,
      "ĠPtolem": 6825,
      "Ġvar": 6826,
      "Ġvoice": 6827,
      "agh": 6828,
      "ĠFam": 6829,
      "abeth": 6830,
      "ĠLog": 6831,
      "ĠLine": 6832,
      "Ġhence": 6833,
      "ocracy": 6834,
      "iaceae": 6835,
      "Ġcham": 6836,
      "asters": 6837,
      "Ġcompl": 6838,
      "Ġcompos": 6839,
      "ĠKenn": 6840,
      "Ġshar": 6841,
      "ĠStep": 6842,
      "ruck": 6843,
      "iege": 6844,
      "Ġenem": 6845,
      "Ġsport": 6846,
      "Ġphosph": 6847,
      "Ġ39": 6848,
      "Ġassass": 6849,
      "Ġpubl": 6850,
      "Ġtransform": 6851,
      "ĠAmmonia": 6852,
      "Ġconstell": 6853,
      "ĠIndust": 6854,
      "ĠAustria": 6855,
      "Ġdetect": 6856,
      "Ġlegend": 6857,
      "Ġsupporting": 6858,
      "Ġpolitician": 6859,
      "Ġbackground": 6860,
      "ĠOrwell": 6861,
      "Ġannually": 6862,
      "Ġ1939": 6863,
      "Ġsignificance": 6864,
      "Ġpatients": 6865,
      "Ġhistoric": 6866,
      "Ġideal": 6867,
      "Ġnuclei": 6868,
      "Ġtreaty": 6869,
      "Ġsuffix": 6870,
      "Ġindicated": 6871,
      "Ġengineering": 6872,
      "Ġassistance": 6873,
      "Ġabbot": 6874,
      "Ġtowns": 6875,
      "Ġtransportation": 6876,
      "Ġkingdom": 6877,
      "Ġradioactive": 6878,
      "Ġaccompan": 6879,
      "Ġcommitted": 6880,
      "Ġpronounced": 6881,
      "Ġbeliefs": 6882,
      "Ġregularly": 6883,
      "ĠPortugal": 6884,
      "Ġvisitors": 6885,
      "Ġextension": 6886,
      "Ġdiameter": 6887,
      "ĠAldrin": 6888,
      "Ġsubstantial": 6889,
      "Ġprecipitation": 6890,
      "Ġpaintings": 6891,
      "achusetts": 6892,
      "ĠMackenzie": 6893,
      "but": 6894,
      "hand": 6895,
      "my": 6896,
      "rong": 6897,
      "rÃ©": 6898,
      "trans": 6899,
      "Ġtheology": 6900,
      "Ġfat": 6901,
      "ĠAber": 6902,
      "ĠTy": 6903,
      "ĠTour": 6904,
      "Ġlik": 6905,
      "Ġnick": 6906,
      "ĠSav": 6907,
      "ĠCorn": 6908,
      "add": 6909,
      "ĠMov": 6910,
      "ĠMuch": 6911,
      "ĠMoses": 6912,
      "ĠBre": 6913,
      "Ġstim": 6914,
      "emic": 6915,
      "ĠPot": 6916,
      "ĠPass": 6917,
      "Ġvaries": 6918,
      "agan": 6919,
      "Ġitems": 6920,
      "Ġsup": 6921,
      "ĠLy": 6922,
      "ĠLank": 6923,
      "ĠLyn": 6924,
      "ĠAnaximander": 6925,
      "Ġplatform": 6926,
      "ĠChadic": 6927,
      "Ġclim": 6928,
      "Ġrocks": 6929,
      "ressive": 6930,
      "Ġdesire": 6931,
      "Ġprey": 6932,
      "Ġju": 6933,
      "Ġregime": 6934,
      "Ġpeoples": 6935,
      "Ġfoundation": 6936,
      "Ġexpensive": 6937,
      "Ġanything": 6938,
      "Ġ1965": 6939,
      "ĠTherefore": 6940,
      "Ġ75": 6941,
      "Ġcommunion": 6942,
      "Ġ1937": 6943,
      "Ġrepresentation": 6944,
      "Ġcombat": 6945,
      "Ġbiological": 6946,
      "Ġrenamed": 6947,
      "Ġyounger": 6948,
      "ĠComputer": 6949,
      "Ġbright": 6950,
      "Ġmachines": 6951,
      "Ġdispers": 6952,
      "Ġassistive": 6953,
      "Ġordinary": 6954,
      "Ġaccounts": 6955,
      "Ġsettlers": 6956,
      "Ġrailway": 6957,
      "Ġconvention": 6958,
      "Ġbehavi": 6959,
      "Ġslowly": 6960,
      "ĠMassachusetts": 6961,
      "Ġcrystal": 6962,
      "Ġvessel": 6963,
      "ĠToday": 6964,
      "Ġinterpreted": 6965,
      "Ġoccasionally": 6966,
      "Ġveloc": 6967,
      "ĠFoundation": 6968,
      "Ġconscious": 6969,
      "roleum": 6970,
      "ĠCushitic": 6971,
      "29": 6972,
      "cow": 6973,
      "down": 6974,
      "iar": 6975,
      "making": 6976,
      "rary": 6977,
      "tics": 6978,
      "Ä±": 6979,
      "ĠâĢ": 6980,
      "Ġtun": 6981,
      "Ġtons": 6982,
      "Ġtasks": 6983,
      "rehens": 6984,
      "ancing": 6985,
      "Ġcrown": 6986,
      "orous": 6987,
      "Ġpseud": 6988,
      "ĠAle": 6989,
      "Ġdrop": 6990,
      "omers": 6991,
      "ĠSri": 6992,
      "ura": 6993,
      "amation": 6994,
      "ading": 6995,
      "igious": 6996,
      "iral": 6997,
      "ĠBol": 6998,
      "umber": 6999,
      "ĠPower": 7000,
      "andom": 7001,
      "ĠEqu": 7002,
      "ifies": 7003,
      "Ġvision": 7004,
      "ĠFather": 7005,
      "ĠFair": 7006,
      "ĠLab": 7007,
      "acent": 7008,
      "ighth": 7009,
      "ĠAlc": 7010,
      "ĠKabul": 7011,
      "Ġcancer": 7012,
      "Ġpartly": 7013,
      "Ġrays": 7014,
      "ieth": 7015,
      "Ġgenerated": 7016,
      "Ġdistinction": 7017,
      "Ġimpossible": 7018,
      "Ġdecisions": 7019,
      "ĠEngine": 7020,
      "Ġconstitu": 7021,
      "Ġdescend": 7022,
      "ĠLev": 7023,
      "ashion": 7024,
      "ĠShort": 7025,
      "Ġmarine": 7026,
      "Ġreadily": 7027,
      "Ġhydrocarb": 7028,
      "Ġpassing": 7029,
      "Ġrecognize": 7030,
      "ĠPrime": 7031,
      "Ġruler": 7032,
      "Ġ1914": 7033,
      "Ġbreed": 7034,
      "Ġpromote": 7035,
      "Ġbirds": 7036,
      "Ġtaxes": 7037,
      "ĠBrig": 7038,
      "Ġconcentrations": 7039,
      "Ġplanets": 7040,
      "Ġofficials": 7041,
      "ĠEliz": 7042,
      "Ġrelationships": 7043,
      "Ġarchitectural": 7044,
      "Ġinstitution": 7045,
      "Ġneutron": 7046,
      "ĠKarl": 7047,
      "queous": 7048,
      "Ġrequirements": 7049,
      "Ġvillages": 7050,
      "ĠDelph": 7051,
      "Ġdiseases": 7052,
      "Ġfluor": 7053,
      "Ġweek": 7054,
      "writer": 7055,
      "Ġemphasis": 7056,
      "Ġsaying": 7057,
      "Ġmelting": 7058,
      "ĠVenus": 7059,
      "Ġfruit": 7060,
      "ĠSpecial": 7061,
      "Ġprosper": 7062,
      "Ġtissue": 7063,
      "ĠCarolina": 7064,
      "claimed": 7065,
      "Ġappropriate": 7066,
      "Ġearthquake": 7067,
      "European": 7068,
      "ĠBoston": 7069,
      "100": 7070,
      "graph": 7071,
      "lation": 7072,
      "oen": 7073,
      "rat": 7074,
      "then": 7075,
      "vaeus": 7076,
      "zy": 7077,
      "Ġâ": 7078,
      "Ġ),": 7079,
      "edia": 7080,
      "anas": 7081,
      "Ġce": 7082,
      "aland": 7083,
      "Ġinform": 7084,
      "Ġbed": 7085,
      "Ġmissions": 7086,
      "Ġdinosaur": 7087,
      "leys": 7088,
      "using": 7089,
      "ĠTar": 7090,
      "ĠTimes": 7091,
      "Ġretained": 7092,
      "Ġnort": 7093,
      "ĠSing": 7094,
      "elin": 7095,
      "unch": 7096,
      "rach": 7097,
      "ĠBal": 7098,
      "that": 7099,
      "ĠInc": 7100,
      "ĠGen": 7101,
      "ĠLiter": 7102,
      "ĠWal": 7103,
      "Ġrandom": 7104,
      "ĠAltaic": 7105,
      "Ġnothing": 7106,
      "ĠKor": 7107,
      "Ġkil": 7108,
      "Ġkings": 7109,
      "ĠArts": 7110,
      "Ġadobe": 7111,
      "Ġscales": 7112,
      "ysse": 7113,
      "Ġsubstit": 7114,
      "Ġ36": 7115,
      "obi": 7116,
      "Ġremark": 7117,
      "Ġinvention": 7118,
      "cession": 7119,
      "Ġreputation": 7120,
      "ĠAnglo": 7121,
      "orno": 7122,
      "thetic": 7123,
      "Ġshel": 7124,
      "Ġmonks": 7125,
      "Ġdepicted": 7126,
      "Ġlongest": 7127,
      "ĠAndrew": 7128,
      "Ġ1967": 7129,
      "Ġ1987": 7130,
      "Ġowned": 7131,
      "Ġlegacy": 7132,
      "Ġrequest": 7133,
      "Ġ1947": 7134,
      "Ġofficer": 7135,
      "Ġglac": 7136,
      "ĠCarrel": 7137,
      "Ġvolunte": 7138,
      "Ġstronger": 7139,
      "Ġfinished": 7140,
      "Ġassociation": 7141,
      "Ġdrive": 7142,
      "Ġdriven": 7143,
      "Ġidentify": 7144,
      "Ġ1926": 7145,
      "Ġchanging": 7146,
      "ancipation": 7147,
      "Ġoxide": 7148,
      "Ġ1912": 7149,
      "Ġjoin": 7150,
      "Ġengineer": 7151,
      "Ġsuperior": 7152,
      "Ġcontributions": 7153,
      "ĠBooks": 7154,
      "Ġmechanics": 7155,
      "Ġcontinuing": 7156,
      "ulsion": 7157,
      "Ġpurposes": 7158,
      "ĠKhan": 7159,
      "Ġpronunciation": 7160,
      "Ġaudio": 7161,
      "Ġvarying": 7162,
      "Ġsacr": 7163,
      "ĠHollywood": 7164,
      "Ã³n": 7165,
      "Ġpatterns": 7166,
      "Ġsusp": 7167,
      "ĠUlvaeus": 7168,
      "Ġdrawn": 7169,
      "Ġsegment": 7170,
      "ĠKorean": 7171,
      "Ġwithdraw": 7172,
      "Ġdropped": 7173,
      "ĠScotland": 7174,
      "ĠMoscow": 7175,
      "OVA": 7176,
      "ĠDigital": 7177,
      "Af": 7178,
      "En": 7179,
      "Kar": 7180,
      "SO": 7181,
      "TC": 7182,
      "jug": 7183,
      "ride": 7184,
      "uate": 7185,
      "Ġsons": 7186,
      "Ġcard": 7187,
      "Ġborders": 7188,
      "Ġfaced": 7189,
      "icular": 7190,
      "Ġmiss": 7191,
      "Ġdie": 7192,
      "uscript": 7193,
      "Ġthor": 7194,
      "Ġlosing": 7195,
      "ĠSym": 7196,
      "ĠCatal": 7197,
      "uten": 7198,
      "ules": 7199,
      "ĠHoly": 7200,
      "ĠGarn": 7201,
      "ĠFederal": 7202,
      "ĠRay": 7203,
      "ĠLes": 7204,
      "ĠLoyal": 7205,
      "acrit": 7206,
      "Ġram": 7207,
      "ĠJud": 7208,
      "Ġarrest": 7209,
      "ĠStre": 7210,
      "ĠVis": 7211,
      "hedral": 7212,
      "Ġrecording": 7213,
      "athan": 7214,
      "aret": 7215,
      "Ġobl": 7216,
      "Ġtransferred": 7217,
      "Ġpopulations": 7218,
      "Ġweather": 7219,
      "Ġsurvey": 7220,
      "ĠForce": 7221,
      "Ġinfinite": 7222,
      "ĠIndo": 7223,
      "cycl": 7224,
      "Ġserving": 7225,
      "pected": 7226,
      "Ġ1978": 7227,
      "Ġseconds": 7228,
      "Ġreflected": 7229,
      "ĠZF": 7230,
      "ennis": 7231,
      "ĠAgatha": 7232,
      "Ġsociet": 7233,
      "Ġanimated": 7234,
      "Ġsingles": 7235,
      "Ġreligions": 7236,
      "Ġengaged": 7237,
      "Ġaxis": 7238,
      "Ġ1860": 7239,
      "Ġmulti": 7240,
      "ĠPlay": 7241,
      "Ġ1928": 7242,
      "Ġgenetic": 7243,
      "Ġspecialized": 7244,
      "ĠCommission": 7245,
      "Ġindicates": 7246,
      "Ġmultiplic": 7247,
      "Ġestimates": 7248,
      "ĠHarvard": 7249,
      "ogenic": 7250,
      "Ġmolecular": 7251,
      "Ġfishing": 7252,
      "restrial": 7253,
      "Ġexhibition": 7254,
      "Ġcategories": 7255,
      "Ġdistinguished": 7256,
      "ĠBabyl": 7257,
      "Ġthousand": 7258,
      "ĠAsteroids": 7259,
      "Ġattracted": 7260,
      "world": 7261,
      "Ġinscription": 7262,
      "iformes": 7263,
      "ĠTrojan": 7264,
      "Ġdependent": 7265,
      "Ġportrayed": 7266,
      "ĠTechnology": 7267,
      "Ġintellectual": 7268,
      "Ġcircumstances": 7269,
      "ĠOdysse": 7270,
      "Ġexpedition": 7271,
      "Ġtournament": 7272,
      "ĠVictor": 7273,
      "Ġcrisis": 7274,
      "ĠLewis": 7275,
      "ĠIraq": 7276,
      "Ġaccompanied": 7277,
      "lived": 7278,
      "mes": 7279,
      "pat": 7280,
      "yan": 7281,
      "ĠâĪĴ": 7282,
      "Ġtact": 7283,
      "Ġtests": 7284,
      "Ġaikido": 7285,
      "Ġsell": 7286,
      "Ġsounds": 7287,
      "Ġwant": 7288,
      "Ġwine": 7289,
      "Ġpan": 7290,
      "ĠAre": 7291,
      "ĠTom": 7292,
      "ethe": 7293,
      "unk": 7294,
      "ĠMean": 7295,
      "ulus": 7296,
      "ulates": 7297,
      "Ġconsec": 7298,
      "ifer": 7299,
      "aval": 7300,
      "rians": 7301,
      "ĠRena": 7302,
      "ĠLuther": 7303,
      "ĠNever": 7304,
      "Ġrh": 7305,
      "ĠJack": 7306,
      "eward": 7307,
      "Ġworth": 7308,
      "Ġadvert": 7309,
      "Ġencom": 7310,
      "Ġscene": 7311,
      "ĠAmp": 7312,
      "Ġnews": 7313,
      "ĠSecurity": 7314,
      "aired": 7315,
      "Ġdecade": 7316,
      "Ġreprodu": 7317,
      "Ġentry": 7318,
      "annel": 7319,
      "Ġ1964": 7320,
      "iquity": 7321,
      "ĠJohann": 7322,
      "Ġcapacity": 7323,
      "ĠClub": 7324,
      "Ġchildhood": 7325,
      "Ġobservation": 7326,
      "ĠPlato": 7327,
      "Ġprize": 7328,
      "Ġdiagn": 7329,
      "Ġdegrees": 7330,
      "Ġmerch": 7331,
      "Ġneutrons": 7332,
      "Ġconcerns": 7333,
      "Ġmanufacturing": 7334,
      "Ġbrothers": 7335,
      "Ġinstruments": 7336,
      "contin": 7337,
      "Ġprices": 7338,
      "Ġdisplayed": 7339,
      "Ġsafety": 7340,
      "Ġcontroversial": 7341,
      "Ġnervous": 7342,
      "ĠANOVA": 7343,
      "ĠRadio": 7344,
      "ĠOffice": 7345,
      "Ġvacuum": 7346,
      "Ġabundant": 7347,
      "ĠFreder": 7348,
      "ĠNagorno": 7349,
      "Ġexplicitly": 7350,
      "Ġrebellion": 7351,
      "ĠAluminium": 7352,
      "ĠChicago": 7353,
      "ĠYoung": 7354,
      "ĠRothbard": 7355,
      "38": 7356,
      "AR": 7357,
      "EC": 7358,
      "GC": 7359,
      "cen": 7360,
      "flu": 7361,
      "hist": 7362,
      "vol": 7363,
      "Î±": 7364,
      "Ġty": 7365,
      "Ġtends": 7366,
      "onal": 7367,
      "onial": 7368,
      "Ġboy": 7369,
      "Ġbronze": 7370,
      "Ġfresh": 7371,
      "Ġpione": 7372,
      "ingly": 7373,
      "Ġloyal": 7374,
      "olve": 7375,
      "ĠSol": 7376,
      "Ġbeings": 7377,
      "oto": 7378,
      "Ġgender": 7379,
      "ĠMu": 7380,
      "ĠMurder": 7381,
      "ĠMobile": 7382,
      "ĠBenn": 7383,
      "Ġstorage": 7384,
      "umin": 7385,
      "ĠHu": 7386,
      "ĠFord": 7387,
      "Ġcoming": 7388,
      "ĠRam": 7389,
      "ĠDu": 7390,
      "ĠDet": 7391,
      "iano": 7392,
      "occ": 7393,
      "Ġran": 7394,
      "ĠAnim": 7395,
      "aked": 7396,
      "aste": 7397,
      "ĠChile": 7398,
      "place": 7399,
      "reek": 7400,
      "Ġspelling": 7401,
      "Ġroutes": 7402,
      "Ġindigenous": 7403,
      "ario": 7404,
      "Ġtransmit": 7405,
      "Ġ400": 7406,
      "Ġelectrom": 7407,
      "Ġmanif": 7408,
      "Ġdecor": 7409,
      "Ġends": 7410,
      "Ġestimate": 7411,
      "Ġfollowers": 7412,
      "ĠOnce": 7413,
      "Ġdepends": 7414,
      "ĠProv": 7415,
      "Ġ1961": 7416,
      "Ġminerals": 7417,
      "Ġcorpus": 7418,
      "ĠMarx": 7419,
      "Ġproposal": 7420,
      "Ġ1948": 7421,
      "ĠSciences": 7422,
      "rises": 7423,
      "Ġprotected": 7424,
      "Ġfewer": 7425,
      "iscop": 7426,
      "ymn": 7427,
      "Ġsixth": 7428,
      "Ġsuffering": 7429,
      "Ġassembler": 7430,
      "ĠTurkic": 7431,
      "Ġdiacrit": 7432,
      "Ġlayers": 7433,
      "Ġsatell": 7434,
      "agnetic": 7435,
      "Ġaccordions": 7436,
      "Ġuniversal": 7437,
      "Ġalphabets": 7438,
      "ĠZealand": 7439,
      "Ġhosted": 7440,
      "Ġpainting": 7441,
      "Ġconquest": 7442,
      "Ġsteps": 7443,
      "ĠSteve": 7444,
      "Ġnaval": 7445,
      "Ġpieces": 7446,
      "Ġlinked": 7447,
      "ĠUpon": 7448,
      "ĠOrganization": 7449,
      "Ġbalance": 7450,
      "ĠLeto": 7451,
      "Ġnewspaper": 7452,
      "ĠHellenistic": 7453,
      "ĠPeninsula": 7454,
      "ĠTaggart": 7455,
      "Ġunsuccess": 7456,
      "ĠCaucasus": 7457,
      "ĠAberde": 7458,
      "Karabakh": 7459,
      "ĠAmpÃ¨re": 7460,
      "26": 7461,
      "55": 7462,
      "85": 7463,
      "At": 7464,
      "eenth": 7465,
      "gener": 7466,
      "group": 7467,
      "ko": 7468,
      "nest": 7469,
      "uation": 7470,
      "Å«": 7471,
      "atched": 7472,
      "Ġsleep": 7473,
      "anol": 7474,
      "anium": 7475,
      "Ġcab": 7476,
      "Ġcart": 7477,
      "itz": 7478,
      "Ġbases": 7479,
      "rous": 7480,
      "room": 7481,
      "Ġdating": 7482,
      "ĠTit": 7483,
      "Ġreality": 7484,
      "Ġlose": 7485,
      "Ġlung": 7486,
      "stable": 7487,
      "ĠSus": 7488,
      "etime": 7489,
      "etics": 7490,
      "ĠThelem": 7491,
      "ĠCop": 7492,
      "ĠCyp": 7493,
      "Ġbeads": 7494,
      "ĠMP": 7495,
      "Ġwaste": 7496,
      "ĠHipp": 7497,
      "tered": 7498,
      "Ġoral": 7499,
      "odoc": 7500,
      "aven": 7501,
      "Ġvote": 7502,
      "ĠRail": 7503,
      "Ġsuitable": 7504,
      "acle": 7505,
      "acles": 7506,
      "Ġunp": 7507,
      "ĠJup": 7508,
      "Ġnotion": 7509,
      "izon": 7510,
      "ishops": 7511,
      "oked": 7512,
      "ĠThose": 7513,
      "Ġperception": 7514,
      "orses": 7515,
      "Ġacceler": 7516,
      "Ġattended": 7517,
      "iversary": 7518,
      "Ġinterests": 7519,
      "incial": 7520,
      "aecil": 7521,
      "ĠConference": 7522,
      "Ġsupposed": 7523,
      "Ġbelt": 7524,
      "Ġexposed": 7525,
      "Ġtermin": 7526,
      "Ġwarm": 7527,
      "Ġdiscip": 7528,
      "olloqu": 7529,
      "Ġ1982": 7530,
      "Ġimported": 7531,
      "Ġequations": 7532,
      "ĠWhat": 7533,
      "Ġdescribing": 7534,
      "Ġradius": 7535,
      "Ġmarks": 7536,
      "Ġfactory": 7537,
      "Ġmarkets": 7538,
      "Ġlimits": 7539,
      "Ġidentical": 7540,
      "scale": 7541,
      "ĠAnglicans": 7542,
      "Ġmathematic": 7543,
      "ĠDavis": 7544,
      "Ġhardware": 7545,
      "ĠArtemis": 7546,
      "Ġattacked": 7547,
      "Ġachieve": 7548,
      "Ġsuccessfully": 7549,
      "Ġfemin": 7550,
      "Ġautomorph": 7551,
      "ĠDemocr": 7552,
      "Ġcommittee": 7553,
      "Ġdistributed": 7554,
      "Ġdetails": 7555,
      "ĠArgent": 7556,
      "Ġaimed": 7557,
      "Ġrobot": 7558,
      "Ġcredited": 7559,
      "Ġresidents": 7560,
      "Ġstreet": 7561,
      "Ġvertebra": 7562,
      "Ġgeometry": 7563,
      "ĠProgram": 7564,
      "Ġheadquarters": 7565,
      "Ġunusual": 7566,
      "Ġaardvark": 7567,
      "ĠJupiter": 7568,
      "car": 7569,
      "cher": 7570,
      "come": 7571,
      "des": 7572,
      "language": 7573,
      "path": 7574,
      "uous": 7575,
      "uction": 7576,
      "vation": 7577,
      "Ġ).": 7578,
      "onium": 7579,
      "Ġwitness": 7580,
      "aration": 7581,
      "Ġbill": 7582,
      "Ġdrag": 7583,
      "Ġdimens": 7584,
      "Ġhall": 7585,
      "Ġharb": 7586,
      "ctic": 7587,
      "Ġrear": 7588,
      "Ġthir": 7589,
      "ilk": 7590,
      "stan": 7591,
      "ĠSon": 7592,
      "ĠSyn": 7593,
      "ivest": 7594,
      "Ġgall": 7595,
      "Ġalle": 7596,
      "rac": 7597,
      "ĠBor": 7598,
      "ĠBah": 7599,
      "ĠProp": 7600,
      "ĠPope": 7601,
      "estial": 7602,
      "Ġdeleg": 7603,
      "rix": 7604,
      "Ġven": 7605,
      "abas": 7606,
      "aints": 7607,
      "ĠNatural": 7608,
      "Ġseats": 7609,
      "ĠOper": 7610,
      "ogram": 7611,
      "ĠAncy": 7612,
      "ĠJo": 7613,
      "ellar": 7614,
      "clamation": 7615,
      "Ġplanning": 7616,
      "ĠStar": 7617,
      "Ġpartially": 7618,
      "Ġenh": 7619,
      "rency": 7620,
      "Ġneck": 7621,
      "Ġagnost": 7622,
      "Ġsubur": 7623,
      "Ġprint": 7624,
      "arsh": 7625,
      "Ġspecimens": 7626,
      "Ġintermediate": 7627,
      "Ġinvent": 7628,
      "ĠArmed": 7629,
      "Ġwrites": 7630,
      "Ġextract": 7631,
      "Ġoffers": 7632,
      "Ġtrained": 7633,
      "Ġsupplies": 7634,
      "monton": 7635,
      "Ġequation": 7636,
      "ĠPhoen": 7637,
      "Ġclasses": 7638,
      "ĠAllah": 7639,
      "Ġreferences": 7640,
      "Ġincident": 7641,
      "Ġparad": 7642,
      "Ġsimilarly": 7643,
      "aneously": 7644,
      "Ġ1955": 7645,
      "Ġshortly": 7646,
      "Ġmassac": 7647,
      "Ġ1863": 7648,
      "Ġlasted": 7649,
      "Ġmeasuring": 7650,
      "Ġmembran": 7651,
      "ployment": 7652,
      "Ġcrust": 7653,
      "Ġseek": 7654,
      "Ġpromoted": 7655,
      "ĠCharl": 7656,
      "Ġemployment": 7657,
      "Ġcivilization": 7658,
      "Ġclean": 7659,
      "Ġassistant": 7660,
      "ĠADEM": 7661,
      "Ġcollapse": 7662,
      "Ġillness": 7663,
      "attles": 7664,
      "Ġinvestment": 7665,
      "Ġmolecule": 7666,
      "Ġeasier": 7667,
      "Ġreviews": 7668,
      "Ġdiscussed": 7669,
      "ĠRevolutionary": 7670,
      "ĠMoreover": 7671,
      "Ġbenefit": 7672,
      "Ġtheorem": 7673,
      "Ġconstitutional": 7674,
      "Ġadjacent": 7675,
      "ĠMacedonian": 7676,
      "ĠYears": 7677,
      "largest": 7678,
      "ĠPhilosophy": 7679,
      "Ġambiguity": 7680,
      "Ġenjoyed": 7681,
      "speaking": 7682,
      "ĠSecretary": 7683,
      "Ġaquatic": 7684,
      "Ġcamera": 7685,
      "Ġsurfaces": 7686,
      "adelph": 7687,
      "Ġrestricted": 7688,
      "Ġbudget": 7689,
      "Ġilleg": 7690,
      "ĠNevertheless": 7691,
      "Ġencompass": 7692,
      "ivestock": 7693,
      "\";": 7694,
      "44": 7695,
      "67": 7696,
      "Cl": 7697,
      "grad": 7698,
      "iot": 7699,
      "no": 7700,
      "nst": 7701,
      "ooth": 7702,
      "zen": 7703,
      "Ġiod": 7704,
      "Ġsight": 7705,
      "ano": 7706,
      "Ġinherent": 7707,
      "Ġfib": 7708,
      "Ġfaster": 7709,
      "Ġmir": 7710,
      "Ġmart": 7711,
      "Ġmentions": 7712,
      "Ġdim": 7713,
      "Ġdoll": 7714,
      "uses": 7715,
      "ĠTay": 7716,
      "Ġthin": 7717,
      "Ġthrone": 7718,
      "Ġlob": 7719,
      "struct": 7720,
      "ĠSic": 7721,
      "ette": 7722,
      "iments": 7723,
      "ĠCart": 7724,
      "ĠCap": 7725,
      "ĠIV": 7726,
      "ota": 7727,
      "istent": 7728,
      "Ġstead": 7729,
      "erse": 7730,
      "ĠGh": 7731,
      "ĠGalt": 7732,
      "ĠLong": 7733,
      "ĠLingu": 7734,
      "Ġ1919": 7735,
      "ĠWes": 7736,
      "ortion": 7737,
      "Ġseed": 7738,
      "illation": 7739,
      "ogy": 7740,
      "ogether": 7741,
      "ĠJournal": 7742,
      "ĠAlm": 7743,
      "Ġleaves": 7744,
      "ĠKer": 7745,
      "Ġplate": 7746,
      "oke": 7747,
      "ĠUntil": 7748,
      "osexual": 7749,
      "Ġschem": 7750,
      "Ġmetropolitan": 7751,
      "Ġrecip": 7752,
      "Ġaccum": 7753,
      "Ġemot": 7754,
      "ĠEnd": 7755,
      "Ġflo": 7756,
      "Ġactor": 7757,
      "ictional": 7758,
      "Ġelectro": 7759,
      "Ġ55": 7760,
      "leday": 7761,
      "Ġreflection": 7762,
      "ennium": 7763,
      "Ġinspiration": 7764,
      "Ġpublicly": 7765,
      "Ġpersonnel": 7766,
      "Ġ1942": 7767,
      "Ġcurrents": 7768,
      "Ġstatistics": 7769,
      "Ġadding": 7770,
      "Ġindustries": 7771,
      "Ġportra": 7772,
      "apping": 7773,
      "Ġ1903": 7774,
      "def": 7775,
      "Ġiniti": 7776,
      "Ġrecognised": 7777,
      "Ġterritorial": 7778,
      "Ġrender": 7779,
      "Ġdestruction": 7780,
      "Ġemployees": 7781,
      "Ġfinds": 7782,
      "Ġfinding": 7783,
      "Ġfacilit": 7784,
      "ĠPhiladelph": 7785,
      "ĠADA": 7786,
      "Ġpolicies": 7787,
      "Ġvariant": 7788,
      "Ġkeeping": 7789,
      "ĠArminius": 7790,
      "Ġchalleng": 7791,
      "Ġmunicipality": 7792,
      "Ġsynthesis": 7793,
      "Ġtheoretical": 7794,
      "Ġalcohols": 7795,
      "Ġreserves": 7796,
      "Ġhundreds": 7797,
      "ĠSwedish": 7798,
      "Ġpiece": 7799,
      "Ġmortality": 7800,
      "Ġencouraged": 7801,
      "Ġjurisdictions": 7802,
      "Ġhabit": 7803,
      "Ġrubidium": 7804,
      "Ġminimum": 7805,
      "Ġmouthwash": 7806,
      "Ġconcert": 7807,
      "ĠArsenic": 7808,
      "Ġvaried": 7809,
      "ĠGarner": 7810,
      "ĠRenaissance": 7811,
      "32": 7812,
      "96": 7813,
      "Ap": 7814,
      "bel": 7815,
      "ept": 7816,
      "free": 7817,
      "iat": 7818,
      "kin": 7819,
      "non": 7820,
      "va": 7821,
      "whe": 7822,
      "Ġaqueous": 7823,
      "heastern": 7824,
      "inder": 7825,
      "Ġsoutheast": 7826,
      "Ġcorn": 7827,
      "itals": 7828,
      "Ġfet": 7829,
      "Ġpul": 7830,
      "ĠArag": 7831,
      "rox": 7832,
      "Ġmamm": 7833,
      "ĠTun": 7834,
      "Ġeat": 7835,
      "lyph": 7836,
      "urance": 7837,
      "ĠMission": 7838,
      "Ġstabil": 7839,
      "osa": 7840,
      "ĠPyth": 7841,
      "ĠHaw": 7842,
      "Ġprohib": 7843,
      "Ġvoted": 7844,
      "Ġexcess": 7845,
      "Ġsuicide": 7846,
      "ĠLamb": 7847,
      "Ġranks": 7848,
      "Ġunion": 7849,
      "erevan": 7850,
      "endar": 7851,
      "Ġabug": 7852,
      "Ġplural": 7853,
      "Ġenforce": 7854,
      "Ġdisorder": 7855,
      "Ġdisorders": 7856,
      "Ġspin": 7857,
      "Ġroll": 7858,
      "Ġammon": 7859,
      "enses": 7860,
      "Ġcenters": 7861,
      "ĠAttic": 7862,
      "Ġ37": 7863,
      "Ġpublishing": 7864,
      "ilding": 7865,
      "Ġflowers": 7866,
      "ĠSeven": 7867,
      "Ġdoing": 7868,
      "Ġinvited": 7869,
      "Ġcoined": 7870,
      "Ġcolony": 7871,
      "ĠDeath": 7872,
      "azz": 7873,
      "Ġnamely": 7874,
      "Ġdirectors": 7875,
      "ylogen": 7876,
      "Ġvalleys": 7877,
      "Ġtechnologies": 7878,
      "ĠMarg": 7879,
      "odynam": 7880,
      "Ġstatements": 7881,
      "Ġindependently": 7882,
      "ĠOthers": 7883,
      "Ġessentially": 7884,
      "ĠBuddha": 7885,
      "ĠAnglicanism": 7886,
      "Ġtourists": 7887,
      "ĠControl": 7888,
      "Ġkeyboard": 7889,
      "Ġsensory": 7890,
      "Ġspectrum": 7891,
      "Ġinjury": 7892,
      "Ġinjuries": 7893,
      "Ġeye": 7894,
      "ĠBelg": 7895,
      "Ġsubsid": 7896,
      "ĠHighway": 7897,
      "ĠGlobal": 7898,
      "ĠGovernor": 7899,
      "Ġpreserved": 7900,
      "Ġconsumption": 7901,
      "Ġneurons": 7902,
      "Ġstreets": 7903,
      "ĠConstant": 7904,
      "Ġprocedures": 7905,
      "ĠAbbey": 7906,
      "ĠSaturn": 7907,
      "Ġsecure": 7908,
      "Ġcondem": 7909,
      "hydrogen": 7910,
      "ĠVarious": 7911,
      "Ġbacteria": 7912,
      "ĠDoubleday": 7913,
      "angelical": 7914,
      "Ġabstract": 7915,
      "Ġdismiss": 7916,
      "isotrop": 7917,
      "olithic": 7918,
      "ĠStreet": 7919,
      "88": 7920,
      "98": 7921,
      "AP": 7922,
      "father": 7923,
      "har": 7924,
      "lock": 7925,
      "oil": 7926,
      "rator": 7927,
      "ua": 7928,
      "Ġ/": 7929,
      "Ġwick": 7930,
      "Ġcod": 7931,
      "Ġcited": 7932,
      "Ġcricket": 7933,
      "Ġcotton": 7934,
      "itled": 7935,
      "Ġansw": 7936,
      "Ġinher": 7937,
      "Ġfest": 7938,
      "Ġtool": 7939,
      "Ġdiversity": 7940,
      "Ġdense": 7941,
      "Ġdream": 7942,
      "oured": 7943,
      "stone": 7944,
      "ĠSund": 7945,
      "Ġgir": 7946,
      "raham": 7947,
      "Ġstruck": 7948,
      "ĠHa": 7949,
      "ĠHot": 7950,
      "ĠGood": 7951,
      "ĠFa": 7952,
      "ĠFe": 7953,
      "Ġheard": 7954,
      "ĠNet": 7955,
      "Ġsect": 7956,
      "Ġuncon": 7957,
      "Ġshaped": 7958,
      "Ġcanc": 7959,
      "Ġpartn": 7960,
      "Ġformat": 7961,
      "Ġbeta": 7962,
      "Ġattested": 7963,
      "Ġraces": 7964,
      "Ġraise": 7965,
      "190": 7966,
      "1900": 7967,
      "Ġinteractions": 7968,
      "Ġthemes": 7969,
      "Ġdoctor": 7970,
      "Ġextraction": 7971,
      "Ġcolors": 7972,
      "Ġmanip": 7973,
      "Ġmanuscript": 7974,
      "ĠRearden": 7975,
      "ĠYerevan": 7976,
      "Ġsimult": 7977,
      "Ġdirections": 7978,
      "Ġentrance": 7979,
      "Ġ65": 7980,
      "ĠProduction": 7981,
      "Ġmining": 7982,
      "Ġdetective": 7983,
      "Ġlegit": 7984,
      "Ġdesigns": 7985,
      "Ġdesignated": 7986,
      "plete": 7987,
      "Ġ1941": 7988,
      "Ġaxons": 7989,
      "Ġreaders": 7990,
      "Ġsymmet": 7991,
      "comp": 7992,
      "Ġports": 7993,
      "Ġprevail": 7994,
      "Ġsouthwest": 7995,
      "Ġgenre": 7996,
      "Ġformerly": 7997,
      "vironments": 7998,
      "Ġdenied": 7999,
      "ĠHarry": 8000,
      "standing": 8001,
      "ĠAnnual": 8002,
      "Ġpercentage": 8003,
      "ĠMethod": 8004,
      "Ġaccompl": 8005,
      "Ġquestions": 8006,
      "borg": 8007,
      "Ġprotein": 8008,
      "Ġsituations": 8009,
      "Ġhomes": 8010,
      "Ġmeasurements": 8011,
      "Ġestablishing": 8012,
      "ĠCoast": 8013,
      "Ġsurrounded": 8014,
      "ĠArminianism": 8015,
      "Ġextensively": 8016,
      "Ġvehicle": 8017,
      "Ġbriefly": 8018,
      "ĠDaniel": 8019,
      "Ġframe": 8020,
      "Ġchallenged": 8021,
      "Ġconversion": 8022,
      "Ġnouns": 8023,
      "Ġthermal": 8024,
      "ĠSimilarly": 8025,
      "Ġmoderate": 8026,
      "ĠAgriculture": 8027,
      "Ġbeautiful": 8028,
      "Ġacknowledged": 8029,
      "ĠAnchorage": 8030,
      "ĠIndependence": 8031,
      "burgh": 8032,
      "Ġtherapy": 8033,
      "ĠTerritory": 8034,
      "Ġexplanation": 8035,
      "Ġsocieties": 8036,
      "79": 8037,
      "AI": 8038,
      "Ac": 8039,
      "OS": 8040,
      "eu": 8041,
      "elect": 8042,
      "hre": 8043,
      "oa": 8044,
      "pent": 8045,
      "rig": 8046,
      "uis": 8047,
      "Ġtry": 8048,
      "Ġtalk": 8049,
      "Ġtrying": 8050,
      "inced": 8051,
      "ati": 8052,
      "Ġcul": 8053,
      "Ġfil": 8054,
      "Ġfashion": 8055,
      "Ġpick": 8056,
      "ĠAx": 8057,
      "ĠAround": 8058,
      "Ġmal": 8059,
      "Ġharm": 8060,
      "Ġhuge": 8061,
      "ĠTroy": 8062,
      "omp": 8063,
      "omed": 8064,
      "Ġthing": 8065,
      "ĠSix": 8066,
      "ĠCab": 8067,
      "utor": 8068,
      "irs": 8069,
      "ĠMax": 8070,
      "ĠBat": 8071,
      "ĠBus": 8072,
      "ĠBapt": 8073,
      "ĠPars": 8074,
      "ĠHad": 8075,
      "Ġorg": 8076,
      "ĠGar": 8077,
      "ĠGreg": 8078,
      "Ġexceed": 8079,
      "ĠLt": 8080,
      "ĠLast": 8081,
      "Ġseat": 8082,
      "Ġsevent": 8083,
      "arded": 8084,
      "Ġshapes": 8085,
      "Ġadject": 8086,
      "Ġadmitted": 8087,
      "iban": 8088,
      "Ġclin": 8089,
      "Ġdesert": 8090,
      "Ġevil": 8091,
      "Ġknew": 8092,
      "Ġcharges": 8093,
      "Ġextinct": 8094,
      "Ġcolour": 8095,
      "Ġvariations": 8096,
      "Ġ58": 8097,
      "Ġ1966": 8098,
      "Ġtemples": 8099,
      "Ġ1938": 8100,
      "Ġperforming": 8101,
      "Ġmasses": 8102,
      "Ġlimbs": 8103,
      "Ġgoes": 8104,
      "ĠPoly": 8105,
      "Ġ1905": 8106,
      "ĠCentre": 8107,
      "ĠCentury": 8108,
      "Ġmembership": 8109,
      "ĠPrim": 8110,
      "Ġcalc": 8111,
      "Ġcircular": 8112,
      "Ġcapitalism": 8113,
      "radition": 8114,
      "ĠAssy": 8115,
      "shaped": 8116,
      "who": 8117,
      "ĠMinor": 8118,
      "Ġtwelve": 8119,
      "Ġsubjects": 8120,
      "Ġgrounds": 8121,
      "Ġvictim": 8122,
      "Ġfavour": 8123,
      "Ġreasoning": 8124,
      "Ġconstitute": 8125,
      "Ġhousehold": 8126,
      "Ġcampaigns": 8127,
      "Ġpresidential": 8128,
      "Ġcontinuous": 8129,
      "Ġspectral": 8130,
      "Ġparticipated": 8131,
      "Ġjudg": 8132,
      "Ġsouls": 8133,
      "Ġexecuted": 8134,
      "Ġdiscussion": 8135,
      "Ġconvinced": 8136,
      "Ġranges": 8137,
      "Ġkinds": 8138,
      "Ġpetroleum": 8139,
      "ĠDefense": 8140,
      "slan": 8141,
      "ĠAlgiers": 8142,
      "Ġphenomenon": 8143,
      "Ġfleet": 8144,
      "Ġmacro": 8145,
      "ĠForeign": 8146,
      "Ġnoble": 8147,
      "Ġcolumns": 8148,
      "Ġopportunity": 8149,
      "Ġrifle": 8150,
      "Ġmerely": 8151,
      "roscopic": 8152,
      "ĠArietis": 8153,
      "onomous": 8154,
      "Ġvelocity": 8155,
      "ĠElizabeth": 8156,
      "ĠPhiladelphia": 8157,
      "ba": 8158,
      "cially": 8159,
      "cribed": 8160,
      "hum": 8161,
      "oo": 8162,
      "za": 8163,
      "zed": 8164,
      "hex": 8165,
      "inian": 8166,
      "Ġov": 8167,
      "Ġsamples": 8168,
      "Ġwa": 8169,
      "esis": 8170,
      "itting": 8171,
      "alin": 8172,
      "Ġinaug": 8173,
      "Ġbreat": 8174,
      "Ġbanks": 8175,
      "Ġped": 8176,
      "roll": 8177,
      "Ġdies": 8178,
      "ouds": 8179,
      "Ġlift": 8180,
      "ĠSid": 8181,
      "idus": 8182,
      "idents": 8183,
      "Ġbear": 8184,
      "ĠIli": 8185,
      "ĠMans": 8186,
      "ĠMaster": 8187,
      "rav": 8188,
      "Ġstored": 8189,
      "ĠPict": 8190,
      "ĠPash": 8191
    },
    "merges": [
      [
        "Ġ",
        "t"
      ],
      [
        "Ġ",
        "a"
      ],
      [
        "h",
        "e"
      ],
      [
        "i",
        "n"
      ],
      [
        "Ġt",
        "he"
      ],
      [
        "e",
        "r"
      ],
      [
        "o",
        "n"
      ],
      [
        "r",
        "e"
      ],
      [
        "Ġ",
        "o"
      ],
      [
        "a",
        "t"
      ],
      [
        "Ġ",
        "s"
      ],
      [
        "e",
        "n"
      ],
      [
        "e",
        "d"
      ],
      [
        "a",
        "n"
      ],
      [
        "i",
        "s"
      ],
      [
        "Ġ",
        "w"
      ],
      [
        "Ġ",
        "c"
      ],
      [
        "e",
        "s"
      ],
      [
        "i",
        "t"
      ],
      [
        "Ġo",
        "f"
      ],
      [
        "Ġa",
        "n"
      ],
      [
        "o",
        "r"
      ],
      [
        "a",
        "l"
      ],
      [
        "a",
        "r"
      ],
      [
        "Ġ",
        "in"
      ],
      [
        "Ġ",
        "b"
      ],
      [
        "Ġ",
        "f"
      ],
      [
        "i",
        "c"
      ],
      [
        "Ġ",
        "p"
      ],
      [
        "Ġan",
        "d"
      ],
      [
        "Ġ",
        "A"
      ],
      [
        "r",
        "o"
      ],
      [
        "i",
        "on"
      ],
      [
        "Ġ",
        "m"
      ],
      [
        "in",
        "g"
      ],
      [
        "a",
        "s"
      ],
      [
        "Ġt",
        "o"
      ],
      [
        "Ġ",
        "d"
      ],
      [
        "l",
        "e"
      ],
      [
        "Ġ",
        "h"
      ],
      [
        "u",
        "s"
      ],
      [
        "en",
        "t"
      ],
      [
        "Ġ",
        "T"
      ],
      [
        "o",
        "m"
      ],
      [
        "Ġ",
        "e"
      ],
      [
        "l",
        "y"
      ],
      [
        "c",
        "t"
      ],
      [
        "Ġ",
        "re"
      ],
      [
        "o",
        "u"
      ],
      [
        "Ġt",
        "h"
      ],
      [
        "Ġ",
        "l"
      ],
      [
        "i",
        "l"
      ],
      [
        "Ġ",
        "n"
      ],
      [
        "s",
        "t"
      ],
      [
        "o",
        "l"
      ],
      [
        "Ġ",
        "S"
      ],
      [
        "e",
        "l"
      ],
      [
        "u",
        "r"
      ],
      [
        "i",
        "d"
      ],
      [
        "Ġ",
        "is"
      ],
      [
        "e",
        "t"
      ],
      [
        "ĠT",
        "he"
      ],
      [
        "i",
        "m"
      ],
      [
        "c",
        "h"
      ],
      [
        "a",
        "m"
      ],
      [
        "at",
        "ion"
      ],
      [
        "Ġ",
        "C"
      ],
      [
        "i",
        "v"
      ],
      [
        "Ġ",
        "1"
      ],
      [
        "c",
        "e"
      ],
      [
        "Ġa",
        "s"
      ],
      [
        "a",
        "d"
      ],
      [
        "Ġb",
        "e"
      ],
      [
        "Ġ",
        "I"
      ],
      [
        "o",
        "t"
      ],
      [
        "u",
        "t"
      ],
      [
        "Ġf",
        "or"
      ],
      [
        "i",
        "g"
      ],
      [
        "u",
        "n"
      ],
      [
        "Ġ",
        "g"
      ],
      [
        "i",
        "r"
      ],
      [
        "Ġ",
        "M"
      ],
      [
        "it",
        "h"
      ],
      [
        "Ġ",
        "on"
      ],
      [
        "Ġ",
        "("
      ],
      [
        "u",
        "l"
      ],
      [
        "is",
        "t"
      ],
      [
        "Ġw",
        "as"
      ],
      [
        "Ġa",
        "l"
      ],
      [
        "r",
        "a"
      ],
      [
        "Ġ",
        "B"
      ],
      [
        "o",
        "w"
      ],
      [
        "Ġs",
        "t"
      ],
      [
        "er",
        "s"
      ],
      [
        "he",
        "r"
      ],
      [
        "Ġc",
        "on"
      ],
      [
        "Ġw",
        "ith"
      ],
      [
        "o",
        "s"
      ],
      [
        "u",
        "m"
      ],
      [
        "e",
        "m"
      ],
      [
        "Ġ",
        "P"
      ],
      [
        "Ġth",
        "at"
      ],
      [
        "Ġ",
        "H"
      ],
      [
        "Ġb",
        "y"
      ],
      [
        "t",
        "h"
      ],
      [
        "t",
        "er"
      ],
      [
        "v",
        "er"
      ],
      [
        "Ġw",
        "h"
      ],
      [
        "Ġp",
        "ro"
      ],
      [
        "o",
        "p"
      ],
      [
        "an",
        "d"
      ],
      [
        "Ġ",
        "E"
      ],
      [
        "'",
        "s"
      ],
      [
        "Ġo",
        "r"
      ],
      [
        "o",
        "d"
      ],
      [
        "es",
        "t"
      ],
      [
        "a",
        "y"
      ],
      [
        "i",
        "f"
      ],
      [
        "Ġa",
        "re"
      ],
      [
        "a",
        "v"
      ],
      [
        "Ġd",
        "e"
      ],
      [
        "r",
        "i"
      ],
      [
        "ĠI",
        "n"
      ],
      [
        "at",
        "e"
      ],
      [
        "Ġ",
        "G"
      ],
      [
        "Ġ",
        "v"
      ],
      [
        "a",
        "g"
      ],
      [
        "Ġ",
        "it"
      ],
      [
        "ro",
        "m"
      ],
      [
        "Ġa",
        "t"
      ],
      [
        "Ġ",
        "F"
      ],
      [
        "re",
        "s"
      ],
      [
        "Ġe",
        "x"
      ],
      [
        "Ġc",
        "om"
      ],
      [
        "a",
        "b"
      ],
      [
        "Ġ",
        "R"
      ],
      [
        "Ġs",
        "u"
      ],
      [
        "Ġ",
        "2"
      ],
      [
        "i",
        "es"
      ],
      [
        "p",
        "e"
      ],
      [
        "Ġ",
        "L"
      ],
      [
        "a",
        "in"
      ],
      [
        "Ġ1",
        "9"
      ],
      [
        "Ġ",
        "W"
      ],
      [
        "Ġ",
        "D"
      ],
      [
        "Ġf",
        "rom"
      ],
      [
        "u",
        "d"
      ],
      [
        "Ġ",
        "\""
      ],
      [
        "a",
        "c"
      ],
      [
        "Ġ",
        "he"
      ],
      [
        "ou",
        "n"
      ],
      [
        "it",
        "y"
      ],
      [
        "i",
        "an"
      ],
      [
        "Ġ",
        "N"
      ],
      [
        "ic",
        "al"
      ],
      [
        "q",
        "u"
      ],
      [
        "iv",
        "e"
      ],
      [
        "l",
        "d"
      ],
      [
        "ic",
        "h"
      ],
      [
        "or",
        "t"
      ],
      [
        "Ġh",
        "is"
      ],
      [
        "o",
        "c"
      ],
      [
        "es",
        "s"
      ],
      [
        "Ġ",
        "r"
      ],
      [
        "Ġm",
        "o"
      ],
      [
        "an",
        "t"
      ],
      [
        "Ġs",
        "e"
      ],
      [
        "i",
        "a"
      ],
      [
        "0",
        "0"
      ],
      [
        "i",
        "al"
      ],
      [
        "at",
        "ed"
      ],
      [
        "p",
        "p"
      ],
      [
        "Ġ",
        "O"
      ],
      [
        "p",
        "t"
      ],
      [
        "il",
        "l"
      ],
      [
        "ar",
        "t"
      ],
      [
        "Ġ",
        "us"
      ],
      [
        "o",
        "g"
      ],
      [
        "Ġ",
        "un"
      ],
      [
        "m",
        "ent"
      ],
      [
        "g",
        "h"
      ],
      [
        "ig",
        "h"
      ],
      [
        "ĠA",
        "n"
      ],
      [
        "Ġ",
        "J"
      ],
      [
        "Ġwh",
        "ich"
      ],
      [
        "o",
        "us"
      ],
      [
        "s",
        "e"
      ],
      [
        "ct",
        "ion"
      ],
      [
        "er",
        "e"
      ],
      [
        "Ġc",
        "h"
      ],
      [
        "av",
        "e"
      ],
      [
        "t",
        "her"
      ],
      [
        "u",
        "re"
      ],
      [
        "al",
        "l"
      ],
      [
        "a",
        "k"
      ],
      [
        "b",
        "er"
      ],
      [
        "Ġ",
        "U"
      ],
      [
        "e",
        "w"
      ],
      [
        "â",
        "Ģ"
      ],
      [
        "en",
        "d"
      ],
      [
        "ar",
        "d"
      ],
      [
        "g",
        "e"
      ],
      [
        "ĠA",
        "l"
      ],
      [
        "Ġn",
        "ot"
      ],
      [
        "Ġw",
        "ere"
      ],
      [
        "in",
        "e"
      ],
      [
        "el",
        "l"
      ],
      [
        "c",
        "l"
      ],
      [
        "Ġa",
        "r"
      ],
      [
        "ar",
        "y"
      ],
      [
        "Ġw",
        "or"
      ],
      [
        "i",
        "p"
      ],
      [
        "Ġ",
        "le"
      ],
      [
        "p",
        "er"
      ],
      [
        "Ġa",
        "b"
      ],
      [
        "on",
        "g"
      ],
      [
        "p",
        "h"
      ],
      [
        "as",
        "t"
      ],
      [
        "us",
        "t"
      ],
      [
        "Ġcom",
        "p"
      ],
      [
        "e",
        "ct"
      ],
      [
        "Ġh",
        "ave"
      ],
      [
        "d",
        "u"
      ],
      [
        "r",
        "an"
      ],
      [
        "id",
        "e"
      ],
      [
        "c",
        "c"
      ],
      [
        "ou",
        "r"
      ],
      [
        "om",
        "e"
      ],
      [
        "s",
        "o"
      ],
      [
        "re",
        "d"
      ],
      [
        "Ġ",
        "K"
      ],
      [
        "ul",
        "t"
      ],
      [
        "Ġcon",
        "t"
      ],
      [
        "âĢ",
        "ĵ"
      ],
      [
        "r",
        "it"
      ],
      [
        "e",
        "ar"
      ],
      [
        "Ġ",
        "k"
      ],
      [
        "i",
        "z"
      ],
      [
        "Ġp",
        "l"
      ],
      [
        "am",
        "e"
      ],
      [
        "is",
        "h"
      ],
      [
        "it",
        "ion"
      ],
      [
        "Ġh",
        "as"
      ],
      [
        "u",
        "p"
      ],
      [
        "o",
        "v"
      ],
      [
        "Ġin",
        "t"
      ],
      [
        "d",
        "er"
      ],
      [
        "Ġs",
        "h"
      ],
      [
        "igh",
        "t"
      ],
      [
        "as",
        "s"
      ],
      [
        "m",
        "er"
      ],
      [
        "en",
        "ce"
      ],
      [
        "Ġal",
        "so"
      ],
      [
        "u",
        "b"
      ],
      [
        "r",
        "y"
      ],
      [
        "he",
        "n"
      ],
      [
        ")",
        ","
      ],
      [
        "Ġit",
        "s"
      ],
      [
        "al",
        "ly"
      ],
      [
        "ĠA",
        "r"
      ],
      [
        "a",
        "p"
      ],
      [
        "ation",
        "s"
      ],
      [
        "at",
        "er"
      ],
      [
        "Ġh",
        "ad"
      ],
      [
        "Ġa",
        "d"
      ],
      [
        "ig",
        "n"
      ],
      [
        "Ġ2",
        "0"
      ],
      [
        "Ġb",
        "ut"
      ],
      [
        "ir",
        "st"
      ],
      [
        "f",
        "f"
      ],
      [
        "ĠC",
        "h"
      ],
      [
        "o",
        "re"
      ],
      [
        "p",
        "l"
      ],
      [
        "ĠS",
        "t"
      ],
      [
        "Ġo",
        "ther"
      ],
      [
        "or",
        "y"
      ],
      [
        "Ġthe",
        "ir"
      ],
      [
        "ag",
        "e"
      ],
      [
        "o",
        "k"
      ],
      [
        "ĠT",
        "h"
      ],
      [
        "r",
        "u"
      ],
      [
        "Ġ",
        "y"
      ],
      [
        "i",
        "b"
      ],
      [
        "Ġal",
        "l"
      ],
      [
        "a",
        "ct"
      ],
      [
        "Ġre",
        "s"
      ],
      [
        "ou",
        "ld"
      ],
      [
        "re",
        "e"
      ],
      [
        "i",
        "e"
      ],
      [
        "Ġc",
        "l"
      ],
      [
        "at",
        "es"
      ],
      [
        "an",
        "g"
      ],
      [
        "ion",
        "s"
      ],
      [
        "Ġf",
        "irst"
      ],
      [
        "is",
        "m"
      ],
      [
        "i",
        "re"
      ],
      [
        "Ġc",
        "an"
      ],
      [
        "Ġp",
        "art"
      ],
      [
        "Ġ",
        "im"
      ],
      [
        "ol",
        "l"
      ],
      [
        "f",
        "er"
      ],
      [
        "oun",
        "t"
      ],
      [
        "Ġth",
        "is"
      ],
      [
        "cl",
        "ud"
      ],
      [
        "Ġ",
        "en"
      ],
      [
        "c",
        "on"
      ],
      [
        ")",
        "."
      ],
      [
        "ou",
        "t"
      ],
      [
        "Ġbe",
        "c"
      ],
      [
        "er",
        "m"
      ],
      [
        "or",
        "d"
      ],
      [
        "an",
        "y"
      ],
      [
        "Ġd",
        "is"
      ],
      [
        "oun",
        "d"
      ],
      [
        "ĠU",
        "n"
      ],
      [
        "r",
        "on"
      ],
      [
        "Ġon",
        "e"
      ],
      [
        "a",
        "ce"
      ],
      [
        "Ġbe",
        "en"
      ],
      [
        "o",
        "ver"
      ],
      [
        "Ġs",
        "p"
      ],
      [
        "re",
        "n"
      ],
      [
        "ter",
        "n"
      ],
      [
        "r",
        "ic"
      ],
      [
        "Ġfor",
        "m"
      ],
      [
        "o",
        "st"
      ],
      [
        "Ġ1",
        "8"
      ],
      [
        "f",
        "ter"
      ],
      [
        "ab",
        "le"
      ],
      [
        "ĠI",
        "t"
      ],
      [
        "Ġ",
        "V"
      ],
      [
        "Ġn",
        "e"
      ],
      [
        "im",
        "e"
      ],
      [
        "Ġin",
        "clud"
      ],
      [
        "Ġp",
        "er"
      ],
      [
        "u",
        "e"
      ],
      [
        "he",
        "d"
      ],
      [
        "c",
        "ed"
      ],
      [
        "k",
        "s"
      ],
      [
        "ow",
        "n"
      ],
      [
        "un",
        "d"
      ],
      [
        "ur",
        "ing"
      ],
      [
        "Ġ",
        "ro"
      ],
      [
        "u",
        "gh"
      ],
      [
        "Ġus",
        "ed"
      ],
      [
        "c",
        "es"
      ],
      [
        "i",
        "le"
      ],
      [
        "ĠA",
        "s"
      ],
      [
        "Ġcon",
        "s"
      ],
      [
        "l",
        "ic"
      ],
      [
        "ĠH",
        "e"
      ],
      [
        "i",
        "um"
      ],
      [
        "w",
        "o"
      ],
      [
        "or",
        "m"
      ],
      [
        "Ġa",
        "m"
      ],
      [
        "Ġe",
        "le"
      ],
      [
        "en",
        "s"
      ],
      [
        "Ġsu",
        "ch"
      ],
      [
        "v",
        "el"
      ],
      [
        "Ġs",
        "y"
      ],
      [
        "a",
        "ch"
      ],
      [
        "Ġt",
        "e"
      ],
      [
        "ol",
        "og"
      ],
      [
        "i",
        "k"
      ],
      [
        "Ġmo",
        "st"
      ],
      [
        "os",
        "e"
      ],
      [
        "Ġs",
        "pe"
      ],
      [
        "Ġcom",
        "m"
      ],
      [
        "Ġmo",
        "re"
      ],
      [
        "Ġc",
        "ent"
      ],
      [
        "Ġwh",
        "o"
      ],
      [
        "t",
        "e"
      ],
      [
        "ou",
        "gh"
      ],
      [
        "er",
        "v"
      ],
      [
        "e",
        "p"
      ],
      [
        "res",
        "s"
      ],
      [
        "al",
        "s"
      ],
      [
        "Ġa",
        "g"
      ],
      [
        "w",
        "e"
      ],
      [
        "an",
        "s"
      ],
      [
        "p",
        "ort"
      ],
      [
        "t",
        "s"
      ],
      [
        "Ġpro",
        "du"
      ],
      [
        "Ġs",
        "c"
      ],
      [
        "Ġthe",
        "y"
      ],
      [
        "Ġre",
        "l"
      ],
      [
        "Ġth",
        "an"
      ],
      [
        "Ġint",
        "o"
      ],
      [
        "Ġd",
        "es"
      ],
      [
        "Ġy",
        "ear"
      ],
      [
        "it",
        "e"
      ],
      [
        "Ġm",
        "e"
      ],
      [
        "Ġin",
        "d"
      ],
      [
        "ent",
        "s"
      ],
      [
        "a",
        "us"
      ],
      [
        "an",
        "ce"
      ],
      [
        "Ġg",
        "ro"
      ],
      [
        "ac",
        "k"
      ],
      [
        "or",
        "s"
      ],
      [
        "Ġe",
        "v"
      ],
      [
        "i",
        "ed"
      ],
      [
        "l",
        "and"
      ],
      [
        "Ġt",
        "wo"
      ],
      [
        "Ġa",
        "c"
      ],
      [
        "ic",
        "e"
      ],
      [
        "Ġp",
        "h"
      ],
      [
        "Ġp",
        "re"
      ],
      [
        "l",
        "es"
      ],
      [
        "Ġ20",
        "1"
      ],
      [
        "it",
        "ed"
      ],
      [
        "mer",
        "ic"
      ],
      [
        "ar",
        "i"
      ],
      [
        "am",
        "p"
      ],
      [
        "Ġa",
        "pp"
      ],
      [
        "ation",
        "al"
      ],
      [
        "re",
        "at"
      ],
      [
        "ad",
        "e"
      ],
      [
        "ul",
        "ar"
      ],
      [
        "Ġl",
        "ar"
      ],
      [
        "Ġb",
        "et"
      ],
      [
        "ĠA",
        "t"
      ],
      [
        "Ġm",
        "et"
      ],
      [
        "t",
        "ed"
      ],
      [
        "Ġ",
        "j"
      ],
      [
        "ĠTh",
        "is"
      ],
      [
        "Ġ2",
        "00"
      ],
      [
        "y",
        "s"
      ],
      [
        "Ġs",
        "ome"
      ],
      [
        "ro",
        "ugh"
      ],
      [
        "ri",
        "b"
      ],
      [
        "Ġsu",
        "b"
      ],
      [
        "ic",
        "s"
      ],
      [
        "if",
        "ic"
      ],
      [
        "en",
        "er"
      ],
      [
        "Ġa",
        "fter"
      ],
      [
        "Ġk",
        "n"
      ],
      [
        "Ġo",
        "ver"
      ],
      [
        "Ġ",
        "3"
      ],
      [
        "Ġn",
        "um"
      ],
      [
        "Ġre",
        "c"
      ],
      [
        "as",
        "e"
      ],
      [
        "a",
        "w"
      ],
      [
        "ar",
        "k"
      ],
      [
        "Ġ",
        "âĢĵ"
      ],
      [
        "at",
        "h"
      ],
      [
        "Ġre",
        "g"
      ],
      [
        "o",
        "b"
      ],
      [
        "ĠA",
        "meric"
      ],
      [
        "on",
        "s"
      ],
      [
        "at",
        "ive"
      ],
      [
        "he",
        "re"
      ],
      [
        "on",
        "e"
      ],
      [
        "Ġas",
        "s"
      ],
      [
        "we",
        "en"
      ],
      [
        "t",
        "en"
      ],
      [
        "ol",
        "d"
      ],
      [
        "Ġa",
        "cc"
      ],
      [
        "Ġe",
        "ar"
      ],
      [
        "Ġm",
        "od"
      ],
      [
        "ur",
        "y"
      ],
      [
        "Ġw",
        "ould"
      ],
      [
        "ran",
        "s"
      ],
      [
        "as",
        "ed"
      ],
      [
        "is",
        "s"
      ],
      [
        "\"",
        "."
      ],
      [
        "ing",
        "s"
      ],
      [
        "u",
        "al"
      ],
      [
        "he",
        "s"
      ],
      [
        "Ġat",
        "t"
      ],
      [
        "Ġon",
        "ly"
      ],
      [
        "Ġd",
        "if"
      ],
      [
        "Ġ",
        "her"
      ],
      [
        "ot",
        "h"
      ],
      [
        "Ġh",
        "im"
      ],
      [
        "on",
        "d"
      ],
      [
        "Ġbet",
        "ween"
      ],
      [
        "Ġ",
        "ra"
      ],
      [
        "Ġo",
        "ut"
      ],
      [
        "Ġt",
        "ime"
      ],
      [
        "Ġm",
        "any"
      ],
      [
        "ĠA",
        "p"
      ],
      [
        "Ġp",
        "r"
      ],
      [
        "Ġp",
        "e"
      ],
      [
        "ar",
        "ch"
      ],
      [
        "Ġp",
        "o"
      ],
      [
        "ist",
        "s"
      ],
      [
        "Ġun",
        "der"
      ],
      [
        "it",
        "ies"
      ],
      [
        "Ġs",
        "o"
      ],
      [
        "Ġm",
        "ay"
      ],
      [
        "ar",
        "s"
      ],
      [
        "ang",
        "u"
      ],
      [
        "j",
        "ect"
      ],
      [
        "a",
        "re"
      ],
      [
        "c",
        "re"
      ],
      [
        "e",
        "ver"
      ],
      [
        "n",
        "e"
      ],
      [
        "in",
        "d"
      ],
      [
        "f",
        "orm"
      ],
      [
        "o",
        "od"
      ],
      [
        "r",
        "al"
      ],
      [
        "Ġe",
        "m"
      ],
      [
        "g",
        "an"
      ],
      [
        "u",
        "ro"
      ],
      [
        "1",
        "9"
      ],
      [
        "Ġwor",
        "k"
      ],
      [
        "Ġspe",
        "c"
      ],
      [
        "Ġf",
        "ound"
      ],
      [
        "Ġc",
        "ount"
      ],
      [
        "Ġw",
        "hen"
      ],
      [
[...]
