{
  "version": "1.0",
  "truncation": null,
  "padding": null,
  "added_tokens": [
    {
      "id": 0,
      "content": "<pad>",
      "single_word": false,
      "lstrip": false,
      "rstrip": false,
      "normalized": false,
      "special": true
    },
    {
      "id": 1,
      "content": "<mask>",
      "single_word": false,
      "lstrip": false,
      "rstrip": false,
      "normalized": false,
      "special": true
    },
    {
      "id": 2,
      "content": "<unk>",
      "single_word": false,
      "lstrip": false,
      "rstrip": false,
      "normalized": false,
      "special": true
    },
    {
      "id": 3,
      "content": "<bos>",
      "single_word": false,
      "lstrip": false,
      "rstrip": false,
      "normalized": false,
      "special": true
    },
    {
      "id": 4,
      "content": "<eos>",
      "single_word": false,
      "lstrip": false,
      "rstrip": false,
      "normalized": false,
      "special": true
    }
  ],
  "normalizer": null,
  "pre_tokenizer": {
    "type": "ByteLevel",
    "add_prefix_space": true,
    "trim_offsets": true,
    "use_regex": true
  },
  "post_processor": {
    "type": "ByteLevel",
    "add_prefix_space": true,
    "trim_offsets": false,
    "use_regex": true
  },
  "decoder": null,
  "model": {
    "type": "BPE",
    "dropout": null,
    "unk_token": "<unk>",
    "continuing_subword_prefix": null,
    "end_of_word_suffix": null,
    "fuse_unk": false,
    "byte_fallback": false,
    "ignore_merges": false,
    "vocab": {
      "<pad>": 0,
      "<mask>": 1,
      "<unk>": 2,
      "<bos>": 3,
      "<eos>": 4,
      "\t": 5,
      " ": 6,
      "!": 7,
      "\"": 8,
      "#": 9,
      "$": 10,
      "%": 11,
      "&": 12,
      "'": 13,
      "(": 14,
      ")": 15,
      "*": 16,
      "+": 17,
      ",": 18,
      "-": 19,
      ".": 20,
      "/": 21,
      "0": 22,
      "1": 23,
      "2": 24,
      "3": 25,
      "4": 26,
      "5": 27,
      "6": 28,
      "7": 29,
      "8": 30,
      "9": 31,
      ":": 32,
      ";": 33,
      "<": 34,
      "=": 35,
      ">": 36,
      "?": 37,
      "@": 38,
      "A": 39,
      "B": 40,
      "C": 41,
      "D": 42,
      "E": 43,
      "F": 44,
      "G": 45,
      "H": 46,
      "I": 47,
      "J": 48,
      "K": 49,
      "L": 50,
      "M": 51,
      "N": 52,
      "O": 53,
      "P": 54,
      "Q": 55,
      "R": 56,
      "S": 57,
      "T": 58,
      "U": 59,
      "V": 60,
      "W": 61,
      "X": 62,
      "Y": 63,
      "Z": 64,
      "[": 65,
      "\\": 66,
      "]": 67,
      "^": 68,
      "_": 69,
      "`": 70,
      "a": 71,
      "b": 72,
      "c": 73,
      "d": 74,
      "e": 75,
      "f": 76,
      "g": 77,
      "h": 78,
      "i": 79,
      "j": 80,
      "k": 81,
      "l": 82,
      "m": 83,
      "n": 84,
      "o": 85,
      "p": 86,
      "q": 87,
      "r": 88,
      "s": 89,
      "t": 90,
      "u": 91,
      "v": 92,
      "w": 93,
      "x": 94,
      "y": 95,
      "z": 96,
      "{": 97,
      "|": 98,
      "}": 99,
      "~": 100,
      "¡": 101,
      "¢": 102,
      "¤": 103,
      "¥": 104,
      "¦": 105,
      "§": 106,
      "¨": 107,
      "©": 108,
      "ª": 109,
      "«": 110,
      "¬": 111,
      "®": 112,
      "¯": 113,
      "°": 114,
      "±": 115,
      "²": 116,
      "³": 117,
      "´": 118,
      "µ": 119,
      "·": 120,
      "¸": 121,
      "¹": 122,
      "º": 123,
      "»": 124,
      "¼": 125,
      "½": 126,
      "¾": 127,
      "Â": 128,
      "Ã": 129,
      "Ð": 130,
      "Ñ": 131,
      "â": 132,
      "ã": 133,
      "ä": 134,
      "å": 135,
      "æ": 136,
      "ç": 137,
      "è": 138,
      "é": 139,
      "ê": 140,
      "ë": 141,
      "ì": 142,
      "í": 143,
      "ï": 144,
      "ð": 145,
      "Ġ": 146,
      "Ģ": 147,
      "ģ": 148,
      "Ĥ": 149,
      "ĥ": 150,
      "Ħ": 151,
      "ħ": 152,
      "Ĩ": 153,
      "Ī": 154,
      "ī": 155,
      "Ĭ": 156,
      "ĭ": 157,
      "Į": 158,
      "į": 159,
      "İ": 160,
      "ı": 161,
      "Ĳ": 162,
      "ĳ": 163,
      "Ĵ": 164,
      "ĵ": 165,
      "Ķ": 166,
      "ķ": 167,
      "ĸ": 168,
      "Ĺ": 169,
      "ĺ": 170,
      "Ļ": 171,
      "ļ": 172,
      "Ľ": 173,
      "ľ": 174,
      "Ŀ": 175,
      "ŀ": 176,
      "Ł": 177,
      "ł": 178,
      "Ń": 179,
      "Ġi": 180,
      "Ġis": 181,
      "as": 182,
      "Ġit": 183,
      "ed": 184,
      "si": 185,
      "gn": 186,
      "sign": 187,
      "assign": 188,
      "assigned": 189,
      "ue": 190,
      "sue": 191,
      "Ġissue": 192,
      "un": 193,
      "Ġun": 194,
      "Ġunassigned": 195,
      "en": 196,
      "pen": 197,
      "Ġl": 198,
      "Ġh": 199,
      "el": 200,
      "Ġhas": 201,
      "ab": 202,
      "Ġlab": 203,
      "Ġlabel": 204,
      "Ġo": 205,
      "Ġopen": 206,
      "Ġc": 207,
      "lo": 208,
      "sed": 209,
      "Ġclo": 210,
      "Ġclosed": 211,
      "Ġ1": 212,
      "Ġt": 213,
      "Ġ2": 214,
      "es": 215,
      "Ġto": 216,
      "Ġassigned": 217,
      "Ġd": 218,
      "Ġ3": 219,
      "Ġde": 220,
      "pend": 221,
      "ci": 222,
      "penden": 223,
      "Ġdependen": 224,
      "at": 225,
      "cies": 226,
      "Ġdependencies": 227,
      "Ġ4": 228,
      "on": 229,
      "an": 230,
      "st": 231,
      "Ġb": 232,
      "in": 233,
      "Ġ5": 234,
      "Ġ6": 235,
      "ug": 236,
      "er": 237,
      "re": 238,
      "Ġ7": 239,
      "ri": 240,
      "Ġbug": 241,
      "Ġm": 242,
      "atu": 243,
      "Ġp": 244,
      "Ġ8": 245,
      "Ġst": 246,
      "Ġj": 247,
      "Ġa": 248,
      "ent": 249,
      "Ġ9": 250,
      "Ġ10": 251,
      "ck": 252,
      "or": 253,
      "atus": 254,
      "Ġstatus": 255,
      "ment": 256,
      "il": 257,
      "ce": 258,
      "Ġ11": 259,
      "han": 260,
      "ion": 261,
      "av": 262,
      "ar": 263,
      "Ġf": 264,
      "est": 265,
      "ro": 266,
      "Ġ12": 267,
      "Ġjav": 268,
      "Ġen": 269,
      "ing": 270,
      "cement": 271,
      "hancement": 272,
      "Ġs": 273,
      "Ġ13": 274,
      "it": 275,
      "Ġenhancement": 276,
      "Ġn": 277,
      "pt": 278,
      "Ġ14": 279,
      "al": 280,
      "Ġlo": 281,
      "Ġr": 282,
      "cri": 283,
      "Ġ15": 284,
      "cript": 285,
      "one": 286,
      "cked": 287,
      "Ġ22": 288,
      "ascript": 289,
      "Ġjavascript": 290,
      "Ġlocked": 291,
      "Ġg": 292,
      "om": 293,
      "Ġ28": 294,
      "Ġmil": 295,
      "estone": 296,
      "Ġmilestone": 297,
      "ct": 298,
      "Ġ16": 299,
      "pe": 300,
      "Ġ20": 301,
      "Ġ18": 302,
      "Ġ17": 303,
      "ge": 304,
      "am": 305,
      "Ġty": 306,
      "Ġ19": 307,
      "Ġ24": 308,
      "ut": 309,
      "Ġw": 310,
      "Ġ21": 311,
      "ad": 312,
      "Ġtype": 313,
      "ch": 314,
      "Ġ23": 315,
      "ate": 316,
      "que": 317,
      "Ġre": 318,
      "ul": 319,
      "ex": 320,
      "et": 321,
      "do": 322,
      "quest": 323,
      "he": 324,
      "Ġin": 325,
      "ov": 326,
      "Ġne": 327,
      "ðŁ": 328,
      "Ġ:": 329,
      "Ġv": 330,
      "is": 331,
      "ack": 332,
      "Ġ31": 333,
      "Ġ33": 334,
      "Ġk": 335,
      "Ġ35": 336,
      "ation": 337,
      "Ġfe": 338,
      "Ġ25": 339,
      "Ġ30": 340,
      "Ġ34": 341,
      "de": 342,
      "ir": 343,
      "ub": 344,
      "Ġ26": 345,
      "Ġ27": 346,
      "ĠðŁ": 347,
      "ic": 348,
      "Ġaut": 349,
      "age": 350,
      "Ġ29": 351,
      "Ġ32": 352,
      "ature": 353,
      "row": 354,
      "Ġren": 355,
      "and": 356,
      "oc": 357,
      "ction": 358,
      "ter": 359,
      "ovate": 360,
      "up": 361,
      "question": 362,
      "Ġ38": 363,
      "Ġrenovate": 364,
      "end": 365,
      "Ġ41": 366,
      "Ġ44": 367,
      "rea": 368,
      "Ġquestion": 369,
      "oo": 370,
      "Ġ36": 371,
      "dow": 372,
      "00": 373,
      "01": 374,
      "35": 375,
      "Ġfeature": 376,
      "78": 377,
      "le": 378,
      "Ġneed": 379,
      "ot": 380,
      "52": 381,
      "ap": 382,
      "ur": 383,
      "79": 384,
      "Ġ49": 385,
      "Ġpul": 386,
      "Ġpull": 387,
      "08": 388,
      "Ġ42": 389,
      "arrow": 390,
      "ading": 391,
      "heading": 392,
      "down": 393,
      "68": 394,
      "ag": 395,
      "us": 396,
      "Ġneeds": 397,
      "pro": 398,
      "ty": 399,
      "Ġarea": 400,
      "Ġjava": 401,
      "Ġ39": 402,
      "03": 403,
      "51": 404,
      "eas": 405,
      "li": 406,
      "Ġex": 407,
      "11": 408,
      "ain": 409,
      "co": 410,
      "te": 411,
      "ort": 412,
      "gr": 413,
      "riage": 414,
      "24": 415,
      "ard": 416,
      "39": 417,
      "Ġ46": 418,
      "ith": 419,
      "Ġ55": 420,
      "Ġ56": 421,
      "07": 422,
      "yt": 423,
      "Ġcom": 424,
      "Ġ37": 425,
      "bug": 426,
      "ew": 427,
      "ff": 428,
      "Ġ77": 429,
      "05": 430,
      "12": 431,
      "im": 432,
      "erge": 433,
      "ix": 434,
      "Ġdoc": 435,
      "Ġ66": 436,
      "Ġpro": 437,
      "09": 438,
      "vi": 439,
      "em": 440,
      "pl": 441,
      "sion": 442,
      "56": 443,
      "Ġ47": 444,
      "ant": 445,
      "04": 446,
      "port": 447,
      "ument": 448,
      "ctions": 449,
      "umentation": 450,
      "06": 451,
      "28": 452,
      "ak": 453,
      "Ġsi": 454,
      "Ġdocumentation": 455,
      "14": 456,
      "elo": 457,
      "Ġ59": 458,
      "Ġ108": 459,
      "um": 460,
      "elp": 461,
      "eleas": 462,
      "Ġ48": 463,
      "Ġ54": 464,
      "Ġ64": 465,
      "Ġgith": 466,
      "Ġgithub": 467,
      "ay": 468,
      "ail": 469,
      "ol": 470,
      "Ġfir": 471,
      "actions": 472,
      "ten": 473,
      "ve": 474,
      "ess": 475,
      "Ġad": 476,
      "Ġwant": 477,
      "Ġwanted": 478,
      "23": 479,
      "gu": 480,
      "se": 481,
      "Ġhelp": 482,
      "Ġtriage": 483,
      "Ġ45": 484,
      "ont": 485,
      "Ġ57": 486,
      "elease": 487,
      "31": 488,
      "97": 489,
      "edi": 490,
      "ind": 491,
      "Ġautom": 492,
      "ood": 493,
      "38": 494,
      "for": 495,
      "hon": 496,
      "Ġ79": 497,
      "ity": 498,
      "ython": 499,
      "34": 500,
      "ig": 501,
      "test": 502,
      "Ġfirst": 503,
      "27": 504,
      "id": 505,
      "ore": 506,
      "Ġte": 507,
      "Ġ61": 508,
      "Ġgood": 509,
      "37": 510,
      "44": 511,
      "ait": 512,
      "Ġcomp": 513,
      "di": 514,
      "64": 515,
      "nal": 516,
      "ori": 517,
      "pic": 518,
      "ance": 519,
      "Ġpython": 520,
      "ternal": 521,
      "61": 522,
      "eb": 523,
      "Ġz": 524,
      "Ġand": 525,
      "Ġautomerge": 526,
      "ust": 527,
      "67": 528,
      "sk": 529,
      "Ġ74": 530,
      "Ġ87": 531,
      "Ġ105": 532,
      "Ġteam": 533,
      "21": 534,
      "94": 535,
      "com": 536,
      "os": 537,
      "ti": 538,
      "Ġ70": 539,
      "Ġma": 540,
      "Ġfor": 541,
      "edium": 542,
      "32": 543,
      "Ġpri": 544,
      "Ġ118": 545,
      "Ġno": 546,
      "view": 547,
      "aiting": 548,
      "30": 549,
      "49": 550,
      "55": 551,
      "76": 552,
      "87": 553,
      "lin": 554,
      "Ġtopic": 555,
      "Ġdev": 556,
      "Ġap": 557,
      "16": 558,
      "91": 559,
      "ev": 560,
      "yn": 561,
      "ang": 562,
      "Ġ52": 563,
      "hang": 564,
      "ackend": 565,
      "ra": 566,
      "Ġgo": 567,
      "Ġrequest": 568,
      "17": 569,
      "cy": 570,
      "ser": 571,
      "Ġch": 572,
      "Ġtest": 573,
      "inor": 574,
      "Ġ62": 575,
      "tension": 576,
      "36": 577,
      "ect": 578,
      "sh": 579,
      "to": 580,
      "ata": 581,
      "Ġ65": 582,
      "Ġ112": 583,
      "22": 584,
      "50": 585,
      "act": 586,
      "Ġ-": 587,
      "ash": 588,
      "Ġ51": 589,
      "Ġ60": 590,
      "Ġ75": 591,
      "ĠðŁĲ": 592,
      "Ġmain": 593,
      "Ġ98": 594,
      "Ġ99": 595,
      "Ġ288": 596,
      "dev": 597,
      "gress": 598,
      "elog": 599,
      "form": 600,
      "hangelog": 601,
      "29": 602,
      "47": 603,
      "69": 604,
      "71": 605,
      "fix": 606,
      "ma": 607,
      "no": 608,
      "uil": 609,
      "ze": 610,
      "Ġdependency": 611,
      "ine": 612,
      "Ġmedium": 613,
      "Ġ86": 614,
      "Ġextension": 615,
      "ority": 616,
      "20": 617,
      "ip": 618,
      "ly": 619,
      "ved": 620,
      "Ġx": 621,
      "Ġim": 622,
      "Ġpl": 623,
      "Ġfr": 624,
      "Ġ125": 625,
      "Ġnew": 626,
      "guard": 627,
      "igh": 628,
      "43": 629,
      "ver": 630,
      "Ġy": 631,
      "Ġdail": 632,
      "atch": 633,
      "Ġblo": 634,
      "Ġ71": 635,
      "Ġ103": 636,
      "Ġfix": 637,
      "Ġ128": 638,
      "Ġauto": 639,
      "Ġprogress": 640,
      "Ġdaily": 641,
      "au": 642,
      "hp": 643,
      "ne": 644,
      "of": 645,
      "ui": 646,
      "Ġ40": 647,
      "Ġ53": 648,
      "Ġ69": 649,
      "ering": 650,
      "riag": 651,
      "Ġ91": 652,
      "Ġ119": 653,
      "Ġrelease": 654,
      "Ġexternal": 655,
      "Ġadguard": 656,
      "Ġpriority": 657,
      "riaged": 658,
      "42": 659,
      "86": 660,
      "88": 661,
      "ec": 662,
      "ek": 663,
      "fe": 664,
      "ik": 665,
      "Ġan": 666,
      "Ġ43": 667,
      "Ġ835": 668,
      "Ġres": 669,
      "Ġkind": 670,
      "prove": 671,
      "Ġsize": 672,
      "48": 673,
      "ari": 674,
      "du": 675,
      "pr": 676,
      "per": 677,
      "ss": 678,
      "tm": 679,
      "woc": 680,
      "Ġâ": 681,
      "Ġup": 682,
      "site": 683,
      "Ġdata": 684,
      "Ġ50": 685,
      "Ġ67": 686,
      "Ġ76": 687,
      "Ġ81": 688,
      "Ġ147": 689,
      "Ġwaiting": 690,
      "65": 691,
      ":.": 692,
      "ask": 693,
      "onent": 694,
      "Ġ78": 695,
      "Ġ101": 696,
      "Ġ154": 697,
      "Ġ170": 698,
      "41": 699,
      "63": 700,
      "cor": 701,
      "off": 702,
      "ps": 703,
      "ure": 704,
      "review": 705,
      "Ġ73": 706,
      "Ġphp": 707,
      "Ġ84": 708,
      "Ġ90": 709,
      "Ġ95": 710,
      "ley": 711,
      "uild": 712,
      "45": 713,
      "83": 714,
      "ler": 715,
      "ran": 716,
      "val": 717,
      "Ġro": 718,
      "Ġlin": 719,
      "Ġco": 720,
      "ani": 721,
      "err": 722,
      "rowser": 723,
      "ontend": 724,
      "26": 725,
      "ah": 726,
      "backend": 727,
      "date": 728,
      "gine": 729,
      "ib": 730,
      "king": 731,
      "minor": 732,
      "net": 733,
      "ãĥ": 734,
      "Ġe": 735,
      "loy": 736,
      "Ġthe": 737,
      "eslin": 738,
      "ugin": 739,
      "Ġ85": 740,
      "Ġjwoc": 741,
      "Ġal": 742,
      "Ġaff": 743,
      "Ġ107": 744,
      "Ġ117": 745,
      "Ġengine": 746,
      "Ġ139": 747,
      "Ġ141": 748,
      "Ġrust": 749,
      "Ġ157": 750,
      "Ġ189": 751,
      "chi": 752,
      "Ġcomponent": 753,
      "ync": 754,
      "eslint": 755,
      "Ġaffect": 756,
      "Ġengineering": 757,
      "62": 758,
      "72": 759,
      "ection": 760,
      "mi": 761,
      "uc": 762,
      "ux": 763,
      "Ġ0": 764,
      "Ġed": 765,
      "pending": 766,
      "Ġpr": 767,
      "Ġpack": 768,
      "ility": 769,
      "ale": 770,
      "ext": 771,
      "Ġ278": 772,
      "ebsite": 773,
      "ĠðŁĲĽ": 774,
      "33": 775,
      "ac": 776,
      "la": 777,
      "ng": 778,
      "uk": 779,
      "Ġeas": 780,
      "Ġhack": 781,
      "Ġbrowser": 782,
      "Ġ89": 783,
      "Ġ220": 784,
      "Ġinte": 785,
      "ise": 786,
      "ĠðŁĶ": 787,
      "upport": 788,
      "ook": 789,
      "code": 790,
      "plugin": 791,
      "Ġeasy": 792,
      "59": 793,
      "bo": 794,
      "ha": 795,
      "ian": 796,
      "pm": 797,
      "ploy": 798,
      "triage": 799,
      "uri": 800,
      "Ġ[": 801,
      "Ġhigh": 802,
      "log": 803,
      "Ġbuild": 804,
      "Ġ88": 805,
      "Ġar": 806,
      "Ġ100": 807,
      "Ġ149": 808,
      "gration": 809,
      "tenance": 810,
      "Ġmaintenance": 811,
      "19": 812,
      "25": 813,
      "57": 814,
      "73": 815,
      "bot": 816,
      "io": 817,
      "js": 818,
      "lam": 819,
      "mal": 820,
      "ost": 821,
      "ud": 822,
      "Ġì": 823,
      "Ġerr": 824,
      "Ġpending": 825,
      "pendencies": 826,
      "Ġback": 827,
      "ream": 828,
      "Ġ752": 829,
      "Ġmo": 830,
      "Ġ80": 831,
      "Ġ93": 832,
      "art": 833,
      "Ġ126": 834,
      "Ġsupport": 835,
      "Ġrub": 836,
      "Ġ229": 837,
      "Ġ2278": 838,
      "Ġinternal": 839,
      "dependencies": 840,
      "proved": 841,
      "feature": 842,
      "Ġerror": 843,
      "Ġruby": 844,
      "13": 845,
      "15": 846,
      "53": 847,
      "89": 848,
      "changelog": 849,
      "due": 850,
      "dis": 851,
      "fy": 852,
      "gen": 853,
      "iz": 854,
      "man": 855,
      "open": 856,
      "pon": 857,
      "qa": 858,
      "ry": 859,
      "res": 860,
      "Ġover": 861,
      "Ġchangelog": 862,
      "ann": 863,
      "Ġbackend": 864,
      "ers": 865,
      "ert": 866,
      "Ġ96": 867,
      "cker": 868,
      "Ġ148": 869,
      "Ġ152": 870,
      "Ġ184": 871,
      "ution": 872,
      "Ġrepro": 873,
      "Ġreview": 874,
      "ĠðŁĴ": 875,
      "Ġ496": 876,
      "Ġ390": 877,
      "olution": 878,
      "ranch": 879,
      "Ġlinux": 880,
      "Ġoverdue": 881,
      "/@": 882,
      "66": 883,
      "70": 884,
      "98": 885,
      "aw": 886,
      "back": 887,
      "dk": 888,
      "det": 889,
      "gion": 890,
      "ial": 891,
      "jan": 892,
      "pes": 893,
      "patch": 894,
      "uu": 895,
      "vm": 896,
      "¸ı": 897,
      "ï¸ı": 898,
      "Ġë": 899,
      "Ġth": 900,
      "ated": 901,
      "ates": 902,
      "Ġ58": 903,
      "rist": 904,
      "Ġpre": 905,
      "Ġfail": 906,
      "Ġ129": 907,
      "Ġsync": 908,
      "Ġsection": 909,
      "Ġ137": 910,
      "ite": 911,
      "Ġ150": 912,
      "Ġ158": 913,
      "Ġ221": 914,
      "Ġregion": 915,
      "eta": 916,
      "types": 917,
      "cord": 918,
      "Ġpackage": 919,
      "Ġintegration": 920,
      "96": 921,
      "ey": 922,
      "fir": 923,
      "ia": 924,
      "lic": 925,
      "nor": 926,
      "new": 927,
      "ru": 928,
      "triaged": 929,
      "with": 930,
      "Ġê": 931,
      "Ġtriaged": 932,
      "atform": 933,
      "Ġbranch": 934,
      "ins": 935,
      "Ġminor": 936,
      "Ġ102": 937,
      "ark": 938,
      "Ġsh": 939,
      "Ġ130": 940,
      "Ġ142": 941,
      "ame": 942,
      "Ġread": 943,
      "api": 944,
      "url": 945,
      "Ġ395": 946,
      "ski": 947,
      "Ġapproved": 948,
      "actor": 949,
      "Ġfrontend": 950,
      "discord": 951,
      "ponse": 952,
      "02": 953,
      "54": 954,
      "95": 955,
      "ber": 956,
      "cs": 957,
      "con": 958,
      "cce": 959,
      "ds": 960,
      "den": 961,
      "if": 962,
      "pact": 963,
      "sub": 964,
      "wor": 965,
      "website": 966,
      "ys": 967,
      "ä¸": 968,
      "Ġ(": 969,
      "ass": 970,
      "abot": 971,
      "Ġos": 972,
      "Ġcore": 973,
      "Ġdepend": 974,
      "int": 975,
      "Ġ63": 976,
      "Ġmv": 977,
      "Ġmem": 978,
      "Ġ82": 979,
      "Ġstale": 980,
      "orelease": 981,
      "Ġ113": 982,
      "Ġfc": 983,
      "Ġfl": 984,
      "Ġ121": 985,
      "Ġ1376": 986,
      "Ġnot": 987,
      "Ġ144": 988,
      "Ġ146": 989,
      "Ġ155": 990,
      "Ġ156": 991,
      "Ġ227": 992,
      "Ġ287": 993,
      "Ġ1603": 994,
      "Ġ194": 995,
      "Ġ245": 996,
      "Ġ2444": 997,
      "Ġ215": 998,
      "Ġ238": 999,
      "Ġinf": 1000,
      "Ġ314": 1001,
      "Ġ331": 1002,
      "Ġfeat": 1003,
      "Ġ260": 1004,
      "Ġautorelease": 1005,
      "approve": 1006,
      "core": 1007,
      "Ġ464": 1008,
      "Ġ560": 1009,
      "elop": 1010,
      "dio": 1011,
      "ĠðŁĲŀ": 1012,
      "Ġimpact": 1013,
      "Ġblock": 1014,
      "Ġalex": 1015,
      "urity": 1016,
      "Ġreprodu": 1017,
      "Ġdependabot": 1018,
      "77": 1019,
      "ao": 1020,
      "by": 1021,
      "cal": 1022,
      "fr": 1023,
      "flo": 1024,
      "factor": 1025,
      "gest": 1026,
      "jor": 1027,
      "me": 1028,
      "mis": 1029,
      "og": 1030,
      "our": 1031,
      "par": 1032,
      "qu": 1033,
      "run": 1034,
      "release": 1035,
      "sg": 1036,
      "too": 1037,
      "yan": 1038,
      "zav": 1039,
      "Ġ.": 1040,
      "sing": 1041,
      "Ġuntriaged": 1042,
      "elli": 1043,
      "Ġci": 1044,
      "Ġcon": 1045,
      "Ġcust": 1046,
      "Ġtro": 1047,
      "Ġbrea": 1048,
      "Ġ501": 1049,
      "uggest": 1050,
      "erra": 1051,
      "rid": 1052,
      "Ġjelli": 1053,
      "hange": 1054,
      "Ġset": 1055,
      "Ġsuggest": 1056,
      "Ġ131": 1057,
      "Ġ1337": 1058,
      "omer": 1059,
      "Ġ204": 1060,
      "Ġver": 1061,
      "ish": 1062,
      "Ġkim": 1063,
      "Ġ3091": 1064,
      "uplic": 1065,
      "Ġ442": 1066,
      "Ġmari": 1067,
      "Ġimprove": 1068,
      "Ġplatform": 1069,
      "Ġ15456": 1070,
      "Ġhacker": 1071,
      "board": 1072,
      "ployment": 1073,
      "Ġsynced": 1074,
      "news": 1075,
      "Ġready": 1076,
      "tool": 1077,
      "zaveta": 1078,
      "Ġcustomer": 1079,
      "Ġtrojan": 1080,
      "Ġbreaking": 1081,
      "Ġjellizaveta": 1082,
      "Ġsuggestion": 1083,
      "60": 1084,
      "80": 1085,
      "az": 1086,
      "cont": 1087,
      "ded": 1088,
      "dle": 1089,
      "gtm": 1090,
      "ms": 1091,
      "med": 1092,
      "mun": 1093,
      "min": 1094,
      "ner": 1095,
      "oun": 1096,
      "oon": 1097,
      "oet": 1098,
      "ops": 1099,
      "po": 1100,
      "ql": 1101,
      "ram": 1102,
      "sc": 1103,
      "tuc": 1104,
      "wer": 1105,
      "yter": 1106,
      "Ġ/": 1107,
      "ung": 1108,
      "ens": 1109,
      "pengu": 1110,
      "Ġlgtm": 1111,
      "ability": 1112,
      "Ġon": 1113,
      "Ġterra": 1114,
      "esk": 1115,
      "stu": 1116,
      "indow": 1117,
      "Ġ508": 1118,
      "Ġ68": 1119,
      "rect": 1120,
      "Ġ72": 1121,
      "Ġmin": 1122,
      "Ġpk": 1123,
      "Ġ83": 1124,
      "Ġ805": 1125,
      "Ġ823": 1126,
      "Ġjup": 1127,
      "Ġaw": 1128,
      "Ġ92": 1129,
      "Ġ94": 1130,
      "Ġ97": 1131,
      "archi": 1132,
      "roid": 1133,
      "Ġ127": 1134,
      "Ġ132": 1135,
      "Ġ136": 1136,
      "Ġ143": 1137,
      "Ġrul": 1138,
      "Ġ159": 1139,
      "Ġ222": 1140,
      "ome": 1141,
      "Ġ284": 1142,
      "Ġ2879": 1143,
      "Ġ185": 1144,
      "Ġ188": 1145,
      "Ġ191": 1146,
      "Ġ248": 1147,
      "Ġ212": 1148,
      "Ġ213": 1149,
      "Ġ231": 1150,
      "ets": 1151,
      "Ġinv": 1152,
      "Ġ330": 1153,
      "ira": 1154,
      "Ġ299": 1155,
      "Ġ3251": 1156,
      "Ġ419": 1157,
      "781": 1158,
      "522": 1159,
      "Ġ423": 1160,
      "lient": 1161,
      "ainer": 1162,
      "arded": 1163,
      "091": 1164,
      "Ġsituc": 1165,
      "Ġandroid": 1166,
      "sky": 1167,
      "Ġtesting": 1168,
      "sharded": 1169,
      "Ġfixed": 1170,
      "Ġupdate": 1171,
      "valid": 1172,
      "aniel": 1173,
      "Ġaffects": 1174,
      "Ġaffected": 1175,
      "acam": 1176,
      "Ġfailed": 1177,
      "typescript": 1178,
      "firmed": 1179,
      "Ġmemsharded": 1180,
      "munity": 1181,
      "penguin": 1182,
      "Ġterraform": 1183,
      "Ġjupyter": 1184,
      "Ġsituchan": 1185,
      "82": 1186,
      "ai": 1187,
      "are": 1188,
      "ais": 1189,
      "br": 1190,
      "bs": 1191,
      "cl": 1192,
      "cas": 1193,
      "cess": 1194,
      "ep": 1195,
      "git": 1196,
      "kip": 1197,
      "lu": 1198,
      "lvm": 1199,
      "medium": 1200,
      "ni": 1201,
      "ns": 1202,
      "pan": 1203,
      "ws": 1204,
      "¬¬": 1205,
      "¬¸": 1206,
      "ç¬¬": 1207,
      "ë¡": 1208,
      "Ġab": 1209,
      "Ġus": 1210,
      "sify": 1211,
      "pensify": 1212,
      "Ġllvm": 1213,
      "Ġcri": 1214,
      "Ġchange": 1215,
      "Ġdis": 1216,
      "Ġduplic": 1217,
      "Ġdaniel": 1218,
      "Ġ439": 1219,
      "Ġ651": 1220,
      "ripe": 1221,
      "Ġme": 1222,
      "Ġman": 1223,
      "Ġpatch": 1224,
      "Ġ834": 1225,
      "Ġstream": 1226,
      "Ġstripe": 1227,
      "ential": 1228,
      "ill": 1229,
      "iller": 1230,
      "Ġ114": 1231,
      "arm": 1232,
      "Ġ123": 1233,
      "Ġ1211": 1234,
      "Ġskip": 1235,
      "ald": 1236,
      "all": 1237,
      "Ġlow": 1238,
      "Ġ285": 1239,
      "Ġ286": 1240,
      "Ġ205": 1241,
      "Ġ174": 1242,
      "amani": 1243,
      "ute": 1244,
      "Ġ2107": 1245,
      "docs": 1246,
      "Ġinter": 1247,
      "Ġ332": 1248,
      "Ġ267": 1249,
      "Ġ275": 1250,
      "ical": 1251,
      "Ġ298": 1252,
      "endpo": 1253,
      "ages": 1254,
      "Ġcompl": 1255,
      "Ġ641": 1256,
      "need": 1257,
      "Ġresolution": 1258,
      "Ġâľ": 1259,
      "offi": 1260,
      "valley": 1261,
      "Ġedit": 1262,
      "normal": 1263,
      "mission": 1264,
      "Ġawaiting": 1265,
      "ç¬¬ä¸": 1266,
      "endpoint": 1267,
      ").": 1268,
      "90": 1269,
      "].": 1270,
      "af": 1271,
      "ble": 1272,
      "book": 1273,
      "eq": 1274,
      "fa": 1275,
      "ft": 1276,
      "ga": 1277,
      "gy": 1278,
      "hk": 1279,
      "iv": 1280,
      "kp": 1281,
      "kind": 1282,
      "main": 1283,
      "na": 1284,
      "next": 1285,
      "npm": 1286,
      "rel": 1287,
      "th": 1288,
      "tical": 1289,
      "xs": 1290,
      "ªãĥ": 1291,
      "Ġ*": 1292,
      "Ġios": 1293,
      "unit": 1294,
      "enhancement": 1295,
      "Ġhari": 1296,
      "abri": 1297,
      "Ġtask": 1298,
      "Ġdeployment": 1299,
      "ane": 1300,
      "ankp": 1301,
      "Ġbl": 1302,
      "Ġbar": 1303,
      "Ġbankp": 1304,
      "init": 1305,
      "Ġ537": 1306,
      "Ġ605": 1307,
      "Ġ627": 1308,
      "erg": 1309,
      "reb": 1310,
      "ret": 1311,
      "Ġmerge": 1312,
      "atures": 1313,
      "Ġpar": 1314,
      "Ġpeq": 1315,
      "Ġ879": 1316,
      "Ġjo": 1317,
      "Ġ928": 1318,
      "Ġ104": 1319,
      "Ġ110": 1320,
      "Ġ1167": 1321,
      "Ġ124": 1322,
      "ings": 1323,
      "Ġsql": 1324,
      "Ġ135": 1325,
      "Ġ1378": 1326,
      "Ġnpm": 1327,
      "Ġ145": 1328,
      "ala": 1329,
      "Ġ151": 1330,
      "Ġgabri": 1331,
      "Ġ282": 1332,
      "Ġ162": 1333,
      "Ġ168": 1334,
      "Ġ169": 1335,
      "Ġ1643": 1336,
      "Ġ200": 1337,
      "Ġ202": 1338,
      "Ġ180": 1339,
      "Ġ186": 1340,
      "Ġ187": 1341,
      "Ġ171": 1342,
      "Ġ177": 1343,
      "Ġ178": 1344,
      "Ġ193": 1345,
      "Ġ246": 1346,
      "Ġwindow": 1347,
      "Ġ211": 1348,
      "Ġ216": 1349,
      "chb": 1350,
      "che": 1351,
      "chin": 1352,
      "Ġ234": 1353,
      "query": 1354,
      "export": 1355,
      "Ġincor": 1356,
      "Ġvi": 1357,
      "Ġkey": 1358,
      "Ġ353": 1359,
      "Ġ354": 1360,
      "Ġfeatures": 1361,
      "Ġ308": 1362,
      "ĠðŁĮ": 1363,
      "Ġautoc": 1364,
      "Ġ380": 1365,
      "Ġ381": 1366,
      "uso": 1367,
      "Ġ370": 1368,
      "Ġprodu": 1369,
      "286": 1370,
      "Ġ108091": 1371,
      "Ġ798": 1372,
      "Ġ610": 1373,
      "Ġandre": 1374,
      "Ġ10587": 1375,
      "Ġnoise": 1376,
      "Ġdevelop": 1377,
      "server": 1378,
      "Ġblog": 1379,
      "ney": 1380,
      "Ġans": 1381,
      "Ġ170781": 1382,
      "Ġcode": 1383,
      "Ġbacklog": 1384,
      "Ġmvp": 1385,
      "Ġblocking": 1386,
      "frontend": 1387,
      "Ġimprovement": 1388,
      "container": 1389,
      "archived": 1390,
      "united": 1391,
      "Ġbankpay": 1392,
      "Ġgabriel": 1393,
      "Ġincorrect": 1394,
      "Ġautocut": 1395,
      "75": 1396,
      "92": 1397,
      "93": 1398,
      "aev": 1399,
      "cd": 1400,
      "dg": 1401,
      "dan": 1402,
      "dor": 1403,
      "ea": 1404,
      "ees": 1405,
      "eet": 1406,
      "fest": 1407,
      "fla": 1408,
      "gan": 1409,
      "hald": 1410,
      "ive": 1411,
      "ji": 1412,
      "ju": 1413,
      "mand": 1414,
      "not": 1415,
      "nigh": 1416,
      "ow": 1417,
      "oz": 1418,
      "ous": 1419,
      "sy": 1420,
      "tt": 1421,
      "task": 1422,
      "vtt": 1423,
      "yance": 1424,
      "Ġri": 1425,
      "Ġur": 1426,
      "Ġui": 1427,
      "asil": 1428,
      "unt": 1429,
      "Ġunoffi": 1430,
      "elect": 1431,
      "abian": 1432,
      "Ġche": 1433,
      "cial": 1434,
      "atib": 1435,
      "ans": 1436,
      "Ġbec": 1437,
      "Ġ552": 1438,
      "Ġ507": 1439,
      "Ġ694": 1440,
      "report": 1441,
      "Ġ731": 1442,
      "Ġmang": 1443,
      "Ġmdev": 1444,
      "Ġpot": 1445,
      "Ġstand": 1446,
      "Ġstark": 1447,
      "Ġaim": 1448,
      "Ġacce": 1449,
      "Ġ912": 1450,
      "Ġ1028": 1451,
      "ory": 1452,
      "ile": 1453,
      "ilah": 1454,
      "Ġ1142": 1455,
      "ara": 1456,
      "Ġfabian": 1457,
      "Ġ122": 1458,
      "Ġso": 1459,
      "Ġsw": 1460,
      "Ġsub": 1461,
      "Ġsec": 1462,
      "Ġsuc": 1463,
      "Ġsys": 1464,
      "Ġ1350": 1465,
      "itter": 1466,
      "Ġnik": 1467,
      "Ġnitter": 1468,
      "Ġ1401": 1469,
      "Ġryt": 1470,
      "Ġ1535": 1471,
      "Ġ226": 1472,
      "Ġgame": 1473,
      "omi": 1474,
      "Ġ281": 1475,
      "Ġ161": 1476,
      "Ġ166": 1477,
      "Ġ2064": 1478,
      "Ġ1707": 1479,
      "Ġ2400": 1480,
      "Ġ2413": 1481,
      "Ġwont": 1482,
      "Ġwebsite": 1483,
      "Ġ235": 1484,
      "ular": 1485,
      "ett": 1486,
      "Ġnehald": 1487,
      "Ġvasil": 1488,
      "Ġ339": 1489,
      "Ġ357": 1490,
      "Ġ259": 1491,
      "Ġ301": 1492,
      "Ġ3096": 1493,
      "andid": 1494,
      "517": 1495,
      "Ġext": 1496,
      "cos": 1497,
      "team": 1498,
      "Ġ557": 1499,
      "bugg": 1500,
      "emy": 1501,
      "Ġ4771": 1502,
      "vez": 1503,
      "Ġads": 1504,
      "Ġ575": 1505,
      "Ġautomated": 1506,
      "384": 1507,
      "Ġcompatib": 1508,
      "dik": 1509,
      "ebook": 1510,
      "Ġzees": 1511,
      "Ġmajor": 1512,
      "Ġmacos": 1513,
      "Ġapi": 1514,
      "angular": 1515,
      "top": 1516,
      "tober": 1517,
      "Ġ753": 1518,
      "Ġ990": 1519,
      "fixed": 1520,
      "noyance": 1521,
      "Ġxau": 1522,
      "Ġxia": 1523,
      "Ġyes": 1524,
      "ofvtt": 1525,
      "ekoet": 1526,
      "Ġannoyance": 1527,
      "ahu": 1528,
      "miio": 1529,
      "Ġhacktober": 1530,
      "codegen": 1531,
      "Ġbuilder": 1532,
      "response": 1533,
      "submission": 1534,
      "work": 1535,
      "Ġnotebook": 1536,
      "Ġinfo": 1537,
      "Ġsetup": 1538,
      "esktop": 1539,
      "Ġpkg": 1540,
      "acampan": 1541,
      "Ġabnormal": 1542,
      "Ġduplicate": 1543,
      "illerog": 1544,
      "amania": 1545,
      "Ġcomplet": 1546,
      "gyu": 1547,
      "Ġproduct": 1548,
      "Ġanswer": 1549,
      "ganis": 1550,
      "night": 1551,
      "Ġunofficial": 1552,
      "Ġbecpl": 1553,
      "Ġ7317": 1554,
      "Ġmangofvtt": 1555,
      "Ġmdevaev": 1556,
      "Ġpotential": 1557,
      "Ġstarkillerog": 1558,
      "Ġaccept": 1559,
      "ilahti": 1560,
      "Ġfabianacampan": 1561,
      "Ġsecurity": 1562,
      "Ġsuccess": 1563,
      "Ġsyssi": 1564,
      "Ġrytilahti": 1565,
      "Ġ15353": 1566,
      "Ġwontfix": 1567,
      "Ġnehaldamania": 1568,
      "Ġcompatibility": 1569,
      "Ġzeeshan": 1570,
      "Ġxaudio": 1571,
      "Ġxiaomi": 1572,
      "ekoetter": 1573,
      "Ġhacktoberfest": 1574,
      "responseops": 1575,
      "Ġfabianacampanari": 1576,
      "10": 1577,
      "206": 1578,
      "46": 1579,
      "74": 1580,
      "84": 1581,
      "aa": 1582,
      "aj": 1583,
      "bul": 1584,
      "bdor": 1585,
      "ez": 1586,
      "eek": 1587,
      "gre": 1588,
      "gds": 1589,
      "ht": 1590,
      "hav": 1591,
      "ham": 1592,
      "hdi": 1593,
      "home": 1594,
      "ii": 1595,
      "jdk": 1596,
      "ken": 1597,
      "kar": 1598,
      "ll": 1599,
      "lr": 1600,
      "my": 1601,
      "mon": 1602,
      "mul": 1603,
      "nas": 1604,
      "py": 1605,
      "pli": 1606,
      "rat": 1607,
      "rack": 1608,
      "ray": 1609,
      "rra": 1610,
      "su": 1611,
      "sv": 1612,
      "sci": 1613,
      "sboard": 1614,
      "tak": 1615,
      "uf": 1616,
      "uure": 1617,
      "yk": 1618,
      "¢ĳ": 1619,
      "§Ĩ": 1620,
      "ª©": 1621,
      "«ł": 1622,
      "¸°": 1623,
      "âĢ": 1624,
      "ç«ł": 1625,
      "è§Ĩ": 1626,
      "é¢ĳ": 1627,
      "Ġ#": 1628,
      "Ġí": 1629,
      "Ġes": 1630,
      "Ġash": 1631,
      "Ģç«ł": 1632,
      "ļĻ": 1633,
      "Ġign": 1634,
      "asz": 1635,
      "asad": 1636,
      "aster": 1637,
      "async": 1638,
      "edes": 1639,
      "signoff": 1640,
      "Ġland": 1641,
      "Ġlev": 1642,
      "eld": 1643,
      "abc": 1644,
      "Ġow": 1645,
      "Ġcel": 1646,
      "Ġcat": 1647,
      "ession": 1648,
      "Ġdo": 1649,
      "Ġdri": 1650,
      "Ġdco": 1651,
      "Ġdns": 1652,
      "Ġdep": 1653,
      "Ġdesi": 1654,
      "atg": 1655,
      "Ġ400": 1656,
      "Ġ452": 1657,
      "Ġ451": 1658,
      "Ġ432": 1659,
      "stem": 1660,
      "stream": 1661,
      "stall": 1662,
      "Ġbof": 1663,
      "Ġboun": 1664,
      "Ġ500": 1665,
      "Ġ511": 1666,
      "Ġ504": 1667,
      "Ġ583": 1668,
      "Ġ603": 1669,
      "Ġ639": 1670,
      "Ġ631": 1671,
      "request": 1672,
      "Ġ779": 1673,
      "Ġ734": 1674,
      "Ġmut": 1675,
      "Ġmaster": 1676,
      "Ġ801": 1677,
      "Ġjer": 1678,
      "Ġ1068": 1679,
      "Ġ1032": 1680,
      "Ġ1168": 1681,
      "rost": 1682,
      "Ġ120": 1683,
      "Ġ1208": 1684,
      "Ġsco": 1685,
      "Ġ134": 1686,
      "Ġ138": 1687,
      "Ġnon": 1688,
      "alp": 1689,
      "alert": 1690,
      "Ġ1565": 1691,
      "Ġgrid": 1692,
      "Ġgedes": 1693,
      "Ġ2824": 1694,
      "Ġ2839": 1695,
      "Ġ2872": 1696,
      "ctori": 1697,
      "Ġ164": 1698,
      "Ġ165": 1699,
      "Ġ1630": 1700,
      "peq": 1701,
      "Ġ203": 1702,
      "Ġ2024": 1703,
      "Ġ179": 1704,
      "ama": 1705,
      "ames": 1706,
      "amil": 1707,
      "Ġ192": 1708,
      "Ġ199": 1709,
      "Ġ1903": 1710,
      "Ġ243": 1711,
      "Ġ2455": 1712,
      "Ġweek": 1713,
      "Ġ214": 1714,
      "Ġ219": 1715,
      "Ġ2149": 1716,
      "ade": 1717,
      "Ġ232": 1718,
      "Ġ237": 1719,
      "Ġ239": 1720,
      "Ġ23286": 1721,
      "Ġrefactor": 1722,
      "Ġrequ": 1723,
      "expensify": 1724,
      "docker": 1725,
      "Ġinstall": 1726,
      "ðŁı": 1727,
      "issue": 1728,
      "Ġ313": 1729,
      "Ġ315": 1730,
      "Ġ319": 1731,
      "Ġ3109": 1732,
      "Ġ333": 1733,
      "Ġ336": 1734,
      "Ġkus": 1735,
      "Ġ356": 1736,
      "Ġ3514": 1737,
      "Ġ250": 1738,
      "Ġ252": 1739,
      "Ġ344": 1740,
      "Ġ347": 1741,
      "Ġ3401": 1742,
      "Ġ262": 1743,
      "Ġ263": 1744,
      "Ġ265": 1745,
      "Ġ270": 1746,
      "ĠðŁĵ": 1747,
      "ication": 1748,
      "Ġauth": 1749,
      "Ġ325": 1750,
      "update": 1751,
      "Ġ386": 1752,
      "Ġ361": 1753,
      "apore": 1754,
      "Ġ498": 1755,
      "081": 1756,
      "086": 1757,
      "089": 1758,
      "Ġ424": 1759,
      "Ġ426": 1760,
      "Ġ4220": 1761,
      "ush": 1762,
      "Ġ392": 1763,
      "516": 1764,
      "grade": 1765,
      "Ġ5539": 1766,
      "Ġ373": 1767,
      "123": 1768,
      "Ġ661": 1769,
      "Ġ669": 1770,
      "eloper": 1771,
      "ump": 1772,
      "Ġ646": 1773,
      "ayer": 1774,
      "old": 1775,
      "gui": 1776,
      "testabc": 1777,
      "441": 1778,
      "community": 1779,
      "Ġ702": 1780,
      "Ġprio": 1781,
      "Ġapert": 1782,
      "Ġcha": 1783,
      "Ġchore": 1784,
      "Ġchrist": 1785,
      "Ġmaint": 1786,
      "Ġ28868": 1787,
      "max": 1788,
      "node": 1789,
      "Ġ862": 1790,
      "Ġresponse": 1791,
      "prasad": 1792,
      "tmuure": 1793,
      "ĠâļĻ": 1794,
      "Ġ78206": 1795,
      "leysci": 1796,
      "Ġcour": 1797,
      "mall": 1798,
      "Ġbackport": 1799,
      "anning": 1800,
      "ĠðŁĴİ": 1801,
      "insdocker": 1802,
      "Ġ19435": 1803,
      "ĠðŁĲŀ.": 1804,
      "Ġreproduction": 1805,
      "singapore": 1806,
      "scanning": 1807,
      "Ġusability": 1808,
      "needed": 1809,
      "ç¬¬ä¸Ģç«ł": 1810,
      "Ġhariprasad": 1811,
      "Ġtasksboard": 1812,
      "Ġbarcode": 1813,
      "Ġvictori": 1814,
      "Ġgabrielbdor": 1815,
      "electro": 1816,
      "Ġextend": 1817,
      "ahuang": 1818,
      "gdscript": 1819,
      "svc": 1820,
      "âĢį": 1821,
      "è§Ĩé¢ĳ": 1822,
      "Ġashleysci": 1823,
      "Ġignore": 1824,
      "Ġlevel": 1825,
      "Ġdrift": 1826,
      "Ġbofrost": 1827,
      "Ġbounty": 1828,
      "Ġmuttmuure": 1829,
      "Ġ11687": 1830,
      "Ġscope": 1831,
      "Ġgedesco": 1832,
      "Ġrequir": 1833,
      "Ġkusama": 1834,
      "Ġapertre": 1835,
      "Ġhariprasadms": 1836,
      "Ġvictoriahuang": 1837,
      "Ġgabrielbdornas": 1838,
      "è§Ĩé¢ĳtestabc": 1839,
      "Ġashleyscirra": 1840,
      "aab": 1841,
      "curity": 1842,
      "client": 1843,
      "candid": 1844,
      "dm": 1845,
      "dr": 1846,
      "dest": 1847,
      "done": 1848,
      "dom": 1849,
      "ddle": 1850,
      "eur": 1851,
      "ections": 1852,
      "eep": 1853,
      "fail": 1854,
      "fman": 1855,
      "farm": 1856,
      "hi": 1857,
      "hash": 1858,
      "jw": 1859,
      "jy": 1860,
      "jstu": 1861,
      "ka": 1862,
      "kle": 1863,
      "lass": 1864,
      "mar": 1865,
      "merge": 1866,
      "nan": 1867,
      "ole": 1868,
      "pri": 1869,
      "page": 1870,
      "pik": 1871,
      "pute": 1872,
      "preb": 1873,
      "rd": 1874,
      "ren": 1875,
      "rin": 1876,
      "rganis": 1877,
      "sch": 1878,
      "solution": 1879,
      "score": 1880,
      "tay": 1881,
      "ww": 1882,
      "web": 1883,
      "ware": 1884,
      "xx": 1885,
      "xy": 1886,
      "yrd": 1887,
      "zby": 1888,
      "¥ê": 1889,
      "§Ī": 1890,
      "¬í": 1891,
      "µ¬í": 1892,
      "».": 1893,
      "ëĬ": 1894,
      "ëĵ": 1895,
      "ë¬¸": 1896,
      "Ġest": 1897,
      "Ġul": 1898,
      "Ġqa": 1899,
      "Ĵ».": 1900,
      "ĺĦ": 1901,
      "Ġip": 1902,
      "edit": 1903,
      "edback": 1904,
      "sis": 1905,
      "Ġuncon": 1906,
      "ence": 1907,
      "Ġla": 1908,
      "Ġluk": 1909,
      "Ġllam": 1910,
      "Ġhard": 1911,
      "elm": 1912,
      "Ġob": 1913,
      "Ġoff": 1914,
      "Ġorganis": 1915,
      "Ġcp": 1916,
      "Ġcar": 1917,
      "Ġcort": 1918,
      "Ġclient": 1919,
      "lor": 1920,
      "Ġtext": 1921,
      "esh": 1922,
      "Ġtoddle": 1923,
      "Ġdone": 1924,
      "Ġ379": 1925,
      "Ġdete": 1926,
      "Ġdebugg": 1927,
      "atter": 1928,
      "Ġ479": 1929,
      "Ġ438": 1930,
      "ons": 1931,
      "anel": 1932,
      "stad": 1933,
      "states": 1934,
      "Ġbc": 1935,
      "inf": 1936,
      "ination": 1937,
      "Ġ514": 1938,
      "Ġ5517": 1939,
      "Ġ6522": 1940,
      "reem": 1941,
      "refactor": 1942,
      "Ġ701": 1943,
      "Ġ706": 1944,
      "Ġ721": 1945,
      "Ġ720": 1946,
      "rice": 1947,
      "Ġbugfix": 1948,
      "Ġmet": 1949,
      "Ġmore": 1950,
      "Ġpanel": 1951,
      "Ġ849": 1952,
      "Ġstor": 1953,
      "Ġstate": 1954,
      "Ġstag": 1955,
      "Ġjm": 1956,
      "Ġjack": 1957,
      "Ġjak": 1958,
      "Ġjsk": 1959,
      "Ġjira": 1960,
      "Ġah": 1961,
      "Ġact": 1962,
      "Ġarice": 1963,
      "Ġ952": 1964,
      "Ġ961": 1965,
      "Ġ969": 1966,
      "Ġ1000": 1967,
      "Ġ1031": 1968,
      "cklam": 1969,
      "ork": 1970,
      "Ġ1108": 1971,
      "Ġ11522": 1972,
      "Ġfreem": 1973,
      "Ġ1294": 1974,
      "Ġ1220": 1975,
      "Ġ1226": 1976,
      "Ġsab": 1977,
      "Ġson": 1978,
      "Ġser": 1979,
      "Ġsam": 1980,
      "Ġsur": 1981,
      "Ġ1345": 1982,
      "ito": 1983,
      "itain": 1984,
      "ptim": 1985,
      "ali": 1986,
      "Ġgdg": 1987,
      "Ġ160": 1988,
      "Ġ167": 1989,
      "Ġ206": 1990,
      "Ġ209": 1991,
      "Ġ2023": 1992,
      "Ġ1748": 1993,
      "Ġtyler": 1994,
      "Ġ1979": 1995,
      "Ġ1953": 1996,
      "Ġweb": 1997,
      "Ġwise": 1998,
      "Ġwww": 1999,
      "Ġrezby": 2000,
      "ule": 2001,
      "dochi": 2002,
      "Ġinvalid": 2003,
      "ðŁĴ».": 2004,
      "Ġ3162": 2005,
      "Ġ351": 2006,
      "Ġfeedback": 2007,
      "Ġ255": 2008,
      "Ġ2648": 2009,
      "ĠðŁĽ": 2010,
      "ices": 2011,
      "agement": 2012,
      "Ġ3823": 2013,
      "ender": 2014,
      "endar": 2015,
      "Ġ412": 2016,
      "Ġ447": 2017,
      "000": 2018,
      "789": 2019,
      "ura": 2020,
      "085": 2021,
      "088": 2022,
      "agi": 2023,
      "type": 2024,
      "Ġexport": 2025,
      "cod": 2026,
      "397": 2027,
      "077": 2028,
      "ewski": 2029,
      "ffer": 2030,
      "Ġ7743": 2031,
      "120": 2032,
      "Ġdocs": 2033,
      "Ġ662": 2034,
      "Ġproc": 2035,
      "vice": 2036,
      "0404": 2037,
      "akram": 2038,
      "147": 2039,
      "Ġ596": 2040,
      "Ġ542": 2041,
      "Ġadmin": 2042,
      "security": 2043,
      "972": 2044,
      "indings": 2045,
      "tester": 2046,
      "377": 2047,
      "dios": 2048,
      "Ġzvez": 2049,
      "Ġandy": 2050,
      "Ġ8768": 2051,
      "Ġteams": 2052,
      "tiekoetter": 2053,
      "active": 2054,
      "Ġ519": 2055,
      "mac": 2056,
      "uilt": 2057,
      "Ġ710": 2058,
      "aufman": 2059,
      "ofstad": 2060,
      "Ġ5303": 2061,
      "Ġ918": 2062,
      "ekaufman": 2063,
      "Ġresp": 2064,
      "sson": 2065,
      "Ġâı": 2066,
      "Ġupstream": 2067,
      "Ġ10197": 2068,
      "Ġ840": 2069,
      "Ġcoeur": 2070,
      "Ġ15747": 2071,
      "Ġpackages": 2072,
      "Ġ1492": 2073,
      "udfla": 2074,
      "Ġì§Ī": 2075,
      "ĠðŁĴ¡": 2076,
      "backport": 2077,
      "detection": 2078,
      "detections": 2079,
      "Ġëª©": 2080,
      "Ġê²": 2081,
      "Ġê¸°": 2082,
      "ification": 2083,
      "word": 2084,
      "calendar": 2085,
      "yansh": 2086,
      "Ġconfirmed": 2087,
      "Ġversion": 2088,
      "Ġverification": 2089,
      "studios": 2090,
      "Ġrule": 2091,
      "Ġrules": 2092,
      "Ġinvite": 2093,
      "cases": 2094,
      "ë¡Ŀ": 2095,
      "Ġcrise": 2096,
      "Ġdispute": 2097,
      "Ġmanagement": 2098,
      "Ġ33268": 2099,
      "afile": 2100,
      "Ġblcklam": 2101,
      "Ġwindows": 2102,
      "neyofstad": 2103,
      "reported": 2104,
      "Ġ11425": 2105,
      "Ġnikitain": 2106,
      "Ġpkgsite": 2107,
      "Ġsecuritysolution": 2108,
      "Ġzeeshanakram": 2109,
      "karasz": 2110,
      "Ġlands": 2111,
      "Ġweekly": 2112,
      "Ġmaintain": 2113,
      "âĢįðŁĴ».": 2114,
      "Ġrequired": 2115,
      "destination": 2116,
      "jstudio": 2117,
      "prebuilt": 2118,
      "taylor": 2119,
      "¥êµ¬í": 2120,
      "ëĬ¥êµ¬í": 2121,
      "Ġunconfirmed": 2122,
      "Ġllamafile": 2123,
      "Ġorganisation": 2124,
      "Ġcortneyofstad": 2125,
      "Ġtoddlees": 2126,
      "Ġdetection": 2127,
      "Ġstaging": 2128,
      "Ġjskeet": 2129,
      "Ġaricetester": 2130,
      "Ġfreemjstudio": 2131,
      "Ġgdgib": 2132,
      "Ġ174844": 2133,
      "Ġtylerkarasz": 2134,
      "Ġwiseqa": 2135,
      "Ġrezbyte": 2136,
      "dochiot": 2137,
      "Ġzvezdochiot": 2138,
      "udflare": 2139,
      "Ġì§Īë¬¸": 2140,
      "Ġëª©ë¡Ŀ": 2141,
      "Ġê¸°ëĬ¥êµ¬í": 2142,
      "Ġblcklamb": 2143,
      "Ġnikitaindik": 2144,
      "Ġtylerkaraszewski": 2145,
      "Ġê¸°ëĬ¥êµ¬íĺĦ": 2146,
      "'t": 2147,
      "*.": 2148,
      "81": 2149,
      "803": 2150,
      "agn": 2151,
      "ahe": 2152,
      "aid": 2153,
      "bn": 2154,
      "bas": 2155,
      "but": 2156,
      "build": 2157,
      "bish": 2158,
      "bett": 2159,
      "bindings": 2160,
      "cc": 2161,
      "cz": 2162,
      "cation": 2163,
      "cle": 2164,
      "cash": 2165,
      "cahe": 2166,
      "db": 2167,
      "don": 2168,
      "dak": 2169,
      "dly": 2170,
      "djs": 2171,
      "desktop": 2172,
      "fj": 2173,
      "fl": 2174,
      "gi": 2175,
      "gun": 2176,
      "ger": 2177,
      "gor": 2178,
      "hn": 2179,
      "hs": 2180,
      "har": 2181,
      "hit": 2182,
      "his": 2183,
      "high": 2184,
      "host": 2185,
      "hrist": 2186,
      "ies": 2187,
      "iug": 2188,
      "ich": 2189,
      "ield": 2190,
      "jn": 2191,
      "jss": 2192,
      "ko": 2193,
      "ku": 2194,
      "kab": 2195,
      "kur": 2196,
      "kded": 2197,
      "knight": 2198,
      "kez": 2199,
      "kesh": 2200,
      "lgre": 2201,
      "mo": 2202,
      "mor": 2203,
      "mit": 2204,
      "mfj": 2205,
      "nap": 2206,
      "nau": 2207,
      "ndjs": 2208,
      "oit": 2209,
      "oper": 2210,
      "pam": 2211,
      "red": 2212,
      "ron": 2213,
      "rad": 2214,
      "rand": 2215,
      "rag": 2216,
      "sz": 2217,
      "sen": 2218,
      "she": 2219,
      "sung": 2220,
      "ton": 2221,
      "tan": 2222,
      "ting": 2223,
      "tim": 2224,
      "uad": 2225,
      "wy": 2226,
      "won": 2227,
      "woon": 2228,
      "yle": 2229,
      "ystem": 2230,
      "zer": 2231,
      "¼ã": 2232,
      "ì²": 2233,
      "ìĪ": 2234,
      "ìĹ": 2235,
      "ìł": 2236,
      "Ġerge": 2237,
      "Ġass": 2238,
      "Ĥ¹": 2239,
      "łì": 2240,
      "łï¸ı": 2241,
      "Ġiwoc": 2242,
      "ast": 2243,
      "Ġitem": 2244,
      "edlo": 2245,
      "size": 2246,
      "und": 2247,
      "eng": 2248,
      "enz": 2249,
      "Ġlc": 2250,
      "eli": 2251,
      "ell": 2252,
      "elev": 2253,
      "elates": 2254,
      "abl": 2255,
      "abhan": 2256,
      "able": 2257,
      "Ġol": 2258,
      "Ġomfj": 2259,
      "Ġcn": 2260,
      "Ġcle": 2261,
      "Ġcont": 2262,
      "Ġcrist": 2263,
      "Ġtex": 2264,
      "Ġtem": 2265,
      "Ġtrack": 2266,
      "Ġtom": 2267,
      "Ġdi": 2268,
      "Ġdav": 2269,
      "Ġdma": 2270,
      "Ġdmul": 2271,
      "Ġdrag": 2272,
      "Ġ378": 2273,
      "Ġdesign": 2274,
      "cik": 2275,
      "ato": 2276,
      "ator": 2277,
      "athis": 2278,
      "Ġ401": 2279,
      "Ġ478": 2280,
      "Ġ408": 2281,
      "Ġ406": 2282,
      "Ġ430": 2283,
      "only": 2284,
      "star": 2285,
      "Ġbig": 2286,
      "Ġbump": 2287,
      "iny": 2288,
      "Ġ503": 2289,
      "Ġ539": 2290,
      "Ġ506": 2291,
      "Ġ528": 2292,
      "Ġ538": 2293,
      "Ġ587": 2294,
      "Ġ601": 2295,
      "Ġ635": 2296,
      "Ġ656": 2297,
      "Ġ632": 2298,
      "Ġ676": 2299,
      "Ġ691": 2300,
      "Ġ636": 2301,
      "Ġ6086": 2302,
      "rekded": 2303,
      "Ġ735": 2304,
      "Ġ768": 2305,
      "Ġ712": 2306,
      "Ġ761": 2307,
      "Ġ732": 2308,
      "Ġ722": 2309,
      "Ġ7085": 2310,
      "Ġmir": 2311,
      "Ġmim": 2312,
      "Ġph": 2313,
      "Ġpet": 2314,
      "Ġpay": 2315,
      "Ġpol": 2316,
      "Ġpud": 2317,
      "Ġ800": 2318,
      "Ġ878": 2319,
      "Ġ868": 2320,
      "Ġ883": 2321,
      "Ġstat": 2322,
      "Ġstore": 2323,
      "Ġjc": 2324,
      "Ġjames": 2325,
      "Ġak": 2326,
      "Ġ901": 2327,
      "Ġ979": 2328,
      "Ġ968": 2329,
      "Ġ903": 2330,
      "Ġ905": 2331,
      "Ġ904": 2332,
      "Ġ914": 2333,
      "Ġ931": 2334,
      "Ġ943": 2335,
      "Ġ109": 2336,
      "Ġ1079": 2337,
      "Ġ1014": 2338,
      "Ġ1023": 2339,
      "Ġ1016": 2340,
      "org": 2341,
      "ments": 2342,
      "Ġ115": 2343,
      "Ġ1135": 2344,
      "Ġ1178": 2345,
      "Ġ1107": 2346,
      "Ġ1155": 2347,
      "Ġ1176": 2348,
      "Ġ1117": 2349,
      "Ġ1162": 2350,
      "Ġ1133": 2351,
      "hand": 2352,
      "arn": 2353,
      "arret": 2354,
      "arlgre": 2355,
      "Ġfarm": 2356,
      "estig": 2357,
      "estore": 2358,
      "rol": 2359,
      "ross": 2360,
      "Ġ1279": 2361,
      "Ġ1256": 2362,
      "Ġ1204": 2363,
      "Ġ1216": 2364,
      "Ġ12441": 2365,
      "Ġse": 2366,
      "Ġsol": 2367,
      "Ġsof": 2368,
      "Ġsdk": 2369,
      "Ġsnap": 2370,
      "Ġsystem": 2371,
      "Ġ133": 2372,
      "Ġ1327": 2373,
      "Ġ1348": 2374,
      "Ġnut": 2375,
      "Ġnir": 2376,
      "Ġnext": 2377,
      "Ġ140": 2378,
      "alt": 2379,
      "alv": 2380,
      "Ġlog": 2381,
      "Ġlocation": 2382,
      "Ġlokesh": 2383,
      "Ġrush": 2384,
      "Ġraid": 2385,
      "Ġrkur": 2386,
      "Ġrelates": 2387,
      "critical": 2388,
      "Ġ153": 2389,
      "Ġ1564": 2390,
      "ckedf": 2391,
      "Ġ223": 2392,
      "Ġ224": 2393,
      "Ġ228": 2394,
      "Ġ2243": 2395,
      "Ġgra": 2396,
      "Ġgarret": 2397,
      "Ġ289": 2398,
      "Ġ2811": 2399,
      "Ġ2861": 2400,
      "Ġ2866": 2401,
      "Ġ1644": 2402,
      "Ġ1676": 2403,
      "Ġ201": 2404,
      "Ġ207": 2405,
      "Ġ2035": 2406,
      "Ġ2052": 2407,
      "Ġ181": 2408,
      "Ġ182": 2409,
      "Ġ1887": 2410,
      "Ġ172": 2411,
      "Ġ173": 2412,
      "Ġ1764": 2413,
      "Ġ190": 2414,
      "Ġ1909": 2415,
      "Ġ241": 2416,
      "Ġ244": 2417,
      "Ġ247": 2418,
      "Ġ2450": 2419,
      "uting": 2420,
      "Ġwon": 2421,
      "Ġwip": 2422,
      "Ġwhit": 2423,
      "Ġwndjs": 2424,
      "Ġ210": 2425,
      "Ġ230": 2426,
      "Ġ236": 2427,
      "Ġrepl": 2428,
      "Ġreedlo": 2429,
      "extension": 2430,
      "dog": 2431,
      "Ġinform": 2432,
      "over": 2433,
      "ðŁĳ": 2434,
      "isbett": 2435,
      "Ġ310": 2436,
      "Ġ311": 2437,
      "Ġ312": 2438,
      "Ġ338": 2439,
      "Ġ3317": 2440,
      "Ġ3370": 2441,
      "Ġkhs": 2442,
      "Ġ251": 2443,
      "Ġ254": 2444,
      "Ġ256": 2445,
      "Ġ257": 2446,
      "Ġ258": 2447,
      "Ġ2542": 2448,
      "Ġ300": 2449,
      "Ġ305": 2450,
      "Ġ306": 2451,
      "Ġ342": 2452,
      "Ġ345": 2453,
      "Ġ346": 2454,
      "Ġ348": 2455,
      "Ġ3452": 2456,
      "Ġ3444": 2457,
      "Ġ3449": 2458,
      "def": 2459,
      "deploy": 2460,
      "ubham": 2461,
      "Ġ2687": 2462,
      "Ġ2647": 2463,
      "Ġ276": 2464,
      "Ġ277": 2465,
      "ĠðŁĳ": 2466,
      "ĠðŁļ": 2467,
      "Ġ290": 2468,
      "Ġ291": 2469,
      "Ġ293": 2470,
      "Ġ295": 2471,
      "Ġ297": 2472,
      "Ġ321": 2473,
      "Ġ323": 2474,
      "Ġ327": 2475,
      "Ġ329": 2476,
      "upgrade": 2477,
      "Ġ385": 2478,
      "Ġ388": 2479,
      "Ġ389": 2480,
      "Ġ3854": 2481,
      "Ġ414": 2482,
      "Ġ416": 2483,
      "Ġ418": 2484,
      "Ġ4147": 2485,
      "Ġ362": 2486,
      "Ġ364": 2487,
      "Ġ365": 2488,
      "Ġ367": 2489,
      "Ġ3656": 2490,
      "005": 2491,
      "0103": 2492,
      "lee": 2493,
      "ott": 2494,
      "apim": 2495,
      "urdon": 2496,
      "792": 2497,
      "Ġ490": 2498,
      "Ġ499": 2499,
      "Ġ420": 2500,
      "Ġ421": 2501,
      "Ġ428": 2502,
      "prod": 2503,
      "Ġ393": 2504,
      "Ġ396": 2505,
      "Ġ3909": 2506,
      "lib": 2507,
      "list": 2508,
      "liance": 2509,
      "gression": 2510,
      "Ġ460": 2511,
      "Ġ462": 2512,
      "Ġ466": 2513,
      "Ġ555": 2514,
      "Ġ561": 2515,
      "Ġ563": 2516,
      "Ġ566": 2517,
      "Ġcommunity": 2518,
      "Ġ374": 2519,
      "Ġ376": 2520,
      "ffort": 2521,
      "Ġ775": 2522,
      "Ġ776": 2523,
      "image": 2524,
      "Ġ667": 2525,
      "Ġpropar": 2526,
      "ema": 2527,
      "plate": 2528,
      "player": 2529,
      "Ġ470": 2530,
      "Ġsid": 2531,
      "Ġsiflo": 2532,
      "Ġsikab": 2533,
      "Ġ1089": 2534,
      "Ġ482": 2535,
      "Ġ540": 2536,
      "Ġ640": 2537,
      "sef": 2538,
      "Ġ450": 2539,
      "Ġ458": 2540,
      "Ġ573": 2541,
      "971": 2542,
      "Ġ794": 2543,
      "Ġ795": 2544,
      "343": 2545,
      "347": 2546,
      "Ġ613": 2547,
      "Ġcompliance": 2548,
      "Ġzha": 2549,
      "Ġ747": 2550,
      "Ġ873": 2551,
      "Ġ875": 2552,
      "Ġ877": 2553,
      "Ġ1054": 2554,
      "comments": 2555,
      "Ġmaaa": 2556,
      "Ġmarekded": 2557,
      "link": 2558,
      "Ġdeveloper": 2559,
      "evic": 2560,
      "Ġtests": 2561,
      "Ġ981": 2562,
      "Ġ989": 2563,
      "develop": 2564,
      "major": 2565,
      "now": 2566,
      "2024": 2567,
      "Ġplans": 2568,
      "Ġfrance": 2569,
      "4312": 2570,
      "Ġyous": 2571,
      "Ġ12835": 2572,
      "Ġ4079": 2573,
      "Ġ698": 2574,
      "Ġ433": 2575,
      "pray": 2576,
      "tmknight": 2577,
      "Ġ1472": 2578,
      "Ġ1475": 2579,
      "Ġ7879": 2580,
      "Ġ1019": 2581,
      "Ġroute": 2582,
      "Ġrockedf": 2583,
      "Ġlinq": 2584,
      "ãĥªãĥ": 2585,
      "Ġepic": 2586,
      "Ġearlgre": 2587,
      "Ġeffort": 2588,
      "ĠðŁĲĽ.": 2589,
      "Ġinteg": 2590,
      "ĠðŁĶ§": 2591,
      "ĠðŁĶį": 2592,
      "ĠðŁĶĲ": 2593,
      "haãĥªãĥ": 2594,
      "Ġmod": 2595,
      "Ġmount": 2596,
      "Ġ2299": 2597,
      "opened": 2598,
      "aws": 2599,
      "awaiting": 2600,
      "uuuu": 2601,
      "ï¸ı.": 2602,
      "Ġë¬¸": 2603,
      "Ġthed": 2604,
      "Ġthis": 2605,
      "Ġ584": 2606,
      "Ġfailure": 2607,
      "Ġshatter": 2608,
      "Ġshubham": 2609,
      "dsais": 2610,
      "Ġmvgi": 2611,
      "Ġ8235": 2612,
      "aouad": 2613,
      "flow": 2614,
      "Ġconnor": 2615,
      "Ġmarijn": 2616,
      "tools": 2617,
      "ound": 2618,
      "Ġminyn": 2619,
      "Ġminisbett": 2620,
      "Ġ13227": 2621,
      "skyi": 2622,
      "Ġupdatebot": 2623,
      "Ġcritical": 2624,
      "Ġmehdi": 2625,
      "Ġinteroper": 2626,
      "Ġâľ¨": 2627,
      "Ġeditor": 2628,
      "ªãĥ¼ã": 2629,
      "Ġ6050": 2630,
      "retskyi": 2631,
      "Ġ202516": 2632,
      "chburdon": 2633,
      "Ġkeybindings": 2634,
      "Ġkeygun": 2635,
      "ĠðŁĮ±": 2636,
      "ĠðŁĮŁ": 2637,
      "Ġrichburdon": 2638,
      "Ġsoul": 2639,
      "Ġvasildak": 2640,
      "Ġbuilderce": 2641,
      "works": 2642,
      "Ġcompleted": 2643,
      "Ġacceptor": 2644,
      "Ġowner": 2645,
      "Ġdocker": 2646,
      "atgabhan": 2647,
      "Ġ4009": 2648,
      "Ġ5040": 2649,
      "Ġ7342": 2650,
      "Ġ8011": 2651,
      "Ġnonpeq": 2652,
      "alphaãĥªãĥ": 2653,
      "alerting": 2654,
      "Ġrefactoring": 2655,
      "ðŁı»": 2656,
      "issues": 2657,
      "Ġ34018": 2658,
      "Ġ70221": 2659,
      "Ġchaos": 2660,
      "ĠâļĻï¸ı.": 2661,
      "failure": 2662,
      "ëĵľ": 2663,
      "ĠðŁĽłï¸ı": 2664,
      "Ġadminiug": 2665,
      "bnis": 2666,
      "bisht": 2667,
      "cahey": 2668,
      "hristov": 2669,
      "jssel": 2670,
      "naud": 2671,
      "tanoff": 2672,
      "ìĪĺ": 2673,
      "Ġergebnis": 2674,
      "Ġcontrol": 2675,
      "Ġtemplate": 2676,
      "Ġdavid": 2677,
      "Ġdmaretskyi": 2678,
      "Ġdmulcahey": 2679,
      "Ġdragon": 2680,
      "Ġ53929": 2681,
      "Ġpeter": 2682,
      "Ġpayment": 2683,
      "Ġpolly": 2684,
      "Ġpuddly": 2685,
      "Ġfarming": 2686,
      "Ġsoltanoff": 2687,
      "Ġnirhar": 2688,
      "Ġrushatgabhan": 2689,
      "Ġrkurchin": 2690,
      "Ġgraal": 2691,
      "Ġgarrettmknight": 2692,
      "Ġreply": 2693,
      "Ġreedloden": 2694,
      "Ġinformation": 2695,
      "Ġ26872": 2696,
      "Ġ26473": 2697,
      "Ġproparse": 2698,
      "Ġsifloz": 2699,
      "Ġsikabane": 2700,
      "Ġmaaaathis": 2701,
      "Ġmarekdedic": 2702,
      "development": 2703,
      "Ġyoussef": 2704,
      "Ġearlgrey": 2705,
      "Ġmountiny": 2706,
      "Ġshatterplayer": 2707,
      "Ġmvgijssel": 2708,
      "aouadi": 2709,
      "Ġmarijnh": 2710,
      "Ġinteroperability": 2711,
      "ªãĥ¼ãĤ¹": 2712,
      "Ġvasildakov": 2713,
      "alphaãĥªãĥªãĥ¼ãĤ¹": 2714,
      "Ġadminiuga": 2715,
      "Ġrushatgabhane": 2716,
      "025": 2717,
      "200": 2718,
      "air": 2719,
      "aco": 2720,
      "ache": 2721,
      "ba": 2722,
      "bl": 2723,
      "ben": 2724,
      "browser": 2725,
      "brid": 2726,
      "cu": 2727,
      "cel": 2728,
      "clo": 2729,
      "cli": 2730,
      "cud": 2731,
      "dent": 2732,
      "dit": 2733,
      "dram": 2734,
      "eu": 2735,
      "ech": 2736,
      "eve": 2737,
      "fs": 2738,
      "fu": 2739,
      "font": 2740,
      "fid": 2741,
      "ferg": 2742,
      "gas": 2743,
      "gur": 2744,
      "gus": 2745,
      "good": 2746,
      "gtaylor": 2747,
      "hy": 2748,
      "her": 2749,
      "hap": 2750,
      "hoff": 2751,
      "hook": 2752,
      "helm": 2753,
      "ie": 2754,
      "ist": 2755,
      "ice": 2756,
      "ipt": 2757,
      "iap": 2758,
      "ience": 2759,
      "jav": 2760,
      "kub": 2761,
      "koc": 2762,
      "kev": 2763,
      "klam": 2764,
      "kcud": 2765,
      "lz": 2766,
      "mas": 2767,
      "mak": 2768,
      "mask": 2769,
      "mart": 2770,
      "mdm": 2771,
      "mware": 2772,
      "oe": 2773,
      "ogu": 2774,
      "oall": 2775,
      "okoc": 2776,
      "pi": 2777,
      "ped": 2778,
      "pad": 2779,
      "pand": 2780,
      "pak": 2781,
      "ponent": 2782,
      "pys": 2783,
      "pass": 2784,
      "pko": 2785,
      "pher": 2786,
      "qb": 2787,
      "qv": 2788,
      "rend": 2789,
      "releas": 2790,
      "rhp": 2791,
      "sf": 2792,
      "son": 2793,
      "spe": 2794,
      "sdo": 2795,
      "sang": 2796,
      "small": 2797,
      "sender": 2798,
      "tle": 2799,
      "tara": 2800,
      "tfid": 2801,
      "uat": 2802,
      "uck": 2803,
      "ual": 2804,
      "udo": 2805,
      "uacam": 2806,
      "uogu": 2807,
      "van": 2808,
      "vug": 2809,
      "vil": 2810,
      "vpro": 2811,
      "vite": 2812,
      "voall": 2813,
      "was": 2814,
      "wht": 2815,
      "xb": 2816,
      "xity": 2817,
      "ya": 2818,
      "ym": 2819,
      "yus": 2820,
      "¤¾": 2821,
      "¤Ħ": 2822,
      "¦ģ": 2823,
      "§¹": 2824,
      "©ðŁı»": 2825,
      "®å": 2826,
      "¸®å": 2827,
      "ºå": 2828,
      "Â·": 2829,
      "Ðµ": 2830,
      "ÑĤ": 2831,
      "åĮ": 2832,
      "å¤Ħ": 2833,
      "æĸ": 2834,
      "çĲ": 2835,
      "ç¤¾": 2836,
      "è¦ģ": 2837,
      "éľ": 2838,
      "íĨ": 2839,
      "Ġ@": 2840,
      "Ġat": 2841,
      "Ġ00": 2842,
      "Ġ05": 2843,
      "Ġelo": 2844,
      "Ġec": 2845,
      "Ġç¬¬ä¸": 2846,
      "Ġqv": 2847,
      "ĠÂ·": 2848,
      "Ġå¤Ħ": 2849,
      "Ġéľ": 2850,
      "Ģè¦ģ": 2851,
      "Ħľ": 2852,
      "Ĩä¸": 2853,
      "īæĸ": 2854,
      "Ĭ©": 2855,
      "ĭľ": 2856,
      "Ŀ.": 2857,
      "Ġicy": 2858,
      "assed": 2859,
      "asar": 2860,
      "asia": 2861,
      "Ġitsy": 2862,
      "edu": 2863,
      "siq": 2864,
      "uero": 2865,
      "unch": 2866,
      "unya": 2867,
      "Ġunreleas": 2868,
      "enb": 2869,
      "enfir": 2870,
      "enmak": 2871,
      "Ġlon": 2872,
      "Ġlib": 2873,
      "Ġluogu": 2874,
      "Ġhom": 2875,
      "Ġhous": 2876,
      "Ġhold": 2877,
      "elab": 2878,
      "abas": 2879,
      "abuck": 2880,
      "Ġotak": 2881,
      "Ġcli": 2882,
      "Ġcsk": 2883,
      "Ġcash": 2884,
      "Ġclass": 2885,
      "Ġtf": 2886,
      "Ġtw": 2887,
      "Ġtri": 2888,
      "Ġtens": 2889,
      "esb": 2890,
      "esea": 2891,
      "esgas": 2892,
      "Ġtop": 2893,
      "Ġtokle": 2894,
      "Ġdan": 2895,
      "Ġdom": 2896,
      "Ġdance": 2897,
      "Ġdiv": 2898,
      "Ġddan": 2899,
      "Ġdesktop": 2900,
      "Ġdeci": 2901,
      "cio": 2902,
      "cible": 2903,
      "cident": 2904,
      "atpak": 2905,
      "onito": 2906,
      "onie": 2907,
      "ano": 2908,
      "anup": 2909,
      "anay": 2910,
      "anvug": 2911,
      "strat": 2912,
      "stbas": 2913,
      "Ġben": 2914,
      "Ġbot": 2915,
      "Ġbur": 2916,
      "Ġbferg": 2917,
      "inte": 2918,
      "inng": 2919,
      "inni": 2920,
      "incident": 2921,
      "instbas": 2922,
      "Ġ579": 2923,
      "Ġ652": 2924,
      "Ġ612": 2925,
      "Ġ6972": 2926,
      "erl": 2927,
      "erol": 2928,
      "ernet": 2929,
      "erost": 2930,
      "erali": 2931,
      "erator": 2932,
      "repro": 2933,
      "Ġ756": 2934,
      "rick": 2935,
      "Ġmf": 2936,
      "Ġmw": 2937,
      "Ġment": 2938,
      "Ġmar": 2939,
      "Ġmch": 2940,
      "Ġmus": 2941,
      "Ġmont": 2942,
      "Ġmunya": 2943,
      "Ġpit": 2944,
      "Ġpari": 2945,
      "Ġpunt": 2946,
      "Ġpassed": 2947,
      "Ġperost": 2948,
      "Ġstm": 2949,
      "Ġstev": 2950,
      "Ġsteve": 2951,
      "Ġjori": 2952,
      "Ġjura": 2953,
      "Ġjaco": 2954,
      "Ġaa": 2955,
      "Ġai": 2956,
      "Ġade": 2957,
      "Ġamin": 2958,
      "entory": 2959,
      "Ġ925": 2960,
      "Ġ1003": 2961,
      "Ġ1007": 2962,
      "Ġ1004": 2963,
      "Ġ1027": 2964,
      "Ġ10089": 2965,
      "orm": 2966,
      "orflo": 2967,
      "ilma": 2968,
      "Ġ1131": 2969,
      "Ġ1171": 2970,
      "Ġ1119": 2971,
      "avail": 2972,
      "avour": 2973,
      "arg": 2974,
      "arv": 2975,
      "arad": 2976,
      "aray": 2977,
      "Ġfla": 2978,
      "Ġfound": 2979,
      "Ġfilma": 2980,
      "Ġ1297": 2981,
      "Ġ1261": 2982,
      "Ġ1222": 2983,
      "Ġenit": 2984,
      "Ġsand": 2985,
      "Ġsyn": 2986,
      "Ġsapi": 2987,
      "Ġspy": 2988,
      "Ġsmall": 2989,
      "Ġnex": 2990,
      "Ġnets": 2991,
      "Ġ1404": 2992,
      "Ġ1461": 2993,
      "Ġ1445": 2994,
      "Ġ1402": 2995,
      "alth": 2996,
      "alesea": 2997,
      "Ġrap": 2998,
      "Ġ1539": 2999,
      "Ġ1507": 3000,
      "Ġ225": 3001,
      "Ġ2297": 3002,
      "Ġ2242": 3003,
      "Ġ2265": 3004,
      "Ġgst": 3005,
      "Ġgit": 3006,
      "Ġglu": 3007,
      "Ġguacam": 3008,
      "omedit": 3009,
      "ctor": 3010,
      "Ġ1694": 3011,
      "Ġ16789": 3012,
      "Ġ16088": 3013,
      "Ġ2000": 3014,
      "Ġ2009": 3015,
      "Ġ2021": 3016,
      "Ġ2019": 3017,
      "Ġ1800": 3018,
      "Ġ1816": 3019,
      "Ġ18147": 3020,
      "amew": 3021,
      "Ġ1956": 3022,
      "Ġ1961": 3023,
      "Ġ1954": 3024,
      "Ġ2497": 3025,
      "Ġwy": 3026,
      "Ġwait": 3027,
      "Ġwvpro": 3028,
      "Ġ2135": 3029,
      "adata": 3030,
      "adden": 3031,
      "ademy": 3032,
      "addr": 3033,
      "chalesea": 3034,
      "Ġ2344": 3035,
      "Ġ23089": 3036,
      "ult": 3037,
      "exer": 3038,
      "health": 3039,
      "ova": 3040,
      "Ġnebul": 3041,
      "Ġvue": 3042,
      "Ġvir": 3043,
      "Ġvsender": 3044,
      "isesgas": 3045,
      "Ġ334": 3046,
      "Ġ3338": 3047,
      "Ġkost": 3048,
      "Ġkaz": 3049,
      "Ġkoet": 3050,
      "Ġkai": 3051,
      "Ġkais": 3052,
      "Ġkill": 3053,
      "Ġkokoc": 3054,
      "Ġkudo": 3055,
      "Ġ2507": 3056,
      "Ġ2597": 3057,
      "Ġ3055": 3058,
      "Ġ3036": 3059,
      "Ġ3455": 3060,
      "Ġ3454": 3061,
      "Ġ34081": 3062,
      "Ġ34077": 3063,
      "deo": 3064,
      "deployment": 3065,
      "Ġ2672": 3066,
      "Ġ26377": 3067,
      "ĠðŁ§¹": 3068,
      "Ġ2987": 3069,
      "Ġ2969": 3070,
      "Ġ320": 3071,
      "Ġ3268": 3072,
      "Ġrensdo": 3073,
      "upm": 3074,
      "endel": 3075,
      "Ġ417": 3076,
      "Ġ4173": 3077,
      "Ġ4411": 3078,
      "Ġ4456": 3079,
      "Ġ4417": 3080,
      "Ġ4429": 3081,
      "reak": 3082,
      "ooash": 3083,
      "oosen": 3084,
      "Ġ3686": 3085,
      "Ġ3659": 3086,
      "lem": 3087,
      "Ġneedinf": 3088,
      "approved": 3089,
      "790": 3090,
      "Ġ4924": 3091,
      "Ġ4923": 3092,
      "Ġ4938": 3093,
      "aguero": 3094,
      "agenmak": 3095,
      "usan": 3096,
      "progress": 3097,
      "Ġ3927": 3098,
      "live": 3099,
      "Ġexper": 3100,
      "cop": 3101,
      "ards": 3102,
      "Ġ569": 3103,
      "Ġ5626": 3104,
      "Ġ3705": 3105,
      "Ġ7729": 3106,
      "Ġ663": 3107,
      "Ġ6600": 3108,
      "Ġprod": 3109,
      "video": 3110,
      "emul": 3111,
      "044": 3112,
      "ake": 3113,
      "akim": 3114,
      "akse": 3115,
      "akekaufman": 3116,
      "Ġ5929": 3117,
      "Ġ10888": 3118,
      "Ġ4888": 3119,
      "Ġ543": 3120,
      "Ġ5468": 3121,
      "Ġ5461": 3122,
      "Ġ6463": 3123,
      "Ġfirmware": 3124,
      "Ġadd": 3125,
      "Ġadded": 3126,
      "Ġadnan": 3127,
      "232": 3128,
      "section": 3129,
      "inda": 3130,
      "indexer": 3131,
      "Ġtechin": 3132,
      "dist": 3133,
      "Ġzloy": 3134,
      "Ġzala": 3135,
      "Ġzonito": 3136,
      "Ġzerol": 3137,
      "Ġ8771": 3138,
      "Ġ8775": 3139,
      "217": 3140,
      "component": 3141,
      "tio": 3142,
      "Ġ11803": 3143,
      "Ġ11851": 3144,
      "Ġ11849": 3145,
      "Ġ11850": 3146,
      "Ġ11842": 3147,
      "Ġ11845": 3148,
      "Ġnoklam": 3149,
      "302": 3150,
      "3024": 3151,
      "line": 3152,
      "linha": 3153,
      "Ġdevxb": 3154,
      "Ġappl": 3155,
      "Ġapache": 3156,
      "Ġgoorm": 3157,
      "173": 3158,
      "service": 3159,
      "Ġchu": 3160,
      "366": 3161,
      "369": 3162,
      "shq": 3163,
      "tolog": 3164,
      "Ġ11250": 3165,
      "Ġ11269": 3166,
      "Ġ11266": 3167,
      "Ġ5178": 3168,
      "Ġ6027": 3169,
      "Ġ9905": 3170,
      "ipython": 3171,
      "Ġxpko": 3172,
      "Ġxemul": 3173,
      "Ġimport": 3174,
      "Ġplxity": 3175,
      "Ġframew": 3176,
      "Ġ1254": 3177,
      "Ġyanvug": 3178,
      "Ġyooash": 3179,
      "Ġblocker": 3180,
      "Ġ5309": 3181,
      "Ġ1195": 3182,
      "ekeep": 3183,
      "Ġ83512": 3184,
      "Ġ83564": 3185,
      "Ġ83567": 3186,
      "Ġ83530": 3187,
      "Ġ83563": 3188,
      "Ġ83583": 3189,
      "Ġ83557": 3190,
      "Ġresour": 3191,
      "Ġupptim": 3192,
      "Ġ7622": 3193,
      "Ġ810": 3194,
      "askerl": 3195,
      "Ġ10178": 3196,
      "Ġ170790": 3197,
      "urement": 3198,
      "Ġ902": 3199,
      "Ġroji": 3200,
      "kingdom": 3201,
      "Ġeuf": 3202,
      "Ġejw": 3203,
      "Ġtheme": 3204,
      "Ġthemask": 3205,
      "Ġ1173": 3206,
      "Ġ1177": 3207,
      "Ġ14124": 3208,
      "Ġ141397": 3209,
      "Ġ15705": 3210,
      "Ġ1892": 3211,
      "Ġ2782": 3212,
      "Ġ27894": 3213,
      "Ġ27887": 3214,
      "academy": 3215,
      "ukm": 3216,
      "ĠðŁĶĿ.": 3217,
      "plugins": 3218,
      "login": 3219,
      "Ġ885": 3220,
      "Ġarch": 3221,
      "Ġargus": 3222,
      "Ġmogyu": 3223,
      "Ġ9367": 3224,
      "generator": 3225,
      "annot": 3226,
      "Ġ9604": 3227,
      "ialiap": 3228,
      "Ġ1585": 3229,
      "Ġ15821": 3230,
      "Ġ2218": 3231,
      "Ġê³": 3232,
      "iftfid": 3233,
      "subtask": 3234,
      "Ġflatpak": 3235,
      "Ġflavour": 3236,
      "Ġ15664": 3237,
      "Ġ15667": 3238,
      "Ġ24568": 3239,
      "Ġ24551": 3240,
      "Ġinfinit": 3241,
      "Ġ3140": 3242,
      "Ġ31451": 3243,
      "Ġalexpensify": 3244,
      "Ġreproducible": 3245,
      "aoui": 3246,
      "ourap": 3247,
      "parspe": 3248,
      "quasar": 3249,
      "runner": 3250,
      "sgf": 3251,
      "sgv": 3252,
      "sgoosen": 3253,
      "yanf": 3254,
      "yanaray": 3255,
      "Ġkiminni": 3256,
      "Ġmariano": 3257,
      "ooner": 3258,
      "Ġontolog": 3259,
      "Ġinventory": 3260,
      "validation": 3261,
      "brendel": 3262,
      "Ġuser": 3263,
      "Ġdanielbrendel": 3264,
      "Ġ4399": 3265,
      "Ġ65108": 3266,
      "Ġ83466": 3267,
      "Ġ12311": 3268,
      "Ġskipped": 3269,
      "Ġ2058": 3270,
      "Ġ174384": 3271,
      "Ġinterfa": 3272,
      "Ġ27551": 3273,
      "needs": 3274,
      "Ġâľħ": 3275,
      "blee": 3276,
      "faq": 3277,
      "hki": 3278,
      "ivity": 3279,
      "relic": 3280,
      "Ġblakekaufman": 3281,
      "Ġ62736": 3282,
      "Ġ8790": 3283,
      "Ġ8793": 3284,
      "Ġandrew": 3285,
      "Ġdevelopment": 3286,
      "neywht": 3287,
      "Ġcodegen": 3288,
      "cdn": 3289,
      "notices": 3290,
      "owo": 3291,
      "Ġurmas": 3292,
      "Ġcheap": 3293,
      "Ġ5526": 3294,
      "Ġstandards": 3295,
      "Ġ9121": 3296,
      "Ġswiftfid": 3297,
      "Ġsubsection": 3298,
      "Ġ28197": 3299,
      "Ġ170773": 3300,
      "Ġvasilhristov": 3301,
      "Ġ75379": 3302,
      "Ġnotebooks": 3303,
      "Ġcomplete": 3304,
      "nightly": 3305,
      "Ġaccepted": 3306,
      "bulkcud": 3307,
      "iii": 3308,
      "mona": 3309,
      "mono": 3310,
      "takagi": 3311,
      "Ġ28241": 3312,
      "Ġ28243": 3313,
      "Ġ24553": 3314,
      "Ġ24554": 3315,
      "Ġinstalling": 3316,
      "Ġauthor": 3317,
      "Ġcours": 3318,
      "Ġcourse": 3319,
      "aabaoui": 3320,
      "candidates": 3321,
      "hire": 3322,
      "marinda": 3323,
      "priority": 3324,
      "rinabuck": 3325,
      "webhook": 3326,
      "Ġestat": 3327,
      "Ġulisesgas": 3328,
      "Ġlaunch": 3329,
      "Ġobec": 3330,
      "Ġoffice": 3331,
      "Ġcpap": 3332,
      "Ġcarlinha": 3333,
      "Ġtextpad": 3334,
      "Ġdebugging": 3335,
      "Ġ4380": 3336,
      "Ġbcrhp": 3337,
      "Ġ5141": 3338,
      "Ġmetadata": 3339,
      "Ġ84989": 3340,
      "Ġstorage": 3341,
      "Ġjmadden": 3342,
      "Ġjackett": 3343,
      "Ġjakaskerl": 3344,
      "Ġahdram": 3345,
      "Ġactivity": 3346,
      "Ġ96955": 3347,
      "Ġsabrinabuck": 3348,
      "Ġsonialiap": 3349,
      "Ġsuryanaray": 3350,
      "Ġ16764": 3351,
      "coding": 3352,
      "fferhoff": 3353,
      "Ġprocurement": 3354,
      "flake": 3355,
      "reddit": 3356,
      "handler": 3357,
      "Ġwhitneywht": 3358,
      "ĠðŁĳ©ðŁı»": 3359,
      "Ġmodel": 3360,
      "flowise": 3361,
      "bridge": 3362,
      "cloudflare": 3363,
      "fonts": 3364,
      "guru": 3365,
      "goodinng": 3366,
      "happys": 3367,
      "iptv": 3368,
      "java": 3369,
      "kubernet": 3370,
      "lzeng": 3371,
      "password": 3372,
      "phere": 3373,
      "rendering": 3374,
      "villem": 3375,
      "voallan": 3376,
      "wasm": 3377,
      "yusuf": 3378,
      "¸®åĬ©": 3379,
      "ºå¸®åĬ©": 3380,
      "åĮºå¸®åĬ©": 3381,
      "çĲĨä¸": 3382,
      "ç¤¾åĮºå¸®åĬ©": 3383,
      "Ġeloiii": 3384,
      "Ġç¬¬ä¸īæĸ": 3385,
      "Ġå¤ĦçĲĨä¸": 3386,
      "ĠéľĢè¦ģ": 3387,
      "Ġicyrelic": 3388,
      "Ġitsyourap": 3389,
      "Ġunreleased": 3390,
      "enfirer": 3391,
      "Ġlonyrd": 3392,
      "Ġlibreddit": 3393,
      "Ġhomelab": 3394,
      "Ġhousekeep": 3395,
      "Ġotakusan": 3396,
      "Ġcashline": 3397,
      "Ġtrivoallan": 3398,
      "Ġtensorflo": 3399,
      "Ġdanbs": 3400,
      "Ġdomain": 3401,
      "Ġdancearad": 3402,
      "Ġdivyansh": 3403,
      "Ġddanbs": 3404,
      "Ġdecided": 3405,
      "Ġburakse": 3406,
      "Ġbferguso": 3407,
      "integration": 3408,
      "instbased": 3409,
      "Ġ6526": 3410,
      "Ġ6127": 3411,
      "eraliqb": 3412,
      "Ġmentor": 3413,
      "Ġmaresb": 3414,
      "Ġmchaabaoui": 3415,
      "Ġmusa": 3416,
      "Ġparishq": 3417,
      "Ġpunted": 3418,
      "Ġstevegtaylor": 3419,
      "Ġjorisgoosen": 3420,
      "Ġjacoblee": 3421,
      "Ġadeas": 3422,
      "Ġamina": 3423,
      "available": 3424,
      "Ġflachalesea": 3425,
      "Ġfilmaj": 3426,
      "Ġenitrat": 3427,
      "Ġsandy": 3428,
      "Ġspypy": 3429,
      "Ġnexus": 3430,
      "Ġnetsphere": 3431,
      "Ġraphire": 3432,
      "Ġ22658": 3433,
      "Ġgluons": 3434,
      "Ġguacamole": 3435,
      "Ġwvproxy": 3436,
      "Ġ21356": 3437,
      "address": 3438,
      "Ġnebulance": 3439,
      "Ġvirtio": 3440,
      "Ġvsenderov": 3441,
      "Ġ33381": 3442,
      "Ġkostyanf": 3443,
      "Ġkoetse": 3444,
      "Ġkaisiq": 3445,
      "Ġkaisoz": 3446,
      "Ġkillenb": 3447,
      "Ġkokocon": 3448,
      "Ġ25974": 3449,
      "Ġ30360": 3450,
      "Ġ29690": 3451,
      "Ġrensdofferhoff": 3452,
      "Ġ36593": 3453,
      "Ġneedinfo": 3454,
      "agenmakers": 3455,
      "Ġexperience": 3456,
      "Ġ37058": 3457,
      "Ġ54615": 3458,
      "Ġadnanyusuf": 3459,
      "Ġzloyden": 3460,
      "Ġzalacop": 3461,
      "Ġzerollzeng": 3462,
      "Ġxpkoala": 3463,
      "Ġframework": 3464,
      "Ġyanvugenfirer": 3465,
      "Ġyooashu": 3466,
      "Ġresource": 3467,
      "Ġupptime": 3468,
      "Ġeufonie": 3469,
      "Ġejwagenmakers": 3470,
      "Ġmogyuchi": 3471,
      "Ġinfinitte": 3472,
      "parspec": 3473,
      "Ġontologies": 3474,
      "Ġinterface": 3475,
      "Ġswiftfiddle": 3476,
      "Ġvasilhristovdev": 3477,
      "Ġulisesgascon": 3478,
      "Ġahdrameraliqb": 3479,
      "Ġsabrinabuckets": 3480,
      "Ġsuryanarayanay": 3481,
      "Ġwhitneywhtsang": 3482,
      "ĠðŁĳ©ðŁı»âĢįðŁĴ».": 3483,
      "happysooner": 3484,
      "kubernetes": 3485,
      "Ġç¬¬ä¸īæĸ¹": 3486,
      "Ġå¤ĦçĲĨä¸Ń": 3487,
      "ĠéľĢè¦ģç¤¾åĮºå¸®åĬ©": 3488,
      "Ġhousekeeping": 3489,
      "Ġtensorflower": 3490,
      "Ġdancearadu": 3491,
      "Ġburaksezer": 3492,
      "!)": 3493,
      "!.": 3494,
      "),": 3495,
      "021": 3496,
      "108": 3497,
      "107": 3498,
      "131": 3499,
      "1005": 3500,
      "4000": 3501,
      "578": 3502,
      "588": 3503,
      "856": 3504,
      "979": 3505,
      "906": 3506,
      "967": 3507,
      "::": 3508,
      "?.": 3509,
      "ax": 3510,
      "alo": 3511,
      "aul": 3512,
      "aus": 3513,
      "aig": 3514,
      "aust": 3515,
      "aib": 3516,
      "aiz": 3517,
      "achb": 3518,
      "bi": 3519,
      "bue": 3520,
      "bri": 3521,
      "bit": 3522,
      "byt": 3523,
      "bak": 3524,
      "big": 3525,
      "bley": 3526,
      "bility": 3527,
      "bha": 3528,
      "biz": 3529,
      "branch": 3530,
      "beta": 3531,
      "beet": 3532,
      "balp": 3533,
      "bump": 3534,
      "borg": 3535,
      "bbl": 3536,
      "break": 3537,
      "cx": 3538,
      "ced": 3539,
      "can": 3540,
      "cut": 3541,
      "cap": 3542,
      "cus": 3543,
      "cant": 3544,
      "chang": 3545,
      "cau": 3546,
      "cpr": 3547,
      "cask": 3548,
      "cdk": 3549,
      "change": 3550,
      "ccl": 3551,
      "cover": 3552,
      "cott": 3553,
      "carg": 3554,
      "dj": 3555,
      "dl": 3556,
      "das": 3557,
      "dat": 3558,
      "dhan": 3559,
      "dar": 3560,
      "dub": 3561,
      "dgu": 3562,
      "dering": 3563,
      "dpar": 3564,
      "duplic": 3565,
      "dlib": 3566,
      "eh": 3567,
      "eon": 3568,
      "ein": 3569,
      "ement": 3570,
      "eal": 3571,
      "ege": 3572,
      "eut": 3573,
      "ead": 3574,
      "eag": 3575,
      "eff": 3576,
      "eoffi": 3577,
      "fc": 3578,
      "fx": 3579,
      "fed": 3580,
      "fen": 3581,
      "fan": 3582,
      "fin": 3583,
      "fro": 3584,
      "fut": 3585,
      "fli": 3586,
      "fco": 3587,
      "fort": 3588,
      "fedi": 3589,
      "fig": 3590,
      "ferr": 3591,
      "fish": 3592,
      "finit": 3593,
      "fnot": 3594,
      "file": 3595,
      "famil": 3596,
      "field": 3597,
      "feli": 3598,
      "gh": 3599,
      "gl": 3600,
      "gro": 3601,
      "gte": 3602,
      "gau": 3603,
      "gart": 3604,
      "game": 3605,
      "gory": 3606,
      "gsu": 3607,
      "gold": 3608,
      "hent": 3609,
      "had": 3610,
      "hau": 3611,
      "hys": 3612,
      "hole": 3613,
      "hund": 3614,
      "iw": 3615,
      "ied": 3616,
      "iab": 3617,
      "iin": 3618,
      "ick": 3619,
      "iro": 3620,
      "iak": 3621,
      "iale": 3622,
      "iuk": 3623,
      "ijs": 3624,
      "iji": 3625,
      "iara": 3626,
      "iekoetter": 3627,
      "ja": 3628,
      "jh": 3629,
      "jes": 3630,
      "jin": 3631,
      "jer": 3632,
      "jad": 3633,
      "jos": 3634,
      "ject": 3635,
      "jik": 3636,
      "jjs": 3637,
      "jule": 3638,
      "jku": 3639,
      "jabas": 3640,
      "ke": 3641,
      "km": 3642,
      "kat": 3643,
      "kation": 3644,
      "kra": 3645,
      "kma": 3646,
      "kau": 3647,
      "kac": 3648,
      "key": 3649,
      "kott": 3650,
      "know": 3651,
      "kuuuu": 3652,
      "khys": 3653,
      "len": 3654,
      "lab": 3655,
      "lav": 3656,
      "let": 3657,
      "land": 3658,
      "lve": 3659,
      "less": 3660,
      "lang": 3661,
      "luk": 3662,
      "lstar": 3663,
      "lhau": 3664,
      "mk": 3665,
      "mn": 3666,
      "mp": 3667,
      "mer": 3668,
      "met": 3669,
      "mov": 3670,
      "map": 3671,
      "mgr": 3672,
      "mata": 3673,
      "match": 3674,
      "mark": 3675,
      "mour": 3676,
      "moz": 3677,
      "mpli": 3678,
      "mrand": 3679,
      "nr": 3680,
      "nu": 3681,
      "ny": 3682,
      "ned": 3683,
      "nel": 3684,
      "nat": 3685,
      "nav": 3686,
      "nom": 3687,
      "nut": 3688,
      "ngr": 3689,
      "nyt": 3690,
      "nem": 3691,
      "ndi": 3692,
      "npr": 3693,
      "ners": 3694,
      "nth": 3695,
      "nlib": 3696,
      "oul": 3697,
      "obr": 3698,
      "oxx": 3699,
      "pv": 3700,
      "pas": 3701,
      "ppen": 3702,
      "pin": 3703,
      "phan": 3704,
      "ping": 3705,
      "pot": 3706,
      "ppl": 3707,
      "pol": 3708,
      "python": 3709,
      "pos": 3710,
      "pip": 3711,
      "post": 3712,
      "pala": 3713,
      "paul": 3714,
      "qvi": 3715,
      "rc": 3716,
      "rlo": 3717,
      "rer": 3718,
      "rav": 3719,
      "rub": 3720,
      "rain": 3721,
      "rla": 3722,
      "rule": 3723,
      "restore": 3724,
      "rkma": 3725,
      "sa": 3726,
      "sm": 3727,
      "so": 3728,
      "sst": 3729,
      "sor": 3730,
      "set": 3731,
      "say": 3732,
      "ssh": 3733,
      "sdev": 3734,
      "sof": 3735,
      "sui": 3736,
      "support": 3737,
      "sql": 3738,
      "session": 3739,
      "sexpensify": 3740,
      "slet": 3741,
      "tor": 3742,
      "tro": 3743,
      "tam": 3744,
      "tus": 3745,
      "tra": 3746,
      "tran": 3747,
      "turl": 3748,
      "trun": 3749,
      "taj": 3750,
      "track": 3751,
      "tware": 3752,
      "tabl": 3753,
      "used": 3754,
      "uan": 3755,
      "uar": 3756,
      "uit": 3757,
      "uov": 3758,
      "uis": 3759,
      "uard": 3760,
      "ujan": 3761,
      "uare": 3762,
      "ufa": 3763,
      "ucik": 3764,
      "ven": 3765,
      "vst": 3766,
      "vang": 3767,
      "vices": 3768,
      "vestig": 3769,
      "wil": 3770,
      "ward": 3771,
      "wol": 3772,
      "wale": 3773,
      "wart": 3774,
      "window": 3775,
      "wep": 3776,
      "wald": 3777,
      "xc": 3778,
      "xone": 3779,
      "xim": 3780,
      "xper": 3781,
      "xao": 3782,
      "xiji": 3783,
      "yc": 3784,
      "yl": 3785,
      "yun": 3786,
      "yet": 3787,
      "yem": 3788,
      "yuc": 3789,
      "yung": 3790,
      "yjy": 3791,
      "ysis": 3792,
      "ycle": 3793,
      "zm": 3794,
      "zo": 3795,
      "zas": 3796,
      "zar": 3797,
      "zul": 3798,
      "zov": 3799,
      "zvi": 3800,
      "zori": 3801,
      "zyn": 3802,
      "zik": 3803,
      "zuk": 3804,
      "zni": 3805,
      "zhk": 3806,
      "zevic": 3807,
      "¤ë": 3808,
      "¤Ģ": 3809,
      "¥Ĺ": 3810,
      "¥ĺ": 3811,
      "¨âĢįðŁĴ».": 3812,
      "¨ëĵľ": 3813,
      "©´": 3814,
      "©ç": 3815,
      "©cl": 3816,
      "ªå": 3817,
      "ªï¸ı": 3818,
      "¬ãĥ": 3819,
      "¯¼": 3820,
      "°±": 3821,
      "³ªå": 3822,
      "µĮ": 3823,
      "µľ": 3824,
      "¸Ī": 3825,
      "¸ìĹ": 3826,
      "»ï¸ı": 3827,
      "¼.": 3828,
      "¼ãĥ": 3829,
      "½ĳ": 3830,
      "½ë¡": 3831,
      "Ã©cl": 3832,
      "Ð°": 3833,
      "Ðº": 3834,
      "ÑĢ": 3835,
      "Ñģ": 3836,
      "æĹ": 3837,
      "æ¸Ī": 3838,
      "çµĮ": 3839,
      "ç½ĳ": 3840,
      "è³ªå": 3841,
      "ëĭ": 3842,
      "ë©´": 3843,
      "ìŀ": 3844,
      "ìĦľ": 3845,
      "ì¤Ģ": 3846,
      "íĬ": 3847,
      "Ġ_": 3848,
      "Ġu": 3849,
      "Ġas": 3850,
      "Ġsign": 3851,
      "Ġel": 3852,
      "Ġer": 3853,
      "Ġque": 3854,
      "Ġem": 3855,
      "Ġess": 3856,
      "Ġust": 3857,
      "Ġang": 3858,
      "Ġuk": 3859,
      "Ġasync": 3860,
      "Ġeld": 3861,
      "Ġ?.": 3862,
      "ĠæĹ": 3863,
      "ĠçµĮ": 3864,
      "Ġè³ªå": 3865,
      "ĢíĨ": 3866,
      "ĤŃ": 3867,
      "ĥðŁı": 3868,
      "Ħë¡": 3869,
      "Ħłì": 3870,
      "ĦìĪĺ": 3871,
      "Ĭ.": 3872,
      "İ¨": 3873,
      "Ķį": 3874,
      "Ķì²": 3875,
      "Ķëĵľ": 3876,
      "Ķë©´": 3877,
      "ĶĦë¡": 3878,
      "ķı": 3879,
      "ķĦìĪĺ": 3880,
      "ĺ¤ë": 3881,
      "Ļ»ï¸ı": 3882,
      "ĻĶë©´": 3883,
      "ļĶì²": 3884,
      "Ľħ": 3885,
      "Ľç½ĳ": 3886,
      "Ŀãĥ": 3887,
      "łíĬ": 3888,
      "ŃĲ": 3889,
      "ŃĽç½ĳ": 3890,
      "Ġidi": 3891,
      "Ġiru": 3892,
      "Ġigor": 3893,
      "Ġibalp": 3894,
      "Ġifco": 3895,
      "Ġijjs": 3896,
      "Ġivang": 3897,
      "Ġisad": 3898,
      "ason": 3899,
      "asst": 3900,
      "asyn": 3901,
      "astm": 3902,
      "asiak": 3903,
      "Ġits": 3904,
      "eda": 3905,
      "edyt": 3906,
      "sino": 3907,
      "sitool": 3908,
      "sibility": 3909,
      "silve": 3910,
      "simpli": 3911,
      "singr": 3912,
      "ueri": 3913,
      "una": 3914,
      "une": 3915,
      "unar": 3916,
      "unter": 3917,
      "unuri": 3918,
      "unwoon": 3919,
      "Ġunex": 3920,
      "Ġunver": 3921,
      "Ġunrel": 3922,
      "Ġunapproved": 3923,
      "Ġunknow": 3924,
      "ena": 3925,
      "enh": 3926,
      "enon": 3927,
      "enfix": 3928,
      "enry": 3929,
      "encod": 3930,
      "enich": 3931,
      "ennyt": 3932,
      "enxiji": 3933,
      "pensh": 3934,
      "Ġlat": 3935,
      "Ġline": 3936,
      "Ġliz": 3937,
      "Ġlayer": 3938,
      "Ġlsz": 3939,
      "Ġlastm": 3940,
      "Ġlunar": 3941,
      "Ġhoo": 3942,
      "Ġhot": 3943,
      "Ġhedi": 3944,
      "Ġhtm": 3945,
      "Ġhamil": 3946,
      "Ġhair": 3947,
      "Ġhkau": 3948,
      "Ġhyem": 3949,
      "Ġhenry": 3950,
      "elcom": 3951,
      "eline": 3952,
      "elman": 3953,
      "elru": 3954,
      "element": 3955,
      "abin": 3956,
      "abor": 3957,
      "Ġoe": 3958,
      "Ġof": 3959,
      "Ġoli": 3960,
      "Ġops": 3961,
      "Ġoham": 3962,
      "Ġoptim": 3963,
      "Ġohad": 3964,
      "Ġoppen": 3965,
      "Ġopenga": 3966,
      "Ġcg": 3967,
      "Ġcate": 3968,
      "Ġcub": 3969,
      "Ġcic": 3970,
      "Ġcgr": 3971,
      "Ġcos": 3972,
      "Ġcss": 3973,
      "Ġcran": 3974,
      "Ġcla": 3975,
      "Ġcpan": 3976,
      "Ġcreb": 3977,
      "Ġcdg": 3978,
      "Ġcandid": 3979,
      "Ġcamil": 3980,
      "Ġcdr": 3981,
      "Ġcross": 3982,
      "Ġcover": 3983,
      "Ġcbiz": 3984,
      "Ġctro": 3985,
      "Ġcxone": 3986,
      "Ġcycle": 3987,
      "low": 3988,
      "lock": 3989,
      "loss": 3990,
      "lobr": 3991,
      "loja": 3992,
      "loke": 3993,
      "Ġcloudflare": 3994,
      "Ġtgr": 3995,
      "Ġtim": 3996,
      "Ġtabl": 3997,
      "Ġtaig": 3998,
      "Ġtbak": 3999,
      "Ġtdj": 4000,
      "Ġtiekoetter": 4001,
      "Ġtluk": 4002,
      "Ġtppl": 4003,
      "Ġtrain": 4004,
      "esch": 4005,
      "esos": 4006,
      "essing": 4007,
      "esexpensify": 4008,
      "essibility": 4009,
      "Ġtodo": 4010,
      "Ġdb": 4011,
      "Ġdon": 4012,
      "Ġdad": 4013,
      "Ġdch": 4014,
      "Ġdot": 4015,
      "Ġdig": 4016,
      "Ġdsh": 4017,
      "Ġdash": 4018,
      "Ġdib": 4019,
      "Ġdann": 4020,
      "Ġdht": 4021,
      "Ġdcant": 4022,
      "Ġdfed": 4023,
      "Ġdxc": 4024,
      "ĠdÃ©cl": 4025,
      "Ġdeps": 4026,
      "Ġdeploy": 4027,
      "Ġdefinit": 4028,
      "Ġdejku": 4029,
      "cios": 4030,
      "cing": 4031,
      "atug": 4032,
      "ating": 4033,
      "atam": 4034,
      "atix": 4035,
      "atra": 4036,
      "atelev": 4037,
      "attle": 4038,
      "atzori": 4039,
      "Ġ435": 4040,
      "Ġ403": 4041,
      "Ġ405": 4042,
      "Ġ409": 4043,
      "Ġ456": 4044,
      "Ġ404": 4045,
      "Ġ431": 4046,
      "Ġ434": 4047,
      "Ġ437": 4048,
      "Ġ436": 4049,
      "onst": 4050,
      "ondev": 4051,
      "oncan": 4052,
      "anch": 4053,
      "anot": 4054,
      "anche": 4055,
      "anjad": 4056,
      "anatzori": 4057,
      "status": 4058,
      "stone": 4059,
      "stale": 4060,
      "start": 4061,
      "stencod": 4062,
      "Ġbin": 4063,
      "Ġbri": 4064,
      "Ġbch": 4065,
      "Ġbex": 4066,
      "Ġbatch": 4067,
      "Ġbah": 4068,
      "Ġbert": 4069,
      "Ġbog": 4070,
      "Ġbrun": 4071,
      "Ġbill": 4072,
      "Ġbgsu": 4073,
      "Ġbattle": 4074,
      "ina": 4075,
      "ini": 4076,
      "ink": 4077,
      "inar": 4078,
      "inad": 4079,
      "inter": 4080,
      "iness": 4081,
      "inity": 4082,
      "inev": 4083,
      "into": 4084,
      "inated": 4085,
      "inski": 4086,
      "infr": 4087,
      "inka": 4088,
      "inema": 4089,
      "inned": 4090,
      "investig": 4091,
      "inwale": 4092,
      "Ġ535": 4093,
      "Ġ524": 4094,
      "Ġ505": 4095,
      "Ġ512": 4096,
      "Ġ509": 4097,
      "Ġ531": 4098,
      "Ġ527": 4099,
      "Ġ521": 4100,
      "Ġ532": 4101,
      "Ġ530": 4102,
      "Ġ516": 4103,
      "Ġ588": 4104,
      "Ġ5384": 4105,
      "Ġ5343": 4106,
      "Ġ600": 4107,
      "Ġ668": 4108,
      "Ġ611": 4109,
      "Ġ624": 4110,
      "Ġ609": 4111,
      "Ġ606": 4112,
      "Ġ628": 4113,
      "Ġ614": 4114,
      "Ġ638": 4115,
      "Ġ634": 4116,
      "Ġ637": 4117,
      "Ġ621": 4118,
      "Ġ630": 4119,
      "Ġ655": 4120,
      "Ġ687": 4121,
      "Ġ671": 4122,
      "Ġ686": 4123,
      "Ġ633": 4124,
      "Ġ6000": 4125,
      "erm": 4126,
      "ervi": 4127,
      "erguard": 4128,
      "eruk": 4129,
      "ernan": 4130,
      "ernel": 4131,
      "erven": 4132,
      "erzul": 4133,
      "rew": 4134,
      "rex": 4135,
      "retriage": 4136,
      "regression": 4137,
      "regte": 4138,
      "Ġ778": 4139,
      "Ġ751": 4140,
      "Ġ739": 4141,
      "Ġ705": 4142,
      "Ġ728": 4143,
      "Ġ723": 4144,
      "Ġ738": 4145,
      "Ġ727": 4146,
      "Ġ737": 4147,
      "Ġ744": 4148,
      "Ġ764": 4149,
      "Ġ787": 4150,
      "Ġ716": 4151,
      "Ġ717": 4152,
      "Ġ769": 4153,
      "risi": 4154,
      "risk": 4155,
      "richb": 4156,
      "ribut": 4157,
      "rizvi": 4158,
      "Ġmg": 4159,
      "Ġmam": 4160,
      "Ġmate": 4161,
      "Ġmis": 4162,
      "Ġmic": 4163,
      "Ġmand": 4164,
      "Ġmap": 4165,
      "Ġmur": 4166,
      "Ġmuri": 4167,
      "Ġmins": 4168,
      "Ġmna": 4169,
      "Ġmsy": 4170,
      "Ġmgre": 4171,
      "Ġmkle": 4172,
      "Ġmalt": 4173,
      "Ġmult": 4174,
      "Ġmjabas": 4175,
      "Ġmlhau": 4176,
      "Ġmpv": 4177,
      "Ġmtrun": 4178,
      "Ġpi": 4179,
      "Ġpub": 4180,
      "Ġpand": 4181,
      "Ġpap": 4182,
      "Ġport": 4183,
      "Ġpra": 4184,
      "Ġpost": 4185,
      "Ġpart": 4186,
      "Ġpaw": 4187,
      "Ġpages": 4188,
      "Ġpax": 4189,
      "Ġpcx": 4190,
      "Ġpgau": 4191,
      "Ġpujan": 4192,
      "Ġpinned": 4193,
      "Ġ852": 4194,
      "Ġ851": 4195,
      "Ġ811": 4196,
      "Ġ824": 4197,
      "Ġ806": 4198,
      "Ġ828": 4199,
      "Ġ814": 4200,
      "Ġ897": 4201,
      "Ġ832": 4202,
      "Ġ830": 4203,
      "Ġ855": 4204,
      "Ġ887": 4205,
      "Ġ829": 4206,
      "Ġ848": 4207,
      "Ġ826": 4208,
      "Ġ8091": 4209,
      "Ġstit": 4210,
      "Ġstart": 4211,
      "Ġstyle": 4212,
      "Ġstdlib": 4213,
      "Ġstjos": 4214,
      "Ġjs": 4215,
      "Ġjan": 4216,
      "Ġjor": 4217,
      "Ġjay": 4218,
      "Ġjek": 4219,
      "Ġjdk": 4220,
      "Ġjung": 4221,
      "Ġjpray": 4222,
      "Ġjbue": 4223,
      "Ġjdub": 4224,
      "Ġjeff": 4225,
      "Ġjfeli": 4226,
      "Ġjtor": 4227,
      "Ġjuan": 4228,
      "Ġjvst": 4229,
      "Ġjyjy": 4230,
      "Ġjason": 4231,
      "Ġjennyt": 4232,
      "Ġaent": 4233,
      "Ġaor": 4234,
      "Ġaro": 4235,
      "Ġali": 4236,
      "Ġaly": 4237,
      "Ġaome": 4238,
      "Ġacl": 4239,
      "Ġaken": 4240,
      "Ġacc": 4241,
      "Ġafan": 4242,
      "Ġazas": 4243,
      "Ġaregte": 4244,
      "ents": 4245,
      "entity": 4246,
      "entry": 4247,
      "entxx": 4248,
      "Ġ978": 4249,
      "Ġ908": 4250,
      "Ġ951": 4251,
      "Ġ924": 4252,
      "Ġ939": 4253,
      "Ġ907": 4254,
      "Ġ909": 4255,
      "Ġ906": 4256,
      "Ġ997": 4257,
      "Ġ937": 4258,
      "Ġ967": 4259,
      "Ġ932": 4260,
      "Ġ955": 4261,
      "Ġ916": 4262,
      "Ġ991": 4263,
      "Ġ917": 4264,
      "Ġ941": 4265,
      "Ġ963": 4266,
      "Ġ926": 4267,
      "Ġ962": 4268,
      "Ġ972": 4269,
      "Ġ9369": 4270,
      "Ġ106": 4271,
      "Ġ1051": 4272,
      "Ġ1011": 4273,
      "Ġ1024": 4274,
      "Ġ1039": 4275,
      "Ġ1005": 4276,
      "Ġ1012": 4277,
      "Ġ1009": 4278,
      "Ġ1064": 4279,
      "Ġ1067": 4280,
      "Ġ1021": 4281,
      "Ġ1091": 4282,
      "Ġ1041": 4283,
      "Ġ1063": 4284,
      "Ġ1045": 4285,
      "Ġ1026": 4286,
      "Ġ1062": 4287,
      "Ġ10441": 4288,
      "Ġ10789": 4289,
      "Ġ10397": 4290,
      "Ġ10972": 4291,
      "Ġ10971": 4292,
      "Ġ10343": 4293,
      "cki": 4294,
      "cks": 4295,
      "ckcash": 4296,
      "oru": 4297,
      "orking": 4298,
      "oraw": 4299,
      "organis": 4300,
      "illi": 4301,
      "ilip": 4302,
      "ildu": 4303,
      "cept": 4304,
      "Ġ116": 4305,
      "Ġ1100": 4306,
      "Ġ1101": 4307,
      "Ġ1111": 4308,
      "Ġ1124": 4309,
      "Ġ1156": 4310,
      "Ġ1106": 4311,
      "Ġ1128": 4312,
      "Ġ1138": 4313,
      "Ġ1127": 4314,
      "Ġ1161": 4315,
      "Ġ1194": 4316,
      "Ġ1132": 4317,
      "Ġ1130": 4318,
      "Ġ1149": 4319,
      "Ġ1136": 4320,
      "Ġ1150": 4321,
      "Ġ1147": 4322,
      "Ġ1169": 4323,
      "Ġ1141": 4324,
      "Ġ1163": 4325,
      "Ġ11781": 4326,
      "Ġ11377": 4327,
      "ional": 4328,
      "ionai": 4329,
      "avv": 4330,
      "avy": 4331,
      "aval": 4332,
      "avers": 4333,
      "ared": 4334,
      "aring": 4335,
      "aral": 4336,
      "arpe": 4337,
      "aram": 4338,
      "ardo": 4339,
      "aration": 4340,
      "arsh": 4341,
      "arma": 4342,
      "arme": 4343,
      "arunuri": 4344,
      "aratug": 4345,
      "arini": 4346,
      "Ġfet": 4347,
      "Ġfos": 4348,
      "Ġflam": 4349,
      "Ġfhi": 4350,
      "Ġfaust": 4351,
      "Ġfkra": 4352,
      "Ġfernan": 4353,
      "Ġfarunuri": 4354,
      "estim": 4355,
      "roof": 4356,
      "robot": 4357,
      "routing": 4358,
      "rosof": 4359,
      "Ġ1278": 4360,
      "Ġ1252": 4361,
      "Ġ1203": 4362,
      "Ġ1207": 4363,
      "Ġ1209": 4364,
      "Ġ1206": 4365,
      "Ġ1234": 4366,
      "Ġ1227": 4367,
      "Ġ1267": 4368,
      "Ġ1236": 4369,
      "Ġ1250": 4370,
      "Ġ1241": 4371,
      "Ġ1272": 4372,
      "Ġ1273": 4373,
      "Ġ1270": 4374,
      "Ġ1202": 4375,
      "Ġ12517": 4376,
      "Ġjavanot": 4377,
      "Ġench": 4378,
      "inger": 4379,
      "ingtool": 4380,
      "ington": 4381,
      "Ġsor": 4382,
      "Ġsch": 4383,
      "Ġsag": 4384,
      "Ġserge": 4385,
      "Ġsem": 4386,
      "Ġseb": 4387,
      "Ġsev": 4388,
      "Ġsss": 4389,
      "Ġsla": 4390,
      "Ġspon": 4391,
      "Ġsung": 4392,
      "Ġscas": 4393,
      "Ġsws": 4394,
      "Ġsga": 4395,
      "Ġsaab": 4396,
      "Ġssst": 4397,
      "Ġsunwoon": 4398,
      "Ġsrizvi": 4399,
      "Ġsaram": 4400,
      "Ġ1308": 4401,
      "Ġ1368": 4402,
      "Ġ1324": 4403,
      "Ġ1307": 4404,
      "Ġ1305": 4405,
      "Ġ1306": 4406,
      "Ġ1314": 4407,
      "Ġ1338": 4408,
      "Ġ1334": 4409,
      "Ġ1367": 4410,
      "Ġ1316": 4411,
      "Ġ1329": 4412,
      "Ġ1369": 4413,
      "Ġ1320": 4414,
      "Ġ1388": 4415,
      "Ġ1341": 4416,
      "Ġ1372": 4417,
      "Ġ1357": 4418,
      "Ġ1373": 4419,
      "Ġ1353": 4420,
      "Ġ1380": 4421,
      "Ġ1382": 4422,
      "Ġ13232": 4423,
      "itz": 4424,
      "itial": 4425,
      "Ġnone": 4426,
      "Ġnine": 4427,
      "Ġnsf": 4428,
      "Ġnuov": 4429,
      "Ġnyet": 4430,
      "Ġnatelev": 4431,
      "Ġnerzul": 4432,
      "Ġnaring": 4433,
      "ptish": 4434,
      "Ġ1452": 4435,
      "Ġ1411": 4436,
      "Ġ1424": 4437,
      "Ġ1456": 4438,
      "Ġ1406": 4439,
      "Ġ1414": 4440,
      "Ġ1427": 4441,
      "Ġ1494": 4442,
      "Ġ1491": 4443,
      "Ġ1441": 4444,
      "Ġ1426": 4445,
      "Ġ1433": 4446,
      "Ġ1459": 4447,
      "Ġ14971": 4448,
      "aling": 4449,
      "alch": 4450,
      "ally": 4451,
      "aller": 4452,
      "alcon": 4453,
      "alme": 4454,
      "almin": 4455,
      "aliv": 4456,
      "almer": 4457,
      "alysis": 4458,
      "Ġlove": 4459,
      "Ġlocal": 4460,
      "Ġlouis": 4461,
      "Ġlockcash": 4462,
      "Ġrlin": 4463,
      "Ġrint": 4464,
      "Ġraz": 4465,
      "Ġraj": 4466,
      "Ġrlr": 4467,
      "Ġrfc": 4468,
      "Ġ1551": 4469,
      "Ġ1511": 4470,
      "Ġ1505": 4471,
      "Ġ1512": 4472,
      "Ġ1528": 4473,
      "Ġ1534": 4474,
      "Ġ1529": 4475,
      "Ġ1553": 4476,
      "Ġ1596": 4477,
      "Ġ2268": 4478,
      "Ġ2203": 4479,
      "Ġ2211": 4480,
      "Ġ2224": 4481,
      "Ġ2205": 4482,
      "Ġ2227": 4483,
      "Ġ2255": 4484,
      "Ġ2250": 4485,
      "Ġ2247": 4486,
      "Ġ2286": 4487,
      "Ġ2259": 4488,
      "Ġ2270": 4489,
      "Ġ2260": 4490,
      "Ġgc": 4491,
      "Ġgrow": 4492,
      "Ġgust": 4493,
      "Ġgui": 4494,
      "Ġgrun": 4495,
      "Ġglass": 4496,
      "Ġghost": 4497,
      "Ġgeal": 4498,
      "Ġggl": 4499,
      "Ġgmrand": 4500,
      "Ġgrav": 4501,
      "Ġgyung": 4502,
      "Ġgaller": 4503,
      "oma": 4504,
      "omenz": 4505,
      "omasst": 4506,
      "omoru": 4507,
      "Ġ280": 4508,
      "Ġ283": 4509,
      "Ġ2835": 4510,
      "Ġ2803": 4511,
      "Ġ2834": 4512,
      "Ġ2849": 4513,
      "Ġ2842": 4514,
      "Ġ2848": 4515,
      "Ġ2865": 4516,
      "Ġ2898": 4517,
      "Ġ2896": 4518,
      "Ġ2895": 4519,
      "cture": 4520,
      "Ġ163": 4521,
      "Ġ1635": 4522,
      "Ġ1639": 4523,
      "Ġ1605": 4524,
      "Ġ1609": 4525,
      "Ġ1606": 4526,
      "Ġ1614": 4527,
      "Ġ1617": 4528,
      "Ġ1622": 4529,
      "Ġ1629": 4530,
      "Ġ1648": 4531,
      "Ġ1619": 4532,
      "Ġ1680": 4533,
      "peers": 4534,
      "Ġ208": 4535,
      "Ġ2001": 4536,
      "Ġ2008": 4537,
      "Ġ2068": 4538,
      "Ġ2005": 4539,
      "Ġ2097": 4540,
      "Ġ2037": 4541,
      "Ġ2061": 4542,
      "Ġ2069": 4543,
      "Ġ2071": 4544,
      "Ġ2088": 4545,
      "Ġ2025": 4546,
      "Ġ2057": 4547,
      "Ġ2015": 4548,
      "Ġ2082": 4549,
      "Ġ1878": 4550,
      "Ġ1808": 4551,
      "Ġ1876": 4552,
      "Ġ1891": 4553,
      "Ġ1850": 4554,
      "Ġ1820": 4555,
      "Ġ1857": 4556,
      "Ġ1815": 4557,
      "Ġ1889": 4558,
      "Ġ18516": 4559,
      "Ġ18792": 4560,
      "Ġ18347": 4561,
      "Ġ175": 4562,
      "Ġ176": 4563,
      "Ġ1708": 4564,
      "Ġ1711": 4565,
      "Ġ1724": 4566,
      "Ġ1756": 4567,
      "Ġ1721": 4568,
      "Ġ1747": 4569,
      "Ġ1742": 4570,
      "Ġ1772": 4571,
      "Ġ1725": 4572,
      "Ġ1789": 4573,
      "Ġ1760": 4574,
      "ami": 4575,
      "amused": 4576,
      "amaral": 4577,
      "Ġtyet": 4578,
      "Ġtyran": 4579,
      "Ġtyping": 4580,
      "Ġ196": 4581,
      "Ġ197": 4582,
      "Ġ1935": 4583,
      "Ġ1924": 4584,
      "Ġ1939": 4585,
      "Ġ1905": 4586,
      "Ġ1967": 4587,
      "Ġ1976": 4588,
      "Ġ1916": 4589,
      "Ġ1929": 4590,
      "Ġ1971": 4591,
      "Ġ1986": 4592,
      "Ġ1941": 4593,
      "Ġ1902": 4594,
      "Ġ240": 4595,
      "Ġ2401": 4596,
      "Ġ2468": 4597,
      "Ġ2405": 4598,
      "Ġ2428": 4599,
      "Ġ2427": 4600,
      "Ġ2471": 4601,
      "Ġ2460": 4602,
      "Ġ24906": 4603,
      "utmk": 4604,
      "Ġwg": 4605,
      "Ġwir": 4606,
      "Ġwork": 4607,
      "Ġwell": 4608,
      "Ġwarn": 4609,
      "Ġwsingr": 4610,
      "Ġwelcom": 4611,
      "Ġworking": 4612,
      "Ġwilli": 4613,
      "Ġ218": 4614,
      "Ġ2100": 4615,
      "Ġ2111": 4616,
      "Ġ2124": 4617,
      "Ġ2139": 4618,
      "Ġ2144": 4619,
      "Ġ2164": 4620,
      "Ġ2155": 4621,
      "Ġ2136": 4622,
      "Ġ2129": 4623,
      "Ġ21086": 4624,
      "Ġ21088": 4625,
      "adis": 4626,
      "adai": 4627,
      "cho": 4628,
      "ched": 4629,
      "chore": 4630,
      "chust": 4631,
      "chine": 4632,
      "chart": 4633,
      "chna": 4634,
      "Ġ233": 4635,
      "Ġ2323": 4636,
      "Ġ2367": 4637,
      "Ġ2349": 4638,
      "Ġ2369": 4639,
      "Ġ2388": 4640,
      "Ġ2345": 4641,
      "Ġ2362": 4642,
      "Ġ2333": 4643,
      "Ġ2359": 4644,
      "Ġ2389": 4645,
      "atetaylor": 4646,
      "queue": 4647,
      "Ġrevi": 4648,
      "Ġreactor": 4649,
      "Ġremain": 4650,
      "Ġrepli": 4651,
      "Ġregression": 4652,
      "Ġreferr": 4653,
      "Ġremov": 4654,
      "Ġreward": 4655,
      "Ġrealcon": 4656,
      "ulty": 4657,
      "exity": 4658,
      "exist": 4659,
      "etio": 4660,
      "etech": 4661,
      "etmap": 4662,
      "doyle": 4663,
      "dojes": 4664,
      "doalme": 4665,
      "hee": 4666,
      "heim": 4667,
      "heol": 4668,
      "heffer": 4669,
      "heiro": 4670,
      "heavy": 4671,
      "Ġingr": 4672,
      "Ġincl": 4673,
      "Ġinitial": 4674,
      "ovich": 4675,
      "ovinka": 4676,
      "ðŁĶį": 4677,
      "Ġvsk": 4678,
      "Ġvnext": 4679,
      "Ġvdan": 4680,
      "Ġvaib": 4681,
      "Ġvege": 4682,
      "Ġvkott": 4683,
      "isber": 4684,
      "Ġ318": 4685,
      "Ġ3107": 4686,
      "Ġ3116": 4687,
      "Ġ3186": 4688,
      "Ġ3188": 4689,
      "Ġ3163": 4690,
      "Ġ3145": 4691,
      "Ġ3181": 4692,
      "Ġ335": 4693,
      "Ġ3368": 4694,
      "Ġ3328": 4695,
      "Ġ3314": 4696,
      "Ġ3323": 4697,
      "Ġ3331": 4698,
      "Ġ3361": 4699,
      "Ġ3376": 4700,
      "Ġ3347": 4701,
      "Ġ3366": 4702,
      "Ġ3377": 4703,
      "Ġ3380": 4704,
      "Ġkon": 4705,
      "Ġkol": 4706,
      "Ġkata": 4707,
      "Ġkdet": 4708,
      "Ġkuu": 4709,
      "Ġkara": 4710,
      "Ġkwy": 4711,
      "Ġkkhys": 4712,
      "Ġknth": 4713,
      "Ġkwil": 4714,
      "Ġkeda": 4715,
      "Ġkernel": 4716,
      "Ġkaratug": 4717,
      "Ġkingtool": 4718,
      "Ġkatetaylor": 4719,
      "Ġ352": 4720,
      "Ġ355": 4721,
      "Ġ358": 4722,
      "Ġ3578": 4723,
      "Ġ3509": 4724,
      "Ġ3504": 4725,
      "Ġ3544": 4726,
      "Ġ3591": 4727,
      "Ġ3529": 4728,
      "Ġ3586": 4729,
      "Ġ3515": 4730,
      "Ġ3593": 4731,
      "ations": 4732,
      "Ġ2556": 4733,
      "Ġ2504": 4734,
      "Ġ2528": 4735,
      "Ġ2531": 4736,
      "Ġ2530": 4737,
      "Ġ2549": 4738,
      "Ġ2550": 4739,
      "Ġ2569": 4740,
      "Ġ2541": 4741,
      "Ġ2563": 4742,
      "Ġ2502": 4743,
      "Ġ2546": 4744,
      "Ġ303": 4745,
      "Ġ309": 4746,
      "Ġ3001": 4747,
      "Ġ3068": 4748,
      "Ġ3039": 4749,
      "Ġ3028": 4750,
      "Ġ3067": 4751,
      "Ġ3047": 4752,
      "Ġ3065": 4753,
      "Ġ3075": 4754,
      "Ġ3046": 4755,
      "Ġ343": 4756,
      "Ġ349": 4757,
      "Ġ3404": 4758,
      "Ġ3495": 4759,
      "Ġ3477": 4760,
      "deira": 4761,
      "debugg": 4762,
      "iron": 4763,
      "irdpar": 4764,
      "ubsz": 4765,
      "Ġ268": 4766,
      "Ġ269": 4767,
      "Ġ2661": 4768,
      "Ġ2663": 4769,
      "Ġ26792": 4770,
      "Ġ271": 4771,
      "Ġ274": 4772,
      "Ġ279": 4773,
      "Ġ2701": 4774,
      "Ġ2738": 4775,
      "Ġ2721": 4776,
      "Ġ2717": 4777,
      "ĠðŁĹ": 4778,
      "ĠðŁ¥Ĺ": 4779,
      "ĠðŁİ¨": 4780,
      "ics": 4781,
      "icu": 4782,
      "iculty": 4783,
      "Ġ294": 4784,
      "Ġ296": 4785,
      "Ġ2939": 4786,
      "Ġ2906": 4787,
      "Ġ2919": 4788,
      "Ġ2975": 4789,
      "Ġ322": 4790,
      "Ġ324": 4791,
      "Ġ326": 4792,
      "Ġ3238": 4793,
      "Ġ3216": 4794,
      "Ġ3265": 4795,
      "Ġ3226": 4796,
      "Ġ3280": 4797,
      "Ġ3246": 4798,
      "Ġ32856": 4799,
      "Ġrendering": 4800,
      "ander": 4801,
      "andrew": 4802,
      "occas": 4803,
      "ctionroof": 4804,
      "upin": 4805,
      "upane": 4806,
      "Ġ382": 4807,
      "Ġ383": 4808,
      "Ġ384": 4809,
      "Ġ387": 4810,
      "Ġ3801": 4811,
      "Ġ3852": 4812,
      "Ġ3897": 4813,
      "Ġ3822": 4814,
      "Ġ3898": 4815,
      "Ġ3884": 4816,
      "Ġ410": 4817,
      "Ġ411": 4818,
      "Ġ4111": 4819,
      "Ġ4197": 4820,
      "Ġ4186": 4821,
      "Ġ4125": 4822,
      "Ġ4195": 4823,
      "Ġ4160": 4824,
      "Ġ41588": 4825,
      "Ġ440": 4826,
      "Ġ441": 4827,
      "Ġ444": 4828,
      "Ġ445": 4829,
      "Ġ446": 4830,
      "Ġ448": 4831,
      "Ġ449": 4832,
      "Ġ4404": 4833,
      "Ġ4414": 4834,
      "Ġ4423": 4835,
      "Ġ4467": 4836,
      "Ġ4422": 4837,
      "Ġ4448": 4838,
      "Ġ4463": 4839,
      "Ġ4472": 4840,
      "Ġ360": 4841,
      "Ġ369": 4842,
      "Ġ3652": 4843,
      "Ġ3612": 4844,
      "Ġ3614": 4845,
      "Ġ3694": 4846,
      "Ġ3617": 4847,
      "Ġ3689": 4848,
      "Ġ3698": 4849,
      "Ġ3684": 4850,
      "011": 4851,
      "012": 4852,
      "780": 4853,
      "529": 4854,
      "appro": 4855,
      "apos": 4856,
      "apps": 4857,
      "apinto": 4858,
      "apalmer": 4859,
      "uray": 4860,
      "ursino": 4861,
      "urina": 4862,
      "Ġ491": 4863,
      "Ġ494": 4864,
      "Ġ495": 4865,
      "Ġ497": 4866,
      "Ġ4951": 4867,
      "Ġ4939": 4868,
      "Ġ4949": 4869,
      "Ġ4922": 4870,
      "0813": 4871,
      "Ġ429": 4872,
      "Ġ4214": 4873,
      "Ġ4216": 4874,
      "Ġ4217": 4875,
      "agra": 4876,
      "aguil": 4877,
      "agian": 4878,
      "agger": 4879,
      "uss": 4880,
      "usz": 4881,
      "usen": 4882,
      "usman": 4883,
      "Ġneedsfix": 4884,
      "produ": 4885,
      "Ġ397": 4886,
      "Ġ3961": 4887,
      "Ġ3949": 4888,
      "Ġ3991": 4889,
      "Ġ3974": 4890,
      "031": 4891,
      "lie": 4892,
      "lich": 4893,
      "libs": 4894,
      "113": 4895,
      "1104": 4896,
      "1116": 4897,
      "242": 4898,
      "2406": 4899,
      "ardi": 4900,
      "399": 4901,
      "Ġ463": 4902,
      "Ġ465": 4903,
      "Ġ4605": 4904,
      "Ġ4647": 4905,
      "Ġ4626": 4906,
      "Ġ550": 4907,
      "Ġ554": 4908,
      "Ġ558": 4909,
      "Ġ5538": 4910,
      "Ġ5536": 4911,
      "Ġ5541": 4912,
      "Ġ5533": 4913,
      "Ġ55384": 4914,
      "Ġ562": 4915,
      "Ġ565": 4916,
      "Ġ567": 4917,
      "Ġ5669": 4918,
      "Ġ5695": 4919,
      "0707": 4920,
      "ytoncan": 4921,
      "Ġcommand": 4922,
      "Ġ372": 4923,
      "Ġ375": 4924,
      "Ġ377": 4925,
      "Ġ3728": 4926,
      "Ġ3769": 4927,
      "eward": 4928,
      "fficulty": 4929,
      "Ġ771": 4930,
      "Ġ772": 4931,
      "Ġ774": 4932,
      "Ġ777": 4933,
      "Ġ7739": 4934,
      "Ġ7734": 4935,
      "Ġ7737": 4936,
      "Ġ7755": 4937,
      "1206": 4938,
      "imate": 4939,
      "improve": 4940,
      "images": 4941,
      "imovich": 4942,
      "Ġ660": 4943,
      "Ġ664": 4944,
      "Ġ665": 4945,
      "Ġ6651": 4946,
      "Ġ6609": 4947,
      "Ġ6604": 4948,
      "Ġ6657": 4949,
      "Ġ6670": 4950,
      "Ġprocess": 4951,
      "Ġproble": 4952,
      "Ġproject": 4953,
      "Ġpropos": 4954,
      "vich": 4955,
      "vierg": 4956,
      "emoraw": 4957,
      "platform": 4958,
      "planche": 4959,
      "Ġ471": 4960,
      "Ġ475": 4961,
      "Ġ4735": 4962,
      "Ġ4734": 4963,
      "Ġ4737": 4964,
      "Ġ4736": 4965,
      "Ġ4750": 4966,
      "antic": 4967,
      "portal": 4968,
      "0617": 4969,
      "287": 4970,
      "aky": 4971,
      "akad": 4972,
      "Ġsing": 4973,
      "Ġsimand": 4974,
      "Ġsiakad": 4975,
      "145": 4976,
      "eloavv": 4977,
      "Ġ590": 4978,
      "Ġ591": 4979,
      "Ġ594": 4980,
      "Ġ598": 4981,
      "Ġ5937": 4982,
      "Ġ5971": 4983,
      "Ġ5959": 4984,
      "Ġ59347": 4985,
      "Ġ1082": 4986,
      "Ġ1085": 4987,
      "Ġ10821": 4988,
      "Ġ10859": 4989,
      "Ġ108123": 4990,
      "umfx": 4991,
      "umgart": 4992,
      "uminski": 4993,
      "elpos": 4994,
      "Ġ480": 4995,
      "Ġ485": 4996,
      "Ġ486": 4997,
      "Ġ487": 4998,
      "Ġ488": 4999,
      "Ġ489": 5000,
      "Ġ4868": 5001,
      "Ġ4827": 5002,
      "Ġ4887": 5003,
      "Ġ4877": 5004,
      "Ġ4890": 5005,
      "Ġ541": 5006,
      "Ġ544": 5007,
      "Ġ545": 5008,
      "Ġ548": 5009,
      "Ġ5478": 5010,
      "Ġ5467": 5011,
      "Ġ642": 5012,
      "Ġ648": 5013,
      "Ġ6407": 5014,
      "Ġ6492": 5015,
      "Ġ64979": 5016,
      "ayot": 5017,
      "aygro": 5018,
      "olved": 5019,
      "olesk": 5020,
      "ollobr": 5021,
      "Ġfirestore": 5022,
      "Ġadben": 5023,
      "sey": 5024,
      "Ġ455": 5025,
      "Ġ457": 5026,
      "Ġ571": 5027,
      "Ġ574": 5028,
      "Ġ577": 5029,
      "Ġ5711": 5030,
      "Ġ5776": 5031,
      "Ġ5716": 5032,
      "Ġ5715": 5033,
      "edia": 5034,
      "edients": 5035,
      "indel": 5036,
      "indsay": 5037,
      "387": 5038,
      "forss": 5039,
      "Ġ799": 5040,
      "Ġ7939": 5041,
      "Ġ7986": 5042,
      "Ġ7945": 5043,
      "Ġ79005": 5044,
      "itywol": 5045,
      "idx": 5046,
      "identity": 5047,
      "idapinto": 5048,
      "Ġteoma": 5049,
      "Ġ617": 5050,
      "Ġ619": 5051,
      "Ġ6194": 5052,
      "Ġ6153": 5053,
      "die": 5054,
      "diagn": 5055,
      "ebot": 5056,
      "Ġzash": 5057,
      "Ġzip": 5058,
      "Ġzio": 5059,
      "Ġzkac": 5060,
      "skip": 5061,
      "Ġ740": 5062,
      "Ġ743": 5063,
      "Ġ745": 5064,
      "Ġ748": 5065,
      "Ġ749": 5066,
      "Ġ870": 5067,
      "Ġ8707": 5068,
      "Ġ1055": 5069,
      "Ġ1057": 5070,
      "Ġ1059": 5071,
      "command": 5072,
      "compli": 5073,
      "ossdev": 5074,
      "tiel": 5075,
      "tide": 5076,
      "tially": 5077,
      "Ġ70242": 5078,
      "Ġmaxim": 5079,
      "Ġmaloja": 5080,
      "Ġ1182": 5081,
      "Ġ1186": 5082,
      "Ġ11816": 5083,
      "Ġ11891": 5084,
      "Ġnode": 5085,
      "4920": 5086,
      "linne": 5087,
      "linux": 5088,
      "Ġapp": 5089,
      "Ġapps": 5090,
      "913": 5091,
      "evildu": 5092,
      "ynski": 5093,
      "Ġ520": 5094,
      "Ġ522": 5095,
      "Ġ525": 5096,
      "hangelm": 5097,
      "17200": 5098,
      "Ġchatg": 5099,
      "Ġchiara": 5100,
      "Ġchenxiji": 5101,
      "Ġcherven": 5102,
      "Ġchrisk": 5103,
      "Ġcholesk": 5104,
      "Ġ620": 5105,
      "Ġ625": 5106,
      "Ġ626": 5107,
      "shkm": 5108,
      "shatam": 5109,
      "topic": 5110,
      "tobi": 5111,
      "Ġ653": 5112,
      "Ġ654": 5113,
      "Ġ657": 5114,
      "Ġ658": 5115,
      "Ġ6568": 5116,
      "Ġ6583": 5117,
      "Ġ1120": 5118,
      "Ġ1126": 5119,
      "ashish": 5120,
      "ashapos": 5121,
      "Ġ5138": 5122,
      "Ġ5167": 5123,
      "Ġ5188": 5124,
      "Ġ5183": 5125,
      "Ġ5190": 5126,
      "Ġ759": 5127,
      "Ġ7531": 5128,
      "Ġ980": 5129,
      "Ġ982": 5130,
      "Ġ984": 5131,
      "Ġ985": 5132,
      "Ġ986": 5133,
      "Ġ98286": 5134,
      "Ġ98913": 5135,
      "Ġ995": 5136,
      "Ġ996": 5137,
      "Ġ999": 5138,
      "Ġ9993": 5139,
      "Ġ2884": 5140,
      "Ġ288077": 5141,
      "Ġ288012": 5142,
      "Ġ288031": 5143,
      "developer": 5144,
      "formance": 5145,
      "Ġ866": 5146,
      "ipaval": 5147,
      "lymo": 5148,
      "Ġxxper": 5149,
      "Ġxenon": 5150,
      "Ġimper": 5151,
      "Ġplugin": 5152,
      "Ġplann": 5153,
      "Ġplucik": 5154,
      "Ġplaygro": 5155,
      "Ġfruit": 5156,
      "Ġ12500": 5157,
      "Ġ12506": 5158,
      "Ġ12571": 5159,
      "Ġnewfeature": 5160,
      "Ġnewgen": 5161,
      "Ġnewslet": 5162,
      "verachb": 5163,
      "Ġyoon": 5164,
      "Ġyield": 5165,
      "Ġyenz": 5166,
      "Ġyarn": 5167,
      "Ġyeon": 5168,
      "Ġblocked": 5169,
      "Ġblotus": 5170,
      "Ġ713": 5171,
      "Ġ7100": 5172,
      "Ġ7131": 5173,
      "Ġ1284": 5174,
      "Ġ1289": 5175,
      "Ġ12852": 5176,
      "Ġ12856": 5177,
      "Ġ12837": 5178,
      "Ġ12819": 5179,
      "Ġ12895": 5180,
      "Ġautobump": 5181,
      "neupane": 5182,
      "Ġ4068": 5183,
      "Ġ699": 5184,
      "Ġ913": 5185,
      "Ġ9138": 5186,
      "Ġ1192": 5187,
      "Ġ11900": 5188,
      "eca": 5189,
      "econst": 5190,
      "feat": 5191,
      "fection": 5192,
      "fecho": 5193,
      "ikun": 5194,
      "ikova": 5195,
      "Ġany": 5196,
      "Ġanast": 5197,
      "Ġannem": 5198,
      "Ġanzar": 5199,
      "Ġanalysis": 5200,
      "Ġ83553": 5201,
      "Ġresolved": 5202,
      "ariel": 5203,
      "press": 5204,
      "performance": 5205,
      "ssadai": 5206,
      "ĠâĻ»ï¸ı": 5207,
      "ĠâŃĲ": 5208,
      "Ġupgrade": 5209,
      "Ġ502": 5210,
      "Ġ675": 5211,
      "Ġ6771": 5212,
      "Ġ6774": 5213,
      "Ġ815": 5214,
      "Ġ8182": 5215,
      "Ġ14708": 5216,
      "Ġ784": 5217,
      "Ġ1010": 5218,
      "Ġ10184": 5219,
      "Ġ170780": 5220,
      "psalv": 5221,
      "Ġ733": 5222,
      "Ġ846": 5223,
      "Ġ8497": 5224,
      "Ġ954": 5225,
      "Ġ958": 5226,
      "Ġ9590": 5227,
      "leyman": 5228,
      "Ġrouting": 5229,
      "Ġroijs": 5230,
      "Ġrozni": 5231,
      "Ġlinus": 5232,
      "Ġcoloss": 5233,
      "anias": 5234,
      "erredyt": 5235,
      "datepi": 5236,
      "kingpenguin": 5237,
      "kingstone": 5238,
      "network": 5239,
      "ãĥ¬ãĥ": 5240,
      "Ġeud": 5241,
      "Ġthekev": 5242,
      "Ġthearme": 5243,
      "Ġ853": 5244,
      "Ġ857": 5245,
      "Ġalgor": 5246,
      "Ġallstar": 5247,
      "Ġalena": 5248,
      "Ġ1174": 5249,
      "Ġ11768": 5250,
      "Ġ11714": 5251,
      "Ġ11754": 5252,
      "Ġ1390": 5253,
      "Ġ13965": 5254,
      "Ġ1410": 5255,
      "Ġ1570": 5256,
      "Ġ15751": 5257,
      "Ġ15721": 5258,
      "Ġ15742": 5259,
      "Ġ1890": 5260,
      "Ġ1899": 5261,
      "Ġ18924": 5262,
      "Ġ18932": 5263,
      "michi": 5264,
      "miali": 5265,
      "Ġedge": 5266,
      "Ġedmor": 5267,
      "Ġeduard": 5268,
      "Ġedomenz": 5269,
      "Ġedayot": 5270,
      "Ġprs": 5271,
      "Ġ27861": 5272,
      "333": 5273,
      "accept": 5274,
      "Ġ893": 5275,
      "Ġ895": 5276,
      "Ġ896": 5277,
      "Ġ8923": 5278,
      "isei": 5279,
      "ĠðŁĶĹ": 5280,
      "box": 5281,
      "boli": 5282,
      "boaa": 5283,
      "hausen": 5284,
      "ianh": 5285,
      "iancu": 5286,
      "ianursino": 5287,
      "Ġhightide": 5288,
      "Ġbuilders": 5289,
      "Ġ881": 5290,
      "Ġ884": 5291,
      "Ġarken": 5292,
      "Ġarnaud": 5293,
      "Ġarnav": 5294,
      "Ġarturl": 5295,
      "Ġarhangelm": 5296,
      "Ġ149387": 5297,
      "1911": 5298,
      "7378": 5299,
      "7311": 5300,
      "ostic": 5301,
      "uded": 5302,
      "Ġìĭľ": 5303,
      "Ġìµľ": 5304,
      "ĠìĤŃ": 5305,
      "ĠìĦłì": 5306,
      "Ġìĺ¤ë": 5307,
      "Ġbackup": 5308,
      "Ġ7522": 5309,
      "Ġmoondev": 5310,
      "Ġmoidx": 5311,
      "Ġ9328": 5312,
      "Ġ1260": 5313,
      "Ġsupported": 5314,
      "Ġ2295": 5315,
      "Ġ227835": 5316,
      "Ġ227852": 5317,
      "Ġ227856": 5318,
      "Ġ227827": 5319,
      "Ġ227832": 5320,
      "Ġ227836": 5321,
      "Ġ227865": 5322,
      "Ġ227833": 5323,
      "disanch": 5324,
      "fyyuc": 5325,
      "ized": 5326,
      "ization": 5327,
      "izme": 5328,
      "manentxx": 5329,
      "annick": 5330,
      "ckerfield": 5331,
      "Ġ15203": 5332,
      "Ġ1840": 5333,
      "Ġreviewed": 5334,
      "Ġreviewing": 5335,
      "ĠðŁĴ«": 5336,
      "ĠðŁĴĻ": 5337,
      "Ġ39079": 5338,
      "9806": 5339,
      "9857": 5340,
      "await": 5341,
      "backlog": 5342,
      "uuu": 5343,
      "Ġë¯¼": 5344,
      "Ġë°±": 5345,
      "Ġthbley": 5346,
      "Ġthomasst": 5347,
      "Ġthirdpar": 5348,
      "Ġ585": 5349,
      "Ġ5845": 5350,
      "itez": 5351,
      "iteam": 5352,
      "Ġ1584": 5353,
      "Ġ22178": 5354,
      "Ġintegrations": 5355,
      "eyes": 5356,
      "iaaguil": 5357,
      "ructure": 5358,
      "ructionroof": 5359,
      "inson": 5360,
      "inscott": 5361,
      "arkes": 5362,
      "arkeruk": 5363,
      "Ġshoe": 5364,
      "Ġshared": 5365,
      "amepaul": 5366,
      "Ġreadiness": 5367,
      "berlymo": 5368,
      "cschust": 5369,
      "connlib": 5370,
      "denlee": 5371,
      "ified": 5372,
      "subsvc": 5373,
      "Ġ6308": 5374,
      "Ġmemory": 5375,
      "Ġ8264": 5376,
      "Ġflang": 5377,
      "Ġflaky": 5378,
      "Ġflannick": 5379,
      "Ġ1210": 5380,
      "Ġ12181": 5381,
      "Ġ13763": 5382,
      "Ġ13765": 5383,
      "Ġ14650": 5384,
      "Ġ15509": 5385,
      "Ġ22778": 5386,
      "Ġ22768": 5387,
      "Ġ16034": 5388,
      "Ġ16038": 5389,
      "Ġ24544": 5390,
      "Ġ244461": 5391,
      "Ġ244455": 5392,
      "Ġ244487": 5393,
      "Ġ244491": 5394,
      "Ġ244436": 5395,
      "Ġ244453": 5396,
      "Ġ21535": 5397,
      "Ġ21556": 5398,
      "Ġ21549": 5399,
      "Ġ2381": 5400,
      "Ġinfra": 5401,
      "Ġ4646": 5402,
      "Ġblocklist": 5403,
      "Ġblockdoyle": 5404,
      "Ġalexx": 5405,
      "Ġalexow": 5406,
      "Ġalexander": 5407,
      "Ġreproduced": 5408,
      "775": 5409,
      "calated": 5410,
      "mez": 5411,
      "mismatch": 5412,
      "ogueri": 5413,
      "qua": 5414,
      "runtim": 5415,
      "Ġciverachb": 5416,
      "Ġconfig": 5417,
      "rider": 5418,
      "Ġsetting": 5419,
      "Ġ2040": 5420,
      "Ġkimforss": 5421,
      "Ġkimberlymo": 5422,
      "Ġmarisa": 5423,
      "Ġmariashapos": 5424,
      "boarding": 5425,
      "azlen": 5426,
      "azzo": 5427,
      "contribut": 5428,
      "dleborg": 5429,
      "msft": 5430,
      "scram": 5431,
      "Ġonboarding": 5432,
      "Ġ6852": 5433,
      "Ġmini": 5434,
      "Ġpkazlen": 5435,
      "Ġ83399": 5436,
      "Ġ80555": 5437,
      "Ġ80547": 5438,
      "Ġ80565": 5439,
      "Ġ80566": 5440,
      "Ġ974": 5441,
      "Ġ9759": 5442,
      "Ġ97287": 5443,
      "archie": 5444,
      "Ġ12734": 5445,
      "Ġ1593": 5446,
      "Ġ159967": 5447,
      "Ġ22206": 5448,
      "omecki": 5449,
      "Ġ287939": 5450,
      "Ġ287905": 5451,
      "Ġ287964": 5452,
      "Ġ287943": 5453,
      "Ġ287983": 5454,
      "Ġ1858": 5455,
      "Ġ1881": 5456,
      "Ġ1910": 5457,
      "Ġinvestig": 5458,
      "Ġ4199": 5459,
      "Ġ41956": 5460,
      "bron": 5461,
      "nice": 5462,
      "nsom": 5463,
      "wsu": 5464,
      "wsar": 5465,
      "Ġabanias": 5466,
      "Ġdisdik": 5467,
      "Ġdiscus": 5468,
      "Ġduplicates": 5469,
      "Ġdanielfro": 5470,
      "Ġdanielgold": 5471,
      "Ġdanielhund": 5472,
      "Ġ65109": 5473,
      "Ġmananjad": 5474,
      "Ġ83401": 5475,
      "Ġ83430": 5476,
      "Ġ83482": 5477,
      "illsexpensify": 5478,
      "Ġ114011": 5479,
      "Ġinteractive": 5480,
      "Ġ27556": 5481,
      "Ġ27542": 5482,
      "Ġcomplexity": 5483,
      "ĠâľĬ.": 5484,
      "afsson": 5485,
      "gax": 5486,
      "mainssh": 5487,
      "rell": 5488,
      "thiale": 5489,
      "Ġharishkm": 5490,
      "Ġbarny": 5491,
      "Ġ5375": 5492,
      "ergqvi": 5493,
      "Ġmergeit": 5494,
      "Ġmergeback": 5495,
      "Ġparse": 5496,
      "Ġparvez": 5497,
      "Ġparfen": 5498,
      "Ġpartially": 5499,
      "Ġjoe": 5500,
      "Ġjoekaufman": 5501,
      "Ġjohn": 5502,
      "Ġ11671": 5503,
      "Ġsqlite": 5504,
      "Ġsqlalch": 5505,
      "Ġ13786": 5506,
      "Ġ13787": 5507,
      "Ġ15194": 5508,
      "Ġ28212": 5509,
      "Ġ1685": 5510,
      "Ġ16965": 5511,
      "Ġ18694": 5512,
      "Ġ18708": 5513,
      "Ġ21109": 5514,
      "check": 5515,
      "Ġvidojes": 5516,
      "Ġ3085": 5517,
      "Ġ30851": 5518,
      "Ġ79852": 5519,
      "Ġ79861": 5520,
      "Ġ79857": 5521,
      "Ġandreea": 5522,
      "Ġandrewsu": 5523,
      "Ġcodemo": 5524,
      "flaesch": 5525,
      "jiwoon": 5526,
      "owitz": 5527,
      "system": 5528,
      "Ġricc": 5529,
      "Ġurso": 5530,
      "Ġuijin": 5531,
      "Ġchewy": 5532,
      "Ġchecks": 5533,
      "Ġ5072": 5534,
      "Ġ6946": 5535,
      "Ġstandby": 5536,
      "Ġstandalo": 5537,
      "Ġaiman": 5538,
      "Ġaimane": 5539,
      "Ġsobit": 5540,
      "Ġsweep": 5541,
      "Ġswagger": 5542,
      "Ġsubmission": 5543,
      "Ġsubsystem": 5544,
      "Ġ16100": 5545,
      "Ġ170712": 5546,
      "Ġ170777": 5547,
      "Ġ259147": 5548,
      "emydm": 5549,
      "Ġanswered": 5550,
      "Ġzeeshantam": 5551,
      "ezer": 5552,
      "have": 5553,
      "kenio": 5554,
      "llionai": 5555,
      "multim": 5556,
      "suzuk": 5557,
      "ykdar": 5558,
      "ykleyman": 5559,
      "ĠíĶĦë¡": 5560,
      "ĠíķĦìĪĺ": 5561,
      "ĠíĻĶë©´": 5562,
      "Ġesau": 5563,
      "Ġesurina": 5564,
      "Ġescalated": 5565,
      "Ġowners": 5566,
      "Ġdepfu": 5567,
      "Ġ45230": 5568,
      "Ġ5002": 5569,
      "Ġ60303": 5570,
      "Ġ6391": 5571,
      "Ġ7796": 5572,
      "Ġ8015": 5573,
      "Ġjereconst": 5574,
      "Ġjerboaa": 5575,
      "Ġjeremydm": 5576,
      "Ġnonamepaul": 5577,
      "Ġ15653": 5578,
      "Ġ1640": 5579,
      "Ġ20379": 5580,
      "Ġ17986": 5581,
      "Ġ19294": 5582,
      "Ġ19992": 5583,
      "Ġ19030": 5584,
      "Ġ19037": 5585,
      "Ġ21929": 5586,
      "Ġ31096": 5587,
      "Ġ33324": 5588,
      "Ġ33638": 5589,
      "Ġ33664": 5590,
      "Ġ25212": 5591,
      "Ġ34423": 5592,
      "ĠðŁĵ¡": 5593,
      "ĠðŁĵ¦": 5594,
      "ĠðŁĵĦ": 5595,
      "Ġ55390": 5596,
      "Ġ55391": 5597,
      "Ġ55393": 5598,
      "Ġ70297": 5599,
      "Ġchaeag": 5600,
      "Ġchristinad": 5601,
      "Ġchristianh": 5602,
      "Ġchristomecki": 5603,
      "maximovich": 5604,
      "candidate": 5605,
      "jwu": 5606,
      "marcz": 5607,
      "pricing": 5608,
      "pikfarm": 5609,
      "renovate": 5610,
      "rename": 5611,
      "rina": 5612,
      "schema": 5613,
      "schwart": 5614,
      "xyz": 5615,
      "Ġestimate": 5616,
      "Ġulrichb": 5617,
      "editor": 5618,
      "Ġlaura": 5619,
      "Ġlukas": 5620,
      "Ġlukemoraw": 5621,
      "Ġobserver": 5622,
      "Ġoffset": 5623,
      "Ġcarstencod": 5624,
      "Ġtextual": 5625,
      "Ġdebugger": 5626,
      "Ġ4389": 5627,
      "infinity": 5628,
      "Ġ5142": 5629,
      "Ġ7012": 5630,
      "Ġ7215": 5631,
      "Ġmetal": 5632,
      "Ġ8495": 5633,
      "Ġstorrisi": 5634,
      "Ġjmillsexpensify": 5635,
      "Ġjackyl": 5636,
      "Ġjakubsz": 5637,
      "Ġahrer": 5638,
      "Ġactron": 5639,
      "Ġ9520": 5640,
      "Ġ96998": 5641,
      "Ġsabetech": 5642,
      "Ġsoniaaguil": 5643,
      "Ġservice": 5644,
      "Ġservices": 5645,
      "Ġsamjwu": 5646,
      "Ġsuryansh": 5647,
      "itolo": 5648,
      "Ġ202376": 5649,
      "Ġwebyrd": 5650,
      "Ġ44741": 5651,
      "Ġprocessing": 5652,
      "Ġandyross": 5653,
      "Ġandydl": 5654,
      "Ġâı°": 5655,
      "Ġâıªï¸ı": 5656,
      "Ġê²½ë¡": 5657,
      "Ġê²ĢíĨ": 5658,
      "wordpress": 5659,
      "Ġstagingdeploy": 5660,
      "agnato": 5661,
      "czynski": 5662,
      "dbarkeruk": 5663,
      "hnikova": 5664,
      "hosted": 5665,
      "kezen": 5666,
      "kezik": 5667,
      "morais": 5668,
      "mitsis": 5669,
      "oitb": 5670,
      "randon": 5671,
      "shef": 5672,
      "shevich": 5673,
      "tonmultim": 5674,
      "ì²ł": 5675,
      "ìĹ°": 5676,
      "ìłķ": 5677,
      "ìłľ": 5678,
      "Ġassets": 5679,
      "Ġassetmap": 5680,
      "łìļĶì²": 5681,
      "astructure": 5682,
      "eliezer": 5683,
      "Ġcleanup": 5684,
      "Ġcleytoncan": 5685,
      "Ġcristipaval": 5686,
      "Ġcristianursino": 5687,
      "Ġtomtran": 5688,
      "Ġdifficulty": 5689,
      "Ġ3788": 5690,
      "Ġ37874": 5691,
      "Ġ4062": 5692,
      "Ġbigkingpenguin": 5693,
      "Ġbigmichi": 5694,
      "Ġ5065": 5695,
      "Ġ5285": 5696,
      "Ġ5382": 5697,
      "Ġ60120": 5698,
      "Ġ6359": 5699,
      "Ġ63206": 5700,
      "Ġ7128": 5701,
      "Ġ7129": 5702,
      "Ġ7222": 5703,
      "Ġmirved": 5704,
      "Ġmirzov": 5705,
      "Ġmimowo": 5706,
      "Ġmimikun": 5707,
      "Ġphiz": 5708,
      "Ġphilip": 5709,
      "Ġ8780": 5710,
      "Ġjameslock": 5711,
      "Ġakinwale": 5712,
      "Ġakshatam": 5713,
      "Ġ96894": 5714,
      "Ġ90397": 5715,
      "Ġ90416": 5716,
      "Ġ90422": 5717,
      "Ġ9143": 5718,
      "Ġ9144": 5719,
      "Ġ10795": 5720,
      "Ġ10797": 5721,
      "Ġ10140": 5722,
      "Ġ10234": 5723,
      "Ġ10166": 5724,
      "Ġ1158": 5725,
      "Ġ113538": 5726,
      "Ġ11786": 5727,
      "Ġ11787": 5728,
      "Ġ12564": 5729,
      "Ġ12569": 5730,
      "Ġseervi": 5731,
      "Ġsehee": 5732,
      "Ġsofiab": 5733,
      "Ġsoftware": 5734,
      "Ġnuts": 5735,
      "Ġnutrina": 5736,
      "alves": 5737,
      "Ġlogger": 5738,
      "Ġ22462": 5739,
      "Ġ281123": 5740,
      "Ġ281148": 5741,
      "Ġ28610": 5742,
      "Ġ28618": 5743,
      "Ġ164476": 5744,
      "Ġ164470": 5745,
      "Ġ20354": 5746,
      "Ġ20521": 5747,
      "ðŁĳ¨âĢįðŁĴ».": 5748,
      "ðŁĳĥðŁı": 5749,
      "Ġkhsarv": 5750,
      "Ġkhsrla": 5751,
      "Ġ25604": 5752,
      "Ġ34269": 5753,
      "Ġ34493": 5754,
      "defect": 5755,
      "defender": 5756,
      "deploys": 5757,
      "ĠðŁļ¢": 5758,
      "ĠðŁļ¦": 5759,
      "Ġ3218": 5760,
      "Ġ38537": 5761,
      "Ġ38544": 5762,
      "Ġ36583": 5763,
      "Ġ36711": 5764,
      "Ġ36709": 5765,
      "Ġ36564": 5766,
      "Ġ39090": 5767,
      "Ġ39099": 5768,
      "Ġ37691": 5769,
      "Ġ775529": 5770,
      "Ġ66770": 5771,
      "Ġsider": 5772,
      "Ġsiddhan": 5773,
      "Ġdevelopersung": 5774,
      "Ġ98903": 5775,
      "nowski": 5776,
      "Ġ10199": 5777,
      "ĠðŁĶĲ.": 5778,
      "Ġë¬¸ìĦľ": 5779,
      "Ġë¬¸ìłľ": 5780,
      "Ġthedead": 5781,
      "Ġthedevildu": 5782,
      "Ġthisloke": 5783,
      "Ġshubhambha": 5784,
      "Ġâľ¨.": 5785,
      "ĠðŁĮ±.": 5786,
      "ìĪĺìłķ": 5787,
      "Ġdavidnu": 5788,
      "Ġpeterdbarkeruk": 5789,
      "baumgart": 5790,
      "celaj": 5791,
      "hyagi": 5792,
      "sonmez": 5793,
      "ymccl": 5794,
      "Ġatinfinity": 5795,
      "Ġtwig": 5796,
      "Ġbenoit": 5797,
      "Ġmontel": 5798,
      "Ġpitu": 5799,
      "Ġsteveward": 5800,
      "Ġaafyyuc": 5801,
      "Ġsynthiale": 5802,
      "Ġwyalves": 5803,
      "Ġkazmiali": 5804,
      "ĠðŁ§¹.": 5805,
      "Ġapplaus": 5806,
      "annotations": 5807,
      "Ġê³¨ëĵľ": 5808,
      "0218": 5809,
      "1313": 5810,
      "5782": 5811,
      "aiza": 5812,
      "brisson": 5813,
      "bytes": 5814,
      "bigquery": 5815,
      "beetle": 5816,
      "cutting": 5817,
      "capitolo": 5818,
      "changes": 5819,
      "caused": 5820,
      "covery": 5821,
      "cargo": 5822,
      "datadis": 5823,
      "dguy": 5824,
      "duplicate": 5825,
      "ehlich": 5826,
      "einer": 5827,
      "eutli": 5828,
      "eoffirex": 5829,
      "final": 5830,
      "future": 5831,
      "flix": 5832,
      "fortune": 5833,
      "fediflix": 5834,
      "fnotamused": 5835,
      "family": 5836,
      "hentai": 5837,
      "iwf": 5838,
      "iukink": 5839,
      "jerne": 5840,
      "jikkenio": 5841,
      "julee": 5842,
      "keymgr": 5843,
      "kuuuuuuu": 5844,
      "labs": 5845,
      "lavsky": 5846,
      "landing": 5847,
      "lessenich": 5848,
      "mnds": 5849,
      "metics": 5850,
      "mourao": 5851,
      "native": 5852,
      "nominated": 5853,
      "nutri": 5854,
      "ndia": 5855,
      "nprk": 5856,
      "oulet": 5857,
      "obrzyn": 5858,
      "oxxo": 5859,
      "pasare": 5860,
      "pinheiro": 5861,
      "phanet": 5862,
      "potaliv": 5863,
      "polinema": 5864,
      "pipeline": 5865,
      "palacios": 5866,
      "rloaiza": 5867,
      "rubenfix": 5868,
      "rkmachine": 5869,
      "sessions": 5870,
      "tracked": 5871,
      "tajizme": 5872,
      "tracking": 5873,
      "tables": 5874,
      "uarez": 5875,
      "windows": 5876,
      "wepps": 5877,
      "yunardi": 5878,
      "zhkdev": 5879,
      "¥ĺìĪĺìłķ": 5880,
      "©çŃĽç½ĳ": 5881,
      "¸ìĹĶëĵľ": 5882,
      "¼ãĥĪ": 5883,
      "æ¸Īãĥ¬ãĥ": 5884,
      "ëĭ¨": 5885,
      "ìŀ¥": 5886,
      "Ġasak": 5887,
      "Ġsignaling": 5888,
      "Ġelisei": 5889,
      "Ġerykdar": 5890,
      "Ġquerkmachine": 5891,
      "Ġessential": 5892,
      "Ġustws": 5893,
      "Ġangeloavv": 5894,
      "Ġukhan": 5895,
      "Ġasyncawait": 5896,
      "Ġelderguard": 5897,
      "ĠæĹ©çŃĽç½ĳ": 5898,
      "ĠçµĮæ¸Īãĥ¬ãĥ": 5899,
      "Ġè³ªåķı": 5900,
      "Ŀãĥ¼ãĥĪ": 5901,
      "łíĬ¸ìĹĶëĵľ": 5902,
      "Ġidiom": 5903,
      "Ġiruzevic": 5904,
      "Ġigoreliezer": 5905,
      "Ġibalpinar": 5906,
      "Ġifcopensh": 5907,
      "Ġivanglie": 5908,
      "Ġisadarsh": 5909,
      "asyncio": 5910,
      "asiakuray": 5911,
      "sitooling": 5912,
      "silveira": 5913,
      "simplify": 5914,
      "Ġunexpand": 5915,
      "Ġunverified": 5916,
      "Ġunrelated": 5917,
      "Ġunknownprk": 5918,
      "Ġlatest": 5919,
      "Ġlinear": 5920,
      "Ġlszomoru": 5921,
      "Ġlastmjs": 5922,
      "Ġhotlist": 5923,
      "Ġhediet": 5924,
      "Ġhtml": 5925,
      "Ġhamiltonmultim": 5926,
      "Ġhaircommand": 5927,
      "Ġhkaua": 5928,
      "Ġhyemiin": 5929,
      "Ġhenrypalacios": 5930,
      "abinowitz": 5931,
      "aborovinka": 5932,
      "Ġolivierg": 5933,
      "Ġohamill": 5934,
      "Ġoptimized": 5935,
      "Ġohadmata": 5936,
      "Ġoppenheim": 5937,
      "Ġopengauss": 5938,
      "Ġcategory": 5939,
      "Ġcubari": 5940,
      "Ġcicdguy": 5941,
      "Ġcgrindel": 5942,
      "Ġcosmetics": 5943,
      "Ġcpanato": 5944,
      "Ġcrebollobr": 5945,
      "Ġcdgori": 5946,
      "Ġcandidate": 5947,
      "Ġcamilavers": 5948,
      "Ġcdrage": 5949,
      "Ġcoverity": 5950,
      "Ġcbizon": 5951,
      "Ġctroupin": 5952,
      "Ġtgragnato": 5953,
      "Ġtablets": 5954,
      "Ġtaiga": 5955,
      "Ġtbaker": 5956,
      "Ġtdjames": 5957,
      "Ġtlukkezen": 5958,
      "Ġtraining": 5959,
      "Ġdonyunardi": 5960,
      "Ġdadak": 5961,
      "Ġdcharkes": 5962,
      "Ġdotnet": 5963,
      "Ġdigiwf": 5964,
      "Ġdshunter": 5965,
      "Ġdashboard": 5966,
      "Ġdannymccl": 5967,
      "Ġdcantrell": 5968,
      "ĠdÃ©claration": 5969,
      "Ġdefinition": 5970,
      "atrai": 5971,
      "Ġ40362": 5972,
      "Ġ4055": 5973,
      "Ġ40935": 5974,
      "started": 5975,
      "Ġbinllionai": 5976,
      "Ġbrianatzori": 5977,
      "Ġbchetio": 5978,
      "Ġbexin": 5979,
      "Ġbahossdev": 5980,
      "Ġbertsky": 5981,
      "Ġbogdan": 5982,
      "Ġbrunogueri": 5983,
      "Ġbgsuandrew": 5984,
      "interactive": 5985,
      "inevo": 5986,
      "infrastructure": 5987,
      "investigation": 5988,
      "Ġ5092": 5989,
      "Ġ5276": 5990,
      "Ġ5219": 5991,
      "Ġ53260": 5992,
      "Ġ58827": 5993,
      "Ġ6003": 5994,
      "Ġ6249": 5995,
      "Ġ6718": 5996,
      "Ġ7643": 5997,
      "Ġmamutmk": 5998,
      "Ġmateusz": 5999,
      "Ġmissing": 6000,
      "Ġmicrosof": 6001,
      "Ġmandarini": 6002,
      "Ġmapsui": 6003,
      "Ġmurtajizme": 6004,
      "Ġminsang": 6005,
      "Ġmnaamani": 6006,
      "Ġmsyyc": 6007,
      "Ġmgremy": 6008,
      "Ġmklemarcz": 6009,
      "Ġmultiteam": 6010,
      "Ġmjabascal": 6011,
      "Ġmlhaufe": 6012,
      "Ġmtrunkat": 6013,
      "Ġpublic": 6014,
      "Ġpandatix": 6015,
      "Ġpapagian": 6016,
      "Ġpraptish": 6017,
      "Ġparts": 6018,
      "Ġpawelru": 6019,
      "Ġpaxed": 6020,
      "Ġpgaudet": 6021,
      "Ġ8116": 6022,
      "Ġ8240": 6023,
      "Ġstitesexpensify": 6024,
      "Ġstartpage": 6025,
      "Ġstjosh": 6026,
      "Ġjordisanch": 6027,
      "Ġjaydenlee": 6028,
      "Ġjekalmin": 6029,
      "Ġjungheol": 6030,
      "Ġjpraynaud": 6031,
      "Ġjbuendia": 6032,
      "Ġjdubrick": 6033,
      "Ġjeffschwart": 6034,
      "Ġjfelipeq": 6035,
      "Ġjtorphanet": 6036,
      "Ġjuanrloaiza": 6037,
      "Ġjvsteiner": 6038,
      "Ġjyjyjy": 6039,
      "Ġjasonlessenich": 6040,
      "Ġaentinger": 6041,
      "Ġaorinevo": 6042,
      "Ġarozhkdev": 6043,
      "Ġalyssadai": 6044,
      "Ġaomegax": 6045,
      "Ġaclsu": 6046,
      "Ġakenion": 6047,
      "Ġaccessibility": 6048,
      "Ġafaneca": 6049,
      "Ġazaslavsky": 6050,
      "Ġaregtech": 6051,
      "Ġ90863": 6052,
      "Ġ9514": 6053,
      "Ġ90734": 6054,
      "Ġ9165": 6055,
      "Ġ9260": 6056,
      "Ġ10390": 6057,
      "Ġ10050": 6058,
      "Ġ10210": 6059,
      "organisers": 6060,
      "Ġ11009": 6061,
      "Ġ11016": 6062,
      "Ġ11562": 6063,
      "Ġ11069": 6064,
      "Ġ11285": 6065,
      "Ġ11616": 6066,
      "Ġ11365": 6067,
      "arpeiron": 6068,
      "Ġfetched": 6069,
      "Ġfosol": 6070,
      "Ġflameoffirex": 6071,
      "Ġfhielpos": 6072,
      "Ġfaustcelaj": 6073,
      "Ġfkraeutli": 6074,
      "Ġfernandoalme": 6075,
      "Ġfarunurisonmez": 6076,
      "Ġ12785": 6077,
      "Ġ12520": 6078,
      "Ġ12270": 6079,
      "Ġ12363": 6080,
      "Ġ12502": 6081,
      "Ġjavanotea": 6082,
      "Ġenchufa": 6083,
      "ingtonmourao": 6084,
      "Ġschwepps": 6085,
      "Ġsagapalmer": 6086,
      "Ġsergeykleyman": 6087,
      "Ġsemantic": 6088,
      "Ġsebrandon": 6089,
      "Ġslafortune": 6090,
      "Ġsponsor": 6091,
      "Ġsungjiwoon": 6092,
      "Ġscastiel": 6093,
      "Ġswsnr": 6094,
      "Ġsaabi": 6095,
      "Ġsunwoongh": 6096,
      "Ġsaramsey": 6097,
      "Ġ13385": 6098,
      "Ġ13670": 6099,
      "Ġ134104": 6100,
      "Ġnsfw": 6101,
      "Ġnuovo": 6102,
      "Ġnatelevinson": 6103,
      "Ġnaringst": 6104,
      "Ġ14111": 6105,
      "Ġ141402": 6106,
      "Ġ149414": 6107,
      "Ġ149109": 6108,
      "Ġ14592": 6109,
      "Ġlocalization": 6110,
      "Ġlockcashdeploys": 6111,
      "Ġrlinoz": 6112,
      "Ġrintr": 6113,
      "Ġrazkuuuuuuu": 6114,
      "Ġrajatrai": 6115,
      "Ġrlrabinowitz": 6116,
      "Ġ22057": 6117,
      "Ġ22272": 6118,
      "Ġgustafsson": 6119,
      "Ġguibrisson": 6120,
      "Ġgrundleborg": 6121,
      "Ġglassait": 6122,
      "Ġgglusman": 6123,
      "Ġgmrandazzo": 6124,
      "Ġgravitywol": 6125,
      "Ġgyungku": 6126,
      "Ġgallery": 6127,
      "Ġ28659": 6128,
      "Ġ16144": 6129,
      "Ġ16174": 6130,
      "Ġ16290": 6131,
      "Ġ16484": 6132,
      "Ġ20681": 6133,
      "Ġ202534": 6134,
      "Ġ20575": 6135,
      "Ġ201547": 6136,
      "Ġ18760": 6137,
      "Ġ18915": 6138,
      "Ġ171180": 6139,
      "Ġtyeth": 6140,
      "Ġtyranron": 6141,
      "Ġ19243": 6142,
      "Ġ19762": 6143,
      "Ġ19163": 6144,
      "Ġ19419": 6145,
      "Ġwirone": 6146,
      "Ġwellingtonmourao": 6147,
      "Ġwarnings": 6148,
      "Ġwsingresos": 6149,
      "Ġwelcome": 6150,
      "Ġwillian": 6151,
      "Ġ21554": 6152,
      "Ġ21299": 6153,
      "chnaif": 6154,
      "Ġ23233": 6155,
      "Ġrevision": 6156,
      "Ġreactorscram": 6157,
      "Ġremaining": 6158,
      "Ġreplikation": 6159,
      "Ġreferral": 6160,
      "Ġremoval": 6161,
      "Ġrealconrad": 6162,
      "exists": 6163,
      "Ġingredients": 6164,
      "Ġincluded": 6165,
      "Ġvskah": 6166,
      "Ġvdancik": 6167,
      "Ġvaibhav": 6168,
      "Ġvegetables": 6169,
      "Ġvkottler": 6170,
      "isberg": 6171,
      "Ġ31453": 6172,
      "Ġ33477": 6173,
      "Ġkolby": 6174,
      "Ġkdetry": 6175,
      "Ġkuuuna": 6176,
      "Ġkarafecho": 6177,
      "Ġkwilczynski": 6178,
      "Ġkaratugo": 6179,
      "Ġkingtoolbox": 6180,
      "Ġkatetaylormoz": 6181,
      "Ġ35097": 6182,
      "Ġ35046": 6183,
      "Ġ30019": 6184,
      "debugging": 6185,
      "Ġ26610": 6186,
      "ĠðŁ¥ĹðŁĶį": 6187,
      "occasional": 6188,
      "Ġ38013": 6189,
      "Ġ38527": 6190,
      "Ġ41958": 6191,
      "Ġ44045": 6192,
      "approval": 6193,
      "production": 6194,
      "Ġ39618": 6195,
      "Ġ55386": 6196,
      "Ġ55415": 6197,
      "Ġcommanderredyt": 6198,
      "Ġ37699": 6199,
      "Ġ775549": 6200,
      "improvement": 6201,
      "Ġprocessor": 6202,
      "Ġproblem": 6203,
      "Ġproposal": 6204,
      "Ġ47344": 6205,
      "Ġsinghk": 6206,
      "Ġsimandre": 6207,
      "Ġadbenitez": 6208,
      "Ġ79862": 6209,
      "diagnostic": 6210,
      "Ġzashi": 6211,
      "Ġziobron": 6212,
      "Ġzkacqua": 6213,
      "compliance": 6214,
      "Ġmaximumfx": 6215,
      "linnea": 6216,
      "1720001": 6217,
      "Ġchatgpt": 6218,
      "Ġchenxijiang": 6219,
      "Ġchervenaborovinka": 6220,
      "Ġchriskmnds": 6221,
      "Ġcholesky": 6222,
      "Ġxxpermanentxx": 6223,
      "Ġimperfection": 6224,
      "Ġplanned": 6225,
      "Ġplayground": 6226,
      "Ġfruits": 6227,
      "Ġnewgene": 6228,
      "Ġnewsletter": 6229,
      "Ġyoonms": 6230,
      "Ġyenzip": 6231,
      "Ġyarnnsom": 6232,
      "Ġyeonjulee": 6233,
      "Ġanastasiakuray": 6234,
      "Ġannemariel": 6235,
      "psalvisberg": 6236,
      "Ġrozniak": 6237,
      "Ġcolossus": 6238,
      "datepickerfield": 6239,
      "Ġeudr": 6240,
      "Ġthekevinscott": 6241,
      "Ġthearmega": 6242,
      "Ġalgorush": 6243,
      "Ġedmorley": 6244,
      "Ġeduardmaximovich": 6245,
      "Ġedomenzain": 6246,
      "accepted": 6247,
      "Ġarkenwald": 6248,
      "Ġarnaudflaesch": 6249,
      "Ġarnavdas": 6250,
      "Ġarturlg": 6251,
      "ĠìĭľìĹ°": 6252,
      "Ġìµľëĭ¨": 6253,
      "ĠìĦłìĽħ": 6254,
      "Ġìĺ¤ë¥ĺìĪĺìłķ": 6255,
      "Ġë¯¼ì²ł": 6256,
      "Ġë°±ì¤Ģ": 6257,
      "Ġthomasstjerne": 6258,
      "Ġthirdparty": 6259,
      "ructionroofing": 6260,
      "Ġshoeone": 6261,
      "cschuster": 6262,
      "Ġalexowens": 6263,
      "runtime": 6264,
      "Ġmariashaposhnikova": 6265,
      "contributor": 6266,
      "Ġpkazlenka": 6267,
      "Ġinvestigating": 6268,
      "Ġdiscussion": 6269,
      "Ġdanielfroehlich": 6270,
      "Ġdanielgoldelman": 6271,
      "Ġdanielhundhausen": 6272,
      "Ġmananjadhav": 6273,
      "ergqvist": 6274,
      "Ġparvezi": 6275,
      "Ġparfeniukink": 6276,
      "Ġjoekaufmanexpensify": 6277,
      "Ġjohncschuster": 6278,
      "Ġsqlalchemy": 6279,
      "Ġvidojesevic": 6280,
      "Ġcodemod": 6281,
      "Ġriccardo": 6282,
      "Ġchewyfish": 6283,
      "Ġstandalone": 6284,
      "Ġsobitneupane": 6285,
      "Ġzeeshantamboli": 6286,
      "suzuki": 6287,
      "ĠíĶĦë¡łíĬ¸ìĹĶëĵľ": 6288,
      "Ġjereconstructionroofing": 6289,
      "Ġjeremydmiller": 6290,
      "Ġchristinadobrzyn": 6291,
      "Ġlukemorawski": 6292,
      "Ġcarstencodes": 6293,
      "Ġjakubszuminski": 6294,
      "Ġsoniaaguilarpeiron": 6295,
      "Ġandydlindsay": 6296,
      "Ġê²½ë¡ľ": 6297,
      "Ġê²ĢíĨłìļĶì²": 6298,
      "Ġstagingdeploycash": 6299,
      "Ġassetmapper": 6300,
      "Ġcleytoncandeira": 6301,
      "Ġtomtranter": 6302,
      "Ġphilippsalvisberg": 6303,
      "Ġjameslockman": 6304,
      "Ġakshatamur": 6305,
      "Ġseerviashish": 6306,
      "Ġsofiabergqvist": 6307,
      "ðŁĳĥðŁı¼.": 6308,
      "Ġkhsarvar": 6309,
      "Ġsiddhant": 6310,
      "Ġthedevildude": 6311,
      "Ġshubhambhawsar": 6312,
      "Ġdavidnuzik": 6313,
      "baumgartner": 6314,
      "Ġsynthialee": 6315,
      "Ġapplausebot": 6316,
      "datadiscovery": 6317,
      "potalivo": 6318,
      "rubenfixit": 6319,
      "Ġerykdarnowski": 6320,
      "Ġelderguardian": 6321,
      "ĠçµĮæ¸Īãĥ¬ãĥĿãĥ¼ãĥĪ": 6322,
      "Ġifcopenshell": 6323,
      "Ġhamiltonmultimedia": 6324,
      "Ġhaircommander": 6325,
      "Ġoliviergoulet": 6326,
      "Ġoppenheimerm": 6327,
      "Ġcamilaverso": 6328,
      "Ġdannymcclain": 6329,
      "Ġbinllionaire": 6330,
      "Ġbchetioui": 6331,
      "Ġbrunoguerios": 6332,
      "Ġmicrosoft": 6333,
      "Ġmurtajizmehdi": 6334,
      "Ġmklemarczyk": 6335,
      "Ġpraptisharma": 6336,
      "Ġjordisanchoitb": 6337,
      "Ġjeffschwartz": 6338,
      "Ġfernandoalmeidapinto": 6339,
      "Ġgustafssonlinnea": 6340,
      "Ġgravitywolfnotamused": 6341,
      "Ġanastasiakurayshevich": 6342,
      "Ġê²ĢíĨłìļĶì²Ń": 6343
    },
    "merges": [
      [
        "Ġ",
        "i"
      ],
      [
        "Ġi",
        "s"
      ],
      [
        "a",
        "s"
      ],
      [
        "Ġi",
        "t"
      ],
      [
        "e",
        "d"
      ],
      [
        "s",
        "i"
      ],
      [
        "g",
        "n"
      ],
      [
        "si",
        "gn"
      ],
      [
        "as",
        "sign"
      ],
      [
        "assign",
        "ed"
      ],
      [
        "u",
        "e"
      ],
      [
        "s",
        "ue"
      ],
      [
        "Ġis",
        "sue"
      ],
      [
        "u",
        "n"
      ],
      [
        "Ġ",
        "un"
      ],
      [
        "Ġun",
        "assigned"
      ],
      [
        "e",
        "n"
      ],
      [
        "p",
        "en"
      ],
      [
        "Ġ",
        "l"
      ],
      [
        "Ġ",
        "h"
      ],
      [
        "e",
        "l"
      ],
      [
        "Ġh",
        "as"
      ],
      [
        "a",
        "b"
      ],
      [
        "Ġl",
        "ab"
      ],
      [
        "Ġlab",
        "el"
      ],
      [
        "Ġ",
        "o"
      ],
      [
        "Ġo",
        "pen"
      ],
      [
        "Ġ",
        "c"
      ],
      [
        "l",
        "o"
      ],
      [
        "s",
        "ed"
      ],
      [
        "Ġc",
        "lo"
      ],
      [
        "Ġclo",
        "sed"
      ],
      [
        "Ġ",
        "1"
      ],
      [
        "Ġ",
        "t"
      ],
      [
        "Ġ",
        "2"
      ],
      [
        "e",
        "s"
      ],
      [
        "Ġt",
        "o"
      ],
      [
        "Ġ",
        "assigned"
      ],
      [
        "Ġ",
        "d"
      ],
      [
        "Ġ",
        "3"
      ],
      [
        "Ġd",
        "e"
      ],
      [
        "pen",
        "d"
      ],
      [
        "c",
        "i"
      ],
      [
        "pend",
        "en"
      ],
      [
        "Ġde",
        "penden"
      ],
      [
        "a",
        "t"
      ],
      [
        "ci",
        "es"
      ],
      [
        "Ġdependen",
        "cies"
      ],
      [
        "Ġ",
        "4"
      ],
      [
        "o",
        "n"
      ],
      [
        "a",
        "n"
      ],
      [
        "s",
        "t"
      ],
      [
        "Ġ",
        "b"
      ],
      [
        "i",
        "n"
      ],
      [
        "Ġ",
        "5"
      ],
      [
        "Ġ",
        "6"
      ],
      [
        "u",
        "g"
      ],
      [
        "e",
        "r"
      ],
      [
        "r",
        "e"
      ],
      [
        "Ġ",
        "7"
      ],
      [
        "r",
        "i"
      ],
      [
        "Ġb",
        "ug"
      ],
      [
        "Ġ",
        "m"
      ],
      [
        "at",
        "u"
      ],
      [
        "Ġ",
        "p"
      ],
      [
        "Ġ",
        "8"
      ],
      [
        "Ġ",
        "st"
      ],
      [
        "Ġ",
        "j"
      ],
      [
        "Ġ",
        "a"
      ],
      [
        "en",
        "t"
      ],
      [
        "Ġ",
        "9"
      ],
      [
        "Ġ1",
        "0"
      ],
      [
        "c",
        "k"
      ],
      [
        "o",
        "r"
      ],
      [
        "atu",
        "s"
      ],
      [
        "Ġst",
        "atus"
      ],
      [
        "m",
        "ent"
      ],
      [
        "i",
        "l"
      ],
      [
        "c",
        "e"
      ],
      [
        "Ġ1",
        "1"
      ],
      [
        "h",
        "an"
      ],
      [
        "i",
        "on"
      ],
      [
        "a",
        "v"
      ],
      [
        "a",
        "r"
      ],
      [
        "Ġ",
        "f"
      ],
      [
        "es",
        "t"
      ],
      [
        "r",
        "o"
      ],
      [
        "Ġ1",
        "2"
      ],
      [
        "Ġj",
        "av"
      ],
      [
        "Ġ",
        "en"
      ],
      [
        "in",
        "g"
      ],
      [
        "ce",
        "ment"
      ],
      [
        "han",
        "cement"
      ],
      [
        "Ġ",
        "s"
      ],
      [
        "Ġ1",
        "3"
      ],
      [
        "i",
        "t"
      ],
      [
        "Ġen",
        "hancement"
      ],
      [
        "Ġ",
        "n"
      ],
      [
        "p",
        "t"
      ],
      [
        "Ġ1",
        "4"
      ],
      [
        "a",
        "l"
      ],
      [
        "Ġl",
        "o"
      ],
      [
        "Ġ",
        "r"
      ],
      [
        "c",
        "ri"
      ],
      [
        "Ġ1",
        "5"
      ],
      [
        "cri",
        "pt"
      ],
      [
        "on",
        "e"
      ],
      [
        "ck",
        "ed"
      ],
      [
        "Ġ2",
        "2"
      ],
      [
        "as",
        "cript"
      ],
      [
        "Ġjav",
        "ascript"
      ],
      [
        "Ġlo",
        "cked"
      ],
      [
        "Ġ",
        "g"
      ],
      [
        "o",
        "m"
      ],
      [
        "Ġ2",
        "8"
      ],
      [
        "Ġm",
        "il"
      ],
      [
        "est",
        "one"
      ],
      [
        "Ġmil",
        "estone"
      ],
      [
        "c",
        "t"
      ],
      [
        "Ġ1",
        "6"
      ],
      [
        "p",
        "e"
      ],
      [
        "Ġ2",
        "0"
      ],
      [
        "Ġ1",
        "8"
      ],
      [
        "Ġ1",
        "7"
      ],
      [
        "g",
        "e"
      ],
      [
        "a",
        "m"
      ],
      [
        "Ġt",
        "y"
      ],
      [
        "Ġ1",
        "9"
      ],
      [
        "Ġ2",
        "4"
      ],
      [
        "u",
        "t"
      ],
      [
        "Ġ",
        "w"
      ],
      [
        "Ġ2",
        "1"
      ],
      [
        "a",
        "d"
      ],
      [
        "Ġty",
        "pe"
      ],
      [
        "c",
        "h"
      ],
      [
        "Ġ2",
        "3"
      ],
      [
        "at",
        "e"
      ],
      [
        "q",
        "ue"
      ],
      [
        "Ġ",
        "re"
      ],
      [
        "u",
        "l"
      ],
      [
        "e",
        "x"
      ],
      [
        "e",
        "t"
      ],
      [
        "d",
        "o"
      ],
      [
        "que",
        "st"
      ],
      [
        "h",
        "e"
      ],
      [
        "Ġi",
        "n"
      ],
      [
        "o",
        "v"
      ],
      [
        "Ġn",
        "e"
      ],
      [
        "ð",
        "Ł"
      ],
      [
        "Ġ",
        ":"
      ],
      [
        "Ġ",
        "v"
      ],
      [
        "i",
        "s"
      ],
      [
        "a",
        "ck"
      ],
      [
        "Ġ3",
        "1"
      ],
      [
        "Ġ3",
        "3"
      ],
      [
        "Ġ",
        "k"
      ],
      [
        "Ġ3",
        "5"
      ],
      [
        "at",
        "ion"
      ],
      [
        "Ġf",
        "e"
      ],
      [
        "Ġ2",
        "5"
      ],
      [
        "Ġ3",
        "0"
      ],
      [
        "Ġ3",
        "4"
      ],
      [
        "d",
        "e"
      ],
      [
        "i",
        "r"
      ],
      [
        "u",
        "b"
      ],
      [
        "Ġ2",
        "6"
      ],
      [
        "Ġ2",
        "7"
      ],
      [
        "Ġ",
        "ðŁ"
      ],
      [
        "i",
        "c"
      ],
      [
        "Ġa",
        "ut"
      ],
      [
        "a",
        "ge"
      ],
      [
        "Ġ2",
        "9"
      ],
      [
        "Ġ3",
        "2"
      ],
      [
        "atu",
        "re"
      ],
      [
        "ro",
        "w"
      ],
      [
        "Ġr",
        "en"
      ],
      [
        "an",
        "d"
      ],
      [
        "o",
        "c"
      ],
      [
        "ct",
        "ion"
      ],
      [
        "t",
        "er"
      ],
      [
        "ov",
        "ate"
      ],
      [
        "u",
        "p"
      ],
      [
        "quest",
        "ion"
      ],
      [
        "Ġ3",
        "8"
      ],
      [
        "Ġren",
        "ovate"
      ],
      [
        "en",
        "d"
      ],
      [
        "Ġ4",
        "1"
      ],
      [
        "Ġ4",
        "4"
      ],
      [
        "re",
        "a"
      ],
      [
        "Ġ",
        "question"
      ],
      [
        "o",
        "o"
      ],
      [
        "Ġ3",
        "6"
      ],
      [
        "do",
        "w"
      ],
      [
        "0",
        "0"
      ],
      [
        "0",
        "1"
      ],
      [
        "3",
        "5"
      ],
      [
        "Ġfe",
        "ature"
      ],
      [
        "7",
        "8"
      ],
      [
        "l",
        "e"
      ],
      [
        "Ġne",
        "ed"
      ],
      [
        "o",
        "t"
      ],
      [
        "5",
        "2"
      ],
      [
        "a",
        "p"
      ],
      [
        "u",
        "r"
      ],
      [
        "7",
        "9"
      ],
      [
        "Ġ4",
        "9"
      ],
      [
        "Ġp",
        "ul"
      ],
      [
        "Ġpul",
        "l"
      ],
      [
        "0",
        "8"
      ],
      [
        "Ġ4",
        "2"
      ],
      [
        "ar",
        "row"
      ],
      [
        "ad",
        "ing"
      ],
      [
        "he",
        "ading"
      ],
      [
        "dow",
        "n"
      ],
      [
        "6",
        "8"
      ],
      [
        "a",
        "g"
      ],
      [
        "u",
        "s"
      ],
      [
        "Ġneed",
        "s"
      ],
      [
        "p",
        "ro"
      ],
      [
        "t",
        "y"
      ],
      [
        "Ġa",
        "rea"
      ],
      [
        "Ġjav",
        "a"
      ],
      [
        "Ġ3",
        "9"
      ],
      [
        "0",
        "3"
      ],
      [
        "5",
        "1"
      ],
      [
        "e",
        "as"
      ],
      [
        "l",
        "i"
      ],
      [
        "Ġ",
        "ex"
      ],
      [
        "1",
        "1"
      ],
      [
        "a",
        "in"
      ],
      [
        "c",
        "o"
      ],
      [
        "t",
        "e"
      ],
      [
        "or",
        "t"
      ],
      [
        "g",
        "r"
      ],
      [
        "ri",
        "age"
      ],
      [
        "2",
        "4"
      ],
      [
        "ar",
        "d"
      ],
      [
        "3",
        "9"
      ],
      [
        "Ġ4",
        "6"
      ],
      [
        "it",
        "h"
      ],
      [
        "Ġ5",
        "5"
      ],
      [
        "Ġ5",
        "6"
      ],
      [
        "0",
        "7"
      ],
      [
        "y",
        "t"
      ],
      [
        "Ġc",
        "om"
      ],
      [
        "Ġ3",
        "7"
      ],
      [
        "b",
        "ug"
      ],
      [
        "e",
        "w"
      ],
      [
        "f",
        "f"
      ],
      [
        "Ġ7",
        "7"
      ],
      [
        "0",
        "5"
      ],
      [
        "1",
        "2"
      ],
      [
        "i",
        "m"
      ],
      [
        "er",
        "ge"
      ],
      [
        "i",
        "x"
      ],
      [
        "Ġd",
        "oc"
      ],
      [
        "Ġ6",
        "6"
      ],
      [
        "Ġp",
        "ro"
      ],
      [
        "0",
        "9"
      ],
      [
        "v",
        "i"
      ],
      [
        "e",
        "m"
      ],
      [
        "p",
        "l"
      ],
      [
        "si",
        "on"
      ],
      [
        "5",
        "6"
      ],
      [
        "Ġ4",
        "7"
      ],
      [
        "an",
        "t"
      ],
      [
        "0",
        "4"
      ],
      [
        "p",
        "ort"
      ],
      [
        "u",
        "ment"
      ],
      [
        "ction",
        "s"
      ],
      [
        "ument",
        "ation"
      ],
      [
        "0",
        "6"
      ],
      [
        "2",
        "8"
      ],
      [
        "a",
        "k"
      ],
      [
        "Ġ",
        "si"
      ],
      [
        "Ġdoc",
        "umentation"
      ],
      [
        "1",
        "4"
      ],
      [
        "el",
        "o"
      ],
      [
        "Ġ5",
        "9"
      ],
      [
        "Ġ10",
        "8"
      ],
      [
        "u",
        "m"
      ],
      [
        "el",
        "p"
      ],
      [
        "el",
        "eas"
      ],
      [
        "Ġ4",
        "8"
      ],
      [
        "Ġ5",
        "4"
      ],
      [
        "Ġ6",
        "4"
      ],
      [
        "Ġg",
        "ith"
      ],
      [
        "Ġgith",
        "ub"
      ],
      [
        "a",
        "y"
      ],
      [
        "a",
        "il"
      ],
      [
        "o",
        "l"
      ],
      [
        "Ġf",
        "ir"
      ],
      [
        "a",
        "ctions"
      ],
      [
        "t",
        "en"
      ],
      [
        "v",
        "e"
      ],
      [
        "es",
        "s"
      ],
      [
        "Ġa",
        "d"
      ],
      [
        "Ġw",
        "ant"
      ],
      [
        "Ġwant",
        "ed"
      ],
      [
        "2",
        "3"
      ],
      [
        "g",
        "u"
      ],
      [
        "s",
        "e"
      ],
      [
        "Ġh",
        "elp"
      ],
      [
        "Ġt",
        "riage"
      ],
      [
        "Ġ4",
        "5"
      ],
      [
        "on",
        "t"
      ],
      [
        "Ġ5",
        "7"
      ],
      [
        "eleas",
        "e"
      ],
      [
        "3",
        "1"
      ],
      [
        "9",
        "7"
      ],
      [
        "ed",
        "i"
      ],
      [
        "in",
        "d"
      ],
      [
        "Ġaut",
        "om"
      ],
      [
        "oo",
        "d"
      ],
      [
        "3",
        "8"
      ],
      [
        "f",
        "or"
      ],
      [
        "h",
        "on"
      ],
      [
        "Ġ7",
        "9"
      ],
      [
        "it",
        "y"
      ],
      [
        "yt",
        "hon"
      ],
      [
        "3",
        "4"
      ],
      [
        "i",
        "g"
      ],
      [
        "t",
        "est"
      ],
      [
        "Ġfir",
        "st"
      ],
      [
        "2",
        "7"
      ],
      [
        "i",
        "d"
      ],
      [
        "o",
        "re"
      ],
      [
        "Ġt",
        "e"
      ],
      [
        "Ġ6",
        "1"
      ],
      [
        "Ġg",
        "ood"
      ],
      [
        "3",
        "7"
      ],
      [
        "4",
        "4"
      ],
      [
        "a",
        "it"
      ],
      [
        "Ġcom",
        "p"
      ],
      [
        "d",
        "i"
      ],
      [
        "6",
        "4"
      ],
      [
        "n",
        "al"
      ],
      [
        "o",
        "ri"
      ],
      [
        "p",
        "ic"
      ],
      [
        "an",
        "ce"
      ],
      [
        "Ġp",
        "ython"
      ],
      [
        "ter",
        "nal"
      ],
      [
        "6",
        "1"
      ],
      [
        "e",
        "b"
      ],
      [
        "Ġ",
        "z"
      ],
      [
        "Ġ",
        "and"
      ],
      [
        "Ġautom",
        "erge"
      ],
      [
        "u",
        "st"
      ],
      [
        "6",
        "7"
      ],
      [
        "s",
        "k"
      ],
      [
        "Ġ7",
        "4"
      ],
      [
        "Ġ8",
        "7"
      ],
      [
        "Ġ10",
        "5"
      ],
      [
        "Ġte",
        "am"
      ],
      [
        "2",
        "1"
      ],
      [
        "9",
        "4"
      ],
      [
        "c",
        "om"
      ],
      [
        "o",
        "s"
      ],
      [
        "t",
        "i"
      ],
      [
        "Ġ7",
        "0"
      ],
      [
        "Ġm",
        "a"
      ],
      [
        "Ġf",
        "or"
      ],
      [
        "edi",
        "um"
      ],
      [
        "3",
        "2"
      ],
      [
        "Ġp",
        "ri"
      ],
      [
        "Ġ11",
        "8"
      ],
      [
        "Ġn",
        "o"
      ],
      [
        "vi",
        "ew"
      ],
      [
        "ait",
        "ing"
      ],
      [
        "3",
        "0"
      ],
      [
        "4",
        "9"
      ],
      [
        "5",
        "5"
      ],
      [
        "7",
        "6"
      ],
      [
        "8",
        "7"
      ],
      [
        "l",
        "in"
      ],
      [
        "Ġto",
        "pic"
      ],
      [
        "Ġde",
        "v"
      ],
      [
        "Ġa",
        "p"
      ],
      [
        "1",
        "6"
      ],
      [
        "9",
        "1"
      ],
      [
        "e",
        "v"
      ],
      [
        "y",
        "n"
      ],
      [
        "an",
        "g"
      ],
      [
        "Ġ5",
        "2"
      ],
      [
        "han",
        "g"
      ],
      [
        "ack",
        "end"
      ],
      [
        "r",
        "a"
      ],
      [
        "Ġg",
        "o"
      ],
      [
        "Ġre",
        "quest"
      ],
      [
        "1",
        "7"
      ],
      [
        "c",
        "y"
      ],
      [
        "s",
        "er"
      ],
      [
        "Ġc",
        "h"
      ],
      [
        "Ġt",
        "est"
      ],
      [
        "in",
        "or"
      ],
      [
        "Ġ6",
        "2"
      ],
      [
        "ten",
        "sion"
      ],
      [
        "3",
        "6"
      ],
      [
        "e",
        "ct"
      ],
      [
        "s",
        "h"
      ],
      [
        "t",
        "o"
      ],
      [
        "at",
        "a"
      ],
      [
        "Ġ6",
        "5"
      ],
      [
        "Ġ11",
        "2"
      ],
      [
        "2",
        "2"
      ],
      [
        "5",
        "0"
      ],
      [
        "a",
        "ct"
      ],
      [
        "Ġ",
        "-"
      ],
      [
        "as",
        "h"
      ],
      [
        "Ġ5",
        "1"
      ],
      [
        "Ġ6",
        "0"
      ],
      [
        "Ġ7",
        "5"
      ],
      [
        "ĠðŁ",
        "Ĳ"
      ],
      [
        "Ġm",
        "ain"
      ],
      [
        "Ġ9",
        "8"
      ],
      [
        "Ġ9",
        "9"
      ],
      [
        "Ġ28",
        "8"
      ],
      [
        "de",
        "v"
      ],
      [
        "gr",
        "ess"
      ],
      [
        "elo",
        "g"
      ],
      [
        "for",
        "m"
      ],
      [
        "hang",
        "elog"
      ],
      [
        "2",
        "9"
      ],
      [
        "4",
        "7"
      ],
      [
        "6",
        "9"
      ],
      [
        "7",
        "1"
      ],
      [
        "f",
        "ix"
      ],
      [
        "m",
        "a"
      ],
      [
        "n",
        "o"
      ],
      [
        "u",
        "il"
      ],
      [
        "z",
        "e"
      ],
      [
        "Ġdependen",
        "cy"
      ],
      [
        "in",
        "e"
      ],
      [
        "Ġm",
        "edium"
      ],
      [
        "Ġ8",
        "6"
      ],
      [
        "Ġex",
        "tension"
      ],
      [
        "ori",
        "ty"
      ],
      [
        "2",
        "0"
      ],
      [
        "i",
        "p"
      ],
      [
        "l",
        "y"
      ],
      [
        "v",
        "ed"
      ],
      [
        "Ġ",
        "x"
      ],
      [
        "Ġi",
        "m"
      ],
      [
        "Ġp",
        "l"
      ],
      [
        "Ġf",
        "r"
      ],
      [
        "Ġ12",
        "5"
      ],
      [
        "Ġne",
        "w"
      ],
      [
        "gu",
        "ard"
      ],
      [
        "ig",
        "h"
      ],
      [
        "4",
        "3"
      ],
      [
        "v",
        "er"
      ],
      [
        "Ġ",
        "y"
      ],
      [
        "Ġd",
        "ail"
      ],
      [
        "at",
        "ch"
      ],
      [
        "Ġb",
        "lo"
      ],
      [
        "Ġ7",
        "1"
      ],
      [
        "Ġ10",
        "3"
      ],
      [
        "Ġf",
        "ix"
      ],
      [
        "Ġ12",
        "8"
      ],
      [
        "Ġaut",
        "o"
      ],
      [
        "Ġpro",
        "gress"
      ],
      [
        "Ġdail",
        "y"
      ],
      [
        "a",
        "u"
      ],
      [
        "h",
        "p"
      ],
      [
        "n",
        "e"
      ],
      [
        "o",
        "f"
      ],
      [
        "u",
        "i"
      ],
      [
        "Ġ4",
        "0"
      ],
      [
        "Ġ5",
        "3"
      ],
      [
        "Ġ6",
        "9"
      ],
      [
        "er",
        "ing"
      ],
      [
        "ri",
        "ag"
      ],
      [
        "Ġ9",
        "1"
      ],
      [
        "Ġ11",
        "9"
      ],
      [
        "Ġr",
        "elease"
      ],
      [
        "Ġex",
        "ternal"
      ],
      [
        "Ġad",
        "guard"
      ],
      [
        "Ġpri",
        "ority"
      ],
      [
        "riag",
        "ed"
      ],
      [
        "4",
        "2"
      ],
      [
        "8",
        "6"
      ],
      [
        "8",
        "8"
      ],
      [
        "e",
        "c"
      ],
      [
        "e",
        "k"
      ],
      [
        "f",
        "e"
      ],
      [
        "i",
        "k"
      ],
      [
        "Ġ",
        "an"
      ],
      [
        "Ġ4",
        "3"
      ],
      [
        "Ġ8",
        "35"
      ],
      [
        "Ġr",
        "es"
      ],
      [
        "Ġk",
        "ind"
      ],
      [
        "pro",
        "ve"
      ],
      [
        "Ġsi",
        "ze"
      ],
      [
        "4",
        "8"
      ],
      [
        "a",
        "ri"
      ],
      [
        "d",
        "u"
      ],
      [
        "p",
        "r"
      ],
      [
        "p",
        "er"
      ],
      [
        "s",
        "s"
      ],
      [
        "t",
        "m"
      ],
      [
        "w",
        "oc"
      ],
      [
        "Ġ",
        "â"
      ],
      [
        "Ġ",
        "up"
      ],
      [
        "si",
        "te"
      ],
      [
        "Ġd",
        "ata"
      ],
      [
        "Ġ5",
        "0"
      ],
      [
        "Ġ6",
        "7"
      ],
      [
        "Ġ7",
        "6"
      ],
      [
        "Ġ8",
        "1"
      ],
      [
        "Ġ14",
        "7"
      ],
      [
        "Ġw",
        "aiting"
      ],
      [
        "6",
        "5"
      ],
      [
        ":",
        "."
      ],
      [
        "as",
        "k"
      ],
      [
        "on",
        "ent"
      ],
      [
        "Ġ7",
        "8"
      ],
      [
        "Ġ10",
        "1"
      ],
      [
        "Ġ15",
        "4"
      ],
      [
        "Ġ17",
        "0"
      ],
      [
        "4",
        "1"
      ],
      [
        "6",
        "3"
      ],
      [
        "c",
        "or"
      ],
      [
        "o",
        "ff"
      ],
      [
        "p",
        "s"
      ],
      [
        "u",
        "re"
      ],
      [
        "re",
        "view"
      ],
      [
        "Ġ7",
        "3"
      ],
      [
        "Ġp",
        "hp"
      ],
      [
        "Ġ8",
        "4"
      ],
      [
        "Ġ9",
        "0"
      ],
      [
        "Ġ9",
        "5"
      ],
      [
        "le",
        "y"
      ],
      [
        "uil",
        "d"
      ],
      [
        "4",
        "5"
      ],
      [
        "8",
        "3"
      ],
      [
        "l",
        "er"
      ],
      [
        "r",
        "an"
      ],
      [
        "v",
        "al"
      ],
      [
        "Ġ",
        "ro"
      ],
      [
        "Ġl",
        "in"
      ],
      [
        "Ġc",
        "o"
      ],
      [
        "an",
        "i"
      ],
      [
        "er",
        "r"
      ],
      [
        "row",
        "ser"
      ],
      [
        "ont",
        "end"
      ],
      [
        "2",
        "6"
      ],
      [
        "a",
        "h"
      ],
      [
        "b",
        "ackend"
      ],
      [
        "d",
        "ate"
      ],
      [
        "g",
        "ine"
      ],
      [
        "i",
        "b"
      ],
      [
        "k",
        "ing"
      ],
      [
        "m",
        "inor"
      ],
      [
        "n",
        "et"
      ],
      [
        "ã",
        "ĥ"
      ],
      [
        "Ġ",
        "e"
      ],
      [
        "lo",
        "y"
      ],
      [
        "Ġt",
        "he"
      ],
      [
        "es",
        "lin"
      ],
      [
        "ug",
        "in"
      ],
      [
        "Ġ8",
        "5"
      ],
      [
        "Ġj",
        "woc"
      ],
      [
        "Ġa",
        "l"
      ],
      [
        "Ġa",
        "ff"
      ],
      [
        "Ġ10",
        "7"
      ],
      [
        "Ġ11",
        "7"
      ],
      [
        "Ġen",
        "gine"
      ],
      [
        "Ġ13",
        "9"
      ],
      [
        "Ġ14",
        "1"
      ],
      [
        "Ġr",
        "ust"
      ],
      [
        "Ġ15",
        "7"
      ],
      [
        "Ġ18",
        "9"
      ],
      [
        "ch",
        "i"
      ],
      [
        "Ġcomp",
        "onent"
      ],
      [
        "yn",
        "c"
      ],
      [
        "eslin",
        "t"
      ],
      [
        "Ġaff",
        "ect"
      ],
      [
        "Ġengine",
        "ering"
      ],
      [
        "6",
        "2"
      ],
      [
        "7",
        "2"
      ],
      [
        "e",
        "ction"
      ],
      [
        "m",
        "i"
      ],
      [
        "u",
        "c"
      ],
      [
        "u",
        "x"
      ],
      [
        "Ġ",
        "0"
      ],
      [
        "Ġ",
        "ed"
      ],
      [
        "pend",
        "ing"
      ],
      [
        "Ġp",
        "r"
      ],
      [
        "Ġp",
        "ack"
      ],
      [
        "il",
        "ity"
      ],
      [
        "al",
        "e"
      ],
      [
        "ex",
        "t"
      ],
      [
        "Ġ27",
        "8"
      ],
      [
        "eb",
        "site"
      ],
      [
        "ĠðŁĲ",
        "Ľ"
      ],
      [
        "3",
        "3"
      ],
      [
        "a",
        "c"
      ],
      [
        "l",
        "a"
      ],
      [
        "n",
        "g"
      ],
      [
        "u",
        "k"
      ],
      [
        "Ġ",
        "eas"
      ],
      [
        "Ġh",
        "ack"
      ],
      [
        "Ġb",
        "rowser"
      ],
      [
        "Ġ8",
        "9"
      ],
      [
        "Ġ22",
        "0"
      ],
      [
        "Ġin",
        "te"
      ],
      [
        "is",
        "e"
      ],
      [
        "ĠðŁ",
        "Ķ"
      ],
      [
        "up",
        "port"
      ],
      [
        "oo",
        "k"
      ],
      [
        "co",
        "de"
      ],
      [
        "pl",
        "ugin"
      ],
      [
        "Ġeas",
        "y"
      ],
      [
        "5",
        "9"
      ],
      [
        "b",
        "o"
      ],
      [
        "h",
        "a"
      ],
      [
        "i",
        "an"
      ],
      [
        "p",
        "m"
      ],
      [
        "p",
        "loy"
      ],
      [
        "t",
        "riage"
      ],
      [
        "u",
        "ri"
      ],
      [
        "Ġ",
        "["
      ],
      [
        "Ġh",
        "igh"
      ],
      [
        "lo",
        "g"
      ],
      [
        "Ġb",
        "uild"
      ],
      [
        "Ġ8",
        "8"
      ],
      [
        "Ġa",
        "r"
      ],
      [
        "Ġ10",
        "0"
      ],
      [
        "Ġ14",
        "9"
      ],
      [
        "gr",
        "ation"
      ],
      [
        "ten",
        "ance"
      ],
      [
        "Ġmain",
        "tenance"
      ],
      [
        "1",
        "9"
      ],
      [
        "2",
        "5"
      ],
      [
        "5",
        "7"
      ],
      [
        "7",
        "3"
      ],
      [
        "b",
        "ot"
      ],
      [
        "i",
        "o"
      ],
      [
        "j",
        "s"
      ],
      [
        "l",
        "am"
      ],
      [
        "m",
        "al"
      ],
      [
        "o",
        "st"
      ],
      [
        "u",
        "d"
      ],
      [
        "Ġ",
        "ì"
      ],
      [
        "Ġ",
        "err"
      ],
      [
        "Ġ",
        "pending"
      ],
      [
        "penden",
        "cies"
      ],
      [
        "Ġb",
        "ack"
      ],
      [
        "re",
        "am"
      ],
      [
        "Ġ7",
        "52"
      ],
      [
        "Ġm",
        "o"
      ],
      [
        "Ġ8",
        "0"
      ],
      [
        "Ġ9",
        "3"
      ],
      [
        "ar",
        "t"
      ],
      [
        "Ġ12",
        "6"
      ],
      [
        "Ġs",
        "upport"
      ],
      [
        "Ġr",
        "ub"
      ],
      [
        "Ġ22",
        "9"
      ],
      [
        "Ġ22",
        "78"
      ],
      [
        "Ġin",
        "ternal"
      ],
      [
        "de",
        "pendencies"
      ],
      [
        "pro",
        "ved"
      ],
      [
        "fe",
        "ature"
      ],
      [
        "Ġerr",
        "or"
      ],
      [
        "Ġrub",
        "y"
      ],
      [
        "1",
        "3"
      ],
      [
        "1",
        "5"
      ],
      [
        "5",
        "3"
      ],
      [
        "8",
        "9"
      ],
      [
        "c",
        "hangelog"
      ],
      [
        "d",
        "ue"
      ],
      [
        "d",
        "is"
      ],
      [
        "f",
        "y"
      ],
      [
        "g",
        "en"
      ],
      [
        "i",
        "z"
      ],
      [
        "m",
        "an"
      ],
      [
        "o",
        "pen"
      ],
      [
        "p",
        "on"
      ],
      [
        "q",
        "a"
      ],
      [
        "r",
        "y"
      ],
      [
        "r",
        "es"
      ],
      [
        "Ġo",
        "ver"
      ],
      [
        "Ġc",
        "hangelog"
      ],
      [
        "an",
        "n"
      ],
      [
        "Ġb",
        "ackend"
      ],
      [
        "er",
        "s"
      ],
      [
        "er",
        "t"
      ],
      [
        "Ġ9",
        "6"
      ],
      [
        "ck",
        "er"
      ],
      [
        "Ġ14",
        "8"
      ],
      [
        "Ġ15",
        "2"
      ],
      [
        "Ġ18",
        "4"
      ],
      [
        "ut",
        "ion"
      ],
      [
        "Ġre",
        "pro"
      ],
      [
        "Ġre",
        "view"
      ],
      [
        "ĠðŁ",
        "Ĵ"
      ],
      [
        "Ġ49",
        "6"
      ],
      [
        "Ġ39",
        "0"
      ],
      [
        "ol",
        "ution"
      ],
      [
        "ran",
        "ch"
      ],
      [
        "Ġlin",
        "ux"
      ],
      [
        "Ġover",
        "due"
      ],
      [
        "/",
        "@"
      ],
      [
        "6",
        "6"
      ],
      [
        "7",
        "0"
      ],
      [
        "9",
        "8"
      ],
      [
        "a",
        "w"
      ],
      [
        "b",
        "ack"
      ],
      [
        "d",
        "k"
      ],
      [
        "d",
        "et"
      ],
      [
        "g",
        "ion"
      ],
      [
        "i",
        "al"
      ],
      [
        "j",
        "an"
      ],
      [
        "p",
        "es"
      ],
      [
        "p",
        "atch"
      ],
      [
        "u",
        "u"
      ],
      [
        "v",
        "m"
      ],
      [
        "¸",
        "ı"
      ],
      [
        "ï",
        "¸ı"
      ],
      [
        "Ġ",
        "ë"
      ],
      [
        "Ġt",
        "h"
      ],
      [
        "at",
        "ed"
      ],
      [
        "at",
        "es"
      ],
      [
        "Ġ5",
        "8"
      ],
      [
        "ri",
        "st"
      ],
      [
        "Ġp",
        "re"
      ],
      [
        "Ġf",
        "ail"
      ],
      [
        "Ġ12",
        "9"
      ],
      [
        "Ġs",
        "ync"
      ],
      [
        "Ġs",
        "ection"
      ],
      [
        "Ġ13",
        "7"
      ],
      [
        "it",
        "e"
      ],
      [
        "Ġ15",
        "0"
      ],
      [
        "Ġ15",
        "8"
      ],
      [
        "Ġ22",
        "1"
      ],
      [
        "Ġre",
        "gion"
      ],
      [
        "et",
        "a"
      ],
      [
        "ty",
        "pes"
      ],
      [
        "cor",
        "d"
      ],
      [
        "Ġpack",
        "age"
      ],
      [
        "Ġinte",
        "gration"
      ],
      [
        "9",
        "6"
      ],
      [
        "e",
        "y"
      ],
      [
        "f",
        "ir"
      ],
      [
        "i",
        "a"
      ],
      [
        "l",
        "ic"
      ],
      [
        "n",
        "or"
      ],
      [
        "n",
        "ew"
      ],
      [
        "r",
        "u"
      ],
      [
        "t",
        "riaged"
      ],
      [
        "w",
        "ith"
      ],
      [
        "Ġ",
        "ê"
      ],
      [
        "Ġt",
        "riaged"
      ],
      [
        "at",
        "form"
      ],
      [
        "Ġb",
        "ranch"
      ],
      [
        "in",
        "s"
      ],
      [
        "Ġm",
        "inor"
      ],
      [
        "Ġ10",
        "2"
      ],
      [
        "ar",
        "k"
      ],
      [
        "Ġs",
        "h"
      ],
      [
        "Ġ13",
        "0"
      ],
      [
        "Ġ14",
        "2"
      ],
      [
        "am",
        "e"
      ],
      [
        "Ġre",
        "ad"
      ],
      [
        "ap",
        "i"
      ],
      [
        "ur",
        "l"
      ],
      [
        "Ġ39",
        "5"
      ],
      [
        "sk",
        "i"
      ],
      [
        "Ġap",
        "proved"
      ],
      [
        "act",
        "or"
      ],
      [
        "Ġfr",
        "ontend"
      ],
      [
        "dis",
        "cord"
      ],
      [
        "pon",
        "se"
      ],
      [
        "0",
        "2"
      ],
      [
        "5",
        "4"
      ],
      [
        "9",
        "5"
      ],
      [
        "b",
        "er"
      ],
      [
        "c",
        "s"
      ],
      [
        "c",
        "on"
      ],
      [
        "c",
        "ce"
      ],
      [
        "d",
        "s"
      ],
      [
        "d",
        "en"
      ],
      [
        "i",
        "f"
      ],
      [
        "p",
        "act"
      ],
      [
        "s",
        "ub"
      ],
      [
        "w",
        "or"
      ],
      [
        "w",
        "ebsite"
      ],
      [
        "y",
        "s"
      ],
      [
        "ä",
        "¸"
      ],
      [
        "Ġ",
        "("
      ],
      [
        "as",
        "s"
      ],
      [
        "ab",
        "ot"
      ],
      [
        "Ġo",
        "s"
      ],
      [
        "Ġc",
        "ore"
      ],
      [
        "Ġde",
        "pend"
      ],
      [
        "in",
        "t"
      ],
      [
        "Ġ6",
        "3"
      ],
      [
        "Ġm",
        "v"
      ],
      [
        "Ġm",
        "em"
      ],
      [
        "Ġ8",
        "2"
      ],
      [
        "Ġst",
        "ale"
      ],
      [
        "or",
        "elease"
      ],
      [
        "Ġ11",
        "3"
      ],
      [
        "Ġf",
        "c"
      ],
      [
        "Ġf",
        "l"
      ],
      [
        "Ġ12",
        "1"
      ],
      [
        "Ġ13",
        "76"
      ],
      [
        "Ġn",
        "ot"
      ],
      [
        "Ġ14",
        "4"
      ],
      [
        "Ġ14",
        "6"
      ],
      [
        "Ġ15",
        "5"
      ],
      [
        "Ġ15",
        "6"
      ],
      [
        "Ġ22",
        "7"
      ],
      [
        "Ġ28",
        "7"
      ],
      [
        "Ġ16",
        "03"
      ],
      [
        "Ġ19",
        "4"
      ],
      [
        "Ġ24",
        "5"
      ],
      [
        "Ġ24",
        "44"
      ],
      [
        "Ġ21",
        "5"
      ],
      [
        "Ġ23",
        "8"
      ],
      [
        "Ġin",
        "f"
      ],
      [
        "Ġ31",
        "4"
      ],
      [
        "Ġ33",
        "1"
      ],
      [
        "Ġfe",
        "at"
      ],
      [
        "Ġ26",
        "0"
      ],
      [
        "Ġaut",
        "orelease"
      ],
      [
        "ap",
        "prove"
      ],
      [
        "co",
        "re"
      ],
      [
        "Ġ46",
        "4"
      ],
      [
        "Ġ56",
        "0"
      ],
      [
        "elo",
        "p"
      ],
      [
        "di",
        "o"
      ],
      [
        "ĠðŁĲ",
        "ŀ"
      ],
      [
        "Ġim",
        "pact"
      ],
      [
        "Ġblo",
        "ck"
      ],
      [
        "Ġal",
        "ex"
      ],
      [
        "uri",
        "ty"
      ],
      [
        "Ġrepro",
        "du"
      ],
      [
        "Ġdepend",
        "abot"
      ],
      [
        "7",
        "7"
      ],
      [
        "a",
        "o"
      ],
      [
        "b",
        "y"
      ],
      [
        "c",
        "al"
      ],
      [
        "f",
        "r"
      ],
      [
        "f",
        "lo"
      ],
      [
        "f",
        "actor"
      ],
      [
        "g",
        "est"
      ],
      [
        "j",
        "or"
      ],
      [
        "m",
        "e"
      ],
      [
        "m",
        "is"
      ],
      [
        "o",
        "g"
      ],
      [
        "o",
        "ur"
      ],
      [
        "p",
        "ar"
      ],
      [
        "q",
        "u"
      ],
      [
        "r",
        "un"
      ],
      [
        "r",
        "elease"
      ],
      [
        "s",
        "g"
      ],
      [
        "t",
        "oo"
      ],
      [
        "y",
        "an"
      ],
      [
        "z",
        "av"
      ],
      [
        "Ġ",
        "."
      ],
      [
        "si",
        "ng"
      ],
      [
        "Ġun",
        "triaged"
      ],
      [
        "el",
        "li"
      ],
      [
        "Ġc",
        "i"
      ],
      [
        "Ġc",
        "on"
      ],
      [
        "Ġc",
        "ust"
      ],
      [
        "Ġt",
        "ro"
      ],
      [
        "Ġb",
        "rea"
      ],
      [
        "Ġ5",
        "01"
      ],
      [
        "ug",
        "gest"
      ],
      [
        "er",
        "ra"
      ],
      [
        "ri",
        "d"
      ],
      [
        "Ġj",
        "elli"
      ],
      [
        "han",
        "ge"
      ],
      [
        "Ġs",
        "et"
      ],
      [
        "Ġs",
        "uggest"
      ],
      [
        "Ġ13",
        "1"
      ],
      [
        "Ġ13",
        "37"
      ],
      [
        "om",
        "er"
      ],
      [
        "Ġ20",
        "4"
      ],
      [
        "Ġv",
        "er"
      ],
      [
        "is",
        "h"
      ],
      [
        "Ġk",
        "im"
      ],
      [
        "Ġ30",
        "91"
      ],
      [
        "up",
        "lic"
      ],
      [
        "Ġ44",
        "2"
      ],
      [
        "Ġma",
        "ri"
      ],
      [
        "Ġim",
        "prove"
      ],
      [
        "Ġpl",
        "atform"
      ],
      [
        "Ġ154",
        "56"
      ],
      [
        "Ġhack",
        "er"
      ],
      [
        "bo",
        "ard"
      ],
      [
        "ploy",
        "ment"
      ],
      [
        "Ġsync",
        "ed"
      ],
      [
        "new",
        "s"
      ],
      [
        "Ġread",
        "y"
      ],
      [
        "too",
        "l"
      ],
      [
        "zav",
        "eta"
      ],
      [
        "Ġcust",
        "omer"
      ],
      [
        "Ġtro",
        "jan"
      ],
      [
        "Ġbrea",
        "king"
      ],
      [
        "Ġjelli",
        "zaveta"
      ],
      [
        "Ġsuggest",
        "ion"
      ],
      [
        "6",
        "0"
      ],
      [
        "8",
        "0"
      ],
      [
        "a",
        "z"
      ],
      [
        "c",
        "ont"
      ],
      [
        "d",
        "ed"
      ],
      [
        "d",
        "le"
      ],
      [
        "g",
        "tm"
      ],
      [
        "m",
        "s"
      ],
      [
        "m",
        "ed"
      ],
      [
        "m",
        "un"
      ],
      [
        "m",
        "in"
      ],
      [
        "n",
        "er"
      ],
      [
        "o",
        "un"
      ],
      [
        "o",
        "on"
      ],
      [
        "o",
        "et"
      ],
      [
        "o",
        "ps"
      ],
      [
        "p",
        "o"
      ],
      [
        "q",
        "l"
      ],
      [
        "r",
        "am"
      ],
      [
        "s",
        "c"
      ],
      [
        "t",
        "uc"
      ],
      [
        "w",
        "er"
      ],
      [
        "y",
        "ter"
      ],
      [
        "Ġ",
        "/"
      ],
      [
        "un",
        "g"
      ],
      [
        "en",
        "s"
      ],
      [
        "pen",
        "gu"
      ],
      [
        "Ġl",
        "gtm"
      ],
      [
        "ab",
        "ility"
      ],
      [
        "Ġo",
        "n"
      ],
      [
        "Ġt",
        "erra"
      ],
      [
        "es",
        "k"
      ],
      [
        "st",
        "u"
      ],
      [
        "in",
        "dow"
      ],
      [
        "Ġ5",
        "08"
      ],
      [
        "Ġ6",
        "8"
      ],
      [
        "re",
        "ct"
      ],
      [
        "Ġ7",
        "2"
      ],
      [
        "Ġm",
        "in"
      ],
      [
        "Ġp",
        "k"
      ],
      [
        "Ġ8",
        "3"
      ],
      [
        "Ġ8",
        "05"
      ],
      [
        "Ġ8",
        "23"
      ],
      [
        "Ġj",
        "up"
      ],
      [
        "Ġa",
        "w"
      ],
      [
        "Ġ9",
        "2"
      ],
      [
        "Ġ9",
        "4"
      ],
      [
        "Ġ9",
        "7"
      ],
      [
        "ar",
        "chi"
      ],
      [
        "ro",
        "id"
      ],
      [
        "Ġ12",
        "7"
      ],
      [
        "Ġ13",
        "2"
      ],
      [
        "Ġ13",
        "6"
      ],
      [
        "Ġ14",
        "3"
      ],
      [
        "Ġr",
        "ul"
      ],
      [
        "Ġ15",
        "9"
      ],
      [
        "Ġ22",
        "2"
      ],
      [
        "om",
        "e"
      ],
      [
        "Ġ28",
        "4"
      ],
      [
        "Ġ28",
        "79"
      ],
      [
        "Ġ18",
        "5"
      ],
      [
        "Ġ18",
        "8"
      ],
      [
        "Ġ19",
        "1"
      ],
      [
        "Ġ24",
        "8"
      ],
      [
        "Ġ21",
        "2"
      ],
      [
        "Ġ21",
        "3"
      ],
      [
        "Ġ23",
        "1"
      ],
      [
        "et",
        "s"
      ],
      [
        "Ġin",
        "v"
      ],
      [
        "Ġ33",
        "0"
      ],
      [
        "ir",
        "a"
      ],
      [
        "Ġ29",
        "9"
      ],
      [
        "Ġ32",
        "51"
      ],
      [
        "Ġ41",
        "9"
      ],
      [
        "78",
        "1"
      ],
      [
        "52",
        "2"
      ],
      [
        "Ġ42",
        "3"
      ],
      [
        "li",
        "ent"
      ],
      [
        "ain",
        "er"
      ],
      [
        "ard",
        "ed"
      ],
      [
        "09",
        "1"
      ],
      [
        "Ġsi",
        "tuc"
      ],
      [
        "Ġand",
        "roid"
      ],
      [
        "sk",
        "y"
      ],
      [
        "Ġtest",
        "ing"
      ],
      [
        "sh",
        "arded"
      ],
      [
        "Ġfix",
        "ed"
      ],
      [
        "Ġup",
        "date"
      ],
      [
        "val",
        "id"
      ],
      [
        "ani",
        "el"
      ],
      [
        "Ġaffect",
        "s"
      ],
      [
        "Ġaffect",
        "ed"
      ],
      [
        "ac",
        "am"
      ],
      [
        "Ġfail",
        "ed"
      ],
      [
        "types",
        "cript"
      ],
      [
        "fir",
        "med"
      ],
      [
        "Ġmem",
        "sharded"
      ],
      [
        "mun",
        "ity"
      ],
      [
        "pengu",
        "in"
      ],
      [
        "Ġterra",
        "form"
      ],
      [
        "Ġjup",
        "yter"
      ],
      [
        "Ġsituc",
        "han"
      ],
      [
        "8",
        "2"
      ],
      [
        "a",
        "i"
      ],
      [
        "a",
        "re"
      ],
      [
        "a",
        "is"
      ],
      [
        "b",
        "r"
      ],
      [
        "b",
        "s"
      ],
      [
        "c",
        "l"
      ],
      [
        "c",
        "as"
      ],
      [
        "c",
        "ess"
      ],
      [
        "e",
        "p"
      ],
      [
        "g",
        "it"
      ],
      [
        "k",
        "ip"
      ],
      [
        "l",
        "u"
      ],
      [
        "l",
        "vm"
      ],
      [
        "m",
        "edium"
      ],
      [
        "n",
        "i"
      ],
      [
        "n",
        "s"
      ],
      [
        "p",
        "an"
      ],
      [
        "w",
        "s"
      ],
      [
        "¬",
        "¬"
      ],
      [
        "¬",
        "¸"
      ],
      [
        "ç",
        "¬¬"
      ],
      [
        "ë",
        "¡"
      ],
      [
        "Ġ",
        "ab"
      ],
      [
        "Ġ",
        "us"
      ],
      [
        "si",
        "fy"
      ],
      [
        "pen",
        "sify"
      ],
      [
        "Ġl",
        "lvm"
      ],
      [
        "Ġc",
        "ri"
      ],
      [
        "Ġc",
        "hange"
      ],
      [
        "Ġd",
        "is"
      ],
      [
        "Ġd",
        "uplic"
      ],
      [
        "Ġd",
        "aniel"
      ],
      [
        "Ġ4",
        "39"
      ],
      [
        "Ġ6",
        "51"
      ],
      [
        "ri",
        "pe"
      ],
      [
        "Ġm",
        "e"
      ],
      [
        "Ġm",
        "an"
      ],
      [
        "Ġp",
        "atch"
      ],
      [
        "Ġ8",
        "34"
      ],
      [
        "Ġst",
        "ream"
      ],
      [
        "Ġst",
        "ripe"
      ],
      [
        "ent",
        "ial"
      ],
      [
        "il",
        "l"
      ],
      [
        "il",
        "ler"
      ],
      [
        "Ġ11",
        "4"
      ],
      [
        "ar",
        "m"
      ],
      [
        "Ġ12",
        "3"
      ],
      [
        "Ġ12",
        "11"
      ],
      [
        "Ġs",
        "kip"
      ],
      [
        "al",
        "d"
      ],
      [
        "al",
        "l"
      ],
      [
        "Ġlo",
        "w"
      ],
      [
        "Ġ28",
        "5"
      ],
      [
        "Ġ28",
        "6"
      ],
      [
        "Ġ20",
        "5"
      ],
      [
        "Ġ17",
        "4"
      ],
      [
        "am",
        "ani"
      ],
      [
        "ut",
        "e"
      ],
      [
        "Ġ21",
        "07"
      ],
      [
        "do",
        "cs"
      ],
      [
        "Ġin",
        "ter"
      ],
      [
        "Ġ33",
        "2"
      ],
      [
        "Ġ26",
        "7"
      ],
      [
        "Ġ27",
        "5"
      ],
      [
        "ic",
        "al"
      ],
      [
        "Ġ29",
        "8"
      ],
      [
        "end",
        "po"
      ],
      [
        "ag",
        "es"
      ],
      [
        "Ġcom",
        "pl"
      ],
      [
        "Ġ64",
        "1"
      ],
      [
        "ne",
        "ed"
      ],
      [
        "Ġres",
        "olution"
      ],
      [
        "Ġâ",
        "ľ"
      ],
      [
        "off",
        "i"
      ],
      [
        "val",
        "ley"
      ],
      [
        "Ġed",
        "it"
      ],
      [
        "nor",
        "mal"
      ],
      [
        "mis",
        "sion"
      ],
      [
        "Ġaw",
        "aiting"
      ],
      [
        "ç¬¬",
        "ä¸"
      ],
      [
        "endpo",
        "int"
      ],
      [
        ")",
        "."
      ],
      [
        "9",
        "0"
      ],
      [
        "]",
        "."
      ],
      [
        "a",
        "f"
      ],
      [
        "b",
        "le"
      ],
      [
        "b",
        "ook"
      ],
      [
        "e",
        "q"
      ],
      [
        "f",
        "a"
      ],
      [
        "f",
        "t"
      ],
      [
        "g",
        "a"
      ],
      [
        "g",
        "y"
      ],
      [
        "h",
        "k"
      ],
      [
        "i",
        "v"
      ],
      [
        "k",
        "p"
      ],
      [
        "k",
        "ind"
      ],
      [
        "m",
        "ain"
      ],
      [
        "n",
        "a"
      ],
      [
        "n",
        "ext"
      ],
      [
        "n",
        "pm"
      ],
      [
        "r",
        "el"
      ],
      [
        "t",
        "h"
      ],
      [
        "t",
        "ical"
      ],
      [
        "x",
        "s"
      ],
      [
        "ª",
        "ãĥ"
      ],
      [
        "Ġ",
        "*"
      ],
      [
        "Ġi",
        "os"
      ],
      [
        "un",
        "it"
      ],
      [
        "en",
        "hancement"
      ],
      [
        "Ġh",
        "ari"
      ],
      [
        "ab",
        "ri"
      ],
      [
        "Ġt",
        "ask"
      ],
      [
        "Ġde",
        "ployment"
      ],
      [
        "an",
        "e"
      ],
      [
        "an",
        "kp"
      ],
      [
        "Ġb",
        "l"
      ],
      [
        "Ġb",
        "ar"
      ],
      [
        "Ġb",
        "ankp"
      ],
      [
        "in",
        "it"
      ],
      [
        "Ġ5",
        "37"
      ],
      [
        "Ġ6",
        "05"
      ],
      [
        "Ġ6",
        "27"
      ],
      [
        "er",
        "g"
      ],
      [
        "re",
        "b"
      ],
      [
        "re",
        "t"
      ],
      [
        "Ġm",
        "erge"
      ],
      [
        "atu",
        "res"
      ],
      [
        "Ġp",
        "ar"
      ],
      [
        "Ġp",
        "eq"
      ],
      [
        "Ġ8",
        "79"
      ],
      [
        "Ġj",
        "o"
      ],
      [
        "Ġ9",
        "28"
      ],
      [
        "Ġ10",
        "4"
      ],
      [
        "Ġ11",
        "0"
      ],
      [
        "Ġ11",
        "67"
      ],
      [
        "Ġ12",
        "4"
      ],
      [
        "ing",
        "s"
      ],
      [
        "Ġs",
        "ql"
      ],
      [
        "Ġ13",
        "5"
      ],
      [
        "Ġ13",
        "78"
      ],
      [
        "Ġn",
        "pm"
      ],
      [
        "Ġ14",
        "5"
      ],
      [
        "al",
        "a"
      ],
      [
        "Ġ15",
        "1"
      ],
      [
        "Ġg",
        "abri"
      ],
      [
        "Ġ28",
        "2"
      ],
      [
        "Ġ16",
        "2"
      ],
      [
        "Ġ16",
        "8"
      ],
      [
        "Ġ16",
        "9"
      ],
      [
        "Ġ16",
        "43"
      ],
      [
        "Ġ20",
        "0"
      ],
      [
        "Ġ20",
        "2"
      ],
      [
        "Ġ18",
        "0"
      ],
      [
        "Ġ18",
        "6"
      ],
      [
        "Ġ18",
        "7"
      ],
      [
        "Ġ17",
        "1"
      ],
      [
        "Ġ17",
        "7"
      ],
      [
        "Ġ17",
        "8"
      ],
      [
        "Ġ19",
        "3"
      ],
      [
        "Ġ24",
        "6"
      ],
      [
        "Ġw",
        "indow"
      ],
      [
        "Ġ21",
        "1"
      ],
      [
        "Ġ21",
        "6"
      ],
      [
        "ch",
        "b"
      ],
      [
        "ch",
        "e"
      ],
      [
        "ch",
        "in"
      ],
      [
        "Ġ23",
        "4"
      ],
      [
        "que",
        "ry"
      ],
      [
        "ex",
        "port"
      ],
      [
        "Ġin",
        "cor"
      ],
      [
        "Ġv",
        "i"
      ],
      [
        "Ġk",
        "ey"
      ],
      [
        "Ġ35",
        "3"
      ],
      [
        "Ġ35",
        "4"
      ],
      [
        "Ġfe",
        "atures"
      ],
      [
        "Ġ30",
        "8"
      ],
      [
        "ĠðŁ",
        "Į"
      ],
      [
        "Ġaut",
        "oc"
      ],
      [
        "Ġ38",
        "0"
      ],
      [
        "Ġ38",
        "1"
      ],
      [
        "us",
        "o"
      ],
      [
        "Ġ37",
        "0"
      ],
      [
        "Ġpro",
        "du"
      ],
      [
        "28",
        "6"
      ],
      [
        "Ġ108",
        "091"
      ],
      [
        "Ġ79",
        "8"
      ],
      [
        "Ġ61",
        "0"
      ],
      [
        "Ġand",
        "re"
      ],
      [
        "Ġ105",
        "87"
      ],
      [
        "Ġno",
        "ise"
      ],
      [
        "Ġdev",
        "elop"
      ],
      [
        "ser",
        "ver"
      ],
      [
        "Ġblo",
        "g"
      ],
      [
        "ne",
        "y"
      ],
      [
        "Ġan",
        "s"
      ],
      [
        "Ġ170",
        "781"
      ],
      [
        "Ġco",
        "de"
      ],
      [
        "Ġback",
        "log"
      ],
      [
        "Ġmv",
        "p"
      ],
      [
        "Ġblock",
        "ing"
      ],
      [
        "fr",
        "ontend"
      ],
      [
        "Ġimprove",
        "ment"
      ],
      [
        "cont",
        "ainer"
      ],
      [
        "archi",
        "ved"
      ],
      [
        "unit",
        "ed"
      ],
      [
        "Ġbankp",
        "ay"
      ],
      [
        "Ġgabri",
        "el"
      ],
      [
        "Ġincor",
        "rect"
      ],
      [
        "Ġautoc",
        "ut"
      ],
      [
        "7",
        "5"
      ],
      [
        "9",
        "2"
      ],
      [
        "9",
        "3"
      ],
      [
        "a",
        "ev"
      ],
      [
        "c",
        "d"
      ],
      [
        "d",
        "g"
      ],
      [
        "d",
        "an"
      ],
      [
        "d",
        "or"
      ],
      [
        "e",
        "a"
      ],
      [
        "e",
        "es"
      ],
      [
        "e",
        "et"
      ],
      [
        "f",
        "est"
      ],
      [
        "f",
        "la"
      ],
      [
        "g",
        "an"
      ],
      [
        "h",
        "ald"
      ],
      [
        "i",
        "ve"
      ],
      [
        "j",
        "i"
      ],
      [
        "j",
        "u"
      ],
      [
        "m",
        "and"
      ],
      [
        "n",
        "ot"
      ],
      [
        "n",
        "igh"
      ],
      [
        "o",
        "w"
      ],
      [
        "o",
        "z"
      ],
      [
        "o",
        "us"
      ],
      [
        "s",
        "y"
      ],
      [
        "t",
        "t"
      ],
      [
        "t",
        "ask"
      ],
      [
        "v",
        "tt"
      ],
      [
        "y",
        "ance"
      ],
      [
        "Ġ",
        "ri"
      ],
      [
        "Ġ",
        "ur"
      ],
      [
        "Ġ",
        "ui"
      ],
      [
        "as",
        "il"
      ],
      [
        "un",
        "t"
      ],
      [
        "Ġun",
        "offi"
      ],
      [
        "el",
        "ect"
      ],
      [
        "ab",
        "ian"
      ],
      [
        "Ġc",
        "he"
      ],
      [
        "ci",
        "al"
      ],
      [
        "at",
        "ib"
      ],
      [
        "an",
        "s"
      ],
      [
        "Ġb",
        "ec"
      ],
      [
        "Ġ5",
        "52"
      ],
      [
        "Ġ5",
        "07"
      ],
      [
        "Ġ6",
        "94"
      ],
      [
        "re",
        "port"
      ],
      [
        "Ġ7",
        "31"
      ],
      [
        "Ġm",
        "ang"
      ],
      [
        "Ġm",
        "dev"
      ],
      [
        "Ġp",
        "ot"
      ],
      [
        "Ġst",
        "and"
      ],
      [
        "Ġst",
        "ark"
      ],
      [
        "Ġa",
        "im"
      ],
      [
        "Ġa",
        "cce"
      ],
      [
        "Ġ9",
        "12"
      ],
      [
        "Ġ10",
        "28"
      ],
      [
        "or",
        "y"
      ],
      [
        "il",
        "e"
      ],
      [
        "il",
        "ah"
      ],
      [
        "Ġ11",
        "42"
      ],
      [
        "ar",
        "a"
      ],
      [
        "Ġf",
        "abian"
      ],
      [
        "Ġ12",
        "2"
      ],
      [
        "Ġs",
        "o"
      ],
      [
        "Ġs",
        "w"
      ],
      [
        "Ġs",
        "ub"
      ],
      [
        "Ġs",
        "ec"
      ],
      [
        "Ġs",
        "uc"
      ],
      [
        "Ġs",
        "ys"
      ],
      [
        "Ġ13",
        "50"
      ],
      [
        "it",
        "ter"
      ],
      [
        "Ġn",
        "ik"
      ],
      [
        "Ġn",
        "itter"
      ],
      [
        "Ġ14",
        "01"
      ],
      [
        "Ġr",
        "yt"
      ],
      [
        "Ġ15",
        "35"
      ],
      [
        "Ġ22",
        "6"
      ],
      [
        "Ġg",
        "ame"
      ],
      [
        "om",
        "i"
      ],
      [
        "Ġ28",
        "1"
      ],
      [
        "Ġ16",
        "1"
      ],
      [
        "Ġ16",
        "6"
      ],
      [
        "Ġ20",
        "64"
      ],
      [
        "Ġ17",
        "07"
      ],
      [
        "Ġ24",
        "00"
      ],
      [
        "Ġ24",
        "13"
      ],
      [
        "Ġw",
        "ont"
      ],
      [
        "Ġw",
        "ebsite"
      ],
      [
        "Ġ23",
        "5"
      ],
      [
        "ul",
        "ar"
      ],
      [
        "et",
        "t"
      ],
      [
        "Ġne",
        "hald"
      ],
      [
        "Ġv",
        "asil"
      ],
      [
        "Ġ33",
        "9"
      ],
      [
        "Ġ35",
        "7"
      ],
      [
        "Ġ25",
        "9"
      ],
      [
        "Ġ30",
        "1"
      ],
      [
        "Ġ30",
        "96"
      ],
      [
        "and",
        "id"
      ],
      [
        "51",
        "7"
      ],
      [
        "Ġex",
        "t"
      ],
      [
        "co",
        "s"
      ],
      [
        "te",
        "am"
      ],
      [
        "Ġ55",
        "7"
      ],
      [
        "bug",
        "g"
      ],
      [
        "em",
        "y"
      ],
      [
        "Ġ47",
        "71"
      ],
      [
        "ve",
        "z"
      ],
      [
        "Ġad",
        "s"
      ],
      [
        "Ġ57",
        "5"
      ],
      [
        "Ġautom",
        "ated"
      ],
      [
        "38",
        "4"
      ],
      [
        "Ġcomp",
        "atib"
      ],
      [
        "di",
        "k"
      ],
      [
        "eb",
        "ook"
      ],
      [
        "Ġz",
        "ees"
      ],
      [
        "Ġma",
        "jor"
      ],
      [
        "Ġma",
        "cos"
      ],
      [
        "Ġap",
        "i"
      ],
      [
        "ang",
        "ular"
      ],
      [
        "to",
        "p"
      ],
      [
        "to",
        "ber"
      ],
      [
        "Ġ75",
        "3"
      ],
      [
        "Ġ99",
        "0"
      ],
      [
        "fix",
        "ed"
      ],
      [
        "no",
        "yance"
      ],
      [
        "Ġx",
        "au"
      ],
      [
        "Ġx",
        "ia"
      ],
      [
        "Ġy",
        "es"
      ],
      [
        "of",
        "vtt"
      ],
      [
        "ek",
        "oet"
      ],
      [
        "Ġan",
        "noyance"
      ],
      [
        "ah",
        "u"
      ],
      [
        "mi",
        "io"
      ],
      [
        "Ġhack",
        "tober"
      ],
      [
        "code",
        "gen"
      ],
      [
        "Ġbuild",
        "er"
      ],
      [
        "res",
        "ponse"
      ],
      [
        "sub",
        "mission"
      ],
      [
        "wor",
        "k"
      ],
      [
        "Ġnot",
        "ebook"
      ],
      [
        "Ġinf",
        "o"
      ],
      [
        "Ġset",
        "up"
      ],
      [
        "esk",
        "top"
      ],
      [
        "Ġpk",
        "g"
      ],
      [
        "acam",
        "pan"
      ],
      [
        "Ġab",
        "normal"
      ],
      [
        "Ġduplic",
        "ate"
      ],
      [
        "iller",
        "og"
      ],
      [
        "amani",
        "a"
      ],
      [
        "Ġcompl",
        "et"
      ],
      [
        "gy",
        "u"
      ],
      [
        "Ġprodu",
        "ct"
      ],
      [
        "Ġans",
        "wer"
      ],
      [
        "gan",
        "is"
      ],
      [
        "nigh",
        "t"
      ],
      [
        "Ġunoffi",
        "cial"
      ],
      [
        "Ġbec",
        "pl"
      ],
      [
        "Ġ731",
        "7"
      ],
      [
        "Ġmang",
        "ofvtt"
      ],
      [
        "Ġmdev",
        "aev"
      ],
      [
        "Ġpot",
        "ential"
      ],
      [
        "Ġstark",
        "illerog"
      ],
      [
        "Ġacce",
        "pt"
      ],
      [
        "ilah",
        "ti"
      ],
      [
        "Ġfabian",
        "acampan"
      ],
      [
        "Ġsec",
        "urity"
      ],
      [
        "Ġsuc",
        "cess"
      ],
      [
        "Ġsys",
        "si"
      ],
      [
        "Ġryt",
        "ilahti"
      ],
      [
        "Ġ1535",
        "3"
      ],
      [
        "Ġwont",
        "fix"
      ],
      [
        "Ġnehald",
        "amania"
      ],
      [
        "Ġcompatib",
        "ility"
      ],
      [
        "Ġzees",
        "han"
      ],
      [
        "Ġxau",
        "dio"
      ],
      [
        "Ġxia",
        "omi"
      ],
      [
        "ekoet",
        "ter"
      ],
      [
        "Ġhacktober",
        "fest"
      ],
      [
        "response",
        "ops"
      ],
      [
        "Ġfabianacampan",
        "ari"
      ],
      [
        "1",
        "0"
      ],
      [
        "2",
        "06"
      ],
      [
        "4",
        "6"
      ],
      [
        "7",
        "4"
      ],
      [
        "8",
        "4"
      ],
      [
        "a",
        "a"
      ],
      [
        "a",
        "j"
      ],
      [
        "b",
        "ul"
      ],
      [
        "b",
        "dor"
      ],
      [
        "e",
        "z"
      ],
      [
        "e",
        "ek"
      ],
      [
        "g",
        "re"
      ],
      [
        "g",
        "ds"
      ],
      [
        "h",
        "t"
      ],
      [
        "h",
        "av"
      ],
      [
        "h",
        "am"
      ],
      [
        "h",
        "di"
      ],
      [
        "h",
        "ome"
      ],
      [
        "i",
        "i"
      ],
      [
        "j",
        "dk"
      ],
      [
        "k",
        "en"
      ],
      [
        "k",
        "ar"
      ],
      [
        "l",
        "l"
      ],
      [
        "l",
        "r"
      ],
      [
        "m",
        "y"
      ],
      [
        "m",
        "on"
      ],
      [
        "m",
        "ul"
      ],
      [
        "n",
        "as"
      ],
      [
        "p",
        "y"
      ],
      [
        "p",
        "li"
      ],
      [
        "r",
        "at"
      ],
      [
        "r",
        "ack"
      ],
      [
        "r",
        "ay"
      ],
      [
        "r",
        "ra"
      ],
      [
        "s",
        "u"
      ],
      [
        "s",
        "v"
      ],
      [
        "s",
        "ci"
      ],
      [
        "s",
        "board"
      ],
      [
        "t",
        "ak"
      ],
      [
        "u",
        "f"
      ],
      [
        "u",
        "ure"
      ],
      [
        "y",
        "k"
      ],
      [
        "¢",
        "ĳ"
      ],
      [
        "§",
        "Ĩ"
      ],
      [
        "ª",
        "©"
      ],
      [
        "«",
        "ł"
      ],
      [
        "¸",
        "°"
      ],
      [
        "â",
        "Ģ"
      ],
      [
        "ç",
        "«ł"
      ],
      [
        "è",
        "§Ĩ"
      ],
      [
        "é",
        "¢ĳ"
      ],
      [
        "Ġ",
        "#"
      ],
      [
        "Ġ",
        "í"
      ],
      [
        "Ġ",
        "es"
      ],
      [
        "Ġ",
        "ash"
      ],
      [
        "Ģ",
        "ç«ł"
      ],
      [
        "ļ",
        "Ļ"
      ],
      [
        "Ġi",
        "gn"
      ],
      [
        "as",
        "z"
      ],
      [
        "as",
        "ad"
      ],
      [
        "as",
        "ter"
      ],
      [
        "as",
        "ync"
      ],
      [
        "ed",
        "es"
      ],
      [
        "sign",
        "off"
      ],
      [
        "Ġl",
        "and"
      ],
      [
        "Ġl",
        "ev"
      ],
      [
        "el",
        "d"
      ],
      [
        "ab",
        "c"
      ],
      [
        "Ġo",
        "w"
      ],
      [
        "Ġc",
        "el"
      ],
      [
        "Ġc",
        "at"
      ],
      [
        "es",
        "sion"
      ],
      [
        "Ġd",
        "o"
      ],
      [
        "Ġd",
        "ri"
      ],
      [
        "Ġd",
        "co"
      ],
      [
        "Ġd",
        "ns"
      ],
      [
        "Ġde",
        "p"
      ],
      [
        "Ġde",
        "si"
      ],
      [
        "at",
        "g"
      ],
      [
        "Ġ4",
        "00"
      ],
      [
        "Ġ4",
        "52"
      ],
      [
        "Ġ4",
        "51"
      ],
      [
        "Ġ4",
        "32"
      ],
      [
        "st",
        "em"
      ],
      [
        "st",
        "ream"
      ],
      [
        "st",
        "all"
      ],
      [
        "Ġb",
        "of"
      ],
      [
        "Ġb",
        "oun"
      ],
      [
        "Ġ5",
        "00"
      ],
      [
        "Ġ5",
        "11"
      ],
      [
        "Ġ5",
        "04"
      ],
      [
        "Ġ5",
[...]
